#include "magic_wand_model_data.h"

// We need to keep the data array aligned on some architectures.
#ifdef __has_attribute
#define HAVE_ATTRIBUTE(x) __has_attribute(x)
#else
#define HAVE_ATTRIBUTE(x) 0
#endif
#if HAVE_ATTRIBUTE(aligned) || (defined(__GNUC__) && !defined(__clang__))
#define DATA_ALIGN_ATTRIBUTE __attribute__((aligned(4)))
#else
#define DATA_ALIGN_ATTRIBUTE
#endif

const unsigned char g_magic_wand_model_data[] DATA_ALIGN_ATTRIBUTE = {
  // Paste the data of the char array in `src/model.cc` here
  0x1c, 0x00, 0x00, 0x00, 0x54, 0x46, 0x4c, 0x33, 0x14, 0x00, 0x20, 0x00,
  0x04, 0x00, 0x08, 0x00, 0x0c, 0x00, 0x10, 0x00, 0x14, 0x00, 0x00, 0x00,
  0x18, 0x00, 0x1c, 0x00, 0x14, 0x00, 0x00, 0x00, 0x03, 0x00, 0x00, 0x00,
  0x18, 0x00, 0x00, 0x00, 0x2c, 0x00, 0x00, 0x00, 0xd8, 0x00, 0x00, 0x00,
  0x2c, 0x00, 0x00, 0x00, 0x80, 0x00, 0x00, 0x00, 0x78, 0x00, 0x00, 0x00,
  0x05, 0x00, 0x00, 0x00, 0x28, 0x07, 0x00, 0x00, 0x44, 0x06, 0x00, 0x00,
  0xbc, 0x03, 0x00, 0x00, 0xf8, 0x02, 0x00, 0x00, 0xac, 0x01, 0x00, 0x00,
  0x01, 0x00, 0x00, 0x00, 0xd0, 0x00, 0x00, 0x00, 0x14, 0x00, 0x00, 0x00,
  0x98, 0x32, 0x00, 0x00, 0x94, 0x32, 0x00, 0x00, 0x8c, 0x31, 0x00, 0x00,
  0xd8, 0x30, 0x00, 0x00, 0x30, 0x30, 0x00, 0x00, 0xbc, 0x2f, 0x00, 0x00,
  0x50, 0x2f, 0x00, 0x00, 0x00, 0x13, 0x00, 0x00, 0xec, 0x11, 0x00, 0x00,
  0x10, 0x10, 0x00, 0x00, 0xb4, 0x07, 0x00, 0x00, 0x6c, 0x32, 0x00, 0x00,
  0x68, 0x32, 0x00, 0x00, 0x64, 0x32, 0x00, 0x00, 0x60, 0x32, 0x00, 0x00,
  0x5c, 0x32, 0x00, 0x00, 0x58, 0x32, 0x00, 0x00, 0x54, 0x32, 0x00, 0x00,
  0x50, 0x32, 0x00, 0x00, 0x3c, 0x00, 0x00, 0x00, 0x00, 0x00, 0x00, 0x00,
  0x01, 0x00, 0x00, 0x00, 0x0c, 0x00, 0x00, 0x00, 0x08, 0x00, 0x0c, 0x00,
  0x04, 0x00, 0x08, 0x00, 0x08, 0x00, 0x00, 0x00, 0x08, 0x00, 0x00, 0x00,
  0x13, 0x00, 0x00, 0x00, 0x13, 0x00, 0x00, 0x00, 0x6d, 0x69, 0x6e, 0x5f,
  0x72, 0x75, 0x6e, 0x74, 0x69, 0x6d, 0x65, 0x5f, 0x76, 0x65, 0x72, 0x73,
  0x69, 0x6f, 0x6e, 0x00, 0xfa, 0xce, 0xff, 0xff, 0x04, 0x00, 0x00, 0x00,
  0x10, 0x00, 0x00, 0x00, 0x31, 0x2e, 0x35, 0x2e, 0x30, 0x00, 0x00, 0x00,
  0x00, 0x00, 0x00, 0x00, 0x00, 0x00, 0x00, 0x00, 0x0f, 0x00, 0x00, 0x00,
  0x4d, 0x4c, 0x49, 0x52, 0x20, 0x43, 0x6f, 0x6e, 0x76, 0x65, 0x72, 0x74,
  0x65, 0x64, 0x2e, 0x00, 0x00, 0x00, 0x0e, 0x00, 0x18, 0x00, 0x04, 0x00,
  0x08, 0x00, 0x0c, 0x00, 0x10, 0x00, 0x14, 0x00, 0x0e, 0x00, 0x00, 0x00,
  0x14, 0x00, 0x00, 0x00, 0x5c, 0x00, 0x00, 0x00, 0x60, 0x00, 0x00, 0x00,
  0x64, 0x00, 0x00, 0x00, 0x84, 0x00, 0x00, 0x00, 0x12, 0x00, 0x00, 0x00,
  0x58, 0x31, 0x00, 0x00, 0xe8, 0x30, 0x00, 0x00, 0x44, 0x30, 0x00, 0x00,
  0x9c, 0x2f, 0x00, 0x00, 0xf4, 0x2e, 0x00, 0x00, 0x94, 0x2e, 0x00, 0x00,
  0x2c, 0x2e, 0x00, 0x00, 0xd8, 0x11, 0x00, 0x00, 0xbc, 0x10, 0x00, 0x00,
  0xe0, 0x0e, 0x00, 0x00, 0x0c, 0x06, 0x00, 0x00, 0x28, 0x05, 0x00, 0x00,
  0xe8, 0x03, 0x00, 0x00, 0x3c, 0x03, 0x00, 0x00, 0x98, 0x02, 0x00, 0x00,
  0xd4, 0x01, 0x00, 0x00, 0x10, 0x01, 0x00, 0x00, 0x84, 0x00, 0x00, 0x00,
  0x01, 0x00, 0x00, 0x00, 0x00, 0x00, 0x00, 0x00, 0x01, 0x00, 0x00, 0x00,
  0x11, 0x00, 0x00, 0x00, 0x08, 0x00, 0x00, 0x00, 0x74, 0x05, 0x00, 0x00,
  0x94, 0x04, 0x00, 0x00, 0x78, 0x03, 0x00, 0x00, 0xbc, 0x02, 0x00, 0x00,
  0x30, 0x02, 0x00, 0x00, 0x50, 0x01, 0x00, 0x00, 0xa8, 0x00, 0x00, 0x00,
  0x10, 0x00, 0x00, 0x00, 0x04, 0x00, 0x00, 0x00, 0x6d, 0x61, 0x69, 0x6e,
  0x00, 0x00, 0x00, 0x00, 0x7a, 0xff, 0xff, 0xff, 0x00, 0x00, 0x00, 0x09,
  0x04, 0x00, 0x00, 0x00, 0x1c, 0x00, 0x00, 0x00, 0x10, 0x00, 0x00, 0x00,
  0x04, 0x00, 0x00, 0x00, 0xf6, 0xcf, 0xff, 0xff, 0x00, 0x00, 0x80, 0x3f,
  0x01, 0x00, 0x00, 0x00, 0x11, 0x00, 0x00, 0x00, 0x01, 0x00, 0x00, 0x00,
  0x10, 0x00, 0x00, 0x00, 0xa0, 0xfa, 0xff, 0xff, 0x19, 0x00, 0x00, 0x00,
  0x00, 0x00, 0x00, 0x19, 0x01, 0x00, 0x00, 0x00, 0x84, 0xcf, 0xff, 0xff,
  0x14, 0x00, 0x00, 0x00, 0x12, 0x00, 0x00, 0x00, 0x18, 0x00, 0x00, 0x00,
  0x30, 0x00, 0x00, 0x00, 0x20, 0x00, 0x00, 0x00, 0x02, 0x00, 0x00, 0x00,
  0x01, 0x00, 0x00, 0x00, 0x03, 0x00, 0x00, 0x00, 0x08, 0x00, 0x00, 0x00,
  0x49, 0x64, 0x65, 0x6e, 0x74, 0x69, 0x74, 0x79, 0x00, 0x00, 0x00, 0x00,
  0x02, 0x00, 0x00, 0x00, 0xff, 0xff, 0xff, 0xff, 0x03, 0x00, 0x00, 0x00,
  0x68, 0xd0, 0xff, 0xff, 0x00, 0x00, 0x0e, 0x00, 0x18, 0x00, 0x08, 0x00,
  0x0c, 0x00, 0x10, 0x00, 0x07, 0x00, 0x14, 0x00, 0x0e, 0x00, 0x00, 0x00,
  0x00, 0x00, 0x00, 0x08, 0x03, 0x00, 0x00, 0x00, 0x18, 0x00, 0x00, 0x00,
  0x0c, 0x00, 0x00, 0x00, 0x04, 0x00, 0x00, 0x00, 0x84, 0xcf, 0xff, 0xff,
  0x01, 0x00, 0x00, 0x00, 0x10, 0x00, 0x00, 0x00, 0x03, 0x00, 0x00, 0x00,
  0x0f, 0x00, 0x00, 0x00, 0x07, 0x00, 0x00, 0x00, 0x04, 0x00, 0x00, 0x00,
  0x0c, 0xd0, 0xff, 0xff, 0x14, 0x00, 0x00, 0x00, 0x11, 0x00, 0x00, 0x00,
  0x18, 0x00, 0x00, 0x00, 0x5c, 0x00, 0x00, 0x00, 0x4c, 0x00, 0x00, 0x00,
  0x02, 0x00, 0x00, 0x00, 0x01, 0x00, 0x00, 0x00, 0x03, 0x00, 0x00, 0x00,
  0x34, 0x00, 0x00, 0x00, 0x73, 0x65, 0x71, 0x75, 0x65, 0x6e, 0x74, 0x69,
  0x61, 0x6c, 0x2f, 0x64, 0x65, 0x6e, 0x73, 0x65, 0x5f, 0x31, 0x2f, 0x4d,
  0x61, 0x74, 0x4d, 0x75, 0x6c, 0x3b, 0x73, 0x65, 0x71, 0x75, 0x65, 0x6e,
  0x74, 0x69, 0x61, 0x6c, 0x2f, 0x64, 0x65, 0x6e, 0x73, 0x65, 0x5f, 0x31,
  0x2f, 0x42, 0x69, 0x61, 0x73, 0x41, 0x64, 0x64, 0x00, 0x00, 0x00, 0x00,
  0x02, 0x00, 0x00, 0x00, 0xff, 0xff, 0xff, 0xff, 0x03, 0x00, 0x00, 0x00,
  0x0c, 0xd0, 0xff, 0xff, 0xda, 0xfc, 0xff, 0xff, 0x00, 0x00, 0x00, 0x08,
  0x03, 0x00, 0x00, 0x00, 0x24, 0x00, 0x00, 0x00, 0x18, 0x00, 0x00, 0x00,
  0x0c, 0x00, 0x00, 0x00, 0x00, 0x00, 0x06, 0x00, 0x08, 0x00, 0x07, 0x00,
  0x06, 0x00, 0x00, 0x00, 0x00, 0x00, 0x00, 0x01, 0x01, 0x00, 0x00, 0x00,
  0x0f, 0x00, 0x00, 0x00, 0x03, 0x00, 0x00, 0x00, 0x0e, 0x00, 0x00, 0x00,
  0x06, 0x00, 0x00, 0x00, 0x03, 0x00, 0x00, 0x00, 0xe8, 0xfb, 0xff, 0xff,
  0x09, 0x00, 0x00, 0x00, 0x00, 0x00, 0x00, 0x09, 0x01, 0x00, 0x00, 0x00,
  0xcc, 0xd0, 0xff, 0xff, 0x14, 0x00, 0x00, 0x00, 0x10, 0x00, 0x00, 0x00,
  0x18, 0x00, 0x00, 0x00, 0x6c, 0x00, 0x00, 0x00, 0x5c, 0x00, 0x00, 0x00,
  0x02, 0x00, 0x00, 0x00, 0x01, 0x00, 0x00, 0x00, 0x10, 0x00, 0x00, 0x00,
  0x46, 0x00, 0x00, 0x00, 0x73, 0x65, 0x71, 0x75, 0x65, 0x6e, 0x74, 0x69,
  0x61, 0x6c, 0x2f, 0x64, 0x65, 0x6e, 0x73, 0x65, 0x2f, 0x4d, 0x61, 0x74,
  0x4d, 0x75, 0x6c, 0x3b, 0x73, 0x65, 0x71, 0x75, 0x65, 0x6e, 0x74, 0x69,
  0x61, 0x6c, 0x2f, 0x64, 0x65, 0x6e, 0x73, 0x65, 0x2f, 0x52, 0x65, 0x6c,
  0x75, 0x3b, 0x73, 0x65, 0x71, 0x75, 0x65, 0x6e, 0x74, 0x69, 0x61, 0x6c,
  0x2f, 0x64, 0x65, 0x6e, 0x73, 0x65, 0x2f, 0x42, 0x69, 0x61, 0x73, 0x41,
  0x64, 0x64, 0x00, 0x00, 0x02, 0x00, 0x00, 0x00, 0xff, 0xff, 0xff, 0xff,
  0x10, 0x00, 0x00, 0x00, 0xec, 0xd1, 0xff, 0xff, 0x00, 0x00, 0x0a, 0x00,
  0x10, 0x00, 0x04, 0x00, 0x08, 0x00, 0x0c, 0x00, 0x0a, 0x00, 0x00, 0x00,
  0x02, 0x00, 0x00, 0x00, 0x10, 0x00, 0x00, 0x00, 0x04, 0x00, 0x00, 0x00,
  0x01, 0x00, 0x00, 0x00, 0x0e, 0x00, 0x00, 0x00, 0x02, 0x00, 0x00, 0x00,
  0x0d, 0x00, 0x00, 0x00, 0x05, 0x00, 0x00, 0x00, 0xa8, 0xfc, 0xff, 0xff,
  0x16, 0x00, 0x00, 0x00, 0x00, 0x00, 0x00, 0x16, 0x01, 0x00, 0x00, 0x00,
  0x8c, 0xd1, 0xff, 0xff, 0x14, 0x00, 0x00, 0x00, 0x0f, 0x00, 0x00, 0x00,
  0x18, 0x00, 0x00, 0x00, 0x40, 0x00, 0x00, 0x00, 0x30, 0x00, 0x00, 0x00,
  0x02, 0x00, 0x00, 0x00, 0x01, 0x00, 0x00, 0x00, 0x70, 0x00, 0x00, 0x00,
  0x1a, 0x00, 0x00, 0x00, 0x73, 0x65, 0x71, 0x75, 0x65, 0x6e, 0x74, 0x69,
  0x61, 0x6c, 0x2f, 0x66, 0x6c, 0x61, 0x74, 0x74, 0x65, 0x6e, 0x2f, 0x52,
  0x65, 0x73, 0x68, 0x61, 0x70, 0x65, 0x00, 0x00, 0x02, 0x00, 0x00, 0x00,
  0xff, 0xff, 0xff, 0xff, 0x70, 0x00, 0x00, 0x00, 0x70, 0xd1, 0xff, 0xff,
  0x3e, 0xfe, 0xff, 0xff, 0x00, 0x00, 0x00, 0x05, 0x01, 0x00, 0x00, 0x00,
  0x38, 0x00, 0x00, 0x00, 0x2c, 0x00, 0x00, 0x00, 0x14, 0x00, 0x00, 0x00,
  0x00, 0x00, 0x0e, 0x00, 0x14, 0x00, 0x00, 0x00, 0x10, 0x00, 0x0c, 0x00,
  0x08, 0x00, 0x04, 0x00, 0x0e, 0x00, 0x00, 0x00, 0x03, 0x00, 0x00, 0x00,
  0x01, 0x00, 0x00, 0x00, 0x03, 0x00, 0x00, 0x00, 0x01, 0x00, 0x00, 0x00,
  0x01, 0x00, 0x00, 0x00, 0x0d, 0x00, 0x00, 0x00, 0x01, 0x00, 0x00, 0x00,
  0x0c, 0x00, 0x00, 0x00, 0x2c, 0xd2, 0xff, 0xff, 0x14, 0x00, 0x00, 0x00,
  0x0e, 0x00, 0x00, 0x00, 0x20, 0x00, 0x00, 0x00, 0x58, 0x00, 0x00, 0x00,
  0x40, 0x00, 0x00, 0x00, 0x04, 0x00, 0x00, 0x00, 0x01, 0x00, 0x00, 0x00,
  0x07, 0x00, 0x00, 0x00, 0x01, 0x00, 0x00, 0x00, 0x10, 0x00, 0x00, 0x00,
  0x22, 0x00, 0x00, 0x00, 0x73, 0x65, 0x71, 0x75, 0x65, 0x6e, 0x74, 0x69,
  0x61, 0x6c, 0x2f, 0x6d, 0x61, 0x78, 0x5f, 0x70, 0x6f, 0x6f, 0x6c, 0x69,
  0x6e, 0x67, 0x32, 0x64, 0x5f, 0x31, 0x2f, 0x4d, 0x61, 0x78, 0x50, 0x6f,
  0x6f, 0x6c, 0x00, 0x00, 0x04, 0x00, 0x00, 0x00, 0xff, 0xff, 0xff, 0xff,
  0x07, 0x00, 0x00, 0x00, 0x01, 0x00, 0x00, 0x00, 0x10, 0x00, 0x00, 0x00,
  0x28, 0xd2, 0xff, 0xff, 0x1a, 0xfe, 0xff, 0xff, 0x00, 0x00, 0x00, 0x01,
  0x24, 0x00, 0x00, 0x00, 0x18, 0x00, 0x00, 0x00, 0x04, 0x00, 0x00, 0x00,
  0x0c, 0xfe, 0xff, 0xff, 0x01, 0x00, 0x00, 0x00, 0x01, 0x00, 0x00, 0x00,
  0x00, 0x00, 0x00, 0x01, 0x01, 0x00, 0x00, 0x00, 0x0c, 0x00, 0x00, 0x00,
  0x03, 0x00, 0x00, 0x00, 0x0b, 0x00, 0x00, 0x00, 0x09, 0x00, 0x00, 0x00,
  0x02, 0x00, 0x00, 0x00, 0xd4, 0xd2, 0xff, 0xff, 0x14, 0x00, 0x00, 0x00,
  0x0d, 0x00, 0x00, 0x00, 0x20, 0x00, 0x00, 0x00, 0xb8, 0x00, 0x00, 0x00,
  0xa0, 0x00, 0x00, 0x00, 0x04, 0x00, 0x00, 0x00, 0x01, 0x00, 0x00, 0x00,
  0x15, 0x00, 0x00, 0x00, 0x01, 0x00, 0x00, 0x00, 0x10, 0x00, 0x00, 0x00,
  0x83, 0x00, 0x00, 0x00, 0x73, 0x65, 0x71, 0x75, 0x65, 0x6e, 0x74, 0x69,
  0x61, 0x6c, 0x2f, 0x63, 0x6f, 0x6e, 0x76, 0x32, 0x64, 0x5f, 0x31, 0x2f,
  0x52, 0x65, 0x6c, 0x75, 0x3b, 0x73, 0x65, 0x71, 0x75, 0x65, 0x6e, 0x74,
  0x69, 0x61, 0x6c, 0x2f, 0x63, 0x6f, 0x6e, 0x76, 0x32, 0x64, 0x5f, 0x31,
  0x2f, 0x42, 0x69, 0x61, 0x73, 0x41, 0x64, 0x64, 0x3b, 0x73, 0x65, 0x71,
  0x75, 0x65, 0x6e, 0x74, 0x69, 0x61, 0x6c, 0x2f, 0x63, 0x6f, 0x6e, 0x76,
  0x32, 0x64, 0x5f, 0x31, 0x2f, 0x43, 0x6f, 0x6e, 0x76, 0x32, 0x44, 0x3b,
  0x73, 0x65, 0x71, 0x75, 0x65, 0x6e, 0x74, 0x69, 0x61, 0x6c, 0x2f, 0x63,
  0x6f, 0x6e, 0x76, 0x32, 0x64, 0x5f, 0x31, 0x2f, 0x42, 0x69, 0x61, 0x73,
  0x41, 0x64, 0x64, 0x2f, 0x52, 0x65, 0x61, 0x64, 0x56, 0x61, 0x72, 0x69,
  0x61, 0x62, 0x6c, 0x65, 0x4f, 0x70, 0x2f, 0x72, 0x65, 0x73, 0x6f, 0x75,
  0x72, 0x63, 0x65, 0x00, 0x04, 0x00, 0x00, 0x00, 0xff, 0xff, 0xff, 0xff,
  0x15, 0x00, 0x00, 0x00, 0x01, 0x00, 0x00, 0x00, 0x10, 0x00, 0x00, 0x00,
  0x40, 0xd4, 0xff, 0xff, 0x00, 0x00, 0x0e, 0x00, 0x1a, 0x00, 0x08, 0x00,
  0x0c, 0x00, 0x10, 0x00, 0x07, 0x00, 0x14, 0x00, 0x0e, 0x00, 0x00, 0x00,
  0x00, 0x00, 0x00, 0x05, 0x01, 0x00, 0x00, 0x00, 0x3c, 0x00, 0x00, 0x00,
  0x30, 0x00, 0x00, 0x00, 0x14, 0x00, 0x00, 0x00, 0x00, 0x00, 0x0e, 0x00,
  0x18, 0x00, 0x17, 0x00, 0x10, 0x00, 0x0c, 0x00, 0x08, 0x00, 0x04, 0x00,
  0x0e, 0x00, 0x00, 0x00, 0x03, 0x00, 0x00, 0x00, 0x03, 0x00, 0x00, 0x00,
  0x03, 0x00, 0x00, 0x00, 0x03, 0x00, 0x00, 0x00, 0x00, 0x00, 0x00, 0x01,
  0x01, 0x00, 0x00, 0x00, 0x0b, 0x00, 0x00, 0x00, 0x01, 0x00, 0x00, 0x00,
  0x0a, 0x00, 0x00, 0x00, 0x2c, 0xff, 0xff, 0xff, 0x11, 0x00, 0x00, 0x00,
  0x00, 0x00, 0x00, 0x11, 0x01, 0x00, 0x00, 0x00, 0x10, 0xd4, 0xff, 0xff,
  0x14, 0x00, 0x00, 0x00, 0x0c, 0x00, 0x00, 0x00, 0x20, 0x00, 0x00, 0x00,
  0x58, 0x00, 0x00, 0x00, 0x40, 0x00, 0x00, 0x00, 0x04, 0x00, 0x00, 0x00,
  0x01, 0x00, 0x00, 0x00, 0x15, 0x00, 0x00, 0x00, 0x01, 0x00, 0x00, 0x00,
  0x08, 0x00, 0x00, 0x00, 0x20, 0x00, 0x00, 0x00, 0x73, 0x65, 0x71, 0x75,
  0x65, 0x6e, 0x74, 0x69, 0x61, 0x6c, 0x2f, 0x6d, 0x61, 0x78, 0x5f, 0x70,
  0x6f, 0x6f, 0x6c, 0x69, 0x6e, 0x67, 0x32, 0x64, 0x2f, 0x4d, 0x61, 0x78,
  0x50, 0x6f, 0x6f, 0x6c, 0x00, 0x00, 0x00, 0x00, 0x04, 0x00, 0x00, 0x00,
  0xff, 0xff, 0xff, 0xff, 0x15, 0x00, 0x00, 0x00, 0x01, 0x00, 0x00, 0x00,
  0x08, 0x00, 0x00, 0x00, 0x1c, 0xd5, 0xff, 0xff, 0x00, 0x00, 0x0e, 0x00,
  0x14, 0x00, 0x00, 0x00, 0x08, 0x00, 0x0c, 0x00, 0x07, 0x00, 0x10, 0x00,
  0x0e, 0x00, 0x00, 0x00, 0x00, 0x00, 0x00, 0x01, 0x30, 0x00, 0x00, 0x00,
  0x24, 0x00, 0x00, 0x00, 0x10, 0x00, 0x00, 0x00, 0x0c, 0x00, 0x10, 0x00,
  0x00, 0x00, 0x04, 0x00, 0x08, 0x00, 0x0f, 0x00, 0x0c, 0x00, 0x00, 0x00,
  0x01, 0x00, 0x00, 0x00, 0x01, 0x00, 0x00, 0x00, 0x00, 0x00, 0x00, 0x01,
  0x01, 0x00, 0x00, 0x00, 0x0a, 0x00, 0x00, 0x00, 0x03, 0x00, 0x00, 0x00,
  0x00, 0x00, 0x00, 0x00, 0x08, 0x00, 0x00, 0x00, 0x01, 0x00, 0x00, 0x00,
  0x0c, 0x00, 0x10, 0x00, 0x0b, 0x00, 0x00, 0x00, 0x0c, 0x00, 0x04, 0x00,
  0x0c, 0x00, 0x00, 0x00, 0x03, 0x00, 0x00, 0x00, 0x00, 0x00, 0x00, 0x03,
  0x01, 0x00, 0x00, 0x00, 0xf0, 0xd4, 0xff, 0xff, 0x14, 0x00, 0x00, 0x00,
  0x0b, 0x00, 0x00, 0x00, 0x20, 0x00, 0x00, 0x00, 0xb0, 0x00, 0x00, 0x00,
  0x98, 0x00, 0x00, 0x00, 0x04, 0x00, 0x00, 0x00, 0x01, 0x00, 0x00, 0x00,
  0x40, 0x00, 0x00, 0x00, 0x03, 0x00, 0x00, 0x00, 0x08, 0x00, 0x00, 0x00,
  0x7b, 0x00, 0x00, 0x00, 0x73, 0x65, 0x71, 0x75, 0x65, 0x6e, 0x74, 0x69,
  0x61, 0x6c, 0x2f, 0x63, 0x6f, 0x6e, 0x76, 0x32, 0x64, 0x2f, 0x52, 0x65,
  0x6c, 0x75, 0x3b, 0x73, 0x65, 0x71, 0x75, 0x65, 0x6e, 0x74, 0x69, 0x61,
  0x6c, 0x2f, 0x63, 0x6f, 0x6e, 0x76, 0x32, 0x64, 0x2f, 0x42, 0x69, 0x61,
  0x73, 0x41, 0x64, 0x64, 0x3b, 0x73, 0x65, 0x71, 0x75, 0x65, 0x6e, 0x74,
  0x69, 0x61, 0x6c, 0x2f, 0x63, 0x6f, 0x6e, 0x76, 0x32, 0x64, 0x2f, 0x43,
  0x6f, 0x6e, 0x76, 0x32, 0x44, 0x3b, 0x73, 0x65, 0x71, 0x75, 0x65, 0x6e,
  0x74, 0x69, 0x61, 0x6c, 0x2f, 0x63, 0x6f, 0x6e, 0x76, 0x32, 0x64, 0x2f,
  0x42, 0x69, 0x61, 0x73, 0x41, 0x64, 0x64, 0x2f, 0x52, 0x65, 0x61, 0x64,
  0x56, 0x61, 0x72, 0x69, 0x61, 0x62, 0x6c, 0x65, 0x4f, 0x70, 0x2f, 0x72,
  0x65, 0x73, 0x6f, 0x75, 0x72, 0x63, 0x65, 0x00, 0x04, 0x00, 0x00, 0x00,
  0xff, 0xff, 0xff, 0xff, 0x40, 0x00, 0x00, 0x00, 0x03, 0x00, 0x00, 0x00,
  0x08, 0x00, 0x00, 0x00, 0x44, 0xd5, 0xff, 0xff, 0x4e, 0xd6, 0xff, 0xff,
  0x04, 0x00, 0x00, 0x00, 0x00, 0x08, 0x00, 0x00, 0x31, 0x3a, 0x10, 0xbf,
  0x64, 0x0a, 0x92, 0xbe, 0x14, 0xb6, 0x31, 0xbf, 0x5b, 0xb3, 0xbd, 0xbe,
  0x6c, 0x3d, 0x80, 0xbe, 0x82, 0x67, 0xe2, 0x3e, 0x99, 0x60, 0x2d, 0xbe,
  0x8c, 0xa1, 0x05, 0x3e, 0x4a, 0x49, 0x07, 0x3e, 0xc9, 0xc2, 0x98, 0xbe,
  0x83, 0x83, 0xe9, 0x3b, 0x43, 0x08, 0x04, 0xbe, 0xd8, 0xa5, 0x72, 0x3e,
  0xfa, 0xf5, 0x2a, 0xbd, 0x65, 0xbc, 0x2e, 0x3f, 0x83, 0x26, 0x66, 0xbe,
  0xf9, 0x3d, 0xa5, 0x3d, 0xea, 0x78, 0xa5, 0xbd, 0x0d, 0xae, 0x05, 0x3d,
  0x83, 0x0f, 0x7f, 0x3d, 0x33, 0xfb, 0x96, 0x3c, 0x1c, 0x34, 0xb7, 0x3d,
  0xbe, 0x24, 0x3b, 0xbe, 0xf5, 0xc7, 0x82, 0xbe, 0xf8, 0xa7, 0x88, 0x3c,
  0x29, 0x55, 0x93, 0x3c, 0xcd, 0x93, 0x86, 0x3e, 0xaa, 0x8b, 0x45, 0xbe,
  0x3d, 0x0d, 0x19, 0xbe, 0xe3, 0x8a, 0x8b, 0xbd, 0x7a, 0x96, 0x26, 0xbe,
  0xda, 0x89, 0x32, 0xbe, 0xdd, 0xd8, 0x01, 0xbe, 0xd1, 0xb9, 0x95, 0xbe,
  0x53, 0xf2, 0x3b, 0x3e, 0x6b, 0x2e, 0xa3, 0xbe, 0xda, 0x20, 0x1e, 0xbe,
  0x1a, 0xfd, 0xc4, 0x3e, 0x8c, 0xbd, 0x2a, 0xbd, 0xe2, 0xdb, 0xd0, 0xbb,
  0x4f, 0x14, 0xa9, 0xbd, 0x42, 0x31, 0xc2, 0xbe, 0x99, 0xc1, 0x80, 0x3d,
  0x54, 0xf2, 0xad, 0xbe, 0x1c, 0xa4, 0xf0, 0xbc, 0x61, 0x63, 0xa7, 0x3e,
  0xd9, 0xff, 0x08, 0x3f, 0xb2, 0x4a, 0x99, 0xbd, 0x0f, 0xf0, 0xab, 0x3d,
  0x18, 0xc5, 0x8a, 0xbe, 0xc0, 0xab, 0xe6, 0x3e, 0x74, 0xb7, 0x50, 0xbd,
  0x3a, 0x90, 0xc9, 0xbd, 0xea, 0xa9, 0x13, 0x3e, 0x1e, 0x9e, 0x12, 0xbd,
  0x35, 0xd1, 0x6f, 0xbe, 0xc2, 0x18, 0x19, 0x3e, 0x12, 0xf1, 0x81, 0xbe,
  0xf0, 0xa2, 0x2a, 0x3e, 0xba, 0xf7, 0x30, 0xbd, 0xd1, 0x78, 0x98, 0x3c,
  0x6b, 0x44, 0x0a, 0x3e, 0xf1, 0x9d, 0x59, 0x3d, 0x2f, 0x53, 0x78, 0xbe,
  0xd3, 0xa3, 0x12, 0x3e, 0x52, 0xe0, 0x6b, 0x3e, 0xbb, 0x0f, 0x35, 0xbc,
  0x3c, 0x34, 0x28, 0x3d, 0x4f, 0xfa, 0x7c, 0xbd, 0x50, 0x40, 0x2b, 0xbd,
  0x65, 0xd6, 0x0e, 0x3e, 0x51, 0xbe, 0xaf, 0x3e, 0xa1, 0xe2, 0x0e, 0x3d,
  0x5b, 0x63, 0x93, 0x3d, 0xe9, 0x7c, 0x08, 0xbe, 0x91, 0x28, 0x1c, 0xbd,
  0xfd, 0x1b, 0x39, 0x3d, 0x0d, 0xb8, 0xbf, 0x3e, 0x15, 0x86, 0xe3, 0xbb,
  0xe8, 0x3a, 0x3a, 0xbd, 0xb0, 0x40, 0xc2, 0xbd, 0x4b, 0xd8, 0xfc, 0xbd,
  0xcc, 0x08, 0xd6, 0xbb, 0x92, 0x2c, 0x85, 0xbd, 0x53, 0x53, 0x9b, 0x3d,
  0xf8, 0x6d, 0xa2, 0xbc, 0xaf, 0x63, 0x57, 0x3c, 0x17, 0xab, 0x7f, 0xbd,
  0xd7, 0x79, 0xb0, 0xbc, 0xcb, 0x21, 0x93, 0xbd, 0x61, 0x7c, 0xf0, 0x3c,
  0xdc, 0x86, 0x21, 0xbe, 0x3a, 0x40, 0x2a, 0xbc, 0x7b, 0x56, 0x5c, 0x3d,
  0xe4, 0x2c, 0xe3, 0x3d, 0x51, 0xca, 0xd7, 0xbd, 0xb1, 0xe3, 0xb9, 0x3d,
  0x8f, 0x65, 0xae, 0xbe, 0x4d, 0xdb, 0xa8, 0x3d, 0x05, 0xfb, 0xcb, 0xbb,
  0x51, 0xdf, 0x36, 0xbe, 0x88, 0xac, 0x03, 0x3e, 0xa9, 0x0d, 0x31, 0xbe,
  0x94, 0x7e, 0xe8, 0xbd, 0x6e, 0xc7, 0x8a, 0xbd, 0x02, 0xd0, 0x63, 0xbe,
  0xe0, 0xda, 0xce, 0x3e, 0x87, 0x86, 0xa9, 0xbb, 0x67, 0xea, 0xb7, 0xbd,
  0x03, 0xde, 0x40, 0xbe, 0xb4, 0xfc, 0x2f, 0xbd, 0xbf, 0x6f, 0xde, 0xbb,
  0xe7, 0x70, 0x47, 0x3e, 0xab, 0x9f, 0x30, 0xbe, 0x65, 0x7f, 0x61, 0xbc,
  0x8d, 0x53, 0xdf, 0x3d, 0x31, 0xca, 0x2d, 0xbe, 0x9b, 0xe9, 0x40, 0x3d,
  0xaf, 0x19, 0x18, 0x3e, 0xf5, 0xf4, 0x51, 0xbd, 0xfb, 0x5b, 0xd4, 0x3c,
  0x47, 0x3c, 0x0d, 0xbe, 0xb3, 0x97, 0x84, 0x3d, 0x8b, 0x99, 0x7f, 0x3d,
  0x43, 0x22, 0x98, 0x3e, 0x9c, 0xbf, 0x10, 0xbd, 0x86, 0x01, 0x8f, 0x3c,
  0xd5, 0xf5, 0x08, 0xbe, 0x4d, 0x4a, 0x8f, 0xbc, 0x54, 0x5c, 0xa3, 0x3d,
  0x12, 0xf7, 0xe0, 0xbd, 0x11, 0x32, 0xfa, 0xbd, 0x35, 0xe1, 0xe2, 0xbe,
  0xd3, 0x1f, 0x95, 0xbe, 0xb1, 0x80, 0x43, 0xbf, 0xcc, 0x02, 0x29, 0x3c,
  0xce, 0x7a, 0x4c, 0x3d, 0x2e, 0x22, 0x8e, 0xbe, 0xb2, 0x3f, 0xba, 0xbd,
  0x39, 0x70, 0xc2, 0xbd, 0x14, 0xd9, 0x36, 0xbd, 0x0c, 0x8c, 0x81, 0xbe,
  0x16, 0x6c, 0x1c, 0xbf, 0xbe, 0x32, 0xbc, 0xbd, 0xa8, 0xae, 0x73, 0xbd,
  0x3a, 0x31, 0x81, 0xbe, 0x1b, 0x0b, 0x9f, 0x3c, 0xb6, 0x52, 0x17, 0x3e,
  0x46, 0x37, 0x9b, 0xbd, 0x78, 0xc7, 0x90, 0xbe, 0xf2, 0x5e, 0x4d, 0xbe,
  0x44, 0x8e, 0x25, 0xbe, 0x4b, 0x15, 0x24, 0x3e, 0x87, 0x6a, 0x3b, 0x3e,
  0xc3, 0x6b, 0x98, 0xbc, 0x64, 0x76, 0x16, 0x3e, 0xb1, 0x6c, 0x06, 0xbd,
  0xfc, 0x18, 0x54, 0x3e, 0x0b, 0xb6, 0xc4, 0xbd, 0xf7, 0x6a, 0x85, 0xbe,
  0x87, 0xf5, 0xe8, 0xbd, 0x67, 0x94, 0x9a, 0xbd, 0x00, 0x10, 0x93, 0xbd,
  0xcd, 0xb4, 0xbc, 0x3b, 0xc0, 0xe3, 0x4a, 0xbd, 0x0c, 0xba, 0x74, 0xbe,
  0xb1, 0xfa, 0xf8, 0xbd, 0x00, 0xfb, 0x90, 0xbd, 0xb6, 0x73, 0xc4, 0x3e,
  0x3d, 0xf9, 0x6f, 0xbd, 0x64, 0x71, 0x97, 0xbd, 0x78, 0xee, 0x87, 0xbd,
  0x25, 0x0e, 0x8d, 0x3d, 0x98, 0x54, 0x72, 0xbd, 0x85, 0x47, 0x81, 0xbe,
  0x8b, 0x19, 0x9e, 0xbb, 0xef, 0x3d, 0x80, 0x3d, 0x49, 0x7a, 0xd4, 0x3d,
  0xa0, 0xe1, 0xa9, 0x3d, 0x41, 0x5f, 0xa7, 0xbd, 0x46, 0x18, 0xc7, 0xbc,
  0xe2, 0xdd, 0x4c, 0x3f, 0xec, 0x08, 0xbd, 0xbe, 0x64, 0x2e, 0x0e, 0x3d,
  0x70, 0x64, 0x95, 0xbe, 0x70, 0x65, 0x9a, 0x3d, 0xb7, 0x48, 0xe4, 0xbd,
  0x87, 0xa0, 0x6f, 0xbe, 0x21, 0x65, 0x6b, 0xbd, 0x58, 0xfc, 0x6a, 0x3e,
  0x0d, 0xeb, 0x45, 0xbe, 0xe3, 0x69, 0x9e, 0xbc, 0x84, 0xd7, 0x04, 0x3f,
  0x26, 0x25, 0x6e, 0x3e, 0x05, 0x75, 0xae, 0x3d, 0x0c, 0x1f, 0x2c, 0xbe,
  0x71, 0x79, 0xc6, 0xbe, 0xcc, 0x50, 0x09, 0x3d, 0x50, 0x2e, 0xc6, 0xbe,
  0xec, 0xe2, 0xc4, 0x3e, 0x34, 0xd1, 0x14, 0xbf, 0x76, 0x09, 0x63, 0xbd,
  0x07, 0x18, 0x48, 0xbe, 0x5b, 0x9d, 0x02, 0xbf, 0xc1, 0x1c, 0xd7, 0xbe,
  0xf3, 0x5f, 0x72, 0x3e, 0x7b, 0xc4, 0xd3, 0x3d, 0xc3, 0x19, 0x41, 0xbe,
  0xfa, 0x7f, 0x9f, 0xbe, 0xe6, 0xab, 0x3c, 0xbd, 0x78, 0x40, 0x49, 0xbe,
  0x32, 0xf4, 0xdc, 0xbd, 0x37, 0xa2, 0xb9, 0x3d, 0xd8, 0xc3, 0xc2, 0x3e,
  0xd1, 0x66, 0x2e, 0x3e, 0x8e, 0xfc, 0x2b, 0xbe, 0x08, 0x5b, 0x2c, 0xbe,
  0xb3, 0x6e, 0x8b, 0xbd, 0x25, 0x94, 0x8e, 0xbe, 0x4b, 0x61, 0x3f, 0x3d,
  0x7d, 0xbe, 0x2a, 0x3e, 0x6b, 0x7b, 0xb3, 0xbe, 0x72, 0x8f, 0x0b, 0x3e,
  0x3d, 0x67, 0x33, 0xbe, 0x32, 0x8f, 0x84, 0xbe, 0x5e, 0xcf, 0xaf, 0x3e,
  0x7d, 0xff, 0xe0, 0xbd, 0xa5, 0x49, 0x7e, 0xbe, 0x77, 0xee, 0xad, 0xbe,
  0xcc, 0x9a, 0xe6, 0xbd, 0xaf, 0xb9, 0x44, 0xbe, 0xdf, 0x32, 0x93, 0xbd,
  0x07, 0xa7, 0xc1, 0xbe, 0x37, 0xcd, 0x0f, 0xbe, 0x6f, 0x41, 0x86, 0xbe,
  0x08, 0x66, 0x5a, 0xbe, 0x63, 0x23, 0xa4, 0xbe, 0x85, 0xc5, 0x01, 0xbe,
  0xb3, 0x92, 0xa4, 0xbe, 0xdf, 0x48, 0x3a, 0xbe, 0xf3, 0x08, 0x47, 0xbd,
  0xe3, 0xbb, 0x0e, 0xbe, 0xdb, 0xa3, 0xa3, 0xbe, 0x18, 0x67, 0x0a, 0x3e,
  0xc7, 0xfe, 0xb8, 0xbd, 0x76, 0x63, 0x7f, 0x3e, 0x60, 0x36, 0x09, 0xbd,
  0x7b, 0x4e, 0x44, 0xbe, 0x17, 0x95, 0x83, 0x3d, 0x4c, 0x7b, 0x4d, 0xbe,
  0xbf, 0x67, 0x56, 0xbd, 0x93, 0xc1, 0x7e, 0x3e, 0xc3, 0x0c, 0xfc, 0x3d,
  0x42, 0x32, 0xcd, 0x3e, 0xb7, 0xe5, 0x08, 0x3f, 0xe6, 0x71, 0xde, 0x3d,
  0xfb, 0xbc, 0x8c, 0xbd, 0x99, 0x2e, 0x60, 0xbe, 0x6b, 0x88, 0x82, 0xbe,
  0xcd, 0xfe, 0x7b, 0xbe, 0x89, 0x8f, 0x4e, 0x3d, 0x01, 0x4c, 0x86, 0xbd,
  0xbd, 0x2e, 0xa1, 0xbe, 0xa6, 0x3f, 0x0c, 0xbe, 0x13, 0xfd, 0xca, 0xbe,
  0xc7, 0xb4, 0x90, 0x3e, 0xa3, 0x71, 0x32, 0xbe, 0xa4, 0x04, 0x7a, 0x3e,
  0xd7, 0xcf, 0x7b, 0x3d, 0x1c, 0xc0, 0x51, 0x3e, 0x13, 0xb8, 0x30, 0x3d,
  0x8a, 0x5a, 0xd6, 0xbe, 0x67, 0xe2, 0xa2, 0xbe, 0x38, 0xe2, 0xb0, 0xbc,
  0xcf, 0x28, 0x7d, 0xbe, 0x07, 0x73, 0x56, 0x3d, 0xb9, 0x89, 0xd3, 0x3c,
  0xc7, 0x2f, 0x85, 0xbe, 0x5c, 0x84, 0xa0, 0xbd, 0x93, 0x34, 0xbe, 0xbe,
  0x03, 0xa1, 0x31, 0xbe, 0x69, 0xae, 0x68, 0x3e, 0xe4, 0xf0, 0x28, 0x3c,
  0x12, 0x93, 0x07, 0x3d, 0x17, 0x21, 0x8e, 0xbd, 0x68, 0x5f, 0xa8, 0x3d,
  0xcf, 0x46, 0x3a, 0xbd, 0xdf, 0x83, 0xec, 0xbd, 0xe9, 0xec, 0xc0, 0x3d,
  0x5f, 0xc4, 0xae, 0xbb, 0x52, 0xfd, 0x7e, 0x3e, 0x85, 0x70, 0x0e, 0xbe,
  0x87, 0xd9, 0x01, 0xbf, 0x65, 0x3c, 0x88, 0xbd, 0x18, 0x40, 0xbe, 0xbe,
  0xed, 0xc0, 0xee, 0xbd, 0xf0, 0xe5, 0x9c, 0xbd, 0x5d, 0x43, 0x3c, 0xbd,
  0x9e, 0xd5, 0x0d, 0xbe, 0x1f, 0xb0, 0x47, 0x3e, 0xc1, 0x84, 0xb8, 0xbe,
  0x2f, 0x77, 0x96, 0xbd, 0xaa, 0x6a, 0x25, 0xbe, 0xc4, 0x6d, 0x81, 0x3e,
  0xee, 0x04, 0xc2, 0x3d, 0xa1, 0x8e, 0xf3, 0xbc, 0xdd, 0x96, 0x54, 0xbe,
  0xbb, 0x32, 0xd2, 0xbd, 0x88, 0xf2, 0x27, 0xbe, 0xb1, 0x53, 0x43, 0xbe,
  0x64, 0x13, 0x90, 0xbe, 0x12, 0x35, 0x34, 0x3e, 0xa8, 0x15, 0x9b, 0xbd,
  0x42, 0x96, 0x81, 0xbd, 0x66, 0x49, 0x7b, 0xbd, 0xd3, 0x38, 0x4b, 0x3d,
  0xb4, 0x7e, 0x6b, 0xbe, 0x93, 0x2b, 0xd5, 0xbd, 0x6c, 0xfb, 0xb7, 0xbe,
  0xa3, 0x50, 0x1f, 0x3e, 0x47, 0xdf, 0xa4, 0x3c, 0xee, 0xcb, 0x22, 0xbe,
  0x65, 0xfd, 0xe2, 0xbd, 0xf4, 0xe1, 0x4c, 0xbe, 0x50, 0xf5, 0xde, 0xbd,
  0xf2, 0x0b, 0x70, 0xbe, 0xfc, 0xa8, 0x92, 0xbe, 0x49, 0x3b, 0xf9, 0x3c,
  0x71, 0xb1, 0xa7, 0x3d, 0x9e, 0x72, 0x87, 0xbd, 0x5d, 0xd4, 0x03, 0xbe,
  0x8b, 0x6e, 0x69, 0xbe, 0x50, 0xca, 0xc7, 0x3d, 0xdc, 0x8f, 0x31, 0xbd,
  0x9c, 0x88, 0x4d, 0xbe, 0x04, 0x1a, 0x8f, 0xbd, 0xf4, 0x94, 0x99, 0xbe,
  0xd6, 0x12, 0xb1, 0x3c, 0xb9, 0xee, 0xfc, 0xbd, 0x02, 0x7a, 0x87, 0xbe,
  0x26, 0x81, 0x01, 0xbe, 0x81, 0x7f, 0x2a, 0x3e, 0xcb, 0x67, 0x59, 0x3c,
  0xec, 0x36, 0x45, 0xbd, 0x11, 0x36, 0xb5, 0x3b, 0xfe, 0x33, 0x34, 0x3e,
  0x3a, 0x36, 0x49, 0xbe, 0x77, 0x6d, 0x9a, 0xbb, 0x42, 0x78, 0xb1, 0xbd,
  0xbb, 0x4c, 0x27, 0x3e, 0x6d, 0x9c, 0x71, 0xbe, 0x81, 0x19, 0x41, 0x3d,
  0x69, 0xbc, 0xe9, 0xbe, 0xcd, 0x87, 0xba, 0xbe, 0x50, 0x5f, 0x91, 0xbf,
  0x02, 0xbe, 0xbb, 0xbe, 0xbe, 0xbb, 0x87, 0xbd, 0x8e, 0xb7, 0xc4, 0x3d,
  0x61, 0x00, 0x89, 0x3e, 0x5d, 0xa5, 0xe6, 0xbd, 0x8a, 0x3d, 0x3f, 0x3e,
  0xa8, 0x98, 0xcf, 0xbe, 0x29, 0x22, 0x6e, 0xbe, 0x8c, 0x16, 0xd0, 0xbd,
  0x30, 0x2d, 0xbd, 0x3e, 0xab, 0xa9, 0x7e, 0x3e, 0xc8, 0x37, 0x7e, 0xbe,
  0x52, 0xf5, 0x39, 0xbe, 0x71, 0xa5, 0x10, 0x3e, 0xbc, 0x66, 0x65, 0xbd,
  0xb2, 0xfa, 0x8a, 0x3d, 0xb3, 0x3b, 0x91, 0x3e, 0x68, 0x14, 0xaa, 0x3e,
  0x31, 0x66, 0x50, 0x3e, 0xfd, 0xe3, 0x85, 0xbe, 0x71, 0x49, 0xa9, 0xbe,
  0xff, 0x36, 0x32, 0x3e, 0xa5, 0x81, 0x80, 0xbd, 0xf8, 0x62, 0x6f, 0x3e,
  0x7a, 0x83, 0x86, 0xbc, 0x25, 0x5f, 0x84, 0xbe, 0xe6, 0x62, 0xd2, 0xbd,
  0x92, 0x3c, 0x82, 0xbe, 0x28, 0xf7, 0xb3, 0xbe, 0x45, 0xd5, 0x2a, 0xbd,
  0x62, 0x72, 0x8f, 0x3d, 0xe1, 0xac, 0x6b, 0xbd, 0x5b, 0x68, 0x30, 0x3d,
  0x27, 0x98, 0x2a, 0x3d, 0xe6, 0x09, 0x15, 0xbd, 0x5e, 0xb1, 0x0a, 0x3f,
  0xc8, 0x03, 0xe1, 0x3d, 0xaa, 0xff, 0x19, 0xbd, 0xab, 0xcf, 0x23, 0xbd,
  0xc7, 0xfb, 0x98, 0xbc, 0xaf, 0x4b, 0xcd, 0x3d, 0x2f, 0xf1, 0x8a, 0xbc,
  0xb5, 0x29, 0x9e, 0xbd, 0xb6, 0xfe, 0x84, 0xbd, 0xe9, 0xb3, 0x4d, 0x3b,
  0x76, 0xf7, 0x93, 0xbd, 0x4a, 0x34, 0x9a, 0x3d, 0x19, 0x03, 0x91, 0x3e,
  0x9b, 0x41, 0x86, 0x3d, 0xbe, 0xbe, 0x88, 0xbc, 0x95, 0xc3, 0x15, 0xbc,
  0xf0, 0xee, 0x9a, 0xbd, 0x3a, 0xcb, 0xaa, 0xbc, 0xc1, 0x9d, 0xa0, 0x3d,
  0x57, 0x82, 0x2a, 0x3d, 0x1a, 0x63, 0x9c, 0xbd, 0xe3, 0xe6, 0x1a, 0xbd,
  0xf2, 0x7d, 0x3b, 0xbd, 0xb6, 0x7f, 0xa9, 0xbd, 0x0c, 0x17, 0x85, 0xbd,
  0xa9, 0xfc, 0x66, 0xbd, 0x0b, 0xb7, 0xcf, 0xbe, 0xfd, 0x08, 0xf9, 0xbd,
  0x66, 0x14, 0x8e, 0xbe, 0x12, 0x13, 0x1d, 0xbe, 0xa4, 0xc0, 0x01, 0xbe,
  0x34, 0x37, 0xa9, 0xbe, 0xd2, 0x1b, 0x2b, 0xbe, 0xaf, 0x84, 0x30, 0xbe,
  0x6d, 0x9f, 0x93, 0xbe, 0x36, 0x4f, 0x19, 0xbe, 0xf1, 0x1e, 0x3e, 0xbe,
  0x49, 0x04, 0x08, 0xbe, 0x9f, 0x23, 0x39, 0x3d, 0x7c, 0xef, 0x33, 0xbe,
  0xd7, 0xe9, 0xd9, 0x3b, 0x7f, 0x01, 0x11, 0xbe, 0x8e, 0x66, 0x3c, 0x3d,
  0x35, 0xce, 0xb2, 0xbd, 0x71, 0x9f, 0x51, 0x3d, 0xce, 0x13, 0xb4, 0x3d,
  0x1e, 0x5f, 0x01, 0x3e, 0x45, 0x7c, 0x1c, 0x3e, 0x5a, 0x6a, 0x5c, 0xbd,
  0x49, 0x2d, 0x3e, 0xbd, 0x82, 0xbd, 0xd6, 0x3e, 0xe8, 0x2f, 0x20, 0x3e,
  0x5b, 0xc1, 0xa2, 0x3e, 0x20, 0xee, 0x5b, 0x3e, 0x7e, 0xd5, 0x78, 0xbe,
  0x6f, 0xce, 0xd0, 0x3e, 0x71, 0xb7, 0x5e, 0xbe, 0xd5, 0x9e, 0x36, 0x3e,
  0x6c, 0xc6, 0x25, 0xbe, 0x81, 0x72, 0x35, 0x3d, 0x4a, 0xc3, 0x2d, 0xbe,
  0xc4, 0x55, 0xc9, 0xbc, 0x5d, 0x5b, 0x01, 0xbd, 0x90, 0x1d, 0x5a, 0xbe,
  0x1a, 0xc7, 0x86, 0xbc, 0x38, 0x9a, 0xc5, 0xbd, 0x47, 0x5e, 0x11, 0x3e,
  0x90, 0x3d, 0xda, 0xbb, 0x64, 0x04, 0xf0, 0xbc, 0xe5, 0xe0, 0x49, 0x3b,
  0xbc, 0x12, 0x80, 0xbd, 0x04, 0x1d, 0x8c, 0xbd, 0x31, 0x79, 0xfd, 0xbd,
  0x98, 0xeb, 0xb5, 0x3d, 0x70, 0xab, 0xf3, 0xbd, 0xeb, 0x22, 0x44, 0xbd,
  0x88, 0x03, 0xc5, 0xbd, 0x45, 0x56, 0x4a, 0xbe, 0xe2, 0x2e, 0xd3, 0xbd,
  0x62, 0xc3, 0xad, 0x3e, 0xe2, 0xc1, 0x08, 0x3e, 0x06, 0xb4, 0x52, 0x3d,
  0xbc, 0xa6, 0x7e, 0xbe, 0x8d, 0x00, 0xb1, 0x3e, 0x78, 0xfd, 0x87, 0xbe,
  0xef, 0x55, 0x0f, 0xbe, 0x2f, 0x1d, 0x77, 0x3d, 0x73, 0xfd, 0x26, 0xbd,
  0x43, 0x8e, 0x16, 0xbe, 0x35, 0x3e, 0xaf, 0xbd, 0x25, 0xe7, 0x08, 0x3e,
  0x06, 0x35, 0x7f, 0xbd, 0x01, 0x2e, 0x99, 0xbd, 0xf1, 0xb1, 0x97, 0x3e,
  0x7e, 0x1a, 0xaf, 0x3e, 0x18, 0x55, 0x12, 0xbc, 0x9f, 0x40, 0x72, 0xbd,
  0x1a, 0x76, 0xd5, 0xbe, 0xfc, 0x3c, 0x48, 0xbe, 0xa0, 0x01, 0xcb, 0x3b,
  0x75, 0xef, 0x06, 0x3e, 0xaf, 0xfa, 0xf6, 0xbc, 0x9a, 0xd3, 0x3f, 0x3d,
  0xc9, 0xb5, 0x05, 0x3e, 0x1b, 0x4b, 0xaf, 0xbe, 0x83, 0x83, 0xad, 0xbe,
  0x08, 0xb2, 0x9d, 0xbe, 0x08, 0xe3, 0x9e, 0x3c, 0xc1, 0x8a, 0x32, 0xbd,
  0xc4, 0x8f, 0x1f, 0xbf, 0xdd, 0x61, 0x80, 0xbf, 0x68, 0x9f, 0xb4, 0xbd,
  0xc1, 0x30, 0x46, 0xbe, 0x5d, 0x63, 0x7b, 0xbe, 0x51, 0x23, 0xfb, 0x3d,
  0x91, 0x5a, 0xa0, 0x3c, 0xd8, 0x64, 0x39, 0x3e, 0xaa, 0x34, 0x9f, 0xbd,
  0xf7, 0x78, 0x9c, 0xbd, 0x34, 0xce, 0xa8, 0x3e, 0x1d, 0xeb, 0xab, 0xbd,
  0xca, 0x08, 0x8a, 0x3e, 0x26, 0xde, 0xff, 0xff, 0x10, 0x00, 0x00, 0x00,
  0x0a, 0x00, 0x00, 0x00, 0x1c, 0x00, 0x00, 0x00, 0x38, 0x00, 0x00, 0x00,
  0x04, 0x00, 0x00, 0x00, 0x10, 0x00, 0x00, 0x00, 0x04, 0x00, 0x00, 0x00,
  0x01, 0x00, 0x00, 0x00, 0x08, 0x00, 0x00, 0x00, 0x1a, 0x00, 0x00, 0x00,
  0x73, 0x65, 0x71, 0x75, 0x65, 0x6e, 0x74, 0x69, 0x61, 0x6c, 0x2f, 0x63,
  0x6f, 0x6e, 0x76, 0x32, 0x64, 0x5f, 0x31, 0x2f, 0x43, 0x6f, 0x6e, 0x76,
  0x32, 0x44, 0x00, 0x00, 0x9c, 0xdd, 0xff, 0xff, 0xa6, 0xde, 0xff, 0xff,
  0x04, 0x00, 0x00, 0x00, 0x80, 0x01, 0x00, 0x00, 0x4c, 0xe5, 0xcc, 0x3d,
  0xe8, 0xd0, 0x33, 0x3d, 0x4f, 0x6e, 0xc7, 0x3c, 0xcc, 0xba, 0xb6, 0x3d,
  0xc9, 0xaf, 0xc7, 0x3e, 0x57, 0x38, 0x7d, 0x3e, 0xfc, 0x09, 0xd2, 0xbc,
  0x54, 0x4f, 0x0a, 0xbe, 0xb9, 0x64, 0x40, 0xbe, 0xaf, 0x45, 0x12, 0xbd,
  0x96, 0x30, 0x6c, 0xbe, 0xac, 0x28, 0x3a, 0xbe, 0x31, 0x6b, 0x00, 0x3d,
  0x22, 0xd1, 0x5f, 0xbe, 0x20, 0xb5, 0x39, 0x3e, 0xd6, 0xf8, 0x90, 0xbd,
  0x17, 0x8d, 0xee, 0xbc, 0x1d, 0xf1, 0x13, 0x3e, 0xd9, 0x27, 0x09, 0xbe,
  0x2d, 0xf3, 0x5b, 0x3d, 0xdd, 0xb1, 0x7d, 0xbb, 0xbf, 0x9c, 0x8d, 0xbd,
  0x9f, 0x43, 0xa7, 0x3d, 0x5a, 0xbf, 0x81, 0x3b, 0x1a, 0x5e, 0x9b, 0x3d,
  0x31, 0x55, 0x78, 0x3e, 0x8f, 0x9f, 0xf3, 0x3d, 0x87, 0x23, 0xf8, 0x3c,
  0x6f, 0x25, 0x55, 0xbe, 0x92, 0xaa, 0x9b, 0x3e, 0xa7, 0x2d, 0xe2, 0xbb,
  0xc6, 0x91, 0x35, 0x3d, 0x99, 0x0a, 0xe3, 0xbe, 0xaa, 0xb3, 0xce, 0xbd,
  0xdb, 0xc0, 0x1a, 0xbe, 0xc2, 0xf5, 0x8e, 0xbd, 0xf7, 0xe9, 0xc7, 0x3e,
  0x00, 0x0f, 0x11, 0x3e, 0xb7, 0x72, 0x89, 0x3d, 0x25, 0xbc, 0xfd, 0x3c,
  0xe1, 0x8c, 0x50, 0xbd, 0x85, 0xea, 0xa7, 0x3a, 0x08, 0xf2, 0xd9, 0xbd,
  0x83, 0x50, 0x3c, 0xbc, 0x0d, 0x43, 0x9b, 0xbd, 0x13, 0x0b, 0xd6, 0xbd,
  0x3c, 0x53, 0x8f, 0x3c, 0xa2, 0x25, 0x32, 0xbe, 0x8f, 0x37, 0x01, 0x3e,
  0xcd, 0xc8, 0x40, 0x3d, 0xdf, 0x23, 0x1d, 0x3d, 0x27, 0x7d, 0x40, 0x3e,
  0x58, 0xee, 0x42, 0x3e, 0xfb, 0x83, 0x4b, 0x3e, 0xbb, 0x18, 0x98, 0xbd,
  0x38, 0x22, 0x74, 0xbd, 0x32, 0x2f, 0x04, 0x3e, 0xc1, 0xc4, 0x8d, 0xbd,
  0x86, 0x83, 0x4a, 0xbd, 0xca, 0x42, 0x72, 0xbe, 0x26, 0xbf, 0x77, 0x3e,
  0x8e, 0x32, 0x64, 0x3a, 0x48, 0xf9, 0xd9, 0xbe, 0x1e, 0xe6, 0x67, 0x3e,
  0xa1, 0xba, 0xb9, 0xbc, 0xf2, 0x3d, 0x1c, 0xbe, 0xa3, 0x77, 0x95, 0xbe,
  0xaf, 0x69, 0x3d, 0x3d, 0x54, 0xbb, 0x04, 0x3f, 0x73, 0xd6, 0x07, 0xbe,
  0x7c, 0x7e, 0x00, 0xbd, 0x14, 0xc3, 0x63, 0x3d, 0xea, 0x15, 0x92, 0x3d,
  0x12, 0x89, 0x9c, 0xbd, 0x08, 0xee, 0x5e, 0xbd, 0x14, 0xab, 0x81, 0xbe,
  0x93, 0x38, 0x4c, 0xbe, 0xf2, 0xbb, 0xf4, 0xbe, 0x53, 0x3a, 0xd3, 0x3e,
  0x48, 0x1e, 0xc7, 0x3e, 0x13, 0x35, 0xea, 0x3e, 0xbe, 0x11, 0x2b, 0xbc,
  0x25, 0x65, 0x8f, 0x3c, 0x57, 0x21, 0x9f, 0x3d, 0x63, 0x5d, 0x81, 0x3c,
  0x9e, 0x37, 0xee, 0x3d, 0x14, 0x08, 0x20, 0xbe, 0x65, 0xaf, 0xaa, 0xbd,
  0xfa, 0xdd, 0x5f, 0x3e, 0xa6, 0x47, 0x3e, 0xbe, 0x11, 0x2f, 0x8e, 0xbc,
  0x14, 0xd2, 0x9c, 0xbc, 0x23, 0xbe, 0xc8, 0xbd, 0x02, 0x76, 0x6d, 0x3e,
  0x4b, 0x6c, 0x2b, 0xbe, 0x15, 0xec, 0x12, 0x3e, 0xfe, 0xdf, 0xff, 0xff,
  0x10, 0x00, 0x00, 0x00, 0x09, 0x00, 0x00, 0x00, 0x1c, 0x00, 0x00, 0x00,
  0x38, 0x00, 0x00, 0x00, 0x04, 0x00, 0x00, 0x00, 0x08, 0x00, 0x00, 0x00,
  0x04, 0x00, 0x00, 0x00, 0x03, 0x00, 0x00, 0x00, 0x01, 0x00, 0x00, 0x00,
  0x18, 0x00, 0x00, 0x00, 0x73, 0x65, 0x71, 0x75, 0x65, 0x6e, 0x74, 0x69,
  0x61, 0x6c, 0x2f, 0x63, 0x6f, 0x6e, 0x76, 0x32, 0x64, 0x2f, 0x43, 0x6f,
  0x6e, 0x76, 0x32, 0x44, 0x00, 0x00, 0x00, 0x00, 0x74, 0xdf, 0xff, 0xff,
  0x7e, 0xe0, 0xff, 0xff, 0x04, 0x00, 0x00, 0x00, 0xc0, 0x00, 0x00, 0x00,
  0xee, 0x76, 0x33, 0xbe, 0xa5, 0xb7, 0xe3, 0x3e, 0xe2, 0x35, 0xf6, 0xbe,
  0x26, 0xc6, 0xb0, 0xbc, 0xa9, 0xf3, 0xdf, 0xbe, 0x95, 0x9d, 0x05, 0xbf,
  0xe9, 0x2a, 0x39, 0xbe, 0x61, 0x96, 0x6f, 0xbe, 0x89, 0x7d, 0xef, 0xbc,
  0x78, 0xba, 0xbe, 0x3d, 0x11, 0x48, 0x86, 0x3e, 0x4f, 0x24, 0x19, 0x3e,
  0xb9, 0x92, 0x38, 0x3e, 0x0a, 0xa1, 0xdb, 0xbe, 0x5f, 0xf6, 0x4d, 0x3b,
  0x79, 0xdd, 0x0b, 0xbf, 0xd7, 0x31, 0x52, 0xbe, 0x78, 0x3e, 0x29, 0x3e,
  0x67, 0x48, 0xdd, 0xbd, 0x7c, 0x2e, 0x56, 0x3c, 0xaa, 0x4b, 0xc8, 0xbe,
  0xce, 0xb5, 0x94, 0xbe, 0x14, 0x8c, 0x10, 0xbe, 0xa7, 0x7f, 0x57, 0xbe,
  0xd9, 0x4f, 0x95, 0xbe, 0x2e, 0xad, 0x08, 0x3e, 0x62, 0xd5, 0xc8, 0xbe,
  0xba, 0x5a, 0xe8, 0x3d, 0x5c, 0x5f, 0x9e, 0x3e, 0x91, 0x8b, 0xef, 0xbe,
  0x72, 0xbe, 0x89, 0x3d, 0x6e, 0xe9, 0x04, 0x3d, 0x5e, 0xef, 0x8f, 0xbe,
  0xa2, 0xdb, 0xaa, 0x3e, 0x28, 0xb4, 0xb8, 0x3e, 0xcc, 0xd6, 0x69, 0xbd,
  0xb4, 0x96, 0xaa, 0xbe, 0xee, 0x84, 0xe4, 0x3d, 0x10, 0x70, 0x5c, 0xbe,
  0x83, 0xf1, 0x2f, 0xbe, 0xde, 0x87, 0xdb, 0xbe, 0xed, 0x50, 0x8d, 0x3d,
  0x3a, 0x96, 0x94, 0xbe, 0x1f, 0x4e, 0x1b, 0x3e, 0xad, 0xdd, 0x97, 0x3e,
  0x67, 0x4e, 0x0d, 0xbf, 0x6b, 0xc6, 0x18, 0x3c, 0x67, 0x02, 0x15, 0x3e,
  0x16, 0xe1, 0xff, 0xff, 0x10, 0x00, 0x00, 0x00, 0x08, 0x00, 0x00, 0x00,
  0x14, 0x00, 0x00, 0x00, 0x30, 0x00, 0x00, 0x00, 0x02, 0x00, 0x00, 0x00,
  0x03, 0x00, 0x00, 0x00, 0x10, 0x00, 0x00, 0x00, 0x19, 0x00, 0x00, 0x00,
  0x73, 0x65, 0x71, 0x75, 0x65, 0x6e, 0x74, 0x69, 0x61, 0x6c, 0x2f, 0x64,
  0x65, 0x6e, 0x73, 0x65, 0x5f, 0x31, 0x2f, 0x4d, 0x61, 0x74, 0x4d, 0x75,
  0x6c, 0x00, 0x00, 0x00, 0x84, 0xe0, 0xff, 0xff, 0x8e, 0xe1, 0xff, 0xff,
  0x04, 0x00, 0x00, 0x00, 0x00, 0x1c, 0x00, 0x00, 0xdf, 0x08, 0x55, 0xbe,
  0xd1, 0x3e, 0x76, 0xbe, 0x3c, 0xab, 0xd6, 0x3b, 0x2d, 0xe5, 0x4e, 0xbe,
  0xa0, 0x79, 0x5f, 0x3c, 0x9d, 0x63, 0x9f, 0x3d, 0x3a, 0xca, 0x84, 0x3e,
  0xa8, 0x0d, 0x6f, 0x3d, 0x18, 0x4b, 0xa3, 0xbd, 0xaf, 0x0d, 0xd3, 0x3c,
  0x80, 0xef, 0x62, 0x3e, 0x34, 0x15, 0x3a, 0xbe, 0x7b, 0x12, 0xc9, 0xbc,
  0x22, 0xae, 0x91, 0xba, 0x3b, 0xee, 0x0c, 0x3e, 0x8c, 0x25, 0x87, 0xbe,
  0x37, 0x1b, 0x33, 0x3e, 0xdd, 0x5d, 0x4a, 0xbd, 0xf3, 0x13, 0xd4, 0xbb,
  0x71, 0xb1, 0x44, 0xbe, 0xb2, 0xc8, 0x3d, 0xbe, 0x52, 0xe1, 0x61, 0xbe,
  0xdd, 0x23, 0x1a, 0x3e, 0xc9, 0x10, 0xba, 0x3e, 0xbf, 0xf7, 0x1e, 0xbe,
  0x2d, 0x85, 0x0c, 0x3d, 0x73, 0xc0, 0xa7, 0xbe, 0xa0, 0xa9, 0x01, 0xbd,
  0xee, 0x82, 0x05, 0xbe, 0xae, 0x00, 0x93, 0x3e, 0x1e, 0xd6, 0x84, 0xbe,
  0xb3, 0x28, 0xad, 0xbe, 0x41, 0x11, 0x25, 0xbe, 0xea, 0x81, 0x70, 0xbe,
  0x1d, 0x45, 0x67, 0xbe, 0xa8, 0x9b, 0x5c, 0xbd, 0xf6, 0xc6, 0x05, 0xbe,
  0xfb, 0xf7, 0x6d, 0x3e, 0x82, 0xb5, 0x68, 0x3d, 0x71, 0x3e, 0x59, 0x3e,
  0xe5, 0xb3, 0x21, 0xbe, 0xfb, 0x86, 0xa0, 0xbd, 0xea, 0xbb, 0xd2, 0xbd,
  0xb0, 0x21, 0xac, 0x3e, 0xc8, 0x70, 0xa4, 0xbd, 0x48, 0x5e, 0xb3, 0x3e,
  0x4d, 0xbe, 0x20, 0xbe, 0xb5, 0x0c, 0x52, 0xbd, 0xb7, 0x4e, 0x17, 0x3d,
  0x97, 0xc9, 0x01, 0xbd, 0x8b, 0x6a, 0xa5, 0xbd, 0xf4, 0x96, 0x92, 0xbd,
  0xf8, 0xc6, 0xb1, 0x3d, 0x34, 0x0d, 0x9c, 0x3e, 0x3a, 0x8b, 0xc0, 0x3e,
  0x4c, 0x24, 0xce, 0x3d, 0x0f, 0x0c, 0x38, 0xbe, 0x31, 0xfc, 0xcb, 0x3b,
  0xa8, 0xd9, 0xf3, 0x3c, 0xd8, 0x1f, 0x24, 0x3e, 0x72, 0xec, 0xbe, 0xbb,
  0x53, 0x53, 0x9c, 0x3e, 0xca, 0xd1, 0x10, 0x3e, 0x3e, 0x82, 0x5e, 0x3e,
  0xc3, 0x5e, 0xc0, 0xbe, 0x00, 0x45, 0x0b, 0xbf, 0x04, 0x81, 0xa8, 0x3d,
  0x18, 0xf1, 0xe6, 0xbe, 0x6a, 0x38, 0xbd, 0x3e, 0x48, 0x3b, 0x95, 0x3e,
  0xfa, 0x68, 0xc7, 0x3e, 0xc9, 0x07, 0x5a, 0x3c, 0x2c, 0x55, 0xcc, 0xbd,
  0x87, 0x6f, 0xd6, 0xbc, 0x9b, 0x9b, 0x10, 0x3d, 0xe7, 0xec, 0x8e, 0xbe,
  0xe9, 0xee, 0x45, 0x3d, 0xfb, 0x79, 0x1c, 0x3d, 0xba, 0x87, 0xd8, 0x3d,
  0xb6, 0xe9, 0x93, 0x3e, 0x66, 0x73, 0xa0, 0xbe, 0x21, 0xe0, 0xe3, 0xbe,
  0x3c, 0x22, 0x1f, 0xbd, 0xeb, 0x6e, 0x2f, 0xbe, 0xeb, 0x3b, 0xbc, 0xbd,
  0xca, 0xe2, 0x84, 0x3e, 0x61, 0x84, 0xca, 0x3e, 0x45, 0xd4, 0x3e, 0x3d,
  0x01, 0xa8, 0x01, 0xbc, 0x7b, 0xe7, 0x0c, 0xbe, 0x3b, 0x37, 0x4b, 0x3e,
  0xea, 0xed, 0xb5, 0xbe, 0x18, 0xcc, 0x34, 0xbe, 0xfd, 0x2b, 0x78, 0x3d,
  0x5a, 0x97, 0xd8, 0x3d, 0xd0, 0xa5, 0xa2, 0x3d, 0x75, 0xcf, 0x10, 0xbd,
  0x7f, 0x6c, 0x74, 0xbe, 0x2c, 0x55, 0xa4, 0x3c, 0xb3, 0xc9, 0x45, 0xbe,
  0x47, 0x0f, 0x73, 0xbd, 0xfb, 0x9d, 0xdf, 0x3d, 0xc6, 0x9e, 0x59, 0x3d,
  0x25, 0x14, 0x71, 0x3d, 0xa5, 0xa0, 0x79, 0x3d, 0xab, 0xa8, 0x6a, 0xbe,
  0x7a, 0xbb, 0x47, 0xbd, 0xe8, 0x95, 0xb6, 0xbe, 0xcc, 0x04, 0x3a, 0x3c,
  0x2f, 0xdb, 0x8f, 0x3e, 0x7c, 0x14, 0xeb, 0x3d, 0xb8, 0x41, 0x52, 0xbe,
  0x2c, 0x65, 0x38, 0xbc, 0x99, 0x6a, 0x37, 0x3d, 0x41, 0xf7, 0x25, 0x3c,
  0x2f, 0x63, 0x18, 0xbe, 0xc7, 0x14, 0x34, 0x3e, 0x14, 0xbb, 0x44, 0x3d,
  0xc4, 0x99, 0x5e, 0xbe, 0x0b, 0xb0, 0x9d, 0xbd, 0x4b, 0xe5, 0x04, 0x3e,
  0x58, 0xd1, 0x63, 0x3b, 0x5a, 0xea, 0x3f, 0xbe, 0x63, 0x8b, 0x43, 0xb9,
  0x54, 0xf1, 0x59, 0xbe, 0xc5, 0xff, 0x1b, 0xbe, 0x4a, 0x91, 0x78, 0xbe,
  0x07, 0x4d, 0xe3, 0x3d, 0xfc, 0xe2, 0xe4, 0x3d, 0x68, 0x15, 0x73, 0xbe,
  0xcc, 0x70, 0x92, 0xbd, 0x88, 0xf0, 0xae, 0xbe, 0x9f, 0xa7, 0x40, 0xbe,
  0xc2, 0xa0, 0x2d, 0xbe, 0x18, 0x75, 0x3d, 0xbe, 0x85, 0x58, 0x11, 0x3e,
  0x97, 0x55, 0x02, 0xbd, 0xbb, 0xc5, 0x9f, 0xbb, 0x7c, 0xb6, 0x3c, 0xbd,
  0x21, 0xa7, 0x34, 0xbe, 0x39, 0x6b, 0x84, 0xbc, 0xe9, 0x4c, 0x01, 0xbe,
  0x0f, 0x8b, 0xe2, 0xbd, 0xbb, 0xa3, 0x14, 0xbe, 0x1f, 0x07, 0x41, 0x3e,
  0x36, 0xcb, 0x0e, 0xbe, 0x01, 0x58, 0x17, 0xbd, 0x1f, 0x90, 0x0c, 0x3d,
  0xd8, 0x66, 0x18, 0xbe, 0x1b, 0x93, 0x40, 0xbe, 0x7e, 0x0a, 0xe4, 0xbc,
  0x75, 0x93, 0x27, 0xbe, 0x19, 0xdc, 0xbd, 0x3d, 0x33, 0x11, 0x1e, 0xbd,
  0xdd, 0x61, 0x53, 0x3d, 0x47, 0xb2, 0xb0, 0xbd, 0x8d, 0x16, 0xea, 0xbd,
  0x83, 0xdb, 0x08, 0xbe, 0xae, 0x04, 0x58, 0xbe, 0xb9, 0x93, 0xdf, 0xbc,
  0x69, 0x4d, 0xab, 0xbd, 0x1c, 0xe4, 0xce, 0x3d, 0xd0, 0x34, 0x8a, 0xbe,
  0x3f, 0xa4, 0x2f, 0xbe, 0x85, 0xba, 0x87, 0x3d, 0x93, 0xf4, 0x50, 0xbd,
  0x51, 0x6b, 0x84, 0x3d, 0x65, 0x2d, 0xfe, 0x3d, 0x57, 0xe6, 0x3f, 0xbe,
  0x90, 0x0d, 0x8a, 0xbd, 0xd5, 0xd9, 0x05, 0x3e, 0x55, 0xb1, 0xb1, 0xbd,
  0x3c, 0xd8, 0x8d, 0xbe, 0x3c, 0x75, 0x31, 0xbe, 0x4e, 0x73, 0x25, 0xbe,
  0x85, 0x81, 0x21, 0xbe, 0xb8, 0xc3, 0xcf, 0xbd, 0xa5, 0xcb, 0x8e, 0x3c,
  0x50, 0x4b, 0x21, 0x3b, 0x44, 0xd2, 0x86, 0x3d, 0x55, 0x78, 0xb4, 0xbc,
  0x71, 0xcb, 0x06, 0xbe, 0xb9, 0x68, 0x71, 0x3d, 0xcb, 0x79, 0x56, 0xbe,
  0x72, 0xfc, 0xd1, 0xbd, 0x9d, 0x0d, 0xff, 0x3d, 0x70, 0x52, 0xcc, 0xbd,
  0xbe, 0xa0, 0xa7, 0x3d, 0x36, 0x50, 0x82, 0xbe, 0x51, 0x2a, 0x51, 0x3d,
  0xc1, 0xec, 0x14, 0x3d, 0xc5, 0x2b, 0xe2, 0x3b, 0x16, 0x5e, 0x4a, 0xbe,
  0x11, 0x79, 0xad, 0xbd, 0x04, 0x3a, 0x03, 0xbe, 0x98, 0x2b, 0x7f, 0xbd,
  0x19, 0xe4, 0xc9, 0x3d, 0xf6, 0xc8, 0x9e, 0x3d, 0x2a, 0xc9, 0x67, 0x3e,
  0x73, 0x11, 0x7e, 0x3d, 0xc4, 0xc6, 0xb5, 0xbd, 0xfb, 0x17, 0x64, 0xbe,
  0x94, 0xec, 0x95, 0x3d, 0x94, 0x8f, 0x3e, 0xbe, 0x59, 0x70, 0x19, 0xbe,
  0x80, 0x6c, 0x2f, 0xbe, 0x50, 0x89, 0x07, 0xbe, 0xd0, 0x48, 0x00, 0x3e,
  0xa9, 0x51, 0x2a, 0x3d, 0x9c, 0xc8, 0x5a, 0xbe, 0x53, 0x1a, 0xa9, 0xbd,
  0x3b, 0x88, 0x24, 0xbe, 0xee, 0x9b, 0x0e, 0x3e, 0xad, 0x1c, 0x5a, 0xbe,
  0xc7, 0xb3, 0xf7, 0xbd, 0xc7, 0x7e, 0x9e, 0x3d, 0xe8, 0x7a, 0x60, 0xbe,
  0x7f, 0x05, 0xb1, 0xbc, 0x1a, 0x85, 0x4e, 0x3e, 0x00, 0x50, 0x9b, 0x3d,
  0xa5, 0xc7, 0x12, 0xbe, 0xd5, 0x1d, 0x21, 0xbd, 0x86, 0xfa, 0x26, 0xbc,
  0xf0, 0xeb, 0x99, 0x3b, 0xe2, 0x48, 0x1d, 0xbe, 0x66, 0xc7, 0x0c, 0xbc,
  0x17, 0xf3, 0xa3, 0xbd, 0xf9, 0xdf, 0x38, 0x3d, 0xa9, 0x62, 0x3d, 0xbe,
  0xe3, 0x2c, 0x3c, 0xbe, 0x4c, 0xf0, 0x2d, 0xbe, 0x27, 0x59, 0xe6, 0xbc,
  0xdb, 0xcc, 0x5a, 0xbb, 0x6a, 0xdb, 0x09, 0xbe, 0xc4, 0xfd, 0xf3, 0x3d,
  0x4d, 0x35, 0xb6, 0xbd, 0xcc, 0x4c, 0xd7, 0xbd, 0x44, 0xda, 0x20, 0xbd,
  0x6e, 0x77, 0xa1, 0xbb, 0xf5, 0x07, 0x65, 0xbe, 0x2f, 0x93, 0x8a, 0x3d,
  0x8d, 0x2d, 0x5f, 0xbd, 0xbd, 0xbd, 0x6c, 0xbe, 0x0c, 0x8e, 0x49, 0xbd,
  0x77, 0x6e, 0x3f, 0xbd, 0xac, 0x66, 0x4f, 0xbe, 0x4e, 0x23, 0x90, 0xbd,
  0x63, 0x2f, 0xb1, 0x3d, 0x9e, 0x5a, 0x4d, 0x3e, 0x96, 0x6b, 0x1a, 0xbb,
  0x70, 0xc4, 0xea, 0xbd, 0xfd, 0x8b, 0x55, 0x3d, 0xe0, 0x57, 0x0f, 0x3d,
  0x51, 0x2e, 0xf6, 0xbd, 0xc5, 0xfe, 0x21, 0xbd, 0x55, 0x68, 0xc9, 0x3d,
  0x7e, 0x0f, 0x6e, 0xbe, 0xf4, 0x2b, 0x50, 0xbe, 0xb3, 0x11, 0x58, 0xbe,
  0x8e, 0xc6, 0xe4, 0x3d, 0xcf, 0xba, 0x67, 0xbe, 0x72, 0xff, 0xb7, 0x3d,
  0x82, 0x93, 0xb5, 0x3d, 0x91, 0x95, 0x2c, 0x3d, 0x5e, 0x2b, 0x5c, 0xbd,
  0x98, 0xe7, 0xa2, 0x3d, 0x38, 0x48, 0x03, 0xbe, 0x86, 0xb9, 0x20, 0x3e,
  0x66, 0x69, 0x09, 0xbe, 0xa8, 0x9c, 0xb0, 0xbd, 0xa6, 0x4e, 0xd9, 0x3c,
  0xd0, 0xb7, 0xfc, 0xbd, 0xd4, 0x9f, 0x3d, 0xbe, 0x82, 0x7e, 0xda, 0xbd,
  0x3f, 0x26, 0x0f, 0xbe, 0xa9, 0x62, 0x27, 0xbe, 0x4c, 0x04, 0x17, 0x3e,
  0x15, 0xdf, 0x14, 0xbe, 0x62, 0x33, 0xcd, 0xbd, 0x36, 0xd4, 0x2d, 0xbe,
  0xfb, 0x89, 0x3f, 0xbe, 0x0f, 0x6c, 0x11, 0xbe, 0x18, 0x7f, 0xbe, 0xbc,
  0xcc, 0xdd, 0x19, 0x3e, 0xd3, 0xa5, 0x46, 0xbe, 0x75, 0x02, 0xb3, 0xbd,
  0x74, 0x48, 0x96, 0xbe, 0xff, 0x36, 0x6e, 0xbe, 0xbd, 0x93, 0x7b, 0xbd,
  0x2c, 0x51, 0xcd, 0xbd, 0xce, 0x36, 0x92, 0xbe, 0x28, 0x29, 0x67, 0xbe,
  0xf2, 0xfa, 0x4f, 0x3e, 0x89, 0x34, 0x53, 0xbe, 0x9f, 0x55, 0xc7, 0xbc,
  0xdf, 0x5f, 0xb4, 0xbd, 0x0d, 0x63, 0x24, 0xbe, 0xc9, 0xc7, 0x5f, 0xbe,
  0xb0, 0x0e, 0xde, 0xbc, 0x2a, 0x61, 0x33, 0xbe, 0x64, 0x3a, 0x8f, 0xbc,
  0x9d, 0xe5, 0x56, 0xbc, 0xb2, 0x21, 0x16, 0xbe, 0x17, 0x33, 0x4a, 0xbe,
  0x70, 0xdf, 0x16, 0x3e, 0x6f, 0xcb, 0x6d, 0xbd, 0xe1, 0xe0, 0x97, 0xbe,
  0x9b, 0xd7, 0x3b, 0xbd, 0xcc, 0x80, 0xd7, 0xbd, 0x27, 0xa0, 0x2e, 0x3d,
  0x56, 0x5d, 0x7d, 0xbd, 0xf9, 0x5c, 0x3d, 0xbe, 0x01, 0x68, 0x4c, 0xbb,
  0x4e, 0x3d, 0x05, 0xbe, 0xa9, 0x8e, 0x4b, 0xbd, 0x44, 0x89, 0x24, 0x3d,
  0xa8, 0x32, 0x4b, 0xbe, 0xc2, 0x59, 0xc0, 0xbd, 0xe1, 0x18, 0x7a, 0x3d,
  0x63, 0x09, 0x67, 0x3c, 0x0a, 0x24, 0x36, 0x3e, 0x7a, 0xe5, 0x7f, 0xbe,
  0xd1, 0x32, 0x88, 0xbe, 0x6d, 0xe2, 0x5a, 0xbe, 0x20, 0xbd, 0x33, 0x3d,
  0x06, 0xf1, 0x5c, 0xbe, 0x98, 0x24, 0x8e, 0xbd, 0x96, 0xe4, 0xb9, 0x3d,
  0xcd, 0x1b, 0xf1, 0xbd, 0x7f, 0xec, 0x50, 0x3d, 0x19, 0x9b, 0x04, 0x3e,
  0xf2, 0x13, 0x19, 0xbe, 0xd5, 0x18, 0x2b, 0xbe, 0x35, 0xac, 0x20, 0x3c,
  0x55, 0x6d, 0x5a, 0xbe, 0x30, 0xbd, 0x87, 0xbc, 0x54, 0x7b, 0x72, 0x3e,
  0x5f, 0xf2, 0x46, 0x3e, 0x4e, 0x7f, 0xaa, 0xbd, 0x66, 0xa7, 0x11, 0xbd,
  0x33, 0xf3, 0x08, 0x3f, 0x83, 0xbe, 0xc7, 0x3b, 0xc8, 0x56, 0x3e, 0x3e,
  0x60, 0x09, 0xe6, 0x3d, 0xab, 0x23, 0x7d, 0xbe, 0x70, 0xae, 0x8b, 0x3d,
  0x08, 0xdc, 0x18, 0xbe, 0x89, 0x87, 0xaa, 0x3e, 0x53, 0x8d, 0xae, 0x3d,
  0xf2, 0x66, 0xcd, 0x3b, 0x5e, 0x0c, 0x10, 0xbe, 0x40, 0x79, 0x6a, 0x3e,
  0x37, 0x51, 0x68, 0xbd, 0xe4, 0xf2, 0x10, 0xbe, 0x6e, 0x7c, 0xe4, 0xbd,
  0xf1, 0xba, 0x71, 0xbe, 0xec, 0xdd, 0x16, 0xbe, 0xff, 0x9d, 0x30, 0xbc,
  0x58, 0xf2, 0x00, 0x3e, 0x0f, 0xfe, 0x8c, 0xbe, 0x69, 0x53, 0x8a, 0xbe,
  0xb6, 0x8b, 0x00, 0x3c, 0xc7, 0x26, 0x24, 0xbe, 0x53, 0xa3, 0xa5, 0x3e,
  0x58, 0x17, 0x1b, 0xbd, 0xa4, 0xf9, 0x75, 0xbd, 0xd3, 0x93, 0xa5, 0xbd,
  0xcd, 0xa3, 0x01, 0x3f, 0x6f, 0x97, 0xcd, 0xbd, 0xb1, 0x51, 0x8b, 0xbe,
  0x32, 0x13, 0xd5, 0xbc, 0x26, 0x3c, 0x69, 0xbe, 0x90, 0x0c, 0x43, 0x3e,
  0x65, 0x62, 0x8e, 0xbe, 0x8e, 0x71, 0x70, 0x3e, 0xa1, 0xd4, 0x6f, 0xbe,
  0x17, 0x0f, 0x16, 0xbd, 0xee, 0x2b, 0x65, 0x3d, 0xd8, 0x4b, 0x20, 0x3e,
  0xba, 0x9f, 0x4d, 0xbe, 0x6f, 0x2e, 0x5b, 0xbd, 0x59, 0xe4, 0xd3, 0xbe,
  0x50, 0xc8, 0x12, 0xbc, 0x1f, 0x79, 0x9e, 0x3d, 0x4a, 0x12, 0x43, 0xbe,
  0x87, 0x2c, 0xbc, 0xbe, 0x63, 0x07, 0x84, 0xbd, 0x9f, 0x05, 0xa9, 0xbd,
  0xa2, 0xa2, 0x41, 0x3e, 0xe4, 0x1e, 0xf5, 0xbe, 0xaf, 0xb1, 0x04, 0xbf,
  0x5b, 0x90, 0xaf, 0xbe, 0xb5, 0xa5, 0x65, 0xbc, 0x7c, 0xdb, 0x28, 0x3d,
  0xad, 0x3e, 0xa7, 0x3d, 0x74, 0x3b, 0x99, 0xbd, 0xcc, 0x52, 0xf8, 0xbc,
  0xe0, 0x87, 0x3a, 0xbf, 0x02, 0xc4, 0x98, 0xbc, 0xe8, 0x28, 0xcc, 0xbe,
  0x03, 0x4d, 0xa6, 0xbd, 0x44, 0xfc, 0x88, 0xbe, 0x33, 0x83, 0x2f, 0xbd,
  0xe5, 0x63, 0x76, 0xbd, 0x29, 0x05, 0x38, 0x3d, 0xe8, 0xee, 0xce, 0xbe,
  0xcc, 0x0f, 0x49, 0xbe, 0xa8, 0x58, 0xaf, 0xbe, 0x89, 0x33, 0x71, 0x3d,
  0x02, 0xf8, 0x81, 0xbd, 0xea, 0x31, 0x5a, 0xbe, 0xef, 0x45, 0x4f, 0xbe,
  0x59, 0x41, 0xab, 0xbd, 0x9e, 0x62, 0xc4, 0xbe, 0xca, 0xbe, 0x30, 0xbd,
  0x49, 0xd4, 0xe0, 0xbe, 0xcc, 0x2b, 0x04, 0xbf, 0xf2, 0xf7, 0x20, 0xbe,
  0x60, 0x08, 0xb9, 0xbc, 0xe4, 0xe6, 0x36, 0x3d, 0x50, 0xd5, 0xe1, 0xbe,
  0x1c, 0x4c, 0xdb, 0xbe, 0x7e, 0xa0, 0x4f, 0xbe, 0x2e, 0x6c, 0x2d, 0x3e,
  0x53, 0x0e, 0x8e, 0xbe, 0xaa, 0x05, 0x56, 0xbd, 0xd5, 0xdd, 0x06, 0x3c,
  0x7c, 0xdd, 0xb4, 0xbe, 0x3c, 0xed, 0xcd, 0xbd, 0x93, 0x09, 0xf9, 0xbd,
  0x23, 0x17, 0xd0, 0xbd, 0x78, 0xfc, 0xf7, 0xbe, 0x7f, 0xdb, 0xc3, 0x3d,
  0x5a, 0x46, 0x5f, 0x3e, 0x6a, 0x21, 0xcd, 0x3d, 0x3d, 0x53, 0x15, 0x3e,
  0x87, 0x3f, 0x88, 0xbe, 0x66, 0xf9, 0x28, 0x3e, 0xf9, 0x76, 0x5a, 0xbd,
  0x40, 0x45, 0x53, 0x3e, 0x27, 0x87, 0x50, 0x3e, 0x8c, 0x63, 0xbe, 0xbe,
  0xef, 0x89, 0xcf, 0xbd, 0xff, 0x26, 0xe2, 0xbb, 0x6e, 0xb6, 0x97, 0xbb,
  0xe4, 0x55, 0x95, 0x3d, 0x9f, 0x7b, 0x8c, 0x3d, 0x0c, 0xb7, 0xb3, 0xbc,
  0x3f, 0x27, 0xd6, 0xbe, 0x06, 0xfe, 0x93, 0xbe, 0x98, 0x58, 0x26, 0xbe,
  0x58, 0x24, 0xf7, 0x3d, 0x60, 0x1d, 0xa0, 0x3e, 0x7a, 0x19, 0x02, 0xbf,
  0xb0, 0x8f, 0x45, 0xbf, 0x6f, 0xd8, 0xe0, 0xbe, 0x12, 0xb3, 0x57, 0x3e,
  0x3d, 0x38, 0xaa, 0x3d, 0x51, 0x54, 0xfd, 0x3d, 0x1d, 0xaa, 0xc0, 0xbe,
  0x00, 0xbd, 0x33, 0xbd, 0xa0, 0xca, 0xfb, 0xbd, 0x78, 0x05, 0x25, 0xbe,
  0xd3, 0x5b, 0x66, 0x3e, 0xf4, 0x89, 0x2a, 0x3e, 0x51, 0x3e, 0xde, 0x3e,
  0x0c, 0x2b, 0x83, 0x3d, 0x84, 0xa0, 0x3a, 0x3e, 0x56, 0x87, 0xad, 0x3e,
  0x77, 0x59, 0xbe, 0xbd, 0x01, 0x1f, 0x0e, 0xbf, 0x6a, 0x5f, 0xe6, 0xbe,
  0xeb, 0x72, 0x63, 0x3e, 0x78, 0xf5, 0xb1, 0x3c, 0x70, 0x05, 0xe8, 0x3b,
  0xab, 0x4a, 0x04, 0xbd, 0x82, 0x7d, 0x79, 0x3d, 0x86, 0x73, 0x87, 0xbe,
  0x66, 0x32, 0xf5, 0x3d, 0xc8, 0x6c, 0x02, 0x3e, 0x8a, 0x52, 0xa4, 0x3e,
  0xe4, 0xa0, 0x1a, 0x3f, 0xa4, 0x85, 0x0a, 0x3e, 0x92, 0xc3, 0xd9, 0x3d,
  0x7c, 0x3e, 0xce, 0x3e, 0x25, 0xca, 0x87, 0xbe, 0x8a, 0x60, 0x33, 0xbe,
  0xa6, 0x09, 0x9a, 0xbe, 0x23, 0x6b, 0x42, 0x3d, 0x55, 0x23, 0x69, 0x3d,
  0x7a, 0xee, 0x4a, 0x3c, 0x8f, 0x41, 0xbf, 0x3d, 0x16, 0xd7, 0x29, 0x3d,
  0xdd, 0x0e, 0x82, 0xbe, 0x3f, 0xd4, 0x25, 0x3e, 0xa5, 0xae, 0x86, 0x3d,
  0x06, 0x80, 0x88, 0x3e, 0x7f, 0x99, 0xd5, 0x3e, 0x87, 0xec, 0x80, 0x3c,
  0x39, 0x57, 0xf5, 0x3d, 0xf4, 0xdf, 0x1c, 0x3e, 0x2e, 0x6b, 0x24, 0xbe,
  0x76, 0xb7, 0xcb, 0xbe, 0x14, 0x33, 0x3e, 0xbe, 0x44, 0xe1, 0xc0, 0x3d,
  0xde, 0x9c, 0x3d, 0xbd, 0xd3, 0x8c, 0xc4, 0xbd, 0x53, 0xc1, 0x56, 0x3e,
  0xba, 0x61, 0x1e, 0x3e, 0x66, 0x93, 0x80, 0xbe, 0xc0, 0xb0, 0x9a, 0x3d,
  0xcf, 0x3e, 0x32, 0xbc, 0x98, 0xa3, 0xe4, 0x3d, 0x0e, 0x64, 0x95, 0x3e,
  0x95, 0x77, 0x53, 0x3d, 0x4d, 0x45, 0xd4, 0x3d, 0x28, 0x78, 0x47, 0x3e,
  0xd3, 0x8d, 0x18, 0xbe, 0x1b, 0xa4, 0xb3, 0xbe, 0x5e, 0x64, 0xaf, 0xbe,
  0x26, 0x41, 0xe7, 0x3d, 0xf0, 0x6a, 0xa3, 0xbc, 0xb0, 0x23, 0x9d, 0x3d,
  0xbf, 0x5f, 0x29, 0x3d, 0xc0, 0xf3, 0x6f, 0x3d, 0xf7, 0x07, 0xe2, 0xbe,
  0xc9, 0x2c, 0x26, 0x3c, 0x1e, 0x58, 0x79, 0x3d, 0xa7, 0x9f, 0x13, 0xbe,
  0x07, 0xd0, 0x19, 0x3e, 0xf1, 0x5a, 0x78, 0x3d, 0xe2, 0x9c, 0x11, 0xbc,
  0xbe, 0x14, 0x9b, 0x3e, 0xae, 0xbc, 0xcf, 0xbe, 0x99, 0x31, 0xa2, 0xbe,
  0xc3, 0x11, 0x0d, 0xbf, 0x8f, 0x57, 0x25, 0x3e, 0x09, 0xcf, 0x64, 0x3d,
  0xaf, 0xea, 0x86, 0x3d, 0x99, 0x02, 0xda, 0xbd, 0x4b, 0xa6, 0x84, 0x3c,
  0xb4, 0x64, 0x3f, 0xbf, 0xd3, 0x18, 0xd4, 0x3c, 0x3b, 0x8e, 0x2c, 0xbe,
  0x8c, 0x96, 0x82, 0xbd, 0x5e, 0x16, 0x8a, 0x3c, 0x7f, 0xf9, 0x5e, 0x3d,
  0x39, 0x3e, 0x3a, 0xbe, 0x86, 0xdb, 0xca, 0xbc, 0x80, 0x3f, 0xac, 0xbe,
  0x4e, 0xea, 0x62, 0xbe, 0x8b, 0x6e, 0x2c, 0xbe, 0x3c, 0xfc, 0x3c, 0x3d,
  0x49, 0x47, 0x8e, 0x3e, 0x45, 0xe4, 0x54, 0x3d, 0x40, 0x91, 0xc2, 0x3d,
  0x06, 0xc7, 0x6f, 0x3d, 0x98, 0x6b, 0x5a, 0xbe, 0x45, 0xe0, 0x33, 0xbd,
  0x03, 0x5b, 0xc1, 0x3d, 0x8c, 0x19, 0xa3, 0xba, 0x46, 0xd4, 0x3c, 0xbe,
  0xb3, 0x5f, 0x01, 0xbd, 0x45, 0x99, 0x55, 0x3e, 0x23, 0x66, 0xe9, 0xbb,
  0x47, 0xf7, 0x74, 0xbe, 0x2e, 0x36, 0xaf, 0xba, 0x6d, 0x2e, 0xd2, 0xbd,
  0x75, 0xa4, 0x9e, 0x3e, 0xb5, 0x73, 0xb4, 0x3d, 0x56, 0x2b, 0xbe, 0x3d,
  0xb9, 0x90, 0x40, 0x3d, 0xdf, 0x84, 0xc3, 0xbe, 0x1a, 0x99, 0x2d, 0xbe,
  0xef, 0x4e, 0x26, 0x3e, 0x50, 0x85, 0x94, 0x3e, 0x4a, 0x22, 0xe9, 0x3d,
  0x61, 0x2a, 0x10, 0x3e, 0xe6, 0x65, 0x06, 0xbe, 0x0c, 0xd6, 0x60, 0xbd,
  0xad, 0xfb, 0x72, 0x3e, 0x28, 0xdb, 0x34, 0x3e, 0xcb, 0x03, 0x1b, 0xbc,
  0x77, 0xfc, 0x59, 0xbe, 0xef, 0x01, 0x81, 0x3e, 0x46, 0x32, 0x60, 0xbe,
  0x65, 0xfc, 0x04, 0xbd, 0xaa, 0xce, 0x8e, 0x3d, 0x7c, 0x9c, 0x1d, 0x3b,
  0x7d, 0x05, 0xb3, 0x3b, 0xca, 0xbd, 0xe4, 0x3c, 0xe9, 0x8e, 0x81, 0x3e,
  0x1f, 0xef, 0x5b, 0x3d, 0x94, 0x3f, 0x2b, 0xbd, 0x62, 0xc0, 0x71, 0xbe,
  0xbc, 0xf6, 0x74, 0x3e, 0x18, 0x68, 0x31, 0x3e, 0x80, 0x45, 0x19, 0x3d,
  0xaa, 0x84, 0x11, 0xbe, 0x1c, 0x81, 0xd2, 0xbc, 0x3b, 0x63, 0x19, 0x3e,
  0x31, 0xe7, 0x22, 0xbe, 0x6c, 0xfb, 0x46, 0x3b, 0x1f, 0x95, 0x5a, 0x3d,
  0x75, 0xb3, 0x94, 0xbe, 0xb9, 0x5f, 0x13, 0xbb, 0x40, 0xad, 0xca, 0x3c,
  0x19, 0x91, 0xd9, 0x3e, 0xc5, 0x18, 0x19, 0xbe, 0xc0, 0xd0, 0xf2, 0x3c,
  0x27, 0xf5, 0xce, 0xbd, 0x51, 0x56, 0xda, 0x3e, 0xb6, 0x87, 0xaf, 0x3d,
  0x00, 0xd3, 0x56, 0xbd, 0x35, 0x03, 0x7b, 0x3d, 0x5e, 0x74, 0x02, 0xbe,
  0xd9, 0xd0, 0x54, 0x3e, 0xc4, 0x2d, 0xc8, 0xbd, 0xe7, 0x07, 0x72, 0xbe,
  0xa3, 0x66, 0x40, 0x3d, 0xdd, 0xdf, 0x81, 0xbe, 0x04, 0x63, 0x80, 0xbd,
  0x15, 0x14, 0xa8, 0x3d, 0x2b, 0xee, 0x86, 0x3e, 0x2c, 0x64, 0xd9, 0xbd,
  0x27, 0xcb, 0x29, 0x3e, 0x3c, 0xeb, 0x4b, 0xbe, 0x9d, 0xc4, 0x05, 0x3e,
  0xee, 0x97, 0xdd, 0x3d, 0xbd, 0x91, 0xa4, 0xbc, 0x84, 0x98, 0x44, 0x3c,
  0x6f, 0xc5, 0x17, 0xbe, 0xc3, 0xba, 0xd6, 0x3c, 0x52, 0x8e, 0x79, 0xbe,
  0x7f, 0xbc, 0x1a, 0x3e, 0xc0, 0x39, 0x55, 0xbe, 0x6a, 0x41, 0x92, 0xbe,
  0x53, 0xf9, 0x90, 0xbd, 0x84, 0x04, 0x13, 0x3d, 0xf2, 0x89, 0x9b, 0x3d,
  0x4c, 0x44, 0x7f, 0xbe, 0x43, 0xd7, 0x81, 0x3d, 0x4f, 0x1f, 0xf9, 0xbc,
  0x11, 0x56, 0x7a, 0xbd, 0x78, 0xed, 0x42, 0x3e, 0xbb, 0xca, 0x67, 0xbe,
  0xb6, 0x39, 0x04, 0xbd, 0x50, 0x15, 0x2a, 0xbe, 0x54, 0xd1, 0x30, 0xbc,
  0x17, 0x5c, 0xf1, 0xbd, 0x4a, 0x55, 0x6a, 0x3d, 0xac, 0x16, 0x0d, 0x3e,
  0x3d, 0xdb, 0x69, 0xbe, 0x67, 0x55, 0xe1, 0xbd, 0x17, 0x70, 0xd1, 0x3d,
  0x6d, 0x06, 0xe3, 0x3d, 0x74, 0x72, 0x92, 0xbd, 0x41, 0x4a, 0xdf, 0x3d,
  0xad, 0x66, 0x49, 0xbe, 0x23, 0xea, 0x51, 0x3d, 0x6e, 0xd6, 0x1b, 0xbd,
  0xad, 0x05, 0x84, 0xbe, 0x8d, 0x6f, 0x16, 0xbe, 0xb1, 0x9d, 0xea, 0x3d,
  0xf1, 0x12, 0xb0, 0x3d, 0x91, 0x19, 0x20, 0x3e, 0x7c, 0x12, 0x8a, 0xbd,
  0xbc, 0x31, 0x76, 0x3d, 0x30, 0x9d, 0x8f, 0xbc, 0xf3, 0x2d, 0xc5, 0xbc,
  0x2a, 0xe2, 0x9f, 0xbd, 0x1d, 0xf6, 0x02, 0x3d, 0x12, 0xa6, 0x7f, 0xbd,
  0x73, 0x28, 0xa0, 0xbe, 0x3b, 0xd9, 0x47, 0xbe, 0x9d, 0x09, 0x4f, 0x3d,
  0xc1, 0xe4, 0xe1, 0x3d, 0xfb, 0x69, 0x06, 0xbf, 0x98, 0x4b, 0x12, 0x3e,
  0x9a, 0x85, 0xf7, 0xbd, 0x29, 0x70, 0x61, 0xbf, 0x4d, 0xd0, 0x89, 0xbe,
  0x7c, 0x0e, 0xda, 0xbd, 0x41, 0xa6, 0x63, 0xbe, 0x23, 0x6c, 0x0c, 0xbe,
  0xae, 0x96, 0x4f, 0xbd, 0x29, 0xe4, 0x49, 0xbf, 0xcd, 0xb2, 0x9c, 0xbe,
  0x40, 0xd1, 0x98, 0x3b, 0xc1, 0x04, 0xde, 0xbc, 0xdc, 0xb9, 0x61, 0xbd,
  0x43, 0x93, 0x14, 0xbc, 0xb8, 0x36, 0x15, 0x3e, 0x31, 0xc4, 0xad, 0xbe,
  0xd9, 0x32, 0x42, 0x3d, 0x19, 0x1b, 0xa5, 0xbd, 0x77, 0xae, 0x8e, 0xbd,
  0x1d, 0xf8, 0xb7, 0xbe, 0xe1, 0xd7, 0x12, 0x3e, 0xc7, 0x6a, 0xb3, 0xbc,
  0x62, 0x09, 0xff, 0xbd, 0x67, 0x81, 0x87, 0xbe, 0x3b, 0x67, 0x59, 0xbf,
  0x19, 0xab, 0x0e, 0xbf, 0xbf, 0x50, 0x24, 0x3c, 0xb1, 0xc0, 0x13, 0xbe,
  0x79, 0x5e, 0xaf, 0xbd, 0x7e, 0x1b, 0xf0, 0xbc, 0x6f, 0x67, 0x15, 0xbc,
  0x9a, 0x90, 0x8a, 0xbe, 0xc2, 0xfa, 0x3e, 0x3d, 0x58, 0x86, 0xda, 0xbe,
  0x95, 0xcc, 0x2f, 0xbe, 0x7e, 0xe3, 0x14, 0xbf, 0xa6, 0xb7, 0x9a, 0xbd,
  0xec, 0x80, 0xe8, 0xbd, 0x06, 0x20, 0x43, 0xbd, 0xe0, 0x23, 0xe9, 0xbe,
  0x26, 0x0e, 0x4c, 0xbf, 0x89, 0x03, 0x01, 0xbf, 0x2b, 0xc2, 0xa8, 0xbc,
  0xb7, 0xbe, 0x9a, 0xbe, 0xa2, 0x64, 0x46, 0xbb, 0xf8, 0x8f, 0x02, 0xbe,
  0xe7, 0xf7, 0xd0, 0xbc, 0xf7, 0x59, 0x0e, 0xbf, 0xe0, 0xb2, 0x61, 0xbe,
  0x6e, 0x90, 0x8f, 0x3d, 0x64, 0x2b, 0xff, 0xbd, 0xc4, 0xaf, 0xc6, 0xbe,
  0x18, 0x72, 0xe5, 0x3c, 0xdb, 0xb6, 0x1c, 0x3e, 0x95, 0xbb, 0xfd, 0xbd,
  0x5e, 0x67, 0x46, 0xbf, 0x7b, 0x11, 0x58, 0xbf, 0x0f, 0x6e, 0x10, 0xbf,
  0x49, 0x02, 0xab, 0x3e, 0x1e, 0xdc, 0xde, 0x3d, 0x99, 0x34, 0x23, 0xbe,
  0xcb, 0xdf, 0xd1, 0x3d, 0x04, 0xe8, 0xa3, 0xbe, 0x1f, 0xe7, 0x15, 0x3a,
  0x85, 0x21, 0xed, 0x3d, 0x5d, 0x64, 0x73, 0x3e, 0x42, 0x76, 0xf3, 0xbd,
  0x7d, 0xf1, 0x66, 0xbe, 0x78, 0x8f, 0x9e, 0x3e, 0x9a, 0x8b, 0xbb, 0x3e,
  0x91, 0x09, 0x93, 0xbd, 0xaa, 0xc2, 0x4e, 0x3d, 0xdb, 0xaf, 0x24, 0xbe,
  0x07, 0x12, 0xcc, 0xbe, 0xb4, 0x98, 0xd3, 0x3e, 0xb0, 0xa0, 0xc6, 0x3d,
  0xa0, 0x82, 0xba, 0xbd, 0xee, 0xbb, 0xe5, 0x3d, 0x6f, 0x22, 0x51, 0xbd,
  0x30, 0xd8, 0xae, 0xbc, 0xca, 0xe8, 0x08, 0xbd, 0xe7, 0xe5, 0xa0, 0xbc,
  0xa1, 0x7c, 0xe6, 0x3d, 0x53, 0xb4, 0x08, 0x3e, 0xc1, 0x22, 0x84, 0x3d,
  0xe1, 0xb5, 0xd9, 0x3e, 0xbe, 0xbe, 0x13, 0x3d, 0xe0, 0x55, 0x68, 0x3d,
  0x96, 0x3d, 0x0c, 0xbe, 0x24, 0x1c, 0x9e, 0x3c, 0xb0, 0x62, 0x44, 0x3e,
  0x51, 0xaf, 0x18, 0x3e, 0xca, 0x3e, 0x4e, 0x3d, 0xe4, 0x23, 0x29, 0x3d,
  0xc2, 0x8b, 0xef, 0x3d, 0xba, 0xc3, 0xf0, 0xbc, 0xa8, 0xee, 0x18, 0x3a,
  0x6e, 0x6c, 0xbe, 0x3e, 0x3b, 0xbd, 0xeb, 0x3e, 0x9c, 0xcc, 0x1a, 0x3e,
  0xa8, 0xaa, 0x9f, 0x3e, 0x21, 0x8d, 0x8b, 0x3d, 0xa9, 0xe5, 0xb5, 0xbd,
  0xec, 0x04, 0xb9, 0x3d, 0xaf, 0x12, 0x91, 0x3d, 0x88, 0x07, 0xa4, 0x3e,
  0x79, 0x0e, 0x33, 0xbe, 0xd0, 0x0b, 0xd0, 0xbd, 0x00, 0x66, 0xee, 0xbd,
  0xd6, 0x69, 0x50, 0x3e, 0x5f, 0xf8, 0x25, 0x3e, 0x9d, 0xf7, 0xb1, 0xbe,
  0xb3, 0xaf, 0x07, 0xbf, 0xde, 0xb3, 0x62, 0xbe, 0x63, 0x3c, 0x9a, 0x3e,
  0x7c, 0x27, 0xee, 0x3d, 0xeb, 0x1d, 0x85, 0x3c, 0xff, 0x3c, 0x8f, 0xbe,
  0x71, 0xe9, 0x5f, 0xbd, 0x17, 0x19, 0x68, 0xbd, 0x35, 0x73, 0x16, 0xbe,
  0x0c, 0xeb, 0xad, 0x3d, 0x21, 0x62, 0xad, 0x3e, 0x97, 0xa5, 0xd7, 0x3e,
  0xff, 0xc2, 0x00, 0x3d, 0x55, 0xe5, 0x41, 0x3e, 0x83, 0xd8, 0x9b, 0x3e,
  0xd5, 0x08, 0x89, 0xbd, 0x79, 0x9c, 0xa3, 0xbe, 0x33, 0x6e, 0xa6, 0xbe,
  0xb4, 0xf5, 0x3d, 0x3e, 0x49, 0x2a, 0x8b, 0x3d, 0x41, 0x54, 0x49, 0x3e,
  0x23, 0xa2, 0x99, 0xbe, 0x94, 0xbd, 0xa3, 0x3d, 0xf6, 0x40, 0x3a, 0xbe,
  0x7f, 0x24, 0x0f, 0x3e, 0xfb, 0xf0, 0xb9, 0x3d, 0x03, 0x07, 0x9f, 0x3e,
  0x24, 0x1d, 0x00, 0x3f, 0xb8, 0x1f, 0xf1, 0x3d, 0xe0, 0x9a, 0xac, 0x3d,
  0x95, 0x46, 0xd3, 0x3d, 0xd7, 0x84, 0x53, 0xbe, 0x41, 0x22, 0x36, 0xbe,
  0xec, 0x6e, 0x27, 0xbe, 0xdc, 0x30, 0x7c, 0x3e, 0x0d, 0x54, 0x1b, 0xbd,
  0xb8, 0x58, 0xd3, 0xbb, 0x04, 0x96, 0x26, 0x3e, 0x6b, 0xbd, 0x1d, 0x3e,
  0x59, 0x78, 0x0c, 0xbe, 0x5a, 0x4b, 0xb5, 0x3d, 0x72, 0x62, 0xde, 0x3d,
  0xa5, 0x57, 0x88, 0x3d, 0x79, 0xd6, 0xd7, 0x3e, 0xb5, 0x15, 0x9e, 0x3d,
  0x6e, 0x01, 0xbd, 0x3d, 0x9c, 0x4c, 0x7b, 0x3e, 0x03, 0xbb, 0x5b, 0xbe,
  0xee, 0x5f, 0x53, 0xbe, 0x50, 0xba, 0xe0, 0xbd, 0x65, 0x8d, 0x94, 0x3d,
  0x4c, 0xc5, 0x7b, 0x3c, 0x4c, 0xb2, 0xa9, 0x3e, 0xf5, 0xe1, 0xa1, 0x3d,
  0x96, 0xbb, 0xfd, 0x3c, 0x85, 0x5f, 0xfd, 0xbd, 0x1a, 0x1f, 0x02, 0xbd,
  0xf6, 0x5a, 0x7b, 0xbd, 0x52, 0xca, 0x8b, 0x3d, 0x8f, 0x27, 0x43, 0x3e,
  0xf8, 0x29, 0x8b, 0x3c, 0x19, 0xbc, 0xcb, 0x3d, 0x9f, 0x11, 0x77, 0xbb,
  0xa1, 0x66, 0xd9, 0xbd, 0xf4, 0xd5, 0x80, 0xbe, 0xa1, 0x79, 0x66, 0xbe,
  0x3b, 0x3e, 0x9e, 0x3d, 0x71, 0x87, 0x33, 0xbd, 0x20, 0x3f, 0x3a, 0xbd,
  0x77, 0xb5, 0xa1, 0xbd, 0x5f, 0x43, 0x34, 0x3d, 0x20, 0xf3, 0xa4, 0xbe,
  0x39, 0x02, 0x7b, 0x3d, 0xe5, 0x5b, 0xc7, 0xbb, 0x94, 0x2e, 0x78, 0xbd,
  0xe3, 0x33, 0x8a, 0x3e, 0x24, 0x5b, 0xe3, 0x3c, 0x41, 0x99, 0xef, 0x3c,
  0xd5, 0xed, 0x28, 0xbd, 0xf8, 0x3b, 0x8e, 0xbe, 0x24, 0xe2, 0x60, 0xbe,
  0xea, 0xe2, 0xea, 0xbe, 0xe7, 0x20, 0xe3, 0x3c, 0xfd, 0x0d, 0x98, 0x3c,
  0xd7, 0xe0, 0x66, 0x3e, 0x9b, 0x84, 0x84, 0xbd, 0xa6, 0x0a, 0x90, 0x3d,
  0xce, 0x8e, 0x02, 0xbf, 0x28, 0x29, 0x25, 0x3d, 0x7c, 0x43, 0x76, 0xbd,
  0xe1, 0xdf, 0xbb, 0xbd, 0xc7, 0xe5, 0x24, 0x3e, 0x4f, 0xf7, 0x4a, 0xb9,
  0x8b, 0xe4, 0xe4, 0xbd, 0x1f, 0x85, 0xa8, 0x3d, 0x25, 0x23, 0xb5, 0xbe,
  0xf9, 0xda, 0x20, 0xbe, 0x51, 0xb2, 0x2d, 0xbe, 0x28, 0xf7, 0x21, 0x3d,
  0x31, 0xd0, 0x3f, 0x3e, 0xee, 0xdf, 0xcd, 0x3d, 0x45, 0x87, 0xfb, 0xbc,
  0x80, 0x19, 0x68, 0x3d, 0x57, 0xca, 0x36, 0xbe, 0x1f, 0xb8, 0xb8, 0xbc,
  0x90, 0x7a, 0xb1, 0xbc, 0x6c, 0xd4, 0xda, 0x3d, 0xfe, 0x4f, 0x42, 0x3d,
  0x5f, 0x14, 0xa2, 0xbe, 0xbe, 0x5d, 0x8d, 0xbe, 0xdf, 0x63, 0x01, 0x3e,
  0xb0, 0x34, 0xd0, 0xbd, 0x52, 0xb4, 0x29, 0x3d, 0xb4, 0x7b, 0x34, 0xbe,
  0x50, 0xaf, 0x1c, 0xbe, 0xba, 0x32, 0xac, 0xbd, 0x81, 0xf7, 0x31, 0x3d,
  0x97, 0x1e, 0x7e, 0xbd, 0xe1, 0xf0, 0xea, 0xbd, 0x4d, 0x46, 0x72, 0xbe,
  0x49, 0xa4, 0xa4, 0xba, 0x5d, 0x1b, 0xf1, 0xbd, 0x9e, 0xd5, 0x37, 0xbe,
  0x78, 0xa5, 0xef, 0x3d, 0x68, 0xc0, 0x8a, 0x39, 0x6c, 0xa9, 0x63, 0xbe,
  0xe5, 0x75, 0x0b, 0xbe, 0x84, 0x06, 0x8b, 0xbb, 0x0f, 0xb6, 0x92, 0x3c,
  0x2b, 0xd0, 0x4d, 0xbe, 0xdd, 0xf5, 0xf2, 0x3d, 0x85, 0xa9, 0xb7, 0xbd,
  0x00, 0x09, 0xd3, 0xbc, 0x4a, 0x6f, 0x92, 0x3d, 0xbd, 0x6a, 0xd9, 0xbd,
  0x41, 0x43, 0x8d, 0xbd, 0x19, 0xe8, 0x6b, 0xbe, 0xcc, 0x6f, 0x44, 0xbe,
  0xf3, 0xd1, 0x03, 0x3e, 0x3a, 0xfa, 0x4f, 0x3d, 0xa2, 0x7d, 0x2f, 0xbe,
  0xfd, 0xdb, 0xd8, 0x3d, 0x4d, 0x8f, 0x4d, 0x3b, 0x5d, 0xed, 0x62, 0xbe,
  0x9f, 0x1e, 0xb3, 0x3d, 0xd9, 0x14, 0x1f, 0x3d, 0x0c, 0x40, 0x19, 0x3e,
  0x19, 0x4f, 0x25, 0xbe, 0xc2, 0x66, 0xc5, 0x3c, 0x09, 0xa6, 0x1a, 0xbe,
  0x18, 0x53, 0x21, 0xbc, 0x72, 0x2d, 0xad, 0xbc, 0xf3, 0x6b, 0x57, 0xbe,
  0x74, 0xf7, 0x9e, 0x3d, 0x09, 0x47, 0x86, 0xbd, 0x97, 0xbb, 0x15, 0xbe,
  0x87, 0xfd, 0xb8, 0xbc, 0xb7, 0xbe, 0x80, 0xbe, 0x02, 0x77, 0x50, 0xbe,
  0x93, 0x42, 0x79, 0xbd, 0x9e, 0x6b, 0xa4, 0xbd, 0xe6, 0xb9, 0xd0, 0xbd,
  0x18, 0xbf, 0x21, 0x3e, 0x5b, 0x06, 0x1d, 0x3e, 0x26, 0x28, 0x5d, 0x3e,
  0xa1, 0x05, 0x14, 0xbd, 0x04, 0xf3, 0x9b, 0xbd, 0xa7, 0x24, 0xf8, 0x3c,
  0x79, 0x95, 0x06, 0xbe, 0xec, 0x8c, 0xb1, 0x3d, 0x75, 0x53, 0x11, 0xbe,
  0xe7, 0xdd, 0x4a, 0xbe, 0x71, 0x30, 0x2b, 0xbe, 0x74, 0xb9, 0x3e, 0xbe,
  0x33, 0xef, 0x9c, 0xbd, 0x1c, 0x0a, 0x4b, 0xbe, 0x85, 0x5e, 0x1b, 0x3e,
  0x0c, 0xdc, 0xe8, 0xbd, 0xee, 0xc6, 0xd9, 0xbc, 0xef, 0xb5, 0x10, 0xbb,
  0x67, 0x56, 0xbf, 0x3d, 0xfe, 0x0d, 0x54, 0x3d, 0xac, 0x57, 0x6d, 0xbe,
  0xfb, 0x0e, 0x50, 0xbe, 0x80, 0x1a, 0xe4, 0x3c, 0xff, 0xa8, 0x90, 0xbc,
  0x26, 0x01, 0xe4, 0xbc, 0xf6, 0xda, 0x2b, 0xbe, 0xa1, 0x54, 0x8b, 0xbe,
  0x66, 0xfb, 0x8b, 0xbc, 0x9f, 0x5f, 0x1b, 0x3e, 0x6b, 0x9d, 0x81, 0x3d,
  0x0e, 0xd6, 0xfd, 0xbd, 0xc0, 0x5f, 0x1f, 0xbe, 0xf0, 0x43, 0xfe, 0xbd,
  0xe6, 0xb6, 0x66, 0xbe, 0xfd, 0x0c, 0x4b, 0xbe, 0x88, 0x9e, 0x49, 0x3d,
  0x54, 0x2e, 0x90, 0x3d, 0xea, 0x52, 0x62, 0xbd, 0x20, 0x6a, 0x1d, 0xbe,
  0x68, 0xbc, 0x13, 0x3e, 0x68, 0xea, 0x01, 0xbe, 0x7f, 0xbc, 0x4e, 0xbe,
  0x4e, 0x21, 0x6d, 0xbe, 0xf5, 0x75, 0x2b, 0xbe, 0x2e, 0x62, 0xd8, 0xbd,
  0x7f, 0xec, 0x0d, 0x3e, 0x23, 0x3e, 0x72, 0xbe, 0x6c, 0xde, 0x04, 0xbd,
  0x48, 0xe0, 0x11, 0x3e, 0x42, 0x36, 0x44, 0xbe, 0x4c, 0x38, 0x0c, 0xbe,
  0x57, 0x33, 0x4e, 0x3d, 0x4a, 0x41, 0xab, 0xbd, 0xce, 0xd9, 0x54, 0xbd,
  0xd2, 0xcf, 0x2f, 0xbe, 0x5d, 0x51, 0x7b, 0xbd, 0xc1, 0x87, 0xb3, 0x3e,
  0xee, 0xcd, 0x12, 0x3e, 0xa0, 0x64, 0x7f, 0x3c, 0xe0, 0x3b, 0x07, 0x3d,
  0x0c, 0xb5, 0xb1, 0x3d, 0xf7, 0x2a, 0x5c, 0x3d, 0x4c, 0xa0, 0xfd, 0xbd,
  0xe8, 0xd3, 0x4e, 0x3d, 0x9f, 0x3e, 0x38, 0xbd, 0xea, 0x68, 0x2b, 0xbf,
  0x89, 0x44, 0x12, 0x3e, 0x17, 0xb2, 0x5a, 0x3e, 0xfc, 0xd5, 0x97, 0x3e,
  0xcb, 0x03, 0x9d, 0x3d, 0xee, 0x70, 0x81, 0xbe, 0x74, 0x67, 0x90, 0x3e,
  0x81, 0x8d, 0x74, 0xbd, 0xce, 0x3c, 0xa5, 0xbe, 0x95, 0x87, 0x02, 0xbe,
  0x2c, 0xb4, 0x63, 0xbe, 0x0a, 0xb9, 0xa6, 0xbc, 0x4e, 0x69, 0x11, 0xbc,
  0x8d, 0x60, 0x55, 0x3d, 0xc7, 0x1a, 0x85, 0xbd, 0x6a, 0xca, 0xff, 0xbc,
  0x92, 0xa0, 0x64, 0x3d, 0x6f, 0xb5, 0x39, 0xbe, 0xde, 0x8a, 0x3e, 0xbe,
  0x52, 0x6c, 0xe5, 0x3a, 0x2d, 0x93, 0xc5, 0xbe, 0x1d, 0xbf, 0xdc, 0xbd,
  0x24, 0x83, 0x7e, 0x3e, 0x18, 0x20, 0x66, 0xbe, 0xbb, 0x8d, 0xe2, 0xbe,
  0xea, 0x78, 0xe8, 0xbd, 0x9e, 0x7d, 0x25, 0xbf, 0x03, 0x3d, 0xbb, 0xbd,
  0x76, 0xb4, 0x91, 0xbe, 0xeb, 0xb3, 0x33, 0xbe, 0x92, 0xcb, 0xba, 0xbe,
  0xfe, 0x90, 0xcc, 0x3d, 0x79, 0x7a, 0xb5, 0x3d, 0x2a, 0x03, 0x09, 0x3e,
  0xf7, 0xc1, 0xc9, 0xbd, 0xf1, 0x16, 0xb3, 0xbd, 0xe2, 0xe7, 0x09, 0xbf,
  0x48, 0xe0, 0x13, 0x3d, 0x41, 0x34, 0x4c, 0xbe, 0x90, 0x1a, 0xcb, 0x3d,
  0x6f, 0x5f, 0xd8, 0xbe, 0x21, 0xa9, 0x2c, 0xbd, 0xa3, 0x85, 0x96, 0xbe,
  0xf9, 0x1c, 0x3c, 0x3e, 0x10, 0x19, 0xb2, 0xbe, 0x3f, 0xdf, 0xf6, 0xbc,
  0x7e, 0x26, 0xed, 0xbd, 0x09, 0x74, 0xbf, 0xbc, 0xe3, 0x0d, 0x8f, 0x3d,
  0x91, 0xa5, 0x1b, 0x3e, 0x98, 0x55, 0x80, 0xbe, 0xf6, 0xb6, 0xc6, 0xbd,
  0xb8, 0x02, 0x24, 0xbf, 0x50, 0x8f, 0x40, 0x3d, 0x79, 0x18, 0x34, 0xbe,
  0x0e, 0xfa, 0xde, 0xbd, 0x21, 0x7f, 0x1b, 0xbd, 0x78, 0xb7, 0x55, 0x3d,
  0x92, 0xeb, 0x8b, 0xbe, 0x93, 0x77, 0xfc, 0xbd, 0xac, 0xf4, 0xe3, 0xbc,
  0xc9, 0x69, 0x2a, 0x3c, 0xf2, 0xc9, 0x0b, 0xbc, 0x53, 0xde, 0xa3, 0xbd,
  0x50, 0x6b, 0xae, 0x3b, 0x1c, 0x5c, 0xbf, 0x3d, 0xe2, 0xf4, 0x54, 0x3e,
  0x94, 0xe6, 0x74, 0xbd, 0xfb, 0x4d, 0xdc, 0xbe, 0xa6, 0x94, 0x8e, 0xbd,
  0x5a, 0x22, 0x9c, 0xbe, 0x43, 0x7a, 0xbf, 0xbb, 0x35, 0x7c, 0x2b, 0xbe,
  0x96, 0xc4, 0xf5, 0x3c, 0xa5, 0x41, 0x02, 0xbf, 0x42, 0x69, 0xeb, 0xbc,
  0x65, 0x4e, 0x12, 0xbd, 0x90, 0x09, 0x85, 0xbc, 0x7b, 0x41, 0x38, 0xbc,
  0xcb, 0xd6, 0x3f, 0xbd, 0x92, 0x89, 0xb2, 0xbd, 0xd2, 0x46, 0xfd, 0x3d,
  0xbe, 0x88, 0xae, 0xbd, 0x93, 0x32, 0x08, 0xbd, 0x71, 0xe7, 0x99, 0xbe,
  0xeb, 0x57, 0x7a, 0xbc, 0x9a, 0xdd, 0xcb, 0xbd, 0x39, 0xf1, 0x00, 0xbb,
  0xfb, 0x31, 0xba, 0xbd, 0xbe, 0x9e, 0xd2, 0xbc, 0x9d, 0xeb, 0x52, 0xbd,
  0xeb, 0xd6, 0xef, 0x3c, 0x10, 0x1d, 0x48, 0xbe, 0x52, 0x9d, 0xcb, 0x3d,
  0x0a, 0x9c, 0xbe, 0xbd, 0x3f, 0xb1, 0xbe, 0x3d, 0x1b, 0xef, 0xf8, 0xbc,
  0x30, 0x72, 0x6a, 0xbe, 0xa6, 0x4a, 0xa4, 0x3b, 0x7a, 0x3a, 0x8d, 0xbd,
  0x7f, 0x37, 0xac, 0xbe, 0x79, 0xa1, 0x22, 0x3d, 0x3d, 0x68, 0x15, 0xbe,
  0x50, 0xf0, 0x59, 0xbe, 0x94, 0xe9, 0x13, 0xbe, 0xae, 0xd5, 0x9f, 0xbe,
  0xfa, 0x94, 0x40, 0xbe, 0x59, 0x14, 0x31, 0xbe, 0xd4, 0x7e, 0x5a, 0x3c,
  0x19, 0xd6, 0x3b, 0xbe, 0xea, 0x96, 0xcf, 0x3d, 0xed, 0x04, 0xe5, 0x3d,
  0x95, 0x39, 0x44, 0xbd, 0x3d, 0x37, 0x97, 0x3d, 0xf6, 0xab, 0x24, 0x3d,
  0xec, 0xed, 0x96, 0xbe, 0xfd, 0x02, 0x58, 0xbd, 0x9e, 0x77, 0xbb, 0xbe,
  0x5c, 0x70, 0x87, 0x3d, 0x14, 0x3f, 0x25, 0xbe, 0xe7, 0xba, 0x02, 0xbe,
  0x3b, 0x4d, 0x4c, 0xbe, 0xc4, 0x7d, 0xcc, 0x37, 0x6a, 0xc2, 0x6c, 0xbe,
  0x7c, 0xde, 0x60, 0xbe, 0xf3, 0x34, 0xe6, 0x3d, 0x88, 0x1d, 0xae, 0x3d,
  0xac, 0xe2, 0xfb, 0x3d, 0x13, 0x2b, 0x33, 0xbe, 0x0d, 0x8c, 0x08, 0x3e,
  0x0f, 0x89, 0xa9, 0xbd, 0xc1, 0x2f, 0x9a, 0xbe, 0xb5, 0xf1, 0x3a, 0xbe,
  0xd5, 0x37, 0xb3, 0xbe, 0xf4, 0xe3, 0x5f, 0xbe, 0x36, 0x5c, 0xdd, 0x3c,
  0x90, 0xc2, 0x59, 0xbc, 0x44, 0xcd, 0x17, 0xbe, 0x78, 0x47, 0x1d, 0xbe,
  0xf6, 0xcd, 0xa7, 0x3c, 0xc8, 0xf5, 0x61, 0x3d, 0x13, 0xe3, 0x43, 0x3e,
  0xe7, 0xc3, 0x48, 0xbe, 0xdc, 0xd8, 0x01, 0xbe, 0x7a, 0x56, 0x89, 0xbd,
  0x82, 0x57, 0x13, 0xbe, 0xba, 0x04, 0x3b, 0x3d, 0x34, 0x1b, 0x0d, 0xbe,
  0x44, 0x33, 0x07, 0x3e, 0x5a, 0xa3, 0x47, 0xbd, 0x2c, 0x0b, 0x2e, 0xbe,
  0x97, 0x5c, 0x9e, 0x3d, 0xc6, 0xcd, 0x61, 0x3d, 0x6a, 0x73, 0x1f, 0xbe,
  0x04, 0x71, 0x4d, 0xbe, 0x0e, 0x1b, 0x10, 0x3e, 0x09, 0xa1, 0x03, 0xbe,
  0x3d, 0x61, 0x99, 0xbd, 0xb7, 0x26, 0x13, 0x3e, 0x46, 0x13, 0x67, 0x3d,
  0x8e, 0xe4, 0x45, 0xbe, 0x55, 0x97, 0x4c, 0x3e, 0x30, 0x60, 0x46, 0x3d,
  0xfb, 0x37, 0x26, 0xbd, 0xd3, 0xd0, 0x90, 0xbd, 0x9c, 0x28, 0x8d, 0x3c,
  0x0d, 0x68, 0xb2, 0xbd, 0x0f, 0x43, 0xc5, 0x3d, 0x20, 0xf8, 0xb9, 0xbb,
  0xa4, 0x8b, 0x5f, 0xbe, 0x55, 0x6e, 0xeb, 0x3d, 0xb3, 0x92, 0xb3, 0xbd,
  0x9e, 0x30, 0x35, 0xbd, 0xae, 0x85, 0x9c, 0x3d, 0xc0, 0x41, 0x35, 0xbe,
  0x81, 0x79, 0xed, 0xbb, 0x85, 0x16, 0x75, 0x3c, 0xa3, 0x52, 0x41, 0x3e,
  0x4b, 0x57, 0x44, 0xbe, 0x80, 0x46, 0x0d, 0xbe, 0xb8, 0xc8, 0x4c, 0xbe,
  0x0e, 0x71, 0xdf, 0xbc, 0x75, 0x94, 0x8e, 0x3d, 0xde, 0x98, 0x70, 0xbd,
  0x05, 0x72, 0x31, 0xbe, 0x74, 0x2d, 0xe0, 0xbd, 0xe6, 0x49, 0x09, 0xbe,
  0x9c, 0xb5, 0x69, 0xbe, 0x53, 0x63, 0x3f, 0x3c, 0x3d, 0x48, 0x41, 0x3d,
  0xbf, 0xe7, 0x05, 0xbe, 0x0b, 0x07, 0x4b, 0xbe, 0xcc, 0xee, 0xbd, 0x3c,
  0x69, 0x9f, 0x66, 0xbd, 0xf4, 0x17, 0x4e, 0x3c, 0x29, 0x79, 0x1b, 0xbe,
  0x46, 0x0c, 0x47, 0x3d, 0xfe, 0x51, 0xc6, 0x3c, 0xa6, 0x37, 0x14, 0xbd,
  0x12, 0x96, 0xd6, 0xbc, 0xef, 0x96, 0x1f, 0xbc, 0x6d, 0xac, 0xc0, 0xbd,
  0x27, 0x49, 0x39, 0xbe, 0x51, 0x4d, 0x39, 0x3e, 0x0d, 0xb5, 0xd5, 0xbd,
  0x66, 0x76, 0x40, 0x3e, 0x0c, 0xec, 0x27, 0xbe, 0x10, 0x9b, 0x36, 0xbe,
  0x31, 0x78, 0x67, 0xbd, 0xfe, 0xec, 0xac, 0xbd, 0x1e, 0x47, 0x1b, 0xbe,
  0x19, 0xb7, 0x3d, 0xbe, 0x1d, 0xe6, 0xba, 0x3c, 0x78, 0x7e, 0x8a, 0xbe,
  0xb1, 0xde, 0x26, 0xbe, 0x21, 0xe2, 0x7c, 0xbe, 0x5a, 0x43, 0xdd, 0xbd,
  0xa1, 0x8a, 0xb2, 0xbe, 0x73, 0x0b, 0x50, 0x3e, 0xfe, 0x7d, 0x89, 0x3c,
  0xb6, 0x51, 0xa3, 0xbd, 0xd1, 0x12, 0x69, 0xbe, 0x43, 0x74, 0xee, 0xbb,
  0x2f, 0x55, 0xcb, 0x3e, 0x1c, 0x21, 0x37, 0x3e, 0x88, 0x82, 0xba, 0x3e,
  0xbd, 0x3f, 0x04, 0xbc, 0xf1, 0x88, 0xcd, 0xbd, 0x3a, 0xcf, 0x4d, 0xbe,
  0x4e, 0x48, 0xb2, 0xbd, 0x4c, 0x52, 0x45, 0x3d, 0x10, 0xc1, 0x54, 0xbe,
  0xc0, 0x40, 0x0d, 0x3d, 0xd7, 0x73, 0xb4, 0xbd, 0xa6, 0xb1, 0x7c, 0xbd,
  0x17, 0x04, 0x39, 0x3e, 0xea, 0x34, 0x23, 0x3c, 0x49, 0x07, 0x25, 0xbe,
  0x38, 0x93, 0xb1, 0xbe, 0xb5, 0x89, 0x16, 0x3e, 0x37, 0x52, 0x9e, 0x3e,
  0x6a, 0x87, 0x29, 0x3e, 0xa0, 0x33, 0x2f, 0xbe, 0xe9, 0x38, 0x4a, 0xbe,
  0x51, 0x50, 0xda, 0x3d, 0x89, 0x7e, 0x45, 0xbe, 0x32, 0x14, 0xe6, 0x3d,
  0xbf, 0x56, 0xc9, 0x3b, 0xd1, 0x75, 0xa8, 0x3d, 0xa2, 0x59, 0x4c, 0xbe,
  0x26, 0x38, 0x8f, 0x3e, 0xc0, 0x09, 0xd9, 0xbc, 0x7f, 0x0e, 0x8c, 0x3e,
  0x3a, 0xe0, 0x41, 0x3e, 0x50, 0xb7, 0x28, 0xbe, 0xed, 0xc4, 0x8d, 0x3a,
  0x84, 0xb6, 0x31, 0xbd, 0xfd, 0xff, 0x1a, 0x3d, 0xd9, 0x79, 0x93, 0x3c,
  0xc1, 0x27, 0xd0, 0xbd, 0x60, 0x09, 0x9a, 0x3d, 0x87, 0xbf, 0x13, 0x3e,
  0xee, 0xbf, 0x62, 0x3e, 0xee, 0x9f, 0x54, 0x3e, 0xab, 0x1b, 0xaa, 0x3d,
  0xab, 0xf6, 0x66, 0xbc, 0x6d, 0x29, 0x11, 0x3e, 0x6e, 0xf2, 0x27, 0x3d,
  0x37, 0x59, 0x76, 0xb9, 0x82, 0xa5, 0x53, 0xbe, 0xa5, 0x34, 0x17, 0xbe,
  0xf7, 0xd1, 0x13, 0x3e, 0x44, 0x1f, 0x81, 0x3e, 0xa3, 0x0b, 0x1f, 0xbd,
  0x14, 0x58, 0xc3, 0xbd, 0xba, 0x55, 0x26, 0xbd, 0x48, 0xa2, 0xff, 0x3d,
  0x84, 0x80, 0x79, 0xbd, 0x4f, 0xa6, 0xed, 0x3d, 0xa1, 0xde, 0x9f, 0x3d,
  0x32, 0xd0, 0x30, 0xbe, 0x69, 0xa4, 0xde, 0xbc, 0xca, 0x11, 0x2f, 0x3e,
  0xe1, 0x21, 0x94, 0x3e, 0x0d, 0x0e, 0xef, 0x3b, 0xc6, 0x49, 0x14, 0xbc,
  0xdc, 0x9c, 0x52, 0xbd, 0xc6, 0xff, 0x29, 0x3e, 0xb7, 0x5c, 0x36, 0x3e,
  0x2a, 0xf4, 0xd9, 0x3d, 0xca, 0x7e, 0x74, 0xbd, 0x7d, 0xbf, 0xd3, 0xbd,
  0x40, 0xc7, 0xc3, 0xbd, 0x09, 0x29, 0xd3, 0xbd, 0x80, 0xa9, 0x9c, 0xbe,
  0x79, 0xb8, 0x6f, 0x3d, 0xaf, 0xe3, 0xe9, 0xbd, 0x6d, 0x1a, 0x04, 0xbe,
  0x6a, 0x07, 0x95, 0xbd, 0xff, 0x3b, 0x0e, 0xbd, 0x5e, 0x17, 0xc0, 0xbc,
  0x66, 0xbf, 0xba, 0xbd, 0xa6, 0xcc, 0xc2, 0xbc, 0x15, 0x5c, 0x75, 0xbc,
  0xf2, 0xf8, 0x4b, 0x3e, 0xe1, 0xbd, 0xda, 0xbd, 0x3e, 0xf2, 0xfe, 0xbd,
  0x19, 0x4a, 0xb2, 0x3d, 0xb7, 0x40, 0xbf, 0xbe, 0x32, 0x68, 0x13, 0xbe,
  0xba, 0xf2, 0x05, 0x3e, 0xcc, 0x0a, 0x70, 0xbe, 0x48, 0x49, 0x94, 0xbe,
  0x46, 0x52, 0x8a, 0xbe, 0xfa, 0x66, 0x8f, 0xbd, 0xf3, 0x86, 0x13, 0xbe,
  0xb9, 0x64, 0x36, 0xbe, 0x42, 0xc4, 0x34, 0xbd, 0xbf, 0xe1, 0xe2, 0xbd,
  0xf3, 0xd0, 0x65, 0x3e, 0x70, 0x1e, 0xe2, 0x3e, 0xaa, 0x4b, 0x2a, 0xbd,
  0x67, 0x68, 0x9f, 0x3d, 0x53, 0x39, 0x54, 0xbe, 0x16, 0x66, 0xbc, 0xbc,
  0x6a, 0xdd, 0x69, 0xbd, 0xc5, 0x8c, 0x3f, 0x3d, 0x8e, 0x4a, 0x79, 0x3e,
  0xed, 0xda, 0x01, 0x3e, 0x7d, 0x29, 0x3c, 0xbd, 0x77, 0xb5, 0xe4, 0x3d,
  0xcb, 0xcf, 0x46, 0x3e, 0x32, 0xc1, 0xe1, 0xbd, 0xa6, 0xaf, 0xc5, 0xbd,
  0x78, 0xa9, 0xb9, 0x3c, 0x9f, 0x5a, 0x71, 0x3d, 0xe7, 0x7e, 0xdc, 0x3b,
  0x5c, 0x42, 0xa5, 0xbd, 0x42, 0x51, 0xaa, 0x3e, 0x3d, 0x70, 0xca, 0x3c,
  0x1a, 0x7d, 0x56, 0x3c, 0x02, 0xad, 0xaa, 0xbd, 0xb8, 0x7d, 0x2a, 0x3e,
  0xe4, 0x3f, 0xb8, 0x3d, 0x8c, 0xdf, 0x96, 0xbd, 0xe0, 0xa7, 0x72, 0x38,
  0x0a, 0xb1, 0x83, 0xbd, 0x55, 0x0d, 0x03, 0x3e, 0x26, 0x47, 0x97, 0xbe,
  0xff, 0x25, 0x82, 0xbd, 0x17, 0xe9, 0x3a, 0xbe, 0xb3, 0xe9, 0xb2, 0x3d,
  0x1e, 0x1e, 0xb2, 0x3b, 0x24, 0x69, 0x29, 0x3e, 0x76, 0x1e, 0x3e, 0xbe,
  0x69, 0x1f, 0xc3, 0x3c, 0x8d, 0x4f, 0x7d, 0xbe, 0x59, 0x15, 0xc8, 0x3c,
  0xeb, 0x14, 0x6e, 0x3e, 0x5f, 0x6f, 0x4f, 0x3e, 0xf3, 0xce, 0x54, 0xbd,
  0x1b, 0x81, 0x1e, 0x3d, 0xd2, 0x9d, 0x90, 0xbd, 0xf7, 0x26, 0x10, 0x3e,
  0xda, 0x95, 0xd5, 0xbd, 0x01, 0xc3, 0xd5, 0xbe, 0xc6, 0x58, 0xb4, 0xbe,
  0x1b, 0xf1, 0x80, 0x3b, 0x58, 0xeb, 0x14, 0x3b, 0xb6, 0x84, 0x81, 0x3e,
  0x0a, 0xbd, 0x11, 0xbe, 0xae, 0x97, 0x80, 0x3c, 0x25, 0x42, 0xa6, 0xbe,
  0xef, 0x5b, 0x64, 0x3c, 0x42, 0xe1, 0x34, 0x3c, 0x2f, 0x84, 0xf5, 0x3c,
  0xf0, 0x9c, 0x25, 0xbd, 0x4e, 0x87, 0xd9, 0x3c, 0xcb, 0x47, 0x4e, 0xbd,
  0x17, 0x78, 0xb6, 0x3d, 0xbe, 0x08, 0x86, 0xbe, 0xf3, 0x8d, 0xcf, 0xbe,
  0x8a, 0x61, 0x44, 0xbd, 0xba, 0xf8, 0x60, 0x3e, 0xa2, 0xe5, 0x4b, 0xbc,
  0x5e, 0x0d, 0x45, 0x3b, 0xa8, 0x01, 0x08, 0x3e, 0x26, 0xed, 0xcc, 0x3c,
  0x30, 0xcc, 0xb6, 0xbe, 0x95, 0x8f, 0x5e, 0x3c, 0x60, 0x10, 0x70, 0xbe,
  0x0e, 0xca, 0x2b, 0x3e, 0xbc, 0x21, 0x30, 0xbd, 0x43, 0xe1, 0x81, 0x3d,
  0xb2, 0xdc, 0x55, 0x3d, 0xf2, 0xbc, 0x3a, 0x3e, 0x4a, 0x70, 0x72, 0xbe,
  0x78, 0xfa, 0x23, 0xbe, 0x7e, 0xef, 0xa4, 0xbc, 0x0a, 0xbb, 0x7e, 0xbc,
  0xc7, 0x77, 0x39, 0xbd, 0xe6, 0x01, 0x10, 0xbe, 0xf9, 0x20, 0xd9, 0x3d,
  0x08, 0xf7, 0x67, 0x3d, 0x93, 0xe0, 0x02, 0xbe, 0xe1, 0xb6, 0x21, 0xbd,
  0xb8, 0xa9, 0x2e, 0xbe, 0x05, 0x18, 0xc5, 0x3e, 0x95, 0x5f, 0x7b, 0x3d,
  0x6b, 0xc3, 0x15, 0x3b, 0x74, 0xd4, 0x37, 0x3c, 0x47, 0xe2, 0x08, 0xbe,
  0x5f, 0xdf, 0xc9, 0xbd, 0x25, 0x66, 0x94, 0xbe, 0x1b, 0x3d, 0xb8, 0xbd,
  0xeb, 0x24, 0xda, 0x3d, 0x54, 0x9b, 0x33, 0x3d, 0xd9, 0xea, 0x13, 0x3e,
  0x9a, 0xa7, 0xe9, 0x3e, 0x51, 0x38, 0x97, 0x3d, 0x6e, 0x9c, 0xc6, 0xbd,
  0x78, 0xed, 0xa1, 0xbd, 0xfa, 0x50, 0x25, 0xbd, 0x2b, 0x5b, 0xe3, 0x3c,
  0x91, 0xc6, 0x08, 0xbd, 0xea, 0x05, 0xcf, 0x3c, 0x9f, 0x40, 0x73, 0x3c,
  0xbd, 0xfe, 0x97, 0xbd, 0x73, 0xfa, 0x8b, 0xbd, 0xa0, 0xfb, 0xcd, 0xbd,
  0x2a, 0x07, 0x6f, 0xbc, 0xf9, 0xfa, 0x98, 0x3d, 0x58, 0xee, 0x5b, 0x3d,
  0x20, 0x96, 0x53, 0xbe, 0xb1, 0x01, 0x55, 0x3e, 0x4e, 0x77, 0xbd, 0x3c,
  0xe1, 0x16, 0xad, 0xbd, 0x4a, 0xcf, 0xb8, 0x3c, 0xe8, 0xb0, 0x0f, 0x3e,
  0x4c, 0xd0, 0x4b, 0xbe, 0x59, 0x70, 0x3f, 0xbe, 0xc9, 0xe8, 0x04, 0x3e,
  0xe1, 0xeb, 0xaa, 0xbd, 0xe3, 0xac, 0x82, 0xbe, 0x27, 0xe3, 0xa6, 0x3d,
  0xc0, 0xe2, 0x96, 0x3e, 0xd1, 0xe9, 0x0a, 0x3e, 0xba, 0xe5, 0xd3, 0xbd,
  0x96, 0xcb, 0x52, 0xbd, 0xd0, 0x95, 0x4c, 0x3e, 0x3e, 0xe7, 0x52, 0xbe,
  0xfc, 0xe1, 0xba, 0x3c, 0x1d, 0x58, 0x26, 0xbb, 0x23, 0x54, 0xc9, 0x3d,
  0x7f, 0x84, 0x35, 0xbe, 0xd3, 0x33, 0x39, 0xbe, 0x5e, 0x03, 0xd2, 0xbe,
  0x29, 0x15, 0xef, 0x3c, 0x86, 0xe4, 0xff, 0xbd, 0x1f, 0x5f, 0x68, 0xbc,
  0x66, 0xbe, 0x09, 0x3e, 0x81, 0xd4, 0x9c, 0x3c, 0x25, 0xb1, 0x4e, 0x3e,
  0x72, 0x1d, 0x5c, 0xbe, 0x4e, 0x03, 0xa1, 0xbd, 0x48, 0xb3, 0x9f, 0x3c,
  0xe6, 0x89, 0x3c, 0xbd, 0xc4, 0x53, 0x0b, 0xbc, 0xdf, 0x29, 0x54, 0x3e,
  0xe1, 0x2b, 0x68, 0xbd, 0x5a, 0x74, 0x51, 0xbe, 0x1e, 0x1b, 0x11, 0xbe,
  0x6e, 0x2e, 0xa3, 0xbe, 0xe8, 0xbd, 0x70, 0xbd, 0x99, 0x69, 0x98, 0x3d,
  0x74, 0x11, 0xb0, 0x3d, 0x35, 0x12, 0x2c, 0x3d, 0xa2, 0x7a, 0x6f, 0x3e,
  0x9f, 0xe8, 0x4d, 0x3e, 0x57, 0x53, 0xec, 0xbd, 0x87, 0x36, 0x29, 0xbd,
  0x06, 0xff, 0xec, 0x3d, 0xb3, 0x1e, 0xa7, 0x3e, 0xa1, 0x92, 0x38, 0xbd,
  0x40, 0xfe, 0x42, 0x3e, 0xc2, 0x50, 0x44, 0xbe, 0x0a, 0x78, 0x26, 0xbe,
  0xc1, 0xbc, 0x1e, 0xbd, 0xff, 0xf7, 0xb1, 0xbe, 0xa5, 0x27, 0x7d, 0xbd,
  0x61, 0xb0, 0x94, 0x3c, 0x61, 0x86, 0x79, 0x3e, 0x22, 0xce, 0x20, 0xbd,
  0x55, 0xe8, 0xa7, 0x3e, 0x3d, 0x7e, 0xba, 0x3d, 0x0a, 0x40, 0x88, 0xbd,
  0x74, 0x45, 0xd4, 0xbc, 0x3a, 0x88, 0x3c, 0x3e, 0x0b, 0xf5, 0x6f, 0x3d,
  0xfd, 0xa7, 0x85, 0xbc, 0x29, 0xef, 0x8c, 0x3e, 0x61, 0x24, 0x95, 0xbd,
  0xaa, 0x0f, 0x9c, 0x3d, 0x4d, 0x40, 0xe5, 0xbe, 0xec, 0xc5, 0xed, 0xbe,
  0xcd, 0x76, 0x80, 0xbd, 0xd0, 0x36, 0x7d, 0xbe, 0x81, 0x59, 0xfe, 0x3b,
  0xd8, 0x72, 0xc5, 0x3d, 0xf6, 0x57, 0x96, 0x3e, 0x85, 0xd5, 0x99, 0x3d,
  0x56, 0x86, 0x76, 0xbb, 0xa1, 0xfc, 0x3d, 0xbd, 0x7a, 0xb2, 0xf2, 0xbd,
  0xfc, 0x2f, 0xc7, 0xbe, 0xc8, 0xcf, 0x87, 0xbc, 0x3c, 0x4d, 0x30, 0x3e,
  0xf1, 0xa6, 0x69, 0x3c, 0x2a, 0x25, 0x5c, 0xbd, 0x69, 0x32, 0x9c, 0xbd,
  0xff, 0xe2, 0x8d, 0xbe, 0x65, 0x13, 0x08, 0xbe, 0x55, 0x1f, 0xd5, 0xbd,
  0x4f, 0x83, 0xc5, 0xbc, 0xd8, 0x35, 0x9a, 0x3b, 0xb0, 0x41, 0x62, 0x3e,
  0xd5, 0x8e, 0xf2, 0x3c, 0x47, 0x92, 0x52, 0xbe, 0x71, 0x26, 0x96, 0xbd,
  0xec, 0x53, 0xd5, 0x3d, 0x5f, 0x5f, 0x8e, 0x3d, 0x12, 0x0c, 0x17, 0xbd,
  0xb8, 0xf8, 0x16, 0x3c, 0x39, 0x4d, 0x46, 0x3d, 0xd5, 0x36, 0x50, 0x3e,
  0x85, 0x08, 0x0b, 0xbe, 0x77, 0xd6, 0x53, 0xbe, 0x46, 0x93, 0x7f, 0xbd,
  0x29, 0x13, 0x5d, 0x3d, 0x5e, 0xe6, 0x2f, 0x3d, 0x80, 0x2a, 0xf2, 0x3d,
  0x81, 0x87, 0x3d, 0x3e, 0x92, 0xc1, 0xc7, 0x3d, 0x31, 0xb6, 0xe7, 0x3d,
  0x6d, 0x86, 0x44, 0x3d, 0xb3, 0x68, 0xab, 0x3c, 0x47, 0xa6, 0xce, 0xbe,
  0x3a, 0x15, 0xd8, 0x3c, 0xb4, 0x49, 0x10, 0x3e, 0xfa, 0x3e, 0x9e, 0xbd,
  0x45, 0x6c, 0xc3, 0xbd, 0xeb, 0x95, 0x66, 0xbe, 0x05, 0xfe, 0xd3, 0xbd,
  0xb3, 0x77, 0xc7, 0xbd, 0x93, 0x03, 0x82, 0xbd, 0xa7, 0x29, 0x1e, 0xbe,
  0x6c, 0xae, 0xfc, 0xbe, 0xea, 0x43, 0x9d, 0xbd, 0x8b, 0x89, 0x89, 0xbd,
  0x2c, 0x60, 0x1a, 0xbf, 0x8e, 0xb7, 0xe9, 0xbd, 0x9f, 0xce, 0x49, 0xbd,
  0xe4, 0x3a, 0x66, 0xbd, 0x83, 0x39, 0x02, 0xbe, 0xdf, 0x20, 0x37, 0x3c,
  0x02, 0xd8, 0xd4, 0xbe, 0xfe, 0xa6, 0xf0, 0xbe, 0x5f, 0xec, 0xa9, 0xbd,
  0x04, 0x83, 0x2e, 0x3d, 0x78, 0x09, 0x30, 0xbd, 0x59, 0x3e, 0x52, 0xbd,
  0x76, 0x5f, 0x34, 0x3e, 0x2c, 0xde, 0xf3, 0xbd, 0x9f, 0x12, 0xea, 0xbd,
  0xfb, 0x3f, 0x3e, 0xbe, 0x36, 0xbb, 0x1a, 0xbe, 0x1e, 0x7f, 0xfb, 0xbd,
  0xf9, 0x7b, 0xec, 0xbd, 0xd6, 0xc4, 0x6e, 0xbd, 0x28, 0x21, 0xa2, 0xbd,
  0x09, 0xad, 0x0e, 0xbe, 0x99, 0x36, 0x39, 0xbf, 0x25, 0x0c, 0x4a, 0xbe,
  0xc9, 0x35, 0x2f, 0xbd, 0xa0, 0xca, 0x25, 0xbd, 0xd3, 0xfd, 0x0d, 0xbe,
  0xc2, 0x6c, 0x08, 0xbe, 0x88, 0x9a, 0x0a, 0xbe, 0xda, 0xee, 0x69, 0xbe,
  0x42, 0xd3, 0x36, 0xbe, 0xa1, 0x54, 0xc7, 0xbe, 0x1b, 0xbc, 0x4d, 0xbe,
  0x00, 0xcd, 0xe9, 0xbd, 0x2b, 0x59, 0x19, 0xbe, 0xec, 0x3d, 0x7b, 0x3c,
  0x33, 0x8a, 0x6a, 0xbd, 0x69, 0x47, 0xad, 0xbe, 0x1f, 0x42, 0x05, 0xbf,
  0xfb, 0x77, 0x9b, 0xbe, 0x1e, 0xb5, 0x5f, 0x3a, 0x49, 0x02, 0x83, 0xbe,
  0x6c, 0xb3, 0xcd, 0xbd, 0x4a, 0x54, 0x83, 0x3a, 0x27, 0x31, 0x33, 0xbe,
  0x70, 0xc2, 0x14, 0xbf, 0x88, 0x24, 0x6b, 0x3d, 0x93, 0x01, 0x33, 0x3e,
  0x59, 0xdd, 0x27, 0x3e, 0x65, 0x46, 0x2c, 0x3d, 0xd4, 0xb1, 0x80, 0x3e,
  0x72, 0xf0, 0x26, 0x3e, 0x82, 0xa9, 0x04, 0xbe, 0x31, 0x5c, 0x16, 0xbf,
  0x37, 0xf5, 0xd2, 0xbe, 0xe9, 0xda, 0xc2, 0xbe, 0x52, 0x55, 0xf9, 0x3e,
  0xe0, 0x10, 0x05, 0xbd, 0xc2, 0x91, 0x7a, 0xbd, 0xa9, 0x98, 0xc7, 0x3d,
  0x48, 0x2a, 0x97, 0xbe, 0xd0, 0x53, 0xc9, 0xbd, 0xc2, 0x37, 0x1a, 0x3c,
  0xc1, 0xef, 0x48, 0x3e, 0xf9, 0xec, 0x99, 0xbe, 0x4a, 0x33, 0x2c, 0xbe,
  0x8b, 0x9a, 0x83, 0x3e, 0x69, 0xf8, 0x12, 0x3f, 0x11, 0x5c, 0xa9, 0xbd,
  0xbc, 0xb3, 0x72, 0x3d, 0xd8, 0xc3, 0x20, 0xbe, 0xc2, 0x5d, 0xc8, 0xbe,
  0xac, 0x89, 0xb4, 0x3e, 0x02, 0x36, 0x27, 0x3e, 0x30, 0xfc, 0x94, 0xbd,
  0x10, 0xd6, 0x27, 0x3e, 0x6c, 0x56, 0x83, 0xbe, 0x74, 0x07, 0x7a, 0x3d,
  0x9c, 0x8a, 0xaf, 0xbc, 0x2b, 0x84, 0x06, 0x3e, 0x89, 0x3a, 0x02, 0x3e,
  0x14, 0x74, 0x91, 0x3d, 0x87, 0xde, 0x00, 0x3d, 0xdc, 0x12, 0xc0, 0x3e,
  0xf7, 0xfb, 0xd8, 0x3d, 0xae, 0x87, 0xa3, 0x3d, 0xdc, 0x75, 0x80, 0xbd,
  0xd0, 0x66, 0x04, 0xbd, 0x84, 0x22, 0x4c, 0x3e, 0xc9, 0xbb, 0x89, 0xbd,
  0x20, 0x1f, 0x0f, 0xbd, 0xc8, 0x6b, 0x79, 0x3d, 0xc9, 0x50, 0x85, 0x3c,
  0xca, 0x47, 0x7f, 0x3d, 0x1d, 0x15, 0x5c, 0x3d, 0xc6, 0xbe, 0x7c, 0x3e,
  0xda, 0xdc, 0x19, 0x3e, 0x70, 0x0c, 0x50, 0x3e, 0xee, 0x3e, 0x49, 0x3d,
  0x5b, 0x09, 0x22, 0x3e, 0x94, 0x3d, 0xf0, 0x3d, 0x7a, 0x64, 0x9a, 0x3d,
  0xe3, 0x1d, 0x09, 0xbe, 0x0d, 0xc9, 0x8d, 0x3e, 0x49, 0x7f, 0xc5, 0x3c,
  0x0f, 0x5e, 0xe8, 0xbd, 0x27, 0x8f, 0x0e, 0xbe, 0xd8, 0x04, 0x9a, 0x3d,
  0x99, 0xcd, 0xea, 0x3c, 0x27, 0xa2, 0x25, 0xbe, 0x1f, 0x50, 0x14, 0x3e,
  0xae, 0x74, 0x9f, 0xbd, 0x1a, 0xe7, 0xb5, 0xbd, 0x34, 0xaa, 0x1b, 0xbc,
  0xf8, 0x04, 0xcf, 0xbc, 0xa7, 0x85, 0xad, 0xbb, 0x41, 0x09, 0x73, 0xbe,
  0x54, 0x3c, 0xc3, 0xbd, 0xa7, 0x9f, 0x94, 0xbe, 0xfd, 0xbb, 0x23, 0xbd,
  0x5c, 0xec, 0xa4, 0x3c, 0x16, 0x43, 0x40, 0xbe, 0x5a, 0x8e, 0x82, 0xbe,
  0x2a, 0xf7, 0x8b, 0xbe, 0xb7, 0x08, 0xfd, 0xbd, 0xe2, 0x4d, 0x88, 0x3c,
  0x20, 0xc5, 0x1a, 0xbc, 0x16, 0x5e, 0xe2, 0xbd, 0xff, 0x66, 0x22, 0x3e,
  0x32, 0xb3, 0x5a, 0xbe, 0xe8, 0xb4, 0x29, 0xbe, 0x99, 0xd1, 0x77, 0xbd,
  0x98, 0xd4, 0x05, 0xbe, 0x1f, 0xbb, 0x04, 0x3e, 0xf9, 0x2f, 0x3d, 0xbe,
  0x9e, 0xf2, 0x56, 0x3d, 0x93, 0x5a, 0xc5, 0x3c, 0x5e, 0x94, 0xa0, 0xbe,
  0x65, 0x0e, 0x74, 0xbe, 0x4e, 0xdc, 0x7b, 0xbe, 0x0f, 0xa3, 0xf6, 0x3d,
  0x8e, 0x11, 0x14, 0xbe, 0x44, 0x20, 0x2a, 0xbe, 0xd5, 0x3c, 0xdf, 0xbd,
  0x2d, 0x65, 0x1d, 0xbe, 0x39, 0x06, 0x14, 0x3d, 0x40, 0xce, 0x75, 0x3c,
  0xfd, 0x46, 0x93, 0x3c, 0xa6, 0x38, 0xa0, 0xbe, 0xaf, 0xce, 0x0a, 0xbe,
  0x93, 0x69, 0x01, 0xbd, 0x16, 0x7f, 0x2b, 0xbe, 0x3d, 0x48, 0x1f, 0xbd,
  0x66, 0xb2, 0x77, 0xbe, 0xf7, 0xe4, 0xb9, 0x3c, 0x5e, 0x30, 0x9f, 0xbd,
  0xc3, 0x68, 0x51, 0x3e, 0x27, 0x16, 0x6f, 0xbe, 0x30, 0x3b, 0x7f, 0x3d,
  0x15, 0xe5, 0x2b, 0x3c, 0xba, 0x69, 0xb2, 0xbd, 0xae, 0x53, 0x5f, 0xbe,
  0x86, 0xb5, 0x4e, 0xbe, 0x85, 0x2b, 0x54, 0xbe, 0xfe, 0x27, 0x8d, 0xbe,
  0xe5, 0x27, 0x9b, 0xbd, 0x5b, 0x8d, 0x93, 0xbd, 0x7b, 0xb0, 0x21, 0xbe,
  0x6b, 0x27, 0xa0, 0x3d, 0x61, 0x0b, 0x2a, 0xbd, 0xa4, 0xb1, 0x80, 0x3d,
  0xc4, 0x69, 0x85, 0xbe, 0x07, 0x3d, 0x8b, 0xbd, 0x77, 0x97, 0x2d, 0xbd,
  0x3a, 0xe8, 0xb2, 0x3d, 0x73, 0x79, 0x2c, 0xbd, 0x6d, 0xff, 0x0e, 0xbe,
  0x63, 0x96, 0xcb, 0x3c, 0x35, 0xe1, 0x11, 0x3e, 0xd7, 0x3b, 0x11, 0xbe,
  0xd2, 0x2c, 0xeb, 0x3c, 0x1f, 0x48, 0x60, 0xbd, 0x09, 0x9e, 0x54, 0xbe,
  0x5a, 0x18, 0x01, 0x3c, 0x1f, 0x42, 0x21, 0xbe, 0xb3, 0x13, 0xa0, 0xbd,
  0x40, 0x60, 0x2b, 0xbe, 0x23, 0xc7, 0x38, 0xbe, 0x60, 0x98, 0x50, 0xbe,
  0xec, 0xb0, 0x6e, 0xbe, 0x25, 0xc6, 0x1c, 0xbe, 0x46, 0x0f, 0xdb, 0xbc,
  0xa5, 0xd4, 0x6b, 0xbe, 0x6a, 0xbe, 0x25, 0xbe, 0xf9, 0xaa, 0x1d, 0xbe,
  0xc2, 0xb6, 0xa1, 0xbd, 0x7e, 0x12, 0x4a, 0xbd, 0x42, 0xcd, 0xda, 0x3c,
  0xba, 0x8b, 0x84, 0x3c, 0x15, 0x69, 0xfe, 0xbc, 0xac, 0x96, 0x5e, 0xbd,
  0xd8, 0x61, 0x3e, 0xbd, 0xb2, 0x39, 0x3f, 0xbe, 0x31, 0xcc, 0x5d, 0xbe,
  0xcf, 0x72, 0x1a, 0xbe, 0x88, 0x3b, 0x07, 0x3d, 0x47, 0xf2, 0xd0, 0xbd,
  0x91, 0xb0, 0xfd, 0xbd, 0x40, 0xcf, 0x85, 0x3d, 0x63, 0xfe, 0xac, 0x3d,
  0xef, 0xcc, 0x15, 0xbe, 0x76, 0xf9, 0xa7, 0x3d, 0x94, 0x66, 0x62, 0x3d,
  0xaf, 0x5b, 0x36, 0xbe, 0x89, 0x0c, 0xea, 0xbd, 0xeb, 0x34, 0xa3, 0xbb,
  0x66, 0xfd, 0xff, 0xff, 0x10, 0x00, 0x00, 0x00, 0x07, 0x00, 0x00, 0x00,
  0x14, 0x00, 0x00, 0x00, 0x2c, 0x00, 0x00, 0x00, 0x02, 0x00, 0x00, 0x00,
  0x10, 0x00, 0x00, 0x00, 0x70, 0x00, 0x00, 0x00, 0x17, 0x00, 0x00, 0x00,
  0x73, 0x65, 0x71, 0x75, 0x65, 0x6e, 0x74, 0x69, 0x61, 0x6c, 0x2f, 0x64,
  0x65, 0x6e, 0x73, 0x65, 0x2f, 0x4d, 0x61, 0x74, 0x4d, 0x75, 0x6c, 0x00,
  0xd0, 0xfc, 0xff, 0xff, 0xda, 0xfd, 0xff, 0xff, 0x04, 0x00, 0x00, 0x00,
  0x08, 0x00, 0x00, 0x00, 0xff, 0xff, 0xff, 0xff, 0x70, 0x00, 0x00, 0x00,
  0x00, 0x00, 0x0e, 0x00, 0x18, 0x00, 0x08, 0x00, 0x07, 0x00, 0x0c, 0x00,
  0x10, 0x00, 0x14, 0x00, 0x0e, 0x00, 0x00, 0x00, 0x00, 0x00, 0x00, 0x02,
  0x10, 0x00, 0x00, 0x00, 0x06, 0x00, 0x00, 0x00, 0x10, 0x00, 0x00, 0x00,
  0x2c, 0x00, 0x00, 0x00, 0x01, 0x00, 0x00, 0x00, 0x02, 0x00, 0x00, 0x00,
  0x18, 0x00, 0x00, 0x00, 0x73, 0x65, 0x71, 0x75, 0x65, 0x6e, 0x74, 0x69,
  0x61, 0x6c, 0x2f, 0x66, 0x6c, 0x61, 0x74, 0x74, 0x65, 0x6e, 0x2f, 0x43,
  0x6f, 0x6e, 0x73, 0x74, 0x00, 0x00, 0x00, 0x00, 0x38, 0xfd, 0xff, 0xff,
  0x42, 0xfe, 0xff, 0xff, 0x04, 0x00, 0x00, 0x00, 0x0c, 0x00, 0x00, 0x00,
  0xc3, 0x94, 0xbb, 0x3f, 0xce, 0x51, 0x2e, 0xc0, 0x30, 0xa8, 0xd9, 0x3e,
  0x26, 0xfe, 0xff, 0xff, 0x10, 0x00, 0x00, 0x00, 0x05, 0x00, 0x00, 0x00,
  0x10, 0x00, 0x00, 0x00, 0x44, 0x00, 0x00, 0x00, 0x01, 0x00, 0x00, 0x00,
  0x03, 0x00, 0x00, 0x00, 0x32, 0x00, 0x00, 0x00, 0x73, 0x65, 0x71, 0x75,
  0x65, 0x6e, 0x74, 0x69, 0x61, 0x6c, 0x2f, 0x64, 0x65, 0x6e, 0x73, 0x65,
  0x5f, 0x31, 0x2f, 0x42, 0x69, 0x61, 0x73, 0x41, 0x64, 0x64, 0x2f, 0x52,
  0x65, 0x61, 0x64, 0x56, 0x61, 0x72, 0x69, 0x61, 0x62, 0x6c, 0x65, 0x4f,
  0x70, 0x2f, 0x72, 0x65, 0x73, 0x6f, 0x75, 0x72, 0x63, 0x65, 0x00, 0x00,
  0xa8, 0xfd, 0xff, 0xff, 0xb2, 0xfe, 0xff, 0xff, 0x04, 0x00, 0x00, 0x00,
  0x40, 0x00, 0x00, 0x00, 0xae, 0x59, 0x99, 0xbf, 0x1b, 0x79, 0x1d, 0xbe,
  0x20, 0x86, 0x1a, 0xbe, 0x89, 0xae, 0x90, 0xbf, 0x1f, 0xe4, 0x9a, 0xbb,
  0x25, 0x7c, 0x71, 0xbd, 0x18, 0xb5, 0x6b, 0xbe, 0x31, 0x28, 0x1a, 0xbb,
  0x5c, 0xb6, 0x1e, 0xbe, 0xf2, 0xf6, 0xa0, 0xbf, 0xfc, 0x81, 0x6c, 0xbe,
  0xfb, 0x21, 0x8d, 0xbc, 0x5c, 0xf0, 0x71, 0xbb, 0x60, 0x32, 0xcc, 0xbf,
  0x4f, 0xd1, 0xf9, 0xbe, 0xec, 0x42, 0x0f, 0xbe, 0xca, 0xfe, 0xff, 0xff,
  0x10, 0x00, 0x00, 0x00, 0x04, 0x00, 0x00, 0x00, 0x10, 0x00, 0x00, 0x00,
  0x44, 0x00, 0x00, 0x00, 0x01, 0x00, 0x00, 0x00, 0x10, 0x00, 0x00, 0x00,
  0x30, 0x00, 0x00, 0x00, 0x73, 0x65, 0x71, 0x75, 0x65, 0x6e, 0x74, 0x69,
  0x61, 0x6c, 0x2f, 0x64, 0x65, 0x6e, 0x73, 0x65, 0x2f, 0x42, 0x69, 0x61,
  0x73, 0x41, 0x64, 0x64, 0x2f, 0x52, 0x65, 0x61, 0x64, 0x56, 0x61, 0x72,
  0x69, 0x61, 0x62, 0x6c, 0x65, 0x4f, 0x70, 0x2f, 0x72, 0x65, 0x73, 0x6f,
  0x75, 0x72, 0x63, 0x65, 0x00, 0x00, 0x00, 0x00, 0x4c, 0xfe, 0xff, 0xff,
  0x56, 0xff, 0xff, 0xff, 0x04, 0x00, 0x00, 0x00, 0x40, 0x00, 0x00, 0x00,
  0x95, 0x28, 0x04, 0xc0, 0x50, 0x0e, 0x43, 0xbe, 0x18, 0x7b, 0x32, 0x3b,
  0x88, 0x69, 0xc9, 0xbc, 0x9d, 0xd6, 0x48, 0xbc, 0xc2, 0x94, 0x38, 0xc0,
  0x17, 0x7d, 0x18, 0xc0, 0x4c, 0xda, 0xb2, 0xbf, 0x55, 0x9f, 0x49, 0xbc,
  0xf8, 0x87, 0x35, 0xbc, 0xff, 0x29, 0x31, 0xbd, 0xee, 0xef, 0xe9, 0xbf,
  0xae, 0x43, 0xdd, 0xba, 0x36, 0x7d, 0x21, 0xc0, 0xf8, 0x70, 0xd1, 0xbd,
  0x8c, 0xa6, 0xc0, 0x3a, 0x6e, 0xff, 0xff, 0xff, 0x10, 0x00, 0x00, 0x00,
  0x03, 0x00, 0x00, 0x00, 0x10, 0x00, 0x00, 0x00, 0x48, 0x00, 0x00, 0x00,
  0x01, 0x00, 0x00, 0x00, 0x10, 0x00, 0x00, 0x00, 0x33, 0x00, 0x00, 0x00,
  0x73, 0x65, 0x71, 0x75, 0x65, 0x6e, 0x74, 0x69, 0x61, 0x6c, 0x2f, 0x63,
  0x6f, 0x6e, 0x76, 0x32, 0x64, 0x5f, 0x31, 0x2f, 0x42, 0x69, 0x61, 0x73,
  0x41, 0x64, 0x64, 0x2f, 0x52, 0x65, 0x61, 0x64, 0x56, 0x61, 0x72, 0x69,
  0x61, 0x62, 0x6c, 0x65, 0x4f, 0x70, 0x2f, 0x72, 0x65, 0x73, 0x6f, 0x75,
  0x72, 0x63, 0x65, 0x00, 0x04, 0x00, 0x06, 0x00, 0x04, 0x00, 0x00, 0x00,
  0x00, 0x00, 0x06, 0x00, 0x08, 0x00, 0x04, 0x00, 0x06, 0x00, 0x00, 0x00,
  0x04, 0x00, 0x00, 0x00, 0x20, 0x00, 0x00, 0x00, 0xc8, 0x2a, 0x55, 0xc0,
  0x24, 0xb6, 0xf6, 0xbf, 0x85, 0xd0, 0x33, 0xbd, 0x9a, 0x0a, 0x14, 0xba,
  0x7c, 0x69, 0x2c, 0xc0, 0xd0, 0x63, 0x8b, 0xc0, 0xf1, 0x77, 0xfc, 0xbe,
  0x0b, 0xb7, 0x8e, 0xbf, 0x00, 0x00, 0x0e, 0x00, 0x14, 0x00, 0x04, 0x00,
  0x00, 0x00, 0x08, 0x00, 0x0c, 0x00, 0x10, 0x00, 0x0e, 0x00, 0x00, 0x00,
  0x10, 0x00, 0x00, 0x00, 0x02, 0x00, 0x00, 0x00, 0x10, 0x00, 0x00, 0x00,
  0x44, 0x00, 0x00, 0x00, 0x01, 0x00, 0x00, 0x00, 0x08, 0x00, 0x00, 0x00,
  0x31, 0x00, 0x00, 0x00, 0x73, 0x65, 0x71, 0x75, 0x65, 0x6e, 0x74, 0x69,
  0x61, 0x6c, 0x2f, 0x63, 0x6f, 0x6e, 0x76, 0x32, 0x64, 0x2f, 0x42, 0x69,
  0x61, 0x73, 0x41, 0x64, 0x64, 0x2f, 0x52, 0x65, 0x61, 0x64, 0x56, 0x61,
  0x72, 0x69, 0x61, 0x62, 0x6c, 0x65, 0x4f, 0x70, 0x2f, 0x72, 0x65, 0x73,
  0x6f, 0x75, 0x72, 0x63, 0x65, 0x00, 0x00, 0x00, 0x90, 0xff, 0xff, 0xff,
  0x14, 0x00, 0x18, 0x00, 0x04, 0x00, 0x00, 0x00, 0x08, 0x00, 0x0c, 0x00,
  0x10, 0x00, 0x00, 0x00, 0x00, 0x00, 0x14, 0x00, 0x14, 0x00, 0x00, 0x00,
  0x14, 0x00, 0x00, 0x00, 0x01, 0x00, 0x00, 0x00, 0x20, 0x00, 0x00, 0x00,
  0x44, 0x00, 0x00, 0x00, 0x2c, 0x00, 0x00, 0x00, 0x04, 0x00, 0x00, 0x00,
  0x01, 0x00, 0x00, 0x00, 0x40, 0x00, 0x00, 0x00, 0x03, 0x00, 0x00, 0x00,
  0x01, 0x00, 0x00, 0x00, 0x0c, 0x00, 0x00, 0x00, 0x63, 0x6f, 0x6e, 0x76,
  0x32, 0x64, 0x5f, 0x69, 0x6e, 0x70, 0x75, 0x74, 0x00, 0x00, 0x00, 0x00,
  0x04, 0x00, 0x00, 0x00, 0xff, 0xff, 0xff, 0xff, 0x40, 0x00, 0x00, 0x00,
  0x03, 0x00, 0x00, 0x00, 0x01, 0x00, 0x00, 0x00, 0xfc, 0xff, 0xff, 0xff,
  0x04, 0x00, 0x04, 0x00, 0x04, 0x00, 0x00, 0x00
};

unsigned int model_tflite_len = 13052;// Fill the int in `src/model.cc` here