#include "magic_wand_model_data.h"

// We need to keep the data array aligned on some architectures.
#ifdef __has_attribute
#define HAVE_ATTRIBUTE(x) __has_attribute(x)
#else
#define HAVE_ATTRIBUTE(x) 0
#endif
#if HAVE_ATTRIBUTE(aligned) || (defined(__GNUC__) && !defined(__clang__))
#define DATA_ALIGN_ATTRIBUTE __attribute__((aligned(4)))
#else
#define DATA_ALIGN_ATTRIBUTE
#endif

const unsigned char g_magic_wand_model_data[] DATA_ALIGN_ATTRIBUTE = {
  // Paste the data of the char array in `src/model.cc` here
  0x1c, 0x00, 0x00, 0x00, 0x54, 0x46, 0x4c, 0x33, 0x14, 0x00, 0x20, 0x00,
  0x04, 0x00, 0x08, 0x00, 0x0c, 0x00, 0x10, 0x00, 0x14, 0x00, 0x00, 0x00,
  0x18, 0x00, 0x1c, 0x00, 0x14, 0x00, 0x00, 0x00, 0x03, 0x00, 0x00, 0x00,
  0x18, 0x00, 0x00, 0x00, 0x2c, 0x00, 0x00, 0x00, 0xd8, 0x00, 0x00, 0x00,
  0x2c, 0x00, 0x00, 0x00, 0x80, 0x00, 0x00, 0x00, 0x78, 0x00, 0x00, 0x00,
  0x05, 0x00, 0x00, 0x00, 0x28, 0x07, 0x00, 0x00, 0x44, 0x06, 0x00, 0x00,
  0xbc, 0x03, 0x00, 0x00, 0xf8, 0x02, 0x00, 0x00, 0xac, 0x01, 0x00, 0x00,
  0x01, 0x00, 0x00, 0x00, 0xd0, 0x00, 0x00, 0x00, 0x14, 0x00, 0x00, 0x00,
  0xdc, 0x32, 0x00, 0x00, 0xd8, 0x32, 0x00, 0x00, 0xd0, 0x31, 0x00, 0x00,
  0x1c, 0x31, 0x00, 0x00, 0x74, 0x30, 0x00, 0x00, 0xfc, 0x2f, 0x00, 0x00,
  0x90, 0x2f, 0x00, 0x00, 0x40, 0x13, 0x00, 0x00, 0xec, 0x11, 0x00, 0x00,
  0x10, 0x10, 0x00, 0x00, 0xb4, 0x07, 0x00, 0x00, 0xb0, 0x32, 0x00, 0x00,
  0xac, 0x32, 0x00, 0x00, 0xa8, 0x32, 0x00, 0x00, 0xa4, 0x32, 0x00, 0x00,
  0xa0, 0x32, 0x00, 0x00, 0x9c, 0x32, 0x00, 0x00, 0x98, 0x32, 0x00, 0x00,
  0x94, 0x32, 0x00, 0x00, 0x3c, 0x00, 0x00, 0x00, 0x00, 0x00, 0x00, 0x00,
  0x01, 0x00, 0x00, 0x00, 0x0c, 0x00, 0x00, 0x00, 0x08, 0x00, 0x0c, 0x00,
  0x04, 0x00, 0x08, 0x00, 0x08, 0x00, 0x00, 0x00, 0x08, 0x00, 0x00, 0x00,
  0x13, 0x00, 0x00, 0x00, 0x13, 0x00, 0x00, 0x00, 0x6d, 0x69, 0x6e, 0x5f,
  0x72, 0x75, 0x6e, 0x74, 0x69, 0x6d, 0x65, 0x5f, 0x76, 0x65, 0x72, 0x73,
  0x69, 0x6f, 0x6e, 0x00, 0xb6, 0xce, 0xff, 0xff, 0x04, 0x00, 0x00, 0x00,
  0x10, 0x00, 0x00, 0x00, 0x31, 0x2e, 0x35, 0x2e, 0x30, 0x00, 0x00, 0x00,
  0x00, 0x00, 0x00, 0x00, 0x00, 0x00, 0x00, 0x00, 0x0f, 0x00, 0x00, 0x00,
  0x4d, 0x4c, 0x49, 0x52, 0x20, 0x43, 0x6f, 0x6e, 0x76, 0x65, 0x72, 0x74,
  0x65, 0x64, 0x2e, 0x00, 0x00, 0x00, 0x0e, 0x00, 0x18, 0x00, 0x04, 0x00,
  0x08, 0x00, 0x0c, 0x00, 0x10, 0x00, 0x14, 0x00, 0x0e, 0x00, 0x00, 0x00,
  0x14, 0x00, 0x00, 0x00, 0x5c, 0x00, 0x00, 0x00, 0x60, 0x00, 0x00, 0x00,
  0x64, 0x00, 0x00, 0x00, 0x84, 0x00, 0x00, 0x00, 0x12, 0x00, 0x00, 0x00,
  0x9c, 0x31, 0x00, 0x00, 0x2c, 0x31, 0x00, 0x00, 0x88, 0x30, 0x00, 0x00,
  0xe0, 0x2f, 0x00, 0x00, 0x38, 0x2f, 0x00, 0x00, 0xd4, 0x2e, 0x00, 0x00,
  0x6c, 0x2e, 0x00, 0x00, 0x18, 0x12, 0x00, 0x00, 0xbc, 0x10, 0x00, 0x00,
  0xe0, 0x0e, 0x00, 0x00, 0x0c, 0x06, 0x00, 0x00, 0x28, 0x05, 0x00, 0x00,
  0xe8, 0x03, 0x00, 0x00, 0x3c, 0x03, 0x00, 0x00, 0x98, 0x02, 0x00, 0x00,
  0xd4, 0x01, 0x00, 0x00, 0x10, 0x01, 0x00, 0x00, 0x84, 0x00, 0x00, 0x00,
  0x01, 0x00, 0x00, 0x00, 0x00, 0x00, 0x00, 0x00, 0x01, 0x00, 0x00, 0x00,
  0x11, 0x00, 0x00, 0x00, 0x08, 0x00, 0x00, 0x00, 0x74, 0x05, 0x00, 0x00,
  0x94, 0x04, 0x00, 0x00, 0x78, 0x03, 0x00, 0x00, 0xbc, 0x02, 0x00, 0x00,
  0x30, 0x02, 0x00, 0x00, 0x50, 0x01, 0x00, 0x00, 0xa8, 0x00, 0x00, 0x00,
  0x10, 0x00, 0x00, 0x00, 0x04, 0x00, 0x00, 0x00, 0x6d, 0x61, 0x69, 0x6e,
  0x00, 0x00, 0x00, 0x00, 0x7a, 0xff, 0xff, 0xff, 0x00, 0x00, 0x00, 0x09,
  0x04, 0x00, 0x00, 0x00, 0x1c, 0x00, 0x00, 0x00, 0x10, 0x00, 0x00, 0x00,
  0x04, 0x00, 0x00, 0x00, 0xb2, 0xcf, 0xff, 0xff, 0x00, 0x00, 0x80, 0x3f,
  0x01, 0x00, 0x00, 0x00, 0x11, 0x00, 0x00, 0x00, 0x01, 0x00, 0x00, 0x00,
  0x10, 0x00, 0x00, 0x00, 0xa0, 0xfa, 0xff, 0xff, 0x19, 0x00, 0x00, 0x00,
  0x00, 0x00, 0x00, 0x19, 0x01, 0x00, 0x00, 0x00, 0x40, 0xcf, 0xff, 0xff,
  0x14, 0x00, 0x00, 0x00, 0x12, 0x00, 0x00, 0x00, 0x18, 0x00, 0x00, 0x00,
  0x30, 0x00, 0x00, 0x00, 0x20, 0x00, 0x00, 0x00, 0x02, 0x00, 0x00, 0x00,
  0x01, 0x00, 0x00, 0x00, 0x04, 0x00, 0x00, 0x00, 0x08, 0x00, 0x00, 0x00,
  0x49, 0x64, 0x65, 0x6e, 0x74, 0x69, 0x74, 0x79, 0x00, 0x00, 0x00, 0x00,
  0x02, 0x00, 0x00, 0x00, 0xff, 0xff, 0xff, 0xff, 0x04, 0x00, 0x00, 0x00,
  0x24, 0xd0, 0xff, 0xff, 0x00, 0x00, 0x0e, 0x00, 0x18, 0x00, 0x08, 0x00,
  0x0c, 0x00, 0x10, 0x00, 0x07, 0x00, 0x14, 0x00, 0x0e, 0x00, 0x00, 0x00,
  0x00, 0x00, 0x00, 0x08, 0x03, 0x00, 0x00, 0x00, 0x18, 0x00, 0x00, 0x00,
  0x0c, 0x00, 0x00, 0x00, 0x04, 0x00, 0x00, 0x00, 0x40, 0xcf, 0xff, 0xff,
  0x01, 0x00, 0x00, 0x00, 0x10, 0x00, 0x00, 0x00, 0x03, 0x00, 0x00, 0x00,
  0x0f, 0x00, 0x00, 0x00, 0x07, 0x00, 0x00, 0x00, 0x04, 0x00, 0x00, 0x00,
  0xc8, 0xcf, 0xff, 0xff, 0x14, 0x00, 0x00, 0x00, 0x11, 0x00, 0x00, 0x00,
  0x18, 0x00, 0x00, 0x00, 0x5c, 0x00, 0x00, 0x00, 0x4c, 0x00, 0x00, 0x00,
  0x02, 0x00, 0x00, 0x00, 0x01, 0x00, 0x00, 0x00, 0x04, 0x00, 0x00, 0x00,
  0x34, 0x00, 0x00, 0x00, 0x73, 0x65, 0x71, 0x75, 0x65, 0x6e, 0x74, 0x69,
  0x61, 0x6c, 0x2f, 0x64, 0x65, 0x6e, 0x73, 0x65, 0x5f, 0x31, 0x2f, 0x4d,
  0x61, 0x74, 0x4d, 0x75, 0x6c, 0x3b, 0x73, 0x65, 0x71, 0x75, 0x65, 0x6e,
  0x74, 0x69, 0x61, 0x6c, 0x2f, 0x64, 0x65, 0x6e, 0x73, 0x65, 0x5f, 0x31,
  0x2f, 0x42, 0x69, 0x61, 0x73, 0x41, 0x64, 0x64, 0x00, 0x00, 0x00, 0x00,
  0x02, 0x00, 0x00, 0x00, 0xff, 0xff, 0xff, 0xff, 0x04, 0x00, 0x00, 0x00,
  0xc8, 0xcf, 0xff, 0xff, 0xda, 0xfc, 0xff, 0xff, 0x00, 0x00, 0x00, 0x08,
  0x03, 0x00, 0x00, 0x00, 0x24, 0x00, 0x00, 0x00, 0x18, 0x00, 0x00, 0x00,
  0x0c, 0x00, 0x00, 0x00, 0x00, 0x00, 0x06, 0x00, 0x08, 0x00, 0x07, 0x00,
  0x06, 0x00, 0x00, 0x00, 0x00, 0x00, 0x00, 0x01, 0x01, 0x00, 0x00, 0x00,
  0x0f, 0x00, 0x00, 0x00, 0x03, 0x00, 0x00, 0x00, 0x0e, 0x00, 0x00, 0x00,
  0x06, 0x00, 0x00, 0x00, 0x03, 0x00, 0x00, 0x00, 0xe8, 0xfb, 0xff, 0xff,
  0x09, 0x00, 0x00, 0x00, 0x00, 0x00, 0x00, 0x09, 0x01, 0x00, 0x00, 0x00,
  0x88, 0xd0, 0xff, 0xff, 0x14, 0x00, 0x00, 0x00, 0x10, 0x00, 0x00, 0x00,
  0x18, 0x00, 0x00, 0x00, 0x6c, 0x00, 0x00, 0x00, 0x5c, 0x00, 0x00, 0x00,
  0x02, 0x00, 0x00, 0x00, 0x01, 0x00, 0x00, 0x00, 0x10, 0x00, 0x00, 0x00,
  0x46, 0x00, 0x00, 0x00, 0x73, 0x65, 0x71, 0x75, 0x65, 0x6e, 0x74, 0x69,
  0x61, 0x6c, 0x2f, 0x64, 0x65, 0x6e, 0x73, 0x65, 0x2f, 0x4d, 0x61, 0x74,
  0x4d, 0x75, 0x6c, 0x3b, 0x73, 0x65, 0x71, 0x75, 0x65, 0x6e, 0x74, 0x69,
  0x61, 0x6c, 0x2f, 0x64, 0x65, 0x6e, 0x73, 0x65, 0x2f, 0x52, 0x65, 0x6c,
  0x75, 0x3b, 0x73, 0x65, 0x71, 0x75, 0x65, 0x6e, 0x74, 0x69, 0x61, 0x6c,
  0x2f, 0x64, 0x65, 0x6e, 0x73, 0x65, 0x2f, 0x42, 0x69, 0x61, 0x73, 0x41,
  0x64, 0x64, 0x00, 0x00, 0x02, 0x00, 0x00, 0x00, 0xff, 0xff, 0xff, 0xff,
  0x10, 0x00, 0x00, 0x00, 0xa8, 0xd1, 0xff, 0xff, 0x00, 0x00, 0x0a, 0x00,
  0x10, 0x00, 0x04, 0x00, 0x08, 0x00, 0x0c, 0x00, 0x0a, 0x00, 0x00, 0x00,
  0x02, 0x00, 0x00, 0x00, 0x10, 0x00, 0x00, 0x00, 0x04, 0x00, 0x00, 0x00,
  0x01, 0x00, 0x00, 0x00, 0x0e, 0x00, 0x00, 0x00, 0x02, 0x00, 0x00, 0x00,
  0x0d, 0x00, 0x00, 0x00, 0x05, 0x00, 0x00, 0x00, 0xa8, 0xfc, 0xff, 0xff,
  0x16, 0x00, 0x00, 0x00, 0x00, 0x00, 0x00, 0x16, 0x01, 0x00, 0x00, 0x00,
  0x48, 0xd1, 0xff, 0xff, 0x14, 0x00, 0x00, 0x00, 0x0f, 0x00, 0x00, 0x00,
  0x18, 0x00, 0x00, 0x00, 0x40, 0x00, 0x00, 0x00, 0x30, 0x00, 0x00, 0x00,
  0x02, 0x00, 0x00, 0x00, 0x01, 0x00, 0x00, 0x00, 0x70, 0x00, 0x00, 0x00,
  0x1a, 0x00, 0x00, 0x00, 0x73, 0x65, 0x71, 0x75, 0x65, 0x6e, 0x74, 0x69,
  0x61, 0x6c, 0x2f, 0x66, 0x6c, 0x61, 0x74, 0x74, 0x65, 0x6e, 0x2f, 0x52,
  0x65, 0x73, 0x68, 0x61, 0x70, 0x65, 0x00, 0x00, 0x02, 0x00, 0x00, 0x00,
  0xff, 0xff, 0xff, 0xff, 0x70, 0x00, 0x00, 0x00, 0x2c, 0xd1, 0xff, 0xff,
  0x3e, 0xfe, 0xff, 0xff, 0x00, 0x00, 0x00, 0x05, 0x01, 0x00, 0x00, 0x00,
  0x38, 0x00, 0x00, 0x00, 0x2c, 0x00, 0x00, 0x00, 0x14, 0x00, 0x00, 0x00,
  0x00, 0x00, 0x0e, 0x00, 0x14, 0x00, 0x00, 0x00, 0x10, 0x00, 0x0c, 0x00,
  0x08, 0x00, 0x04, 0x00, 0x0e, 0x00, 0x00, 0x00, 0x03, 0x00, 0x00, 0x00,
  0x01, 0x00, 0x00, 0x00, 0x03, 0x00, 0x00, 0x00, 0x01, 0x00, 0x00, 0x00,
  0x01, 0x00, 0x00, 0x00, 0x0d, 0x00, 0x00, 0x00, 0x01, 0x00, 0x00, 0x00,
  0x0c, 0x00, 0x00, 0x00, 0xe8, 0xd1, 0xff, 0xff, 0x14, 0x00, 0x00, 0x00,
  0x0e, 0x00, 0x00, 0x00, 0x20, 0x00, 0x00, 0x00, 0x58, 0x00, 0x00, 0x00,
  0x40, 0x00, 0x00, 0x00, 0x04, 0x00, 0x00, 0x00, 0x01, 0x00, 0x00, 0x00,
  0x07, 0x00, 0x00, 0x00, 0x01, 0x00, 0x00, 0x00, 0x10, 0x00, 0x00, 0x00,
  0x22, 0x00, 0x00, 0x00, 0x73, 0x65, 0x71, 0x75, 0x65, 0x6e, 0x74, 0x69,
  0x61, 0x6c, 0x2f, 0x6d, 0x61, 0x78, 0x5f, 0x70, 0x6f, 0x6f, 0x6c, 0x69,
  0x6e, 0x67, 0x32, 0x64, 0x5f, 0x31, 0x2f, 0x4d, 0x61, 0x78, 0x50, 0x6f,
  0x6f, 0x6c, 0x00, 0x00, 0x04, 0x00, 0x00, 0x00, 0xff, 0xff, 0xff, 0xff,
  0x07, 0x00, 0x00, 0x00, 0x01, 0x00, 0x00, 0x00, 0x10, 0x00, 0x00, 0x00,
  0xe4, 0xd1, 0xff, 0xff, 0x1a, 0xfe, 0xff, 0xff, 0x00, 0x00, 0x00, 0x01,
  0x24, 0x00, 0x00, 0x00, 0x18, 0x00, 0x00, 0x00, 0x04, 0x00, 0x00, 0x00,
  0x0c, 0xfe, 0xff, 0xff, 0x01, 0x00, 0x00, 0x00, 0x01, 0x00, 0x00, 0x00,
  0x00, 0x00, 0x00, 0x01, 0x01, 0x00, 0x00, 0x00, 0x0c, 0x00, 0x00, 0x00,
  0x03, 0x00, 0x00, 0x00, 0x0b, 0x00, 0x00, 0x00, 0x09, 0x00, 0x00, 0x00,
  0x02, 0x00, 0x00, 0x00, 0x90, 0xd2, 0xff, 0xff, 0x14, 0x00, 0x00, 0x00,
  0x0d, 0x00, 0x00, 0x00, 0x20, 0x00, 0x00, 0x00, 0xb8, 0x00, 0x00, 0x00,
  0xa0, 0x00, 0x00, 0x00, 0x04, 0x00, 0x00, 0x00, 0x01, 0x00, 0x00, 0x00,
  0x15, 0x00, 0x00, 0x00, 0x01, 0x00, 0x00, 0x00, 0x10, 0x00, 0x00, 0x00,
  0x83, 0x00, 0x00, 0x00, 0x73, 0x65, 0x71, 0x75, 0x65, 0x6e, 0x74, 0x69,
  0x61, 0x6c, 0x2f, 0x63, 0x6f, 0x6e, 0x76, 0x32, 0x64, 0x5f, 0x31, 0x2f,
  0x52, 0x65, 0x6c, 0x75, 0x3b, 0x73, 0x65, 0x71, 0x75, 0x65, 0x6e, 0x74,
  0x69, 0x61, 0x6c, 0x2f, 0x63, 0x6f, 0x6e, 0x76, 0x32, 0x64, 0x5f, 0x31,
  0x2f, 0x42, 0x69, 0x61, 0x73, 0x41, 0x64, 0x64, 0x3b, 0x73, 0x65, 0x71,
  0x75, 0x65, 0x6e, 0x74, 0x69, 0x61, 0x6c, 0x2f, 0x63, 0x6f, 0x6e, 0x76,
  0x32, 0x64, 0x5f, 0x31, 0x2f, 0x43, 0x6f, 0x6e, 0x76, 0x32, 0x44, 0x3b,
  0x73, 0x65, 0x71, 0x75, 0x65, 0x6e, 0x74, 0x69, 0x61, 0x6c, 0x2f, 0x63,
  0x6f, 0x6e, 0x76, 0x32, 0x64, 0x5f, 0x31, 0x2f, 0x42, 0x69, 0x61, 0x73,
  0x41, 0x64, 0x64, 0x2f, 0x52, 0x65, 0x61, 0x64, 0x56, 0x61, 0x72, 0x69,
  0x61, 0x62, 0x6c, 0x65, 0x4f, 0x70, 0x2f, 0x72, 0x65, 0x73, 0x6f, 0x75,
  0x72, 0x63, 0x65, 0x00, 0x04, 0x00, 0x00, 0x00, 0xff, 0xff, 0xff, 0xff,
  0x15, 0x00, 0x00, 0x00, 0x01, 0x00, 0x00, 0x00, 0x10, 0x00, 0x00, 0x00,
  0xfc, 0xd3, 0xff, 0xff, 0x00, 0x00, 0x0e, 0x00, 0x1a, 0x00, 0x08, 0x00,
  0x0c, 0x00, 0x10, 0x00, 0x07, 0x00, 0x14, 0x00, 0x0e, 0x00, 0x00, 0x00,
  0x00, 0x00, 0x00, 0x05, 0x01, 0x00, 0x00, 0x00, 0x3c, 0x00, 0x00, 0x00,
  0x30, 0x00, 0x00, 0x00, 0x14, 0x00, 0x00, 0x00, 0x00, 0x00, 0x0e, 0x00,
  0x18, 0x00, 0x17, 0x00, 0x10, 0x00, 0x0c, 0x00, 0x08, 0x00, 0x04, 0x00,
  0x0e, 0x00, 0x00, 0x00, 0x03, 0x00, 0x00, 0x00, 0x03, 0x00, 0x00, 0x00,
  0x03, 0x00, 0x00, 0x00, 0x03, 0x00, 0x00, 0x00, 0x00, 0x00, 0x00, 0x01,
  0x01, 0x00, 0x00, 0x00, 0x0b, 0x00, 0x00, 0x00, 0x01, 0x00, 0x00, 0x00,
  0x0a, 0x00, 0x00, 0x00, 0x2c, 0xff, 0xff, 0xff, 0x11, 0x00, 0x00, 0x00,
  0x00, 0x00, 0x00, 0x11, 0x01, 0x00, 0x00, 0x00, 0xcc, 0xd3, 0xff, 0xff,
  0x14, 0x00, 0x00, 0x00, 0x0c, 0x00, 0x00, 0x00, 0x20, 0x00, 0x00, 0x00,
  0x58, 0x00, 0x00, 0x00, 0x40, 0x00, 0x00, 0x00, 0x04, 0x00, 0x00, 0x00,
  0x01, 0x00, 0x00, 0x00, 0x15, 0x00, 0x00, 0x00, 0x01, 0x00, 0x00, 0x00,
  0x08, 0x00, 0x00, 0x00, 0x20, 0x00, 0x00, 0x00, 0x73, 0x65, 0x71, 0x75,
  0x65, 0x6e, 0x74, 0x69, 0x61, 0x6c, 0x2f, 0x6d, 0x61, 0x78, 0x5f, 0x70,
  0x6f, 0x6f, 0x6c, 0x69, 0x6e, 0x67, 0x32, 0x64, 0x2f, 0x4d, 0x61, 0x78,
  0x50, 0x6f, 0x6f, 0x6c, 0x00, 0x00, 0x00, 0x00, 0x04, 0x00, 0x00, 0x00,
  0xff, 0xff, 0xff, 0xff, 0x15, 0x00, 0x00, 0x00, 0x01, 0x00, 0x00, 0x00,
  0x08, 0x00, 0x00, 0x00, 0xd8, 0xd4, 0xff, 0xff, 0x00, 0x00, 0x0e, 0x00,
  0x14, 0x00, 0x00, 0x00, 0x08, 0x00, 0x0c, 0x00, 0x07, 0x00, 0x10, 0x00,
  0x0e, 0x00, 0x00, 0x00, 0x00, 0x00, 0x00, 0x01, 0x30, 0x00, 0x00, 0x00,
  0x24, 0x00, 0x00, 0x00, 0x10, 0x00, 0x00, 0x00, 0x0c, 0x00, 0x10, 0x00,
  0x00, 0x00, 0x04, 0x00, 0x08, 0x00, 0x0f, 0x00, 0x0c, 0x00, 0x00, 0x00,
  0x01, 0x00, 0x00, 0x00, 0x01, 0x00, 0x00, 0x00, 0x00, 0x00, 0x00, 0x01,
  0x01, 0x00, 0x00, 0x00, 0x0a, 0x00, 0x00, 0x00, 0x03, 0x00, 0x00, 0x00,
  0x00, 0x00, 0x00, 0x00, 0x08, 0x00, 0x00, 0x00, 0x01, 0x00, 0x00, 0x00,
  0x0c, 0x00, 0x10, 0x00, 0x0b, 0x00, 0x00, 0x00, 0x0c, 0x00, 0x04, 0x00,
  0x0c, 0x00, 0x00, 0x00, 0x03, 0x00, 0x00, 0x00, 0x00, 0x00, 0x00, 0x03,
  0x01, 0x00, 0x00, 0x00, 0xac, 0xd4, 0xff, 0xff, 0x14, 0x00, 0x00, 0x00,
  0x0b, 0x00, 0x00, 0x00, 0x20, 0x00, 0x00, 0x00, 0xb0, 0x00, 0x00, 0x00,
  0x98, 0x00, 0x00, 0x00, 0x04, 0x00, 0x00, 0x00, 0x01, 0x00, 0x00, 0x00,
  0x40, 0x00, 0x00, 0x00, 0x03, 0x00, 0x00, 0x00, 0x08, 0x00, 0x00, 0x00,
  0x7b, 0x00, 0x00, 0x00, 0x73, 0x65, 0x71, 0x75, 0x65, 0x6e, 0x74, 0x69,
  0x61, 0x6c, 0x2f, 0x63, 0x6f, 0x6e, 0x76, 0x32, 0x64, 0x2f, 0x52, 0x65,
  0x6c, 0x75, 0x3b, 0x73, 0x65, 0x71, 0x75, 0x65, 0x6e, 0x74, 0x69, 0x61,
  0x6c, 0x2f, 0x63, 0x6f, 0x6e, 0x76, 0x32, 0x64, 0x2f, 0x42, 0x69, 0x61,
  0x73, 0x41, 0x64, 0x64, 0x3b, 0x73, 0x65, 0x71, 0x75, 0x65, 0x6e, 0x74,
  0x69, 0x61, 0x6c, 0x2f, 0x63, 0x6f, 0x6e, 0x76, 0x32, 0x64, 0x2f, 0x43,
  0x6f, 0x6e, 0x76, 0x32, 0x44, 0x3b, 0x73, 0x65, 0x71, 0x75, 0x65, 0x6e,
  0x74, 0x69, 0x61, 0x6c, 0x2f, 0x63, 0x6f, 0x6e, 0x76, 0x32, 0x64, 0x2f,
  0x42, 0x69, 0x61, 0x73, 0x41, 0x64, 0x64, 0x2f, 0x52, 0x65, 0x61, 0x64,
  0x56, 0x61, 0x72, 0x69, 0x61, 0x62, 0x6c, 0x65, 0x4f, 0x70, 0x2f, 0x72,
  0x65, 0x73, 0x6f, 0x75, 0x72, 0x63, 0x65, 0x00, 0x04, 0x00, 0x00, 0x00,
  0xff, 0xff, 0xff, 0xff, 0x40, 0x00, 0x00, 0x00, 0x03, 0x00, 0x00, 0x00,
  0x08, 0x00, 0x00, 0x00, 0x00, 0xd5, 0xff, 0xff, 0x0a, 0xd6, 0xff, 0xff,
  0x04, 0x00, 0x00, 0x00, 0x00, 0x08, 0x00, 0x00, 0x91, 0x07, 0x8f, 0x3e,
  0x36, 0xa6, 0xcd, 0x3e, 0x56, 0xbb, 0x1f, 0x3d, 0xe6, 0x53, 0x59, 0x3d,
  0x69, 0x93, 0x14, 0x3d, 0x05, 0x2d, 0xc8, 0x3e, 0xac, 0x4b, 0x02, 0xbe,
  0x9d, 0x31, 0x0b, 0xbd, 0x7b, 0xfc, 0xce, 0x3e, 0x4c, 0xb9, 0x6e, 0xbd,
  0xd4, 0x6b, 0xd9, 0xbd, 0x51, 0xac, 0xba, 0x3d, 0xd9, 0x71, 0x33, 0xbd,
  0x46, 0xf4, 0x96, 0x3e, 0x8d, 0x38, 0x04, 0xbc, 0x7e, 0x56, 0x9e, 0x3c,
  0xe9, 0xb3, 0x2f, 0x3d, 0xd9, 0x40, 0xec, 0xbd, 0x12, 0x4b, 0x10, 0xbe,
  0x38, 0xb9, 0xac, 0xbd, 0x11, 0xa7, 0xa5, 0xbd, 0xd3, 0x2e, 0x4d, 0x3e,
  0x70, 0x5b, 0xaa, 0x3d, 0xcc, 0x91, 0xdd, 0xbc, 0x50, 0xdb, 0xde, 0xbe,
  0x4a, 0x6d, 0x8c, 0xbe, 0xed, 0xd0, 0xed, 0xbd, 0x63, 0xb1, 0x2b, 0xbe,
  0x66, 0x1e, 0x00, 0xbe, 0xa7, 0xe5, 0x7a, 0x3e, 0x85, 0x17, 0xcd, 0xbd,
  0xbe, 0x90, 0x80, 0xbe, 0xab, 0x2f, 0x88, 0x3e, 0x83, 0xe9, 0x6c, 0xbd,
  0xee, 0x50, 0xbb, 0xbd, 0x10, 0x73, 0xbb, 0xbe, 0xf5, 0x38, 0x8c, 0x3c,
  0x0a, 0x00, 0xe8, 0x3e, 0xfc, 0x62, 0x9e, 0xbc, 0x17, 0x42, 0x14, 0xbf,
  0x1c, 0xa3, 0x90, 0x3e, 0xc0, 0x64, 0x13, 0xbf, 0xc3, 0x23, 0x80, 0xbd,
  0xd0, 0x5d, 0x01, 0xbf, 0x5b, 0x44, 0x45, 0xbd, 0xb9, 0x46, 0x97, 0xbd,
  0x02, 0xb9, 0xae, 0x3e, 0x70, 0x9f, 0x95, 0xbe, 0x85, 0x2f, 0x0b, 0x3c,
  0x96, 0x4a, 0xf8, 0x3b, 0xe1, 0x6a, 0xa4, 0x3d, 0xd1, 0xdc, 0x98, 0xbe,
  0xc5, 0xce, 0x26, 0xbe, 0xce, 0xca, 0xd5, 0x3d, 0x63, 0x8d, 0xf6, 0x3e,
  0x66, 0x31, 0x21, 0xbf, 0xc5, 0xc4, 0x94, 0x3e, 0xb4, 0x1b, 0x56, 0xbb,
  0xf3, 0xfd, 0x1c, 0x3d, 0xdb, 0x6e, 0x54, 0xbe, 0x19, 0xae, 0x03, 0xbe,
  0xd4, 0xef, 0x13, 0xbc, 0xc7, 0x88, 0x41, 0xbf, 0x2a, 0xd7, 0x17, 0xbf,
  0x5d, 0xfd, 0x93, 0x3e, 0x24, 0x40, 0x8b, 0xbe, 0x2a, 0x09, 0xd5, 0xbe,
  0xff, 0x45, 0xe4, 0x3c, 0x4b, 0x01, 0x32, 0x3c, 0xf4, 0x36, 0x99, 0x3e,
  0xd0, 0x21, 0xa6, 0x3d, 0x74, 0xc4, 0x8b, 0xbe, 0x99, 0x5a, 0x55, 0x3e,
  0xd5, 0x09, 0xd0, 0xbe, 0x64, 0x4b, 0xe3, 0xbe, 0xeb, 0x4b, 0x9e, 0xbe,
  0x4e, 0x77, 0xd2, 0xbd, 0x7c, 0x24, 0x25, 0xbd, 0x18, 0xa6, 0x42, 0xbe,
  0xef, 0x51, 0x4f, 0x3d, 0x32, 0x64, 0xdf, 0xbd, 0x43, 0x0e, 0x67, 0xbd,
  0x8f, 0x09, 0x46, 0xbe, 0x10, 0x2a, 0x8a, 0x3d, 0x62, 0x78, 0x1a, 0xbd,
  0xcc, 0xe7, 0x62, 0x3d, 0x20, 0x42, 0x7a, 0x3e, 0x62, 0x7f, 0xc3, 0x3e,
  0xd6, 0xdc, 0x87, 0x3d, 0x72, 0x0f, 0x94, 0xbb, 0xd3, 0xb5, 0xb5, 0xbd,
  0x40, 0x6b, 0xe3, 0xbc, 0x2f, 0xa9, 0x70, 0x3b, 0x95, 0x2d, 0x45, 0x3d,
  0xf1, 0xe2, 0xc9, 0x3e, 0x14, 0xe9, 0x44, 0xbd, 0x69, 0x0f, 0x01, 0xbe,
  0x12, 0xe3, 0xfd, 0xbd, 0xb5, 0xd2, 0x48, 0xbd, 0xf2, 0x21, 0xb1, 0xbc,
  0xa3, 0xbf, 0x90, 0xbe, 0xa8, 0x7f, 0xac, 0xbd, 0xaf, 0xfd, 0x93, 0xbe,
  0x4c, 0xbb, 0x0d, 0xbe, 0xe0, 0xf2, 0x52, 0x3e, 0xfc, 0xe6, 0x13, 0xbe,
  0xb5, 0x53, 0x26, 0x3e, 0xf7, 0xd4, 0x10, 0xbe, 0x34, 0xb8, 0xb0, 0xbe,
  0xa5, 0x79, 0x0e, 0x3f, 0xf1, 0x60, 0xcb, 0x3d, 0xed, 0xa1, 0x07, 0x3e,
  0x4d, 0xf7, 0x71, 0x3e, 0x27, 0x22, 0xa0, 0xbe, 0x09, 0xe5, 0x0c, 0x3d,
  0x95, 0x7e, 0x84, 0xbe, 0x8d, 0xcb, 0x04, 0xbe, 0xaa, 0xa2, 0xe5, 0x3d,
  0xed, 0xce, 0x8a, 0x3d, 0x10, 0x01, 0x70, 0x3e, 0x9f, 0xde, 0x52, 0x3e,
  0x65, 0x07, 0x8a, 0x3d, 0x8d, 0x92, 0x11, 0xbe, 0xff, 0x6a, 0x7e, 0xbe,
  0x7a, 0x4b, 0x12, 0xbe, 0x94, 0xb8, 0xe0, 0x3d, 0x9f, 0x9b, 0x61, 0xbd,
  0xc1, 0xff, 0x51, 0x3e, 0x0d, 0x7b, 0x9b, 0xbd, 0x46, 0x30, 0x86, 0xbd,
  0xda, 0x66, 0x52, 0xbc, 0x0c, 0x3c, 0x04, 0xbe, 0x41, 0xf2, 0xdd, 0xbd,
  0xa0, 0x28, 0x97, 0xbd, 0x7e, 0xb3, 0xaa, 0xbe, 0x9a, 0x25, 0x2e, 0xbe,
  0x0f, 0x7a, 0x07, 0x3e, 0x31, 0xd9, 0xd2, 0xbc, 0x27, 0x0b, 0x25, 0x3d,
  0xdc, 0x22, 0xbc, 0xbd, 0x14, 0x66, 0x30, 0xbd, 0x49, 0x1d, 0x16, 0x3e,
  0x97, 0x81, 0x5b, 0x3d, 0x70, 0xb9, 0x83, 0xbd, 0x69, 0x7a, 0x32, 0x3e,
  0x6a, 0x8d, 0x65, 0xbe, 0x69, 0xe8, 0x4e, 0xbc, 0x2d, 0xf4, 0x60, 0xbe,
  0xba, 0x2f, 0xe1, 0xbd, 0x7b, 0x19, 0xef, 0x3b, 0x39, 0x89, 0x24, 0x3f,
  0x58, 0x3f, 0xb1, 0xbe, 0x93, 0xc5, 0xee, 0xbd, 0x73, 0x53, 0x95, 0x3b,
  0xcf, 0xb8, 0x58, 0x3c, 0x6f, 0x23, 0xf0, 0x3d, 0x7f, 0xc5, 0x00, 0xbe,
  0x96, 0xe2, 0x06, 0x3e, 0x99, 0x6c, 0xaa, 0xbc, 0x2c, 0x2b, 0xea, 0x3d,
  0xaa, 0x7d, 0x05, 0xbd, 0x33, 0x1e, 0xd9, 0xbc, 0x95, 0x9d, 0xb0, 0xbb,
  0x62, 0x9f, 0x51, 0x3e, 0xd7, 0x56, 0xc1, 0xbd, 0xdb, 0xa6, 0x3e, 0xbd,
  0xc8, 0x4a, 0x01, 0x3e, 0x9c, 0x3f, 0x1c, 0xbe, 0x44, 0xe3, 0x07, 0xbe,
  0x89, 0x8f, 0xb7, 0x3c, 0xfb, 0x1e, 0x84, 0xbd, 0xb6, 0xfc, 0x76, 0x3d,
  0xc0, 0x96, 0xda, 0x3e, 0xd0, 0x98, 0xe8, 0xbd, 0x14, 0xab, 0x24, 0x3e,
  0xf3, 0x98, 0x08, 0xbe, 0x8a, 0x65, 0x84, 0xbd, 0x71, 0x7e, 0xb8, 0x3d,
  0x99, 0x11, 0xdd, 0xbd, 0xbb, 0x4b, 0x16, 0x3d, 0xfb, 0x4d, 0x84, 0x3d,
  0x6e, 0x50, 0x58, 0x3d, 0x15, 0xbe, 0x14, 0xbd, 0xa2, 0x8b, 0x21, 0xbe,
  0xa0, 0x51, 0x59, 0xbd, 0xf7, 0xb9, 0xe3, 0xbd, 0xa7, 0x17, 0x2a, 0x3c,
  0x23, 0x70, 0xc5, 0x3d, 0x83, 0x22, 0x77, 0xbd, 0x49, 0x31, 0x94, 0xbe,
  0x32, 0x06, 0xf4, 0xbc, 0x02, 0xde, 0x7f, 0xbe, 0x75, 0xe5, 0x12, 0x3e,
  0xab, 0x48, 0x0f, 0xbe, 0x0c, 0xbc, 0x82, 0xbe, 0x08, 0xff, 0xa8, 0xbd,
  0xf8, 0x60, 0x8e, 0xbe, 0x48, 0xea, 0x0e, 0x3e, 0x6f, 0xda, 0x62, 0x3d,
  0x50, 0x57, 0x96, 0xbe, 0x7a, 0x2a, 0x14, 0xbb, 0x60, 0xd6, 0x7a, 0xbf,
  0x5c, 0x3f, 0xb1, 0xbe, 0x36, 0xe2, 0x7b, 0xbf, 0xe9, 0x32, 0xe8, 0xbd,
  0x9a, 0x46, 0x19, 0x3e, 0x9b, 0x2d, 0x92, 0x3e, 0xc0, 0x01, 0x1f, 0xbe,
  0x84, 0xa2, 0x29, 0x3e, 0xd3, 0x82, 0xe0, 0x3b, 0x5d, 0x8b, 0x0d, 0xbe,
  0xcc, 0x14, 0x0d, 0x3e, 0x8e, 0xab, 0xa9, 0xbc, 0x5e, 0x0e, 0x53, 0xbe,
  0x66, 0xf1, 0x52, 0xbe, 0x09, 0x82, 0x49, 0x3e, 0x7f, 0xd6, 0xef, 0xbd,
  0x52, 0x56, 0xc9, 0x3c, 0xfa, 0x39, 0x5a, 0xbd, 0x97, 0xa2, 0x3b, 0x3e,
  0xf3, 0xc9, 0x4d, 0xbd, 0x73, 0x5d, 0x10, 0xbe, 0x16, 0x54, 0x20, 0xbe,
  0x88, 0xd1, 0x10, 0x3e, 0x6b, 0xc7, 0x37, 0x3e, 0x3f, 0xa7, 0x7d, 0x3d,
  0x9c, 0x76, 0xc5, 0xbd, 0x3a, 0xf7, 0x3b, 0x3d, 0x43, 0xca, 0xa2, 0xbe,
  0x03, 0x05, 0xa8, 0x3e, 0xcb, 0x43, 0x40, 0x3e, 0x4d, 0xbb, 0xaa, 0xbe,
  0x07, 0x33, 0x19, 0xbe, 0x9d, 0x84, 0xc1, 0x3d, 0xb7, 0x2b, 0x59, 0xbe,
  0xee, 0x92, 0x46, 0xbd, 0x37, 0xfb, 0x8e, 0xbe, 0xc3, 0xbe, 0x14, 0xbe,
  0xcf, 0x6e, 0xc8, 0xbd, 0x2b, 0x78, 0xa4, 0xbd, 0xa2, 0x61, 0x1e, 0x3d,
  0x93, 0xc5, 0x2d, 0xbe, 0xdf, 0x92, 0x0d, 0x3e, 0x92, 0x30, 0x44, 0x3e,
  0xc0, 0x5d, 0x01, 0xbe, 0x81, 0x8b, 0xc5, 0xbd, 0xab, 0x98, 0x49, 0xbc,
  0x86, 0x9d, 0xbe, 0xbe, 0x70, 0xf0, 0x7a, 0x3d, 0x17, 0x5c, 0xa5, 0xbc,
  0xeb, 0xf3, 0xb9, 0x3e, 0x13, 0x8d, 0x13, 0xbd, 0x0b, 0x64, 0x02, 0xbe,
  0x2e, 0x03, 0xb9, 0x3d, 0x2f, 0x06, 0x30, 0xbe, 0x0b, 0x57, 0x0f, 0xbe,
  0xc1, 0xdd, 0xcd, 0xbd, 0x09, 0x24, 0x1a, 0xbe, 0x85, 0xb1, 0x8b, 0xbd,
  0xd8, 0x91, 0x31, 0xbe, 0x51, 0x07, 0xb6, 0xbd, 0xab, 0x99, 0x00, 0x3d,
  0xf1, 0x30, 0x92, 0xbe, 0xb8, 0x0b, 0x2b, 0xbe, 0xba, 0xab, 0x29, 0xbe,
  0x7d, 0x25, 0x12, 0xbe, 0x19, 0x1e, 0x49, 0xbd, 0x77, 0xc4, 0x1d, 0xbe,
  0x79, 0xe9, 0x5a, 0xbd, 0x45, 0xd6, 0xd1, 0xbd, 0x1a, 0x47, 0x95, 0xbe,
  0xd5, 0xab, 0x60, 0xbe, 0xd6, 0xa3, 0xbf, 0x3e, 0xac, 0x16, 0x9d, 0xbd,
  0x4b, 0x8e, 0x41, 0xbc, 0x5f, 0x2f, 0xb0, 0xbd, 0x4e, 0x77, 0x59, 0xbc,
  0x21, 0x8c, 0xe4, 0x3d, 0x6c, 0x27, 0x73, 0xbe, 0xb9, 0xf2, 0x56, 0xbd,
  0xbd, 0xa5, 0x01, 0x3e, 0x1e, 0x4c, 0xe2, 0x3e, 0x0f, 0xf4, 0x14, 0xbd,
  0xb6, 0xaa, 0x93, 0x3e, 0x2e, 0x06, 0x5b, 0x3d, 0xdc, 0xb6, 0x3d, 0x3e,
  0xc1, 0x1d, 0xf5, 0xbd, 0x4f, 0xc2, 0xa9, 0x3d, 0xf1, 0xfa, 0xce, 0x3d,
  0x7c, 0x32, 0x1e, 0x3e, 0x97, 0xda, 0x49, 0x3c, 0xe9, 0x97, 0x06, 0xbe,
  0x8d, 0xc6, 0x14, 0xbd, 0xfa, 0xea, 0x22, 0x3b, 0xa3, 0x49, 0xb0, 0xbd,
  0x83, 0xbc, 0xb7, 0x3e, 0x17, 0x72, 0x71, 0x3d, 0x5e, 0xbb, 0x54, 0x3e,
  0xc6, 0xca, 0x24, 0x3e, 0xff, 0xc7, 0x56, 0x3e, 0x9b, 0xaa, 0x24, 0xbd,
  0x87, 0x1e, 0x99, 0x3d, 0x87, 0x98, 0x47, 0xbe, 0xb4, 0x81, 0x9e, 0x3e,
  0x26, 0x3e, 0x39, 0x3c, 0x52, 0xec, 0x9b, 0xbc, 0xef, 0xf2, 0xb2, 0x3d,
  0xca, 0xfb, 0x0a, 0xbe, 0x1b, 0xc1, 0x97, 0x3d, 0x46, 0x0e, 0x0b, 0x3e,
  0x99, 0x19, 0x24, 0xbe, 0xea, 0xc8, 0x16, 0x3e, 0xfd, 0xb1, 0x51, 0xbe,
  0x21, 0x20, 0x79, 0xbd, 0xcc, 0xed, 0x96, 0xbd, 0xc8, 0x46, 0x76, 0xbe,
  0xe3, 0x2a, 0xe5, 0xbc, 0x1f, 0x74, 0xf5, 0x3d, 0xd4, 0x43, 0xbe, 0xbd,
  0x3b, 0xb8, 0x86, 0x3e, 0x43, 0x36, 0x59, 0x3e, 0xc9, 0xef, 0xaf, 0xbe,
  0xd5, 0xf2, 0x57, 0x3e, 0xf5, 0x10, 0x5c, 0xbe, 0x15, 0x9a, 0x21, 0xbe,
  0x30, 0x61, 0x79, 0x3d, 0x7e, 0xec, 0x47, 0x3d, 0x77, 0x11, 0xff, 0xbe,
  0x0d, 0x00, 0xa8, 0x3d, 0x73, 0x65, 0x0c, 0xbf, 0x8a, 0x97, 0x5a, 0xbe,
  0xac, 0xc7, 0xf0, 0xbe, 0xa1, 0xb7, 0xcd, 0xbd, 0x2e, 0x5a, 0x04, 0x3f,
  0x8f, 0x44, 0x40, 0xbc, 0xfe, 0xa9, 0x0a, 0xbc, 0x6e, 0xe2, 0xbc, 0x3c,
  0x38, 0xa0, 0xb9, 0xbb, 0x3d, 0x69, 0x08, 0xbe, 0x14, 0x8b, 0x59, 0xbe,
  0x50, 0x28, 0x81, 0xbc, 0xa8, 0x70, 0x8d, 0xbd, 0x58, 0x5b, 0x64, 0x3d,
  0xc5, 0x80, 0x26, 0x3e, 0x81, 0x54, 0x16, 0xbe, 0x1b, 0x92, 0xd9, 0x3b,
  0xf1, 0xac, 0xa2, 0xbd, 0xc9, 0xa2, 0x09, 0x3f, 0xcf, 0x1f, 0x4a, 0x3d,
  0x03, 0x03, 0x49, 0xbe, 0x86, 0x51, 0x3a, 0x3d, 0x48, 0x9b, 0x14, 0x3e,
  0xb1, 0x20, 0x09, 0xbe, 0x54, 0xd9, 0x29, 0xbe, 0x33, 0xa7, 0x66, 0x3e,
  0xb7, 0x60, 0x99, 0xbd, 0x5c, 0x2f, 0x89, 0xbd, 0xc6, 0x6d, 0x9d, 0xbd,
  0x72, 0x97, 0x54, 0xbb, 0x45, 0xf1, 0xc9, 0xbd, 0x87, 0xc0, 0xa0, 0xbe,
  0x9f, 0x2a, 0x71, 0xbd, 0xda, 0x6e, 0xec, 0x3b, 0x19, 0x05, 0x04, 0xbe,
  0x57, 0xf5, 0x31, 0xbc, 0x35, 0x68, 0x45, 0xbe, 0x2f, 0xbf, 0x8f, 0x3b,
  0xc7, 0x09, 0x09, 0x3e, 0x04, 0x0f, 0xf1, 0xbe, 0x5f, 0x61, 0xd9, 0x3d,
  0x0a, 0xdd, 0xd6, 0x3c, 0x8c, 0x08, 0xea, 0x3c, 0x61, 0xf1, 0x99, 0x3c,
  0xca, 0xe3, 0x96, 0xbe, 0x40, 0x93, 0x74, 0x3e, 0x51, 0xe4, 0x15, 0x3e,
  0x77, 0x69, 0xb2, 0xbe, 0x5a, 0xaf, 0x8a, 0x3d, 0x3d, 0x47, 0x2d, 0x3e,
  0x73, 0xd8, 0x66, 0x3d, 0xb6, 0x8f, 0xa0, 0xbc, 0x12, 0xe8, 0x46, 0xbe,
  0x43, 0x8c, 0x63, 0x3e, 0x8b, 0x99, 0x92, 0x3e, 0xb6, 0xd7, 0xba, 0x3d,
  0x67, 0x9b, 0x09, 0xbe, 0x00, 0x93, 0x37, 0xbe, 0x72, 0x03, 0xd6, 0xbd,
  0xfa, 0xd5, 0x27, 0xbd, 0xd1, 0xe7, 0x14, 0x3e, 0xf7, 0x1e, 0x20, 0xbe,
  0x94, 0xe5, 0x32, 0x3e, 0xcf, 0x6a, 0x8d, 0xbd, 0x54, 0xb4, 0xdf, 0xbd,
  0xf1, 0xd0, 0x70, 0xbe, 0xa2, 0x95, 0x4f, 0x3d, 0x85, 0xb1, 0x84, 0x3e,
  0x39, 0x9e, 0x12, 0x3e, 0x0e, 0x63, 0x1d, 0xbe, 0xe5, 0x2c, 0x60, 0x3e,
  0x78, 0x9d, 0x3f, 0x3e, 0xbc, 0xfb, 0x35, 0xbe, 0xab, 0xeb, 0x57, 0xbe,
  0x9f, 0x94, 0x81, 0xbd, 0x31, 0x90, 0x99, 0xbe, 0x1b, 0xde, 0x82, 0xbd,
  0xc4, 0xc0, 0x6f, 0xbe, 0x58, 0x48, 0xbf, 0x3d, 0xda, 0xac, 0x5a, 0x3e,
  0x7a, 0x15, 0x7c, 0x3c, 0xa0, 0xc1, 0x86, 0xbe, 0xbb, 0xee, 0x04, 0x3d,
  0xa6, 0x2c, 0x05, 0xbe, 0xa4, 0x55, 0x51, 0x3e, 0x68, 0x45, 0x74, 0xbe,
  0x6d, 0xf8, 0x98, 0x39, 0x1e, 0x2d, 0xd7, 0x3d, 0x9d, 0xa1, 0xce, 0xbc,
  0x97, 0x19, 0xb5, 0x3d, 0xfb, 0xc4, 0x92, 0xbd, 0x06, 0x86, 0x01, 0xbe,
  0xf3, 0x28, 0x1e, 0x3e, 0xa9, 0xf3, 0x1f, 0x3e, 0xa1, 0xa7, 0x71, 0x3d,
  0xff, 0x5d, 0x05, 0xbe, 0xff, 0x98, 0x6d, 0xbe, 0x33, 0xea, 0xb6, 0x3e,
  0xa5, 0x5a, 0x09, 0xbe, 0x89, 0xa5, 0x60, 0xbe, 0xf5, 0x82, 0x86, 0xbd,
  0x5a, 0x3e, 0x25, 0xbd, 0xdf, 0xe1, 0x09, 0xbd, 0xeb, 0x79, 0x95, 0x3d,
  0x64, 0x21, 0x06, 0xbe, 0xf8, 0xce, 0x25, 0xbe, 0x41, 0xf0, 0x8f, 0xbe,
  0xac, 0x01, 0x56, 0xbe, 0x41, 0x6c, 0x3a, 0xbb, 0x43, 0x67, 0x1c, 0xbd,
  0xda, 0xaa, 0xdb, 0xbb, 0xa3, 0xb5, 0x83, 0xbe, 0xbe, 0xdf, 0x79, 0xbe,
  0xc1, 0x6f, 0x62, 0xbe, 0x0d, 0x98, 0xc6, 0xbe, 0xa7, 0xde, 0xb1, 0x3d,
  0x95, 0x53, 0x3b, 0xbe, 0x3e, 0x3b, 0x3b, 0xbe, 0xc2, 0xc0, 0x94, 0xbe,
  0x62, 0x56, 0x47, 0x3e, 0x3b, 0xa6, 0x12, 0xbf, 0x4b, 0xe9, 0xe9, 0xbe,
  0x67, 0x35, 0x08, 0xbf, 0x55, 0xf9, 0x4d, 0xbe, 0x45, 0xf2, 0xa4, 0xbc,
  0x50, 0xf5, 0xfa, 0xbd, 0x4c, 0x21, 0x96, 0x3d, 0x58, 0x70, 0x76, 0xbe,
  0x23, 0xb6, 0x1f, 0xbf, 0xdd, 0x97, 0x0f, 0xbf, 0x5b, 0x9b, 0xf2, 0xbe,
  0xd7, 0xb5, 0x33, 0xbe, 0x67, 0x52, 0x7a, 0xbe, 0x89, 0x8d, 0xca, 0xbd,
  0xce, 0xd6, 0xb9, 0x3c, 0x43, 0xed, 0xa5, 0x3d, 0x92, 0xb4, 0x47, 0x3e,
  0xb5, 0x7b, 0xee, 0xbd, 0xbb, 0x09, 0x6d, 0x3e, 0x79, 0x81, 0xc5, 0xbd,
  0x96, 0x79, 0x07, 0xbe, 0x49, 0x09, 0x95, 0x3d, 0xd0, 0xc0, 0xa9, 0x3e,
  0xe1, 0x14, 0xd2, 0x3d, 0xbb, 0x84, 0x36, 0x3e, 0x21, 0x05, 0x27, 0x3c,
  0x25, 0x34, 0xbd, 0x3b, 0xf4, 0xe8, 0xa2, 0x3d, 0x5f, 0x44, 0xdb, 0xbd,
  0xd1, 0x4c, 0x13, 0x3d, 0x1a, 0xbc, 0x72, 0x3e, 0xef, 0xc1, 0x3e, 0x3f,
  0xc8, 0x8a, 0x29, 0x3c, 0x3f, 0x28, 0x9c, 0xbd, 0x2f, 0xff, 0x0c, 0xbd,
  0x4c, 0x36, 0x95, 0xbd, 0x35, 0xd3, 0x6c, 0x3f, 0x4e, 0x70, 0x17, 0xbd,
  0xba, 0x70, 0xbe, 0xbd, 0x89, 0xf6, 0x63, 0x3e, 0x53, 0x10, 0x0b, 0xbd,
  0xdb, 0x4a, 0xac, 0xbd, 0x51, 0x24, 0xf5, 0xbc, 0x9e, 0xf4, 0x30, 0xbd,
  0x2c, 0x4e, 0xf2, 0x39, 0xe3, 0x73, 0x31, 0xbd, 0x09, 0xdf, 0x13, 0x3d,
  0x05, 0x3e, 0x0e, 0x3e, 0xa6, 0xb3, 0x91, 0xbd, 0x67, 0xd8, 0x92, 0xbd,
  0x21, 0xf9, 0x7b, 0xbd, 0x2f, 0x01, 0xab, 0xbd, 0x43, 0xb6, 0xdf, 0x3d,
  0xb8, 0x26, 0x4e, 0xbd, 0x47, 0xc9, 0x57, 0xbd, 0x55, 0x20, 0x34, 0xbd,
  0x6a, 0x20, 0xd6, 0x3d, 0x9b, 0x1c, 0xe3, 0xbc, 0x8e, 0xe6, 0xa0, 0x3b,
  0x3a, 0x00, 0x77, 0xbd, 0x84, 0x93, 0xd8, 0xba, 0x55, 0xba, 0x13, 0xbd,
  0xbc, 0x9d, 0x3c, 0x3e, 0xe2, 0xdd, 0xff, 0xff, 0x10, 0x00, 0x00, 0x00,
  0x0a, 0x00, 0x00, 0x00, 0x1c, 0x00, 0x00, 0x00, 0x38, 0x00, 0x00, 0x00,
  0x04, 0x00, 0x00, 0x00, 0x10, 0x00, 0x00, 0x00, 0x04, 0x00, 0x00, 0x00,
  0x01, 0x00, 0x00, 0x00, 0x08, 0x00, 0x00, 0x00, 0x1a, 0x00, 0x00, 0x00,
  0x73, 0x65, 0x71, 0x75, 0x65, 0x6e, 0x74, 0x69, 0x61, 0x6c, 0x2f, 0x63,
  0x6f, 0x6e, 0x76, 0x32, 0x64, 0x5f, 0x31, 0x2f, 0x43, 0x6f, 0x6e, 0x76,
  0x32, 0x44, 0x00, 0x00, 0x58, 0xdd, 0xff, 0xff, 0x62, 0xde, 0xff, 0xff,
  0x04, 0x00, 0x00, 0x00, 0x80, 0x01, 0x00, 0x00, 0xa9, 0x4a, 0xb7, 0x3b,
  0xcd, 0xdb, 0x1a, 0x3e, 0x14, 0x79, 0x65, 0xbe, 0x2c, 0x32, 0x7a, 0xbe,
  0x73, 0x66, 0xdc, 0x3d, 0x7a, 0x6e, 0x0d, 0xbf, 0xa8, 0x31, 0x09, 0x3e,
  0xa6, 0x56, 0x12, 0xbe, 0x42, 0x44, 0xb2, 0x3e, 0xd0, 0x15, 0x98, 0x3d,
  0xd3, 0x8d, 0x80, 0xbd, 0x8e, 0x90, 0xce, 0x3e, 0x37, 0xff, 0x4b, 0xbe,
  0x2c, 0xb1, 0xbc, 0x3d, 0x87, 0x0e, 0xa4, 0xbe, 0x55, 0xd6, 0xaf, 0xbc,
  0x30, 0x05, 0xf8, 0xbc, 0xe5, 0x77, 0x5f, 0xbe, 0x8e, 0x9a, 0x23, 0x3d,
  0x3a, 0xee, 0x51, 0xbe, 0xd6, 0x99, 0x9c, 0x3d, 0xc3, 0x75, 0x57, 0xbc,
  0x8c, 0x3b, 0x4d, 0xbe, 0xbc, 0xab, 0x22, 0x3d, 0xcc, 0x5f, 0x47, 0xbe,
  0x9d, 0x2d, 0x07, 0xbb, 0x9a, 0x6d, 0x81, 0xbe, 0x41, 0x75, 0x06, 0xbd,
  0x63, 0x11, 0x87, 0x3d, 0xbd, 0x73, 0x82, 0xbd, 0x80, 0x91, 0xbe, 0xbd,
  0x26, 0xbe, 0x49, 0xbc, 0x08, 0x31, 0x08, 0xbe, 0x4d, 0x25, 0x91, 0xbb,
  0xe8, 0xb3, 0x02, 0x3e, 0xef, 0xbd, 0x5b, 0xbe, 0x78, 0x08, 0x0c, 0xbe,
  0xed, 0x90, 0x03, 0xbe, 0x02, 0x1a, 0xde, 0xbd, 0xd3, 0xaf, 0x99, 0x3c,
  0xc5, 0x48, 0x3c, 0xbd, 0x7b, 0xbb, 0x7b, 0xbe, 0x01, 0x66, 0x40, 0xbd,
  0x69, 0x1c, 0x33, 0xbe, 0x6b, 0x97, 0x25, 0xbe, 0xfb, 0x15, 0x81, 0xbd,
  0xc2, 0x35, 0x17, 0xbe, 0xcd, 0x68, 0x04, 0x3e, 0xee, 0xb7, 0x64, 0xbd,
  0x17, 0x10, 0x87, 0xbe, 0x49, 0xad, 0x65, 0x3d, 0x25, 0x09, 0x25, 0xbd,
  0x04, 0xf8, 0x53, 0x3c, 0x6b, 0x27, 0x26, 0x3d, 0x4f, 0x26, 0xa9, 0xbd,
  0x34, 0x72, 0xd1, 0xbd, 0x4f, 0x88, 0x98, 0x3e, 0x24, 0x80, 0xb3, 0xbc,
  0x36, 0x26, 0xf6, 0xbd, 0x65, 0xaa, 0xad, 0x3e, 0xbc, 0x17, 0x8e, 0x3d,
  0x59, 0x35, 0x6f, 0xbd, 0x51, 0xbf, 0x76, 0x3d, 0xf7, 0xd2, 0x62, 0xbd,
  0x1f, 0x68, 0xdf, 0xbe, 0x5d, 0x07, 0x74, 0xbd, 0x49, 0x38, 0x26, 0xbe,
  0x86, 0x6d, 0x8a, 0xbd, 0x65, 0xb1, 0xe1, 0xbc, 0x69, 0x04, 0xdb, 0x3d,
  0x2b, 0x0c, 0x07, 0x3f, 0xb7, 0xeb, 0x9f, 0xbc, 0x98, 0x68, 0xba, 0xbe,
  0x56, 0xa3, 0x85, 0xbe, 0x65, 0x90, 0x44, 0x3e, 0x46, 0xc6, 0xd2, 0x3c,
  0x96, 0x13, 0xca, 0xbe, 0x6d, 0x36, 0xb1, 0xbd, 0xee, 0x69, 0x31, 0x3e,
  0x22, 0xe5, 0xf8, 0x3d, 0xe6, 0x2e, 0x80, 0xbe, 0x99, 0x29, 0x20, 0x3e,
  0xb7, 0x97, 0x92, 0x3e, 0xff, 0x09, 0xe2, 0x3b, 0xef, 0x51, 0x21, 0xbe,
  0x9d, 0xc4, 0x8e, 0x3e, 0x0b, 0x46, 0xdc, 0x3e, 0x84, 0x77, 0x16, 0xbc,
  0xc8, 0xd5, 0x8a, 0xbe, 0x7d, 0xcc, 0x98, 0xbd, 0x35, 0x24, 0x12, 0xbd,
  0x10, 0x23, 0xcc, 0xbd, 0x97, 0x6b, 0x5c, 0xbd, 0x82, 0x70, 0x7c, 0xbd,
  0xa4, 0xfc, 0x3a, 0xbd, 0xfb, 0x8f, 0xab, 0xbe, 0xba, 0xdf, 0xff, 0xff,
  0x10, 0x00, 0x00, 0x00, 0x09, 0x00, 0x00, 0x00, 0x1c, 0x00, 0x00, 0x00,
  0x38, 0x00, 0x00, 0x00, 0x04, 0x00, 0x00, 0x00, 0x08, 0x00, 0x00, 0x00,
  0x04, 0x00, 0x00, 0x00, 0x03, 0x00, 0x00, 0x00, 0x01, 0x00, 0x00, 0x00,
  0x18, 0x00, 0x00, 0x00, 0x73, 0x65, 0x71, 0x75, 0x65, 0x6e, 0x74, 0x69,
  0x61, 0x6c, 0x2f, 0x63, 0x6f, 0x6e, 0x76, 0x32, 0x64, 0x2f, 0x43, 0x6f,
  0x6e, 0x76, 0x32, 0x44, 0x00, 0x00, 0x00, 0x00, 0x30, 0xdf, 0xff, 0xff,
  0x3a, 0xe0, 0xff, 0xff, 0x04, 0x00, 0x00, 0x00, 0x00, 0x01, 0x00, 0x00,
  0x9d, 0x8e, 0xa9, 0xbe, 0x72, 0x53, 0xf8, 0xbd, 0x0d, 0xab, 0x71, 0xbc,
  0xdd, 0xf4, 0x8c, 0xbe, 0xfa, 0x37, 0xd9, 0x3d, 0xa9, 0x20, 0xa7, 0x3f,
  0x1f, 0x80, 0xb1, 0xbe, 0x2a, 0x7c, 0x9f, 0x3e, 0x7b, 0x5a, 0xcb, 0xbd,
  0x5d, 0x92, 0xb7, 0xbd, 0x28, 0xad, 0x14, 0x3e, 0x59, 0x96, 0x7d, 0x3d,
  0x6e, 0xd7, 0x02, 0xbf, 0xfb, 0x38, 0x89, 0xbe, 0xe8, 0x30, 0x9b, 0xbc,
  0xe7, 0x0a, 0xd6, 0x3e, 0x84, 0x3b, 0xce, 0xbe, 0x8c, 0xfb, 0x2f, 0xbb,
  0xf2, 0x50, 0x57, 0xbe, 0x17, 0x02, 0x3f, 0xbe, 0x2e, 0x9c, 0x11, 0x3e,
  0xd8, 0x60, 0xc2, 0xbf, 0xbc, 0xc0, 0xfd, 0xbb, 0xa3, 0xcc, 0x7b, 0x3e,
  0x6b, 0x9f, 0x67, 0x3e, 0x69, 0x01, 0xf4, 0xbd, 0xba, 0xb3, 0xda, 0x3d,
  0x7a, 0x81, 0xeb, 0x3d, 0xc0, 0x08, 0xa2, 0xbe, 0xc1, 0x9f, 0x81, 0x3e,
  0xfa, 0xe4, 0x81, 0x3c, 0xe0, 0x86, 0x2d, 0xbf, 0xf8, 0x48, 0xde, 0x3e,
  0xb6, 0xf6, 0xd3, 0xbd, 0xb2, 0xd3, 0x90, 0x3e, 0xf3, 0xc3, 0x71, 0x3e,
  0x58, 0x1f, 0x41, 0xbc, 0xe6, 0xdc, 0x2f, 0xbf, 0xb0, 0x4b, 0x0d, 0x3e,
  0x58, 0x16, 0x9c, 0xbe, 0x1b, 0x5b, 0x12, 0xbe, 0x11, 0x49, 0xaa, 0xbd,
  0xdc, 0x4d, 0x68, 0x3e, 0x5c, 0x43, 0x42, 0xbd, 0x95, 0x1b, 0x41, 0xbc,
  0xfa, 0xf7, 0xc6, 0xbd, 0xdc, 0xff, 0xba, 0xbe, 0x7d, 0xee, 0x4e, 0xbe,
  0x00, 0x49, 0xcf, 0x3e, 0x06, 0xb6, 0x2b, 0x3d, 0xf8, 0x55, 0xad, 0x3e,
  0x5c, 0xdd, 0x42, 0x3e, 0x29, 0xac, 0xc0, 0xbc, 0x3a, 0xd7, 0x48, 0xbf,
  0xb5, 0x16, 0xb0, 0x3d, 0x7a, 0x89, 0x93, 0x3e, 0x23, 0xce, 0x03, 0xbe,
  0x9e, 0xfd, 0x05, 0xbd, 0xb1, 0x90, 0x82, 0x3e, 0x4c, 0x2c, 0x6e, 0xbc,
  0xbb, 0xe1, 0x2e, 0xbd, 0x88, 0x9e, 0x12, 0x3d, 0xd4, 0x34, 0x50, 0xbd,
  0xa9, 0xf9, 0xea, 0xbe, 0x12, 0xe1, 0xff, 0xff, 0x10, 0x00, 0x00, 0x00,
  0x08, 0x00, 0x00, 0x00, 0x14, 0x00, 0x00, 0x00, 0x30, 0x00, 0x00, 0x00,
  0x02, 0x00, 0x00, 0x00, 0x04, 0x00, 0x00, 0x00, 0x10, 0x00, 0x00, 0x00,
  0x19, 0x00, 0x00, 0x00, 0x73, 0x65, 0x71, 0x75, 0x65, 0x6e, 0x74, 0x69,
  0x61, 0x6c, 0x2f, 0x64, 0x65, 0x6e, 0x73, 0x65, 0x5f, 0x31, 0x2f, 0x4d,
  0x61, 0x74, 0x4d, 0x75, 0x6c, 0x00, 0x00, 0x00, 0x80, 0xe0, 0xff, 0xff,
  0x8a, 0xe1, 0xff, 0xff, 0x04, 0x00, 0x00, 0x00, 0x00, 0x1c, 0x00, 0x00,
  0x06, 0xc7, 0xfc, 0xbc, 0x41, 0x98, 0x2f, 0xbe, 0x69, 0xbc, 0x03, 0xbe,
  0xb8, 0x68, 0x44, 0x3c, 0xae, 0xe4, 0xf2, 0xbd, 0x7d, 0xdd, 0x2c, 0xbe,
  0x28, 0x56, 0xac, 0xbb, 0xde, 0x8a, 0x9b, 0x3d, 0xd2, 0xf4, 0x8b, 0x3d,
  0x38, 0xf2, 0x33, 0xbe, 0x8e, 0x36, 0x29, 0x3e, 0x78, 0x2f, 0x64, 0x3b,
  0xb0, 0x3c, 0x7a, 0xbe, 0x2f, 0x69, 0x68, 0xbe, 0x10, 0xd8, 0xdc, 0x3c,
  0x84, 0x06, 0x69, 0xbe, 0x83, 0x22, 0x8a, 0xbd, 0x2d, 0x33, 0xf3, 0x3d,
  0xeb, 0x9c, 0x02, 0xbe, 0x3d, 0x02, 0x39, 0xbe, 0x61, 0xb4, 0xae, 0x3d,
  0x8a, 0x96, 0x87, 0xba, 0x50, 0x79, 0x5e, 0xbe, 0xdf, 0x34, 0x24, 0x3c,
  0xae, 0x77, 0xc1, 0x3d, 0x6c, 0x26, 0xd7, 0xbd, 0xc4, 0xf7, 0x2e, 0x3e,
  0xb1, 0x38, 0xc1, 0xbb, 0x21, 0x50, 0x89, 0x3d, 0x36, 0x75, 0x91, 0xbd,
  0xbb, 0xde, 0x4a, 0xbe, 0xb9, 0x2d, 0xb6, 0xbd, 0x1c, 0x8f, 0xaf, 0x3c,
  0x4e, 0xd9, 0x00, 0x3d, 0xef, 0x34, 0xda, 0xbd, 0x6a, 0x36, 0x21, 0x3d,
  0x35, 0x92, 0x68, 0xbe, 0xb8, 0xdc, 0x9d, 0xbe, 0x43, 0x85, 0xd4, 0x3c,
  0xdd, 0xea, 0x20, 0xbe, 0xc0, 0xab, 0x14, 0x3e, 0x4d, 0x42, 0x53, 0xbe,
  0x05, 0x06, 0x52, 0xbe, 0x77, 0xd5, 0x97, 0x3c, 0xf5, 0x94, 0x68, 0xbe,
  0x81, 0xe0, 0x46, 0xbe, 0x32, 0x65, 0x17, 0x3e, 0xf6, 0x70, 0x4e, 0xbd,
  0x67, 0x30, 0xdb, 0x3d, 0xb4, 0xbd, 0x27, 0xbe, 0xcb, 0x54, 0xae, 0x3d,
  0x36, 0x86, 0x20, 0x3d, 0x3c, 0xd8, 0x51, 0xbe, 0xf3, 0xe5, 0x01, 0xbe,
  0x5d, 0x74, 0xdd, 0xbd, 0xe7, 0xda, 0x9c, 0xbd, 0x68, 0x49, 0x4f, 0x3d,
  0x13, 0x36, 0x88, 0xbe, 0xe1, 0xb6, 0x61, 0xbe, 0xf6, 0xbd, 0x02, 0x3d,
  0xc4, 0xd0, 0x7e, 0x3d, 0xd6, 0x64, 0x36, 0xbd, 0x8f, 0x79, 0xb6, 0x3d,
  0x2e, 0x57, 0x2a, 0x3d, 0xed, 0xae, 0x99, 0x3d, 0x3e, 0x4c, 0x20, 0xbc,
  0x46, 0xfb, 0xa9, 0x3d, 0xbb, 0x70, 0x72, 0xbe, 0x1f, 0xb5, 0x06, 0xbe,
  0xd9, 0xce, 0x92, 0xbd, 0xb6, 0x8c, 0x36, 0xbe, 0xcc, 0xe1, 0x74, 0xbd,
  0xf0, 0x3d, 0x63, 0x3c, 0xc5, 0x54, 0x0b, 0xbe, 0xf3, 0x05, 0xd9, 0x3d,
  0x9e, 0x6c, 0xf1, 0x3d, 0x1d, 0xcd, 0xdb, 0xbd, 0xf3, 0x7c, 0x84, 0xbe,
  0xeb, 0x6c, 0x03, 0xbe, 0x17, 0x6f, 0x5d, 0xbe, 0xa2, 0x79, 0x49, 0xbe,
  0x22, 0x53, 0xe7, 0xbc, 0x07, 0xde, 0xb2, 0x3c, 0x07, 0xed, 0xa8, 0xbc,
  0xc1, 0x55, 0x20, 0x3e, 0xfd, 0xd8, 0x4d, 0xbe, 0x31, 0xd1, 0x3b, 0xbb,
  0x38, 0x39, 0xeb, 0xbd, 0x3d, 0x96, 0xac, 0x3d, 0x50, 0x50, 0xc3, 0xbc,
  0x9f, 0x1b, 0x13, 0xbe, 0x47, 0xc2, 0x83, 0xbe, 0x3a, 0xe6, 0x49, 0xbd,
  0x9c, 0xdd, 0x35, 0xbe, 0xc2, 0xbc, 0xe8, 0x3d, 0xfc, 0x55, 0xe2, 0x3d,
  0x1e, 0xe3, 0x1b, 0xbe, 0xef, 0x91, 0x95, 0xbb, 0x9f, 0x75, 0x02, 0x3e,
  0x5f, 0x14, 0x71, 0xbd, 0xf2, 0xd0, 0x7f, 0xbd, 0xb3, 0x95, 0x52, 0xbe,
  0x64, 0xaa, 0x4d, 0xbc, 0x28, 0xea, 0xcf, 0xbb, 0xe1, 0x4e, 0x30, 0xbe,
  0x73, 0x2c, 0x37, 0xbe, 0x2f, 0xb8, 0x03, 0xbe, 0x0c, 0xb6, 0x16, 0xbc,
  0xd4, 0xdc, 0x71, 0xbe, 0x40, 0x7a, 0x18, 0xbe, 0xc1, 0xab, 0xd6, 0xbd,
  0xbd, 0xb8, 0x5e, 0xbe, 0xe7, 0x5f, 0xac, 0xbd, 0x08, 0xca, 0xb4, 0x3d,
  0xb9, 0x4a, 0x60, 0xbe, 0x27, 0x4b, 0x03, 0xbe, 0x7e, 0xff, 0x7a, 0xbd,
  0x48, 0x1a, 0xaa, 0xbd, 0x67, 0xf1, 0x02, 0xbd, 0x5a, 0xbe, 0x73, 0x3c,
  0x72, 0x7f, 0x18, 0x3e, 0xae, 0x0b, 0xee, 0xbc, 0x64, 0xd6, 0x41, 0xbe,
  0x5d, 0x63, 0x1f, 0xbd, 0x24, 0xc4, 0x76, 0x3a, 0xdf, 0x7d, 0x07, 0xbe,
  0x13, 0xdb, 0x0a, 0xbe, 0xbd, 0x72, 0x89, 0xbc, 0x05, 0xcc, 0xe6, 0xbd,
  0x45, 0x8e, 0x6b, 0x3d, 0x7f, 0xa6, 0xd1, 0xbd, 0x15, 0xce, 0x43, 0xbe,
  0xa5, 0x6a, 0x58, 0x3d, 0x09, 0x86, 0x59, 0x3d, 0x79, 0xb4, 0xd7, 0xbd,
  0xf7, 0x6a, 0x03, 0x3e, 0x09, 0x97, 0x12, 0x3e, 0xe1, 0x41, 0xaf, 0x3c,
  0x8a, 0xf1, 0x13, 0xbe, 0xa1, 0xa3, 0xa3, 0x3d, 0x3e, 0xd9, 0x2b, 0xbd,
  0xc1, 0xf3, 0x5b, 0xbe, 0x8a, 0x4f, 0xd6, 0xbd, 0xf1, 0xd8, 0x81, 0xbe,
  0xf5, 0xbf, 0xa2, 0x3d, 0xcf, 0x9f, 0xa1, 0xbb, 0x05, 0x77, 0x9f, 0x3d,
  0x5d, 0x27, 0x86, 0xbe, 0x8e, 0xb6, 0xbd, 0x3d, 0xbc, 0x17, 0x45, 0xbe,
  0x96, 0x1e, 0x1d, 0x3e, 0xd6, 0xae, 0xec, 0x3d, 0x98, 0x80, 0xbc, 0xbc,
  0x48, 0x01, 0xb0, 0x3d, 0x7a, 0x0b, 0x5a, 0xbe, 0xf5, 0x1e, 0x38, 0xbe,
  0x3b, 0xd0, 0x87, 0xbd, 0x1a, 0x3a, 0x57, 0xbe, 0x07, 0xa7, 0x13, 0xbe,
  0x4b, 0x65, 0x7e, 0x3d, 0xfa, 0x0c, 0xad, 0xbd, 0x21, 0x5c, 0xd5, 0xbd,
  0xe9, 0xc9, 0x35, 0xbd, 0x1c, 0x60, 0x9d, 0xbe, 0x98, 0x48, 0xb4, 0x3d,
  0x33, 0x50, 0x7e, 0xbd, 0x2c, 0xd5, 0x05, 0xbe, 0xa0, 0x41, 0x18, 0x3b,
  0xb5, 0x8a, 0x03, 0xbe, 0x6f, 0x6f, 0xa3, 0xbe, 0x77, 0xb5, 0x82, 0xbe,
  0x20, 0x34, 0x93, 0xbe, 0x8c, 0x8d, 0xb3, 0x3b, 0x47, 0x11, 0x31, 0xbe,
  0xd1, 0x51, 0x53, 0x3d, 0x0f, 0x0d, 0x82, 0x3d, 0xc4, 0x65, 0x05, 0x3e,
  0x4a, 0x62, 0x3e, 0xbe, 0xc3, 0xbf, 0x09, 0xbd, 0xa8, 0x2e, 0x8e, 0xbe,
  0xeb, 0x61, 0x95, 0xbd, 0x16, 0xa2, 0xa6, 0xbc, 0x52, 0xc3, 0x98, 0x3a,
  0x20, 0xaf, 0x1e, 0xbe, 0xec, 0x21, 0xba, 0xbd, 0xdf, 0x58, 0x66, 0xbe,
  0x4c, 0xc1, 0xb0, 0x3d, 0x74, 0xe3, 0x60, 0xbe, 0xe0, 0x76, 0x44, 0x3d,
  0xe0, 0x64, 0x2b, 0xbe, 0x14, 0x3e, 0xad, 0xbc, 0x3a, 0xc9, 0x54, 0xbe,
  0xd8, 0xdf, 0xd6, 0x3c, 0xe0, 0x15, 0x18, 0xbe, 0xbd, 0x67, 0xf8, 0xbd,
  0xb2, 0xe0, 0x8b, 0xbe, 0x7b, 0xfe, 0x05, 0xbe, 0x9f, 0xc0, 0xde, 0x3d,
  0x85, 0x75, 0xda, 0x3d, 0x6f, 0x09, 0x0a, 0x3d, 0x7c, 0xae, 0x95, 0xbd,
  0x9c, 0xd7, 0x3b, 0xbe, 0x87, 0x90, 0x32, 0xbe, 0x11, 0xae, 0xb5, 0xbe,
  0x85, 0xe3, 0x0f, 0xbe, 0x8c, 0x26, 0x53, 0x3b, 0xf9, 0xec, 0x1a, 0xbe,
  0x3d, 0x5c, 0x6b, 0xbe, 0xf6, 0x01, 0x0c, 0x3d, 0x20, 0x7e, 0x71, 0xbd,
  0xda, 0x2c, 0xc5, 0x3d, 0x3d, 0x2c, 0xda, 0xbd, 0x8e, 0x98, 0x0a, 0xbe,
  0xd2, 0xf2, 0xc3, 0xbe, 0x31, 0x3f, 0x68, 0xbe, 0x9f, 0x9f, 0x7f, 0xbe,
  0x67, 0xb1, 0x41, 0xbe, 0x58, 0x3a, 0x40, 0xbe, 0xf4, 0x0d, 0xff, 0xbd,
  0x2a, 0xfb, 0xc9, 0xbd, 0xec, 0x36, 0x0b, 0xbe, 0xb2, 0xe6, 0xfe, 0xbc,
  0x0f, 0xd7, 0x0c, 0xbe, 0x04, 0xc7, 0x18, 0xba, 0x56, 0x71, 0x5e, 0x3d,
  0x74, 0x20, 0xdd, 0xbe, 0x43, 0xfa, 0x39, 0xbb, 0xa1, 0xb9, 0x1a, 0x3e,
  0x04, 0x72, 0x5c, 0x3d, 0xc6, 0x63, 0x56, 0xbe, 0x44, 0x8a, 0xe6, 0xbc,
  0x17, 0xfe, 0x8d, 0xbd, 0x50, 0x9d, 0xa1, 0xbb, 0x58, 0xad, 0x8d, 0xbd,
  0xc3, 0x6c, 0x2b, 0xbe, 0x6f, 0x27, 0x11, 0xbe, 0x1c, 0xd3, 0x46, 0x3d,
  0x61, 0xa1, 0x55, 0xbe, 0xd5, 0xbf, 0x7f, 0xbc, 0x7a, 0x77, 0xb9, 0x3c,
  0x82, 0xc8, 0xfa, 0x3d, 0xe3, 0xab, 0x2a, 0xbe, 0x04, 0x88, 0xf4, 0x3d,
  0x54, 0xa3, 0x4c, 0x3e, 0xa7, 0x9b, 0x17, 0xbe, 0xba, 0x4c, 0x85, 0xbd,
  0x6e, 0xfb, 0x8a, 0xbd, 0x5f, 0x63, 0x42, 0xbe, 0xf2, 0x6c, 0x09, 0x3e,
  0x0a, 0xea, 0x2a, 0xbe, 0x17, 0x1b, 0x09, 0x3d, 0x76, 0x24, 0x18, 0xbe,
  0x4f, 0xb0, 0xdf, 0x3d, 0x8d, 0x27, 0xaa, 0xbe, 0x04, 0x95, 0x79, 0x3d,
  0xc9, 0x40, 0x31, 0x3e, 0x4b, 0x52, 0x43, 0x3e, 0xc2, 0x2f, 0x99, 0xbd,
  0x56, 0x3f, 0xd0, 0x3d, 0x04, 0x5e, 0x47, 0x3d, 0x01, 0xa3, 0x03, 0xbe,
  0x55, 0x74, 0x55, 0xbd, 0x40, 0x7f, 0x1c, 0xbe, 0x56, 0xd8, 0x4d, 0xbe,
  0x3e, 0x5b, 0x27, 0xbe, 0xdc, 0x5a, 0x8b, 0x3d, 0xcb, 0xa0, 0x05, 0x3d,
  0x24, 0x1e, 0x8d, 0xbe, 0xa6, 0xe4, 0x26, 0x3e, 0xd9, 0xc4, 0xb8, 0xbe,
  0xa7, 0xef, 0x94, 0xbd, 0x86, 0xe1, 0x80, 0x3e, 0xbf, 0x19, 0x5b, 0x3e,
  0xb8, 0xf0, 0xc1, 0xbe, 0xf4, 0xca, 0x8c, 0x3e, 0x2f, 0x36, 0x42, 0xbc,
  0x86, 0xb9, 0x25, 0x3e, 0xf3, 0xd5, 0x1c, 0xbe, 0xb9, 0x4d, 0x40, 0x3d,
  0x57, 0x73, 0xf4, 0xbe, 0x5a, 0x0e, 0x14, 0xbe, 0xcc, 0x3f, 0xff, 0x3c,
  0x50, 0xa7, 0x9e, 0xbe, 0x22, 0xe4, 0x83, 0xbe, 0x79, 0x86, 0x47, 0x3c,
  0x8b, 0x85, 0x47, 0xbe, 0x4a, 0x76, 0x5b, 0x3d, 0xc8, 0x0d, 0xf7, 0x3d,
  0x78, 0x8f, 0x33, 0x3e, 0x3d, 0x12, 0x99, 0xbe, 0x74, 0x43, 0x23, 0x3e,
  0x8b, 0x4e, 0x0b, 0x3e, 0x5a, 0x66, 0xa2, 0xbd, 0xfb, 0x35, 0xf7, 0xbe,
  0x2f, 0xe0, 0xbc, 0xbe, 0xb2, 0xb3, 0x06, 0xbf, 0x3b, 0x83, 0x82, 0x3d,
  0x9d, 0xf8, 0x86, 0x3d, 0x84, 0x0d, 0xae, 0xbd, 0x8b, 0xb1, 0xa9, 0xbd,
  0xf3, 0x55, 0x47, 0xbd, 0x83, 0x43, 0x0d, 0xbf, 0x53, 0xf8, 0xe5, 0xbd,
  0x64, 0x22, 0x9c, 0x3e, 0x45, 0x98, 0x8a, 0x3d, 0x8b, 0xb8, 0x5c, 0xbe,
  0x23, 0xe0, 0x26, 0x3e, 0x19, 0xb5, 0x4d, 0x3e, 0xf9, 0x02, 0x5c, 0xbd,
  0x71, 0x61, 0xd2, 0xbe, 0x52, 0x7c, 0xdd, 0xbc, 0xef, 0x6c, 0xe0, 0xbe,
  0x69, 0x0e, 0x61, 0xbe, 0xf8, 0xb6, 0x28, 0xbe, 0x32, 0xe2, 0x3b, 0xbe,
  0x57, 0x7a, 0xa2, 0xbe, 0x2f, 0xbd, 0x30, 0x3e, 0xb3, 0x10, 0xcb, 0xbe,
  0x76, 0x11, 0x25, 0xbe, 0xd1, 0x2e, 0x6b, 0x3d, 0x04, 0xd9, 0x99, 0xbc,
  0x13, 0x03, 0xa9, 0x3d, 0xbe, 0x66, 0x73, 0x3d, 0xb3, 0x9b, 0x23, 0x3c,
  0xee, 0xe5, 0xe3, 0xbd, 0x96, 0x3c, 0x20, 0xbe, 0x87, 0x5f, 0x4d, 0xbe,
  0x85, 0x5a, 0x68, 0xbe, 0xb1, 0x6f, 0x40, 0xbe, 0x7d, 0x65, 0x34, 0xbe,
  0x00, 0xff, 0xfc, 0x3c, 0x00, 0x32, 0x4c, 0xbc, 0xc1, 0xcd, 0x88, 0x3c,
  0x42, 0x0c, 0x4d, 0xbd, 0x77, 0x1a, 0x63, 0xbe, 0xcb, 0xa1, 0x2e, 0x3e,
  0xa8, 0x23, 0x20, 0xbe, 0xc8, 0xee, 0x3e, 0xbe, 0x0c, 0x57, 0xcc, 0x3d,
  0x92, 0x62, 0xfc, 0xbe, 0x88, 0x0a, 0xb9, 0xbe, 0xb0, 0xa0, 0xda, 0x3d,
  0xbd, 0x19, 0x1a, 0x3e, 0x12, 0xba, 0xb3, 0xbe, 0xf0, 0x55, 0xca, 0xbd,
  0x72, 0xea, 0xf8, 0xbe, 0x3e, 0xac, 0x60, 0x3c, 0x5b, 0x02, 0xff, 0xbe,
  0x50, 0x9c, 0x7e, 0x3e, 0x6e, 0x46, 0x71, 0xbe, 0xe2, 0xb4, 0x2c, 0xbe,
  0x2c, 0xcd, 0x8f, 0xbd, 0x58, 0x6e, 0x31, 0x3d, 0x5b, 0xe2, 0x26, 0x3e,
  0xb3, 0x96, 0x3e, 0x3e, 0x9d, 0x60, 0xb6, 0xbd, 0x71, 0x1a, 0x44, 0x3e,
  0x09, 0x4a, 0xe6, 0x3c, 0x48, 0x2e, 0x0a, 0x3f, 0x0a, 0xd1, 0x91, 0x3d,
  0x89, 0xc4, 0x97, 0x3d, 0xfc, 0x22, 0x06, 0xbf, 0x2e, 0x86, 0xa8, 0x3b,
  0x63, 0x22, 0xe9, 0xbe, 0x97, 0xe9, 0x3e, 0xbd, 0x64, 0x64, 0x7c, 0xbd,
  0xa6, 0x2a, 0x15, 0xbe, 0x38, 0xfe, 0x6a, 0x3c, 0x39, 0xdc, 0x73, 0x3a,
  0x21, 0x71, 0x86, 0x3e, 0x6c, 0xb3, 0x05, 0x3e, 0x22, 0x9b, 0x7e, 0xbb,
  0x74, 0x1f, 0x98, 0x3e, 0x65, 0x83, 0x8e, 0x3d, 0xbe, 0x68, 0x01, 0x3f,
  0xf4, 0x10, 0x9b, 0x3e, 0x4f, 0xa4, 0x6b, 0xbd, 0x67, 0xe0, 0x76, 0xbe,
  0x96, 0x80, 0x6c, 0x3e, 0x95, 0x5a, 0x91, 0xbe, 0x3d, 0x3e, 0x1b, 0xbe,
  0xd6, 0x61, 0x96, 0x3d, 0xe3, 0x12, 0x69, 0xbe, 0xb3, 0x9a, 0x44, 0x3c,
  0x9d, 0x2e, 0xfe, 0x3c, 0x95, 0x9d, 0x5e, 0x3e, 0x3d, 0xb3, 0x8f, 0x3d,
  0x89, 0x14, 0xd9, 0xbd, 0xa6, 0x18, 0x9d, 0x3d, 0xcb, 0xb7, 0x65, 0xbd,
  0x81, 0x80, 0xdc, 0x3e, 0x14, 0x55, 0x47, 0xbe, 0xc6, 0x89, 0x07, 0xbe,
  0x98, 0x1f, 0x2d, 0xbe, 0x98, 0x20, 0xad, 0x3d, 0xae, 0x9e, 0xd1, 0x3b,
  0x33, 0x81, 0x00, 0xbe, 0xcc, 0x2b, 0x8a, 0x3e, 0x40, 0xa9, 0x22, 0xbe,
  0x49, 0xa4, 0x96, 0xbd, 0x24, 0xc8, 0x02, 0x3d, 0x23, 0x4f, 0xb5, 0x3d,
  0xea, 0x05, 0xb5, 0x3d, 0x2f, 0x77, 0x6d, 0x3d, 0xf8, 0xad, 0x26, 0x3e,
  0x57, 0x65, 0xbf, 0xbd, 0xd2, 0x3a, 0xf4, 0x3e, 0x67, 0x32, 0xe8, 0x3e,
  0xa4, 0x85, 0x45, 0xbe, 0x07, 0x8c, 0x78, 0xbd, 0xba, 0x32, 0x1a, 0xbe,
  0x57, 0x9b, 0x81, 0xbd, 0x1c, 0x9f, 0xd5, 0xbd, 0xa5, 0xdd, 0xe9, 0x3d,
  0x33, 0x71, 0x15, 0xbe, 0x61, 0xa8, 0xd3, 0xbc, 0x45, 0x39, 0xa9, 0x3d,
  0x94, 0x67, 0x99, 0x3e, 0x25, 0x72, 0xc5, 0x3d, 0xf5, 0xaa, 0x9f, 0x3d,
  0x65, 0xb1, 0xac, 0x3e, 0x4c, 0xce, 0x61, 0xbe, 0x5a, 0x3e, 0xc9, 0x3d,
  0xdb, 0x45, 0x93, 0x3e, 0xd8, 0xe6, 0xb5, 0xbd, 0x54, 0xfe, 0x83, 0x3d,
  0x9d, 0xb5, 0xcd, 0xbd, 0x28, 0x98, 0x51, 0x3b, 0xf4, 0x6a, 0x42, 0xbe,
  0x68, 0x56, 0x3d, 0x3e, 0x01, 0x97, 0x2f, 0xbe, 0x43, 0x38, 0x26, 0xbd,
  0x96, 0xea, 0x82, 0xbd, 0x65, 0x16, 0xb4, 0x3c, 0xd0, 0xc0, 0x35, 0xbe,
  0xc2, 0xd6, 0xd8, 0x3d, 0xd2, 0xa0, 0x83, 0x3d, 0x56, 0xb3, 0xae, 0xbe,
  0x27, 0xd6, 0xca, 0xbd, 0xb9, 0x7b, 0x79, 0x3e, 0x73, 0x6d, 0xb4, 0xbc,
  0xbd, 0x09, 0x89, 0xbd, 0xd0, 0xca, 0x14, 0x3e, 0xd5, 0xdc, 0x44, 0x3d,
  0x61, 0x75, 0xbb, 0xbe, 0xad, 0x78, 0x84, 0x3e, 0x41, 0xea, 0x28, 0xbe,
  0x2c, 0xa1, 0x7a, 0xbd, 0x73, 0xfc, 0x88, 0xbe, 0xc7, 0xb2, 0x9a, 0xbe,
  0xa7, 0x68, 0xa9, 0xbe, 0xbe, 0xd3, 0xdd, 0xbc, 0xab, 0xfc, 0xb2, 0xbd,
  0x31, 0x91, 0x99, 0xbe, 0x16, 0xb6, 0x88, 0xbe, 0x11, 0x3f, 0xb0, 0xbd,
  0x34, 0x4b, 0xce, 0xbd, 0x0b, 0x13, 0x10, 0xbd, 0x4c, 0xae, 0xa4, 0x3c,
  0x1a, 0x12, 0xb8, 0xbd, 0x9c, 0x0b, 0xc5, 0xbe, 0xca, 0x8b, 0xf5, 0xbd,
  0xe9, 0xe5, 0x1a, 0xbe, 0x8e, 0xa3, 0x55, 0xbe, 0x01, 0xbe, 0x85, 0xbe,
  0x6b, 0x2c, 0xad, 0xbe, 0x35, 0xbb, 0x87, 0xbe, 0x49, 0x57, 0x07, 0x3e,
  0xe5, 0x2c, 0xd9, 0xbc, 0x53, 0x2f, 0x96, 0xbe, 0x63, 0x79, 0x55, 0xbf,
  0xf5, 0xf5, 0x0f, 0xbe, 0x0c, 0x71, 0x3e, 0x3d, 0x88, 0x38, 0x8f, 0xbd,
  0x1b, 0xb7, 0xb4, 0xbe, 0x68, 0xde, 0xa7, 0xbd, 0xd8, 0xfc, 0x81, 0xbe,
  0x03, 0x45, 0x17, 0xbd, 0x7a, 0x8a, 0x87, 0xbe, 0x58, 0x22, 0x14, 0xbd,
  0x23, 0x54, 0x76, 0xbe, 0x61, 0x0e, 0xc8, 0xbe, 0x9c, 0xde, 0xd7, 0xbe,
  0x01, 0x56, 0x42, 0x3e, 0xd2, 0x1b, 0x45, 0xbe, 0x03, 0x74, 0x89, 0xbe,
  0x01, 0x93, 0x31, 0xbf, 0xa3, 0x0f, 0x88, 0xbe, 0x8c, 0x75, 0x19, 0xbe,
  0x65, 0x55, 0xf8, 0xbc, 0xef, 0x88, 0x7b, 0xbe, 0x11, 0xc0, 0x09, 0x3c,
  0xfb, 0xd9, 0xb4, 0xbe, 0x76, 0x04, 0x42, 0x3d, 0x90, 0xcc, 0xb3, 0xbe,
  0xd0, 0xbe, 0x11, 0xbe, 0x5f, 0x45, 0xce, 0xbe, 0xfc, 0xfd, 0xb1, 0xbe,
  0xce, 0x66, 0x1d, 0xbf, 0xb1, 0xec, 0x32, 0xbe, 0x39, 0x17, 0x5e, 0xbe,
  0xc3, 0xb8, 0x09, 0xbe, 0xb6, 0x24, 0x28, 0xbf, 0x54, 0xe5, 0xc5, 0xbd,
  0xd4, 0xfb, 0x78, 0xbe, 0x53, 0x78, 0x39, 0xbd, 0xec, 0x8b, 0x1a, 0xbe,
  0xb1, 0x3b, 0x23, 0xbc, 0x62, 0x9d, 0xa7, 0xbe, 0x58, 0xf5, 0x99, 0xbd,
  0xdb, 0x3e, 0x95, 0xbe, 0x94, 0x80, 0xb1, 0xbe, 0x90, 0x78, 0x24, 0xbe,
  0x2a, 0xef, 0x19, 0xbf, 0xf4, 0xfe, 0xeb, 0xbd, 0xed, 0x06, 0xa8, 0x3b,
  0x4a, 0x5a, 0x3e, 0x3e, 0x6d, 0x4c, 0x2b, 0xbe, 0xc5, 0x14, 0x80, 0x3e,
  0x0d, 0x8e, 0x32, 0x3b, 0x78, 0x36, 0x41, 0x3d, 0xac, 0x7d, 0xb8, 0xbd,
  0x56, 0xd5, 0x1f, 0x3e, 0xb6, 0x3e, 0xf9, 0x3c, 0x29, 0x82, 0xd8, 0xbe,
  0x8d, 0xd2, 0x18, 0x3e, 0xe5, 0xa4, 0x44, 0x3d, 0x80, 0xf0, 0x18, 0xbe,
  0x47, 0x4a, 0xb5, 0xbe, 0x4d, 0x51, 0xb5, 0x3c, 0xdf, 0xf2, 0xa1, 0x3e,
  0x7b, 0x83, 0x97, 0xbc, 0x6b, 0x66, 0x94, 0x3e, 0x6d, 0xe4, 0x4a, 0xbd,
  0xef, 0x3f, 0x1d, 0x3f, 0xd7, 0x53, 0x9a, 0x3d, 0x58, 0x82, 0x04, 0xbd,
  0x10, 0x75, 0x7e, 0xbd, 0x17, 0x79, 0x8f, 0x3e, 0xc4, 0x51, 0x38, 0x3e,
  0x7b, 0xe6, 0xb5, 0xbd, 0xad, 0x04, 0xfa, 0xbc, 0x7d, 0x3a, 0xcb, 0x3d,
  0x29, 0xec, 0xc6, 0x3d, 0xde, 0x53, 0x0d, 0xbe, 0xd6, 0xe4, 0x08, 0x3e,
  0x2b, 0xa8, 0x7c, 0xbd, 0xc1, 0x1d, 0x0f, 0x3d, 0x0a, 0x0f, 0x01, 0x3d,
  0xc7, 0x61, 0xaa, 0x3d, 0xd2, 0x9d, 0xca, 0x3d, 0x71, 0x0c, 0xd3, 0xbe,
  0x97, 0xbb, 0x0c, 0x3e, 0xf2, 0xc8, 0x90, 0x3d, 0x77, 0x04, 0xaf, 0x3e,
  0x00, 0xbf, 0x3f, 0x3d, 0x1b, 0xb9, 0x39, 0x3e, 0x83, 0x3b, 0xa0, 0xbe,
  0xfd, 0xa2, 0x8f, 0xbd, 0xaa, 0x8a, 0x27, 0x3c, 0x31, 0x76, 0x8c, 0xbd,
  0x81, 0xd5, 0x4b, 0xbe, 0x26, 0xed, 0x8e, 0xbe, 0x04, 0x2e, 0x33, 0x3e,
  0x9b, 0x86, 0xa2, 0xbd, 0xc5, 0x54, 0x8b, 0xbe, 0xaa, 0x4b, 0xb1, 0x3e,
  0x93, 0xa2, 0x85, 0xbe, 0x33, 0x4f, 0x12, 0xbe, 0x58, 0x36, 0xe5, 0xbd,
  0x19, 0xb6, 0x80, 0xbe, 0x6a, 0x6a, 0x9c, 0x3d, 0x3d, 0x87, 0x51, 0xbe,
  0x60, 0x7a, 0x8e, 0xbe, 0xec, 0xfc, 0x0c, 0x3e, 0xce, 0x57, 0x40, 0xbe,
  0x67, 0xe4, 0x16, 0xbe, 0x7a, 0x72, 0xcf, 0xbe, 0xb3, 0xa5, 0xe4, 0xbd,
  0x93, 0x4d, 0x1a, 0xbe, 0x39, 0x75, 0x9e, 0xbe, 0xee, 0x4c, 0x56, 0xbe,
  0x76, 0x8c, 0xd2, 0x3e, 0xf1, 0xfe, 0x81, 0xbe, 0xc1, 0x84, 0xbe, 0xbd,
  0x18, 0xd7, 0x27, 0x3e, 0x73, 0xf1, 0x56, 0x3e, 0xa8, 0x62, 0x4c, 0xbe,
  0x9d, 0x2e, 0xe3, 0x3d, 0x52, 0xfe, 0x79, 0xbe, 0xb0, 0xf2, 0x6d, 0x3e,
  0xf9, 0xce, 0x6c, 0xbe, 0x4e, 0x36, 0x62, 0xbe, 0x5e, 0x09, 0xd5, 0xbe,
  0x28, 0x73, 0x05, 0xbe, 0x00, 0x0f, 0x9f, 0xbc, 0x4c, 0x43, 0x83, 0xbe,
  0xaa, 0xad, 0xab, 0xbe, 0x5e, 0x24, 0x97, 0x3e, 0xfe, 0x9f, 0x16, 0xbe,
  0x73, 0x04, 0x49, 0xbe, 0xd8, 0xd8, 0x9b, 0x3d, 0x5c, 0x17, 0x3b, 0x3e,
  0x5b, 0x5b, 0xf0, 0xbc, 0x8c, 0x72, 0xca, 0x3d, 0x20, 0x0e, 0xf7, 0xbd,
  0x24, 0xac, 0x49, 0x3e, 0x00, 0x67, 0x74, 0xbd, 0x4e, 0xbc, 0x0b, 0xbe,
  0x40, 0xe5, 0x95, 0xbe, 0x49, 0xbd, 0xa5, 0xbe, 0x1d, 0x8f, 0x25, 0x3e,
  0xcc, 0x32, 0x21, 0xbe, 0x34, 0x2b, 0x02, 0xbe, 0x89, 0xd9, 0x55, 0x3f,
  0xa4, 0x80, 0x80, 0xbe, 0x6b, 0xae, 0x1e, 0xbe, 0xf5, 0x77, 0x86, 0x3d,
  0x36, 0x25, 0x4b, 0xbe, 0x69, 0x8b, 0x4c, 0x3d, 0xd1, 0x9b, 0x76, 0xbe,
  0x4a, 0x45, 0x17, 0xbc, 0xc3, 0x09, 0xfb, 0x3d, 0x5e, 0x83, 0x7d, 0xbe,
  0xbe, 0x41, 0x0e, 0x3e, 0x4f, 0xcd, 0x7a, 0xbe, 0xa1, 0xf0, 0x8b, 0xbd,
  0xc4, 0xf1, 0x2a, 0xbe, 0x22, 0xa1, 0x62, 0xbe, 0x09, 0xf8, 0x2e, 0xbe,
  0x67, 0x04, 0xeb, 0x3e, 0x88, 0x04, 0xa5, 0xbe, 0x17, 0x21, 0xba, 0xbc,
  0xe8, 0xc0, 0x67, 0x3d, 0x0d, 0xd2, 0x28, 0x3d, 0xf2, 0x97, 0x10, 0xbe,
  0x4e, 0x8b, 0x58, 0xbe, 0x91, 0xd5, 0xa8, 0xbe, 0x24, 0xf1, 0xb9, 0xbd,
  0x0a, 0x82, 0x4e, 0x3d, 0xa9, 0x2c, 0x62, 0x3d, 0x36, 0x48, 0xec, 0xbe,
  0xd8, 0xde, 0xa2, 0xbe, 0xb1, 0x16, 0x13, 0xbe, 0x69, 0x19, 0x82, 0xbd,
  0x9b, 0x15, 0x85, 0xbe, 0xcc, 0x9a, 0xf1, 0x3c, 0x67, 0xfd, 0x7b, 0xbe,
  0xbb, 0x45, 0x27, 0xbe, 0x01, 0x72, 0xe7, 0xbd, 0x69, 0x1e, 0xe2, 0xbd,
  0x08, 0x14, 0xa6, 0x3b, 0x1b, 0xb9, 0x3a, 0xbe, 0x12, 0xab, 0x81, 0xbe,
  0x96, 0xa4, 0x2d, 0x3d, 0x9f, 0xa0, 0xea, 0xbd, 0x97, 0x9b, 0x5f, 0xbe,
  0x01, 0x3d, 0x86, 0xbe, 0x82, 0x48, 0xbb, 0x3c, 0x99, 0x4a, 0x43, 0xbe,
  0x1a, 0x4a, 0xa4, 0xbe, 0x19, 0xf8, 0xa0, 0xbc, 0x53, 0xc1, 0x0e, 0xbe,
  0xd5, 0xfc, 0x9c, 0xbe, 0x8c, 0x0a, 0x10, 0xbe, 0x0b, 0x09, 0x9d, 0xbd,
  0xbb, 0x4d, 0xb5, 0xbe, 0xbb, 0x68, 0x56, 0xbe, 0xcc, 0x3d, 0x92, 0xbe,
  0xb0, 0xbb, 0x84, 0x3c, 0x16, 0x5a, 0x44, 0xbc, 0x65, 0x9b, 0x48, 0xbe,
  0x36, 0x94, 0xeb, 0xbb, 0xdd, 0xbd, 0x5a, 0xbd, 0xcc, 0xbc, 0x58, 0x3e,
  0xe7, 0xf4, 0xd4, 0xbe, 0x4b, 0x25, 0xd7, 0xbd, 0x7c, 0x07, 0x2c, 0xbb,
  0xfa, 0x2f, 0x32, 0x3e, 0xd0, 0x86, 0x95, 0xbe, 0x69, 0x48, 0x36, 0xbd,
  0x9d, 0x30, 0xee, 0xbe, 0x0c, 0xcc, 0x5d, 0xbd, 0xa2, 0xda, 0x33, 0xbf,
  0xcd, 0xe0, 0x1e, 0x3e, 0x56, 0x60, 0x63, 0xbe, 0x9d, 0x97, 0x59, 0xbe,
  0xa8, 0x6a, 0x36, 0x3c, 0x01, 0xbc, 0x0c, 0xbc, 0x46, 0x68, 0x4c, 0x3e,
  0x03, 0xd7, 0xa2, 0x3e, 0x22, 0x12, 0x80, 0xbd, 0x3b, 0x0f, 0x82, 0x3e,
  0x8b, 0x0d, 0xe0, 0x3c, 0x48, 0x29, 0x1c, 0x3f, 0x54, 0x54, 0xc0, 0x3d,
  0xbb, 0xbd, 0x04, 0xbd, 0xd4, 0x3b, 0xd2, 0xbe, 0x23, 0x86, 0x03, 0x3e,
  0x0d, 0x72, 0x22, 0xbf, 0xf9, 0xac, 0xac, 0xbd, 0x76, 0xbc, 0xd1, 0xbd,
  0x6e, 0x30, 0x52, 0x3e, 0x9b, 0x43, 0xfb, 0x3c, 0x32, 0xa2, 0x17, 0x3d,
  0x6e, 0x94, 0xa1, 0x3d, 0x5e, 0xda, 0x33, 0x3e, 0x3d, 0xe7, 0x13, 0xbe,
  0xbe, 0x3e, 0x4c, 0x3e, 0x2d, 0x0a, 0x2f, 0x3c, 0xbf, 0x22, 0x19, 0x3f,
  0xad, 0x50, 0x16, 0xbb, 0x04, 0x77, 0x1e, 0xbe, 0x85, 0x44, 0xd2, 0xbe,
  0xf2, 0x4f, 0x86, 0x3e, 0x4c, 0xcd, 0xd3, 0xbe, 0x60, 0xb7, 0x03, 0xbe,
  0x89, 0x89, 0x88, 0x3e, 0x1b, 0x53, 0x99, 0xbc, 0x51, 0x0b, 0x7d, 0xbd,
  0x6f, 0x87, 0xdb, 0xbd, 0x5a, 0x0f, 0xed, 0xbd, 0xab, 0x19, 0x54, 0x3d,
  0x74, 0xe0, 0x40, 0xbe, 0xf2, 0xaa, 0x3c, 0x3e, 0x71, 0xc9, 0x83, 0x3d,
  0xfe, 0xba, 0xa3, 0x3e, 0x5a, 0x33, 0x77, 0x3d, 0x5c, 0x7d, 0x66, 0xbe,
  0xec, 0x14, 0x83, 0xbe, 0x4f, 0x76, 0x7c, 0xbd, 0x69, 0xa9, 0x4a, 0xbe,
  0x9b, 0xfc, 0x68, 0x3b, 0xfe, 0x0b, 0x83, 0x3e, 0x18, 0xb5, 0x83, 0x3d,
  0x25, 0xbf, 0x53, 0xbd, 0x3f, 0x2e, 0x22, 0xbc, 0x51, 0xf3, 0x4e, 0x3e,
  0x13, 0x66, 0xaa, 0x3d, 0xff, 0xb4, 0xbf, 0xbd, 0x2c, 0x48, 0x79, 0xbc,
  0x97, 0x4a, 0xbf, 0xbc, 0x0c, 0xd5, 0x06, 0x3e, 0x3a, 0x89, 0xe8, 0x3d,
  0x87, 0xc5, 0xe6, 0xbd, 0x25, 0x55, 0xdd, 0xbd, 0xab, 0x21, 0x70, 0x3d,
  0xab, 0xbf, 0x0c, 0xba, 0x06, 0x74, 0xbb, 0xbb, 0x87, 0xed, 0x1f, 0xbd,
  0x3d, 0x57, 0xd2, 0xbd, 0x76, 0x7b, 0x7a, 0x3d, 0x11, 0x08, 0x12, 0x3d,
  0x32, 0x6e, 0x93, 0x3d, 0xec, 0x58, 0x1e, 0xbd, 0xab, 0x6e, 0xe3, 0x3d,
  0x32, 0x0e, 0xa8, 0x3e, 0x3b, 0x56, 0x5d, 0xbe, 0x8c, 0x63, 0xcb, 0x3b,
  0xae, 0x5e, 0xc4, 0x3e, 0xa0, 0x45, 0x7d, 0x3d, 0xa8, 0x63, 0x4e, 0x3d,
  0x1e, 0x70, 0x16, 0xbe, 0x9e, 0xbc, 0xa2, 0x3e, 0xcc, 0x29, 0x1e, 0xbb,
  0x7a, 0x1f, 0x7e, 0x3d, 0x52, 0x7b, 0xb9, 0xbe, 0x01, 0x8a, 0xb2, 0xbd,
  0x34, 0x09, 0xd3, 0xbb, 0x02, 0x14, 0xd9, 0x3d, 0x20, 0x84, 0x2c, 0xbe,
  0x78, 0xdc, 0x18, 0x3e, 0x74, 0x05, 0x92, 0xbd, 0x9d, 0x3e, 0xc6, 0xbe,
  0xb5, 0x80, 0x1d, 0x3b, 0xba, 0x8d, 0xf2, 0x3e, 0x8f, 0xfb, 0x59, 0xbd,
  0x45, 0xfc, 0x24, 0xbd, 0x95, 0x88, 0x96, 0x3e, 0x10, 0x33, 0xcf, 0x3d,
  0x40, 0x79, 0x98, 0xbe, 0xcf, 0x0f, 0x0b, 0x3f, 0x55, 0x8b, 0x27, 0xbe,
  0x9f, 0x32, 0x0f, 0xbc, 0x18, 0x19, 0x44, 0x3e, 0x50, 0x92, 0x39, 0xbf,
  0xa4, 0x31, 0xcf, 0xbe, 0x50, 0xa4, 0x54, 0xbe, 0xf7, 0xb5, 0xf7, 0xbd,
  0x0f, 0xd8, 0x4f, 0x3d, 0x48, 0x31, 0x0e, 0xbf, 0xb6, 0xc7, 0x5c, 0xbc,
  0xfa, 0x74, 0xbb, 0x3b, 0xb7, 0x34, 0x1e, 0x3d, 0xb9, 0x8b, 0xb9, 0xbe,
  0x63, 0x3f, 0x87, 0xbd, 0x0c, 0x59, 0x1c, 0xbd, 0x3f, 0x67, 0x2e, 0xbe,
  0x32, 0xaa, 0x9f, 0xbe, 0x7b, 0x5b, 0xd0, 0x3b, 0xe6, 0xcd, 0x1b, 0x3e,
  0x2b, 0xf7, 0x42, 0x3e, 0xaf, 0x76, 0x49, 0xbe, 0x20, 0xcb, 0xdc, 0xbe,
  0x50, 0x18, 0xdb, 0xbe, 0x4b, 0x6b, 0x28, 0x3c, 0x0a, 0xd7, 0x81, 0x3c,
  0xe0, 0x9b, 0x1d, 0x3d, 0x7a, 0x67, 0x57, 0x3e, 0x2a, 0xa6, 0x86, 0xbc,
  0x79, 0x91, 0x0a, 0xbc, 0x4f, 0x7c, 0xf6, 0xbc, 0xc6, 0x59, 0x8a, 0xbd,
  0x72, 0x02, 0xb0, 0x3d, 0x0f, 0xda, 0x84, 0xbe, 0x4c, 0x46, 0xa1, 0x3c,
  0x21, 0x37, 0xf6, 0x3d, 0xd3, 0xe9, 0xc5, 0xbe, 0x4d, 0x17, 0x0e, 0xbe,
  0x8a, 0x29, 0xcd, 0xbe, 0xd9, 0x9b, 0x3a, 0xbd, 0x19, 0x45, 0xec, 0xbc,
  0xb2, 0x76, 0xd5, 0x3d, 0xbf, 0xfd, 0xeb, 0xbc, 0x1b, 0x82, 0x2e, 0x3f,
  0x0e, 0xc0, 0x5f, 0xbc, 0x4c, 0xae, 0xa9, 0x3e, 0x69, 0xe2, 0xe4, 0xbb,
  0x1c, 0x8e, 0x40, 0xbe, 0x03, 0x8e, 0xb1, 0x3b, 0xb6, 0x34, 0xc0, 0x3d,
  0xda, 0x1d, 0x6f, 0xba, 0xf0, 0xcd, 0xb3, 0x3d, 0x8d, 0x36, 0xbf, 0xbe,
  0x96, 0x84, 0xac, 0xbe, 0x49, 0xbd, 0x17, 0xbf, 0x1f, 0xec, 0x70, 0xbe,
  0xfb, 0x19, 0x39, 0x3c, 0x0e, 0xcd, 0x2d, 0xbe, 0x37, 0x4e, 0x8a, 0xbd,
  0xed, 0xb9, 0x3d, 0x3f, 0x5d, 0x0e, 0x14, 0xba, 0x25, 0x6c, 0x8c, 0x3e,
  0x1a, 0x6c, 0x23, 0x3b, 0x59, 0x92, 0x7f, 0xbd, 0x28, 0x26, 0xbc, 0x3d,
  0x2d, 0xb9, 0x19, 0xbd, 0x0e, 0x8c, 0x65, 0xbc, 0x05, 0xb1, 0xcd, 0x3e,
  0x45, 0xe3, 0xb5, 0xbe, 0x26, 0x7f, 0x08, 0xbf, 0x63, 0x85, 0x36, 0xbf,
  0xe5, 0x8e, 0x07, 0xbf, 0x33, 0xf8, 0x99, 0x3c, 0xd7, 0xdb, 0xcd, 0xbe,
  0x12, 0xb1, 0xb8, 0xbc, 0x9c, 0x2b, 0xa6, 0x3e, 0x72, 0x27, 0x8d, 0xba,
  0x68, 0x97, 0xfa, 0xbe, 0xc5, 0x00, 0x0e, 0x3c, 0x70, 0xb1, 0x69, 0xbd,
  0x7e, 0x75, 0x3f, 0x3e, 0xc0, 0xf5, 0xc6, 0xbe, 0x82, 0x17, 0xae, 0x3c,
  0xb5, 0xae, 0xa8, 0x3e, 0x3d, 0xfb, 0xad, 0xbe, 0xee, 0x41, 0x03, 0xbf,
  0x94, 0x2c, 0xb5, 0xbe, 0x69, 0x2c, 0x07, 0xbf, 0x15, 0x12, 0xab, 0x3c,
  0xaa, 0xd7, 0x15, 0xbf, 0x38, 0x83, 0xbc, 0xbc, 0x5a, 0xe2, 0x73, 0x3e,
  0x96, 0x11, 0x0e, 0x3a, 0x73, 0x01, 0x04, 0xbf, 0x68, 0x49, 0x4c, 0xbb,
  0x23, 0xd6, 0x16, 0x3b, 0xbe, 0x7e, 0x01, 0x3e, 0x53, 0x78, 0x04, 0xbf,
  0x6f, 0x91, 0xcb, 0xbc, 0xe7, 0x42, 0x26, 0x3c, 0x5d, 0xb5, 0x8b, 0xbd,
  0xa4, 0xe9, 0x4d, 0xbe, 0x6a, 0xe1, 0x80, 0xbd, 0xfe, 0x8d, 0xc5, 0xbe,
  0x47, 0x8b, 0x66, 0x3c, 0x68, 0x73, 0xe5, 0xbe, 0xfb, 0x0f, 0xc0, 0x3d,
  0x3a, 0xc9, 0xea, 0x3d, 0x92, 0x5f, 0x0b, 0x3c, 0xb1, 0x6f, 0x62, 0xbe,
  0x76, 0x4e, 0x6f, 0x3c, 0x94, 0xd5, 0x80, 0xbd, 0xd7, 0xe4, 0x91, 0x3d,
  0x63, 0x26, 0x0f, 0xbe, 0x09, 0x4f, 0x4c, 0xbb, 0x55, 0x6f, 0x9b, 0xbd,
  0xe1, 0xe8, 0x92, 0xbc, 0x9e, 0x47, 0x26, 0xbe, 0x62, 0x2f, 0x05, 0x3e,
  0x6e, 0xa8, 0x36, 0x3d, 0xff, 0xc2, 0x49, 0xbe, 0xe5, 0x33, 0x0b, 0xbd,
  0x23, 0xe1, 0x0b, 0xbe, 0x74, 0xe3, 0x1e, 0xbe, 0xd4, 0xd3, 0x24, 0xbd,
  0x78, 0x5c, 0xa5, 0x3d, 0xf3, 0xdb, 0x4e, 0xbe, 0xc6, 0x66, 0x39, 0xbc,
  0x12, 0x66, 0x2e, 0xbd, 0x4a, 0xc2, 0xe9, 0xbd, 0x7d, 0x88, 0x7d, 0x3d,
  0x5f, 0x71, 0xf7, 0xbd, 0xa7, 0x55, 0x07, 0xbe, 0xd6, 0xf3, 0x29, 0xbb,
  0x8f, 0xf2, 0x63, 0xbe, 0x6f, 0x5e, 0x4e, 0xbe, 0x44, 0xf4, 0x6c, 0xbe,
  0xc2, 0x19, 0x24, 0xbe, 0xb8, 0xfb, 0xfd, 0xbd, 0xbd, 0x6e, 0x5d, 0xbe,
  0x87, 0xc4, 0x48, 0xbe, 0x9c, 0xbc, 0x12, 0x3e, 0x7f, 0x51, 0xa9, 0xbe,
  0x3e, 0x79, 0x90, 0xbd, 0xa9, 0x98, 0xa1, 0xbe, 0xb4, 0x33, 0x3f, 0xbe,
  0x74, 0x86, 0x1f, 0xbd, 0x70, 0xe6, 0xe7, 0x3c, 0x32, 0x62, 0xbf, 0x3b,
  0x7d, 0xa7, 0x65, 0xbe, 0x07, 0x7d, 0xb3, 0xbe, 0x7c, 0x3d, 0x3c, 0x3e,
  0x8f, 0xa5, 0x09, 0xba, 0x89, 0xeb, 0x46, 0xbe, 0x68, 0xc6, 0x02, 0x3e,
  0x25, 0xc6, 0xfb, 0x3d, 0xf5, 0xcc, 0x59, 0x3d, 0x89, 0xb3, 0xa0, 0xbe,
  0xa1, 0xf8, 0x64, 0xbe, 0xf0, 0xbb, 0xbd, 0x3d, 0x0d, 0x75, 0x20, 0xbe,
  0xcd, 0xb3, 0x6b, 0xbe, 0xff, 0xbf, 0x41, 0xbe, 0x80, 0x27, 0xb1, 0xbd,
  0xe6, 0x9a, 0x56, 0x3c, 0xbd, 0x3c, 0xb4, 0x3d, 0x9b, 0xce, 0x93, 0xbe,
  0x1d, 0xb3, 0xaf, 0xbd, 0x14, 0xa2, 0x13, 0xbd, 0x11, 0xdf, 0x61, 0xbe,
  0xa6, 0x1b, 0xda, 0x3d, 0x71, 0x05, 0xdf, 0x3d, 0xdb, 0x7b, 0xa6, 0xbb,
  0xb1, 0xb0, 0x01, 0x3e, 0x86, 0xa7, 0xb6, 0x3c, 0xe4, 0x5e, 0xf3, 0x3d,
  0xd9, 0xd9, 0x84, 0xbe, 0x30, 0xe6, 0xeb, 0x3d, 0x4f, 0x7d, 0x12, 0xbe,
  0xcf, 0x59, 0x86, 0x3d, 0xcc, 0x27, 0x8e, 0xbe, 0x80, 0x04, 0xe5, 0x3d,
  0x0c, 0x7b, 0x1a, 0xbe, 0x26, 0x4f, 0x22, 0x3e, 0x69, 0xb3, 0x2c, 0xbe,
  0x99, 0x73, 0xa2, 0x3c, 0x89, 0x77, 0xc7, 0xbd, 0x70, 0x9d, 0x4a, 0xbe,
  0x20, 0x39, 0x43, 0xbc, 0x81, 0x0f, 0x81, 0x3d, 0xa2, 0x10, 0xc7, 0xbd,
  0xf8, 0xc1, 0x46, 0xbe, 0xf4, 0x70, 0x02, 0x3e, 0x6d, 0x38, 0xeb, 0x3d,
  0xbf, 0x23, 0x60, 0xbe, 0x7c, 0x17, 0x13, 0xbe, 0x90, 0x9d, 0x89, 0xbe,
  0x85, 0x24, 0x47, 0xbe, 0x20, 0x2c, 0x0d, 0xbe, 0x8c, 0x76, 0x31, 0xbe,
  0x14, 0x12, 0x08, 0x3d, 0xbb, 0xa5, 0xfe, 0xbb, 0x65, 0x0d, 0x2f, 0xbe,
  0xb0, 0xa8, 0x48, 0x3d, 0x0a, 0x81, 0xd3, 0xbd, 0x41, 0xea, 0xa9, 0x3c,
  0x3a, 0xae, 0xec, 0xbd, 0x16, 0x5b, 0x88, 0xbd, 0x99, 0xf4, 0xe0, 0x3d,
  0xce, 0xb3, 0xe7, 0xbc, 0xcf, 0x91, 0x23, 0xbe, 0x1a, 0xca, 0x6a, 0x3d,
  0x16, 0xcb, 0x0a, 0x3d, 0xb7, 0x96, 0x1d, 0xbe, 0xb6, 0xf0, 0xf8, 0xbd,
  0x3b, 0x5c, 0x7f, 0xbe, 0xf2, 0xc9, 0x0f, 0xbe, 0x22, 0x3c, 0x47, 0xbe,
  0xdf, 0xc7, 0x56, 0x3d, 0xf7, 0x98, 0x6f, 0xbe, 0x28, 0x26, 0x43, 0xbe,
  0x1e, 0x71, 0xae, 0x3d, 0x56, 0xdf, 0x42, 0xbe, 0x07, 0xc2, 0xe2, 0x3d,
  0x08, 0x53, 0x4f, 0xbe, 0x81, 0xbf, 0xb0, 0xbd, 0x75, 0x5b, 0xcc, 0xbd,
  0x95, 0xf8, 0xea, 0xbe, 0xc3, 0x9a, 0xc9, 0xbd, 0xd0, 0x3f, 0xb3, 0xbe,
  0x72, 0x6b, 0xde, 0xbc, 0xfb, 0x1a, 0x27, 0x3e, 0x4b, 0xda, 0x2f, 0x3d,
  0x87, 0x46, 0x02, 0xbf, 0xf6, 0x8b, 0xb1, 0xbc, 0x1d, 0x0d, 0x5e, 0xbe,
  0x10, 0x9f, 0x2e, 0x3a, 0xfc, 0x9e, 0xdb, 0xbe, 0xd2, 0xb7, 0xb0, 0x3d,
  0xf0, 0x66, 0xe8, 0x3d, 0x18, 0xd8, 0xad, 0x3d, 0x3b, 0xd9, 0xc4, 0xbe,
  0xbe, 0x2e, 0x01, 0xbf, 0xd5, 0xe5, 0x30, 0xbf, 0xe2, 0xa0, 0x16, 0xbe,
  0x3d, 0xdd, 0xca, 0x3e, 0x03, 0xd2, 0x69, 0x3d, 0x37, 0x32, 0xd1, 0x3d,
  0x1e, 0x16, 0x70, 0x3d, 0xe6, 0xd9, 0x81, 0x3e, 0xcc, 0xd1, 0x33, 0x3d,
  0x05, 0x7e, 0xf4, 0xbd, 0x17, 0x77, 0xc0, 0x3c, 0xbe, 0xd6, 0x72, 0x3e,
  0x72, 0x8d, 0x86, 0x3d, 0x2f, 0x51, 0xc5, 0x3e, 0xc3, 0x47, 0x39, 0x3e,
  0x54, 0xf3, 0x47, 0x3d, 0xf2, 0x8d, 0x32, 0xbf, 0xe0, 0x81, 0x96, 0xbe,
  0x8c, 0x28, 0x87, 0xbe, 0xb0, 0x5d, 0xb6, 0x3e, 0x3b, 0x86, 0x85, 0x3c,
  0xcb, 0x19, 0xff, 0x3d, 0x83, 0xb8, 0xcf, 0x3d, 0x29, 0x44, 0xe8, 0x3e,
  0x2f, 0x5a, 0x32, 0xbd, 0xa7, 0x91, 0x26, 0xbe, 0x33, 0xbb, 0x6b, 0x3d,
  0x04, 0x25, 0x27, 0x3a, 0xe1, 0x1a, 0xbb, 0x3c, 0x43, 0xfc, 0x3d, 0x3f,
  0x51, 0x19, 0x85, 0x3d, 0x50, 0xb7, 0x63, 0x3e, 0x25, 0x66, 0x03, 0xbf,
  0x05, 0x25, 0xd6, 0xbd, 0x64, 0x6e, 0x51, 0x3d, 0x19, 0x7a, 0xdf, 0x3e,
  0x43, 0xe2, 0x35, 0x3e, 0x0a, 0xe7, 0x84, 0x3e, 0xf7, 0x61, 0x41, 0x3d,
  0xd0, 0xd7, 0x92, 0x3e, 0x35, 0x49, 0x1a, 0xbc, 0xe1, 0xc3, 0x9c, 0xbd,
  0x3c, 0x87, 0x45, 0x3d, 0x68, 0xe3, 0x9c, 0x3e, 0x4a, 0x3b, 0xd5, 0x3c,
  0xdc, 0x2d, 0x0a, 0x3f, 0xe6, 0x4a, 0xc4, 0x3c, 0x75, 0x71, 0xa6, 0x3e,
  0xef, 0x2b, 0xf1, 0xbc, 0x71, 0xda, 0xe9, 0xbe, 0x96, 0xf6, 0x93, 0xbe,
  0x28, 0x06, 0x83, 0x3e, 0x52, 0x96, 0x7f, 0x3c, 0x00, 0xe0, 0xee, 0x3d,
  0xf9, 0x32, 0x4f, 0x3d, 0xb7, 0xc1, 0x01, 0x3e, 0x41, 0x50, 0x95, 0xbd,
  0x7a, 0xa1, 0x0a, 0xbe, 0xa1, 0x48, 0x50, 0x3c, 0x01, 0xc8, 0x92, 0x3d,
  0xa2, 0xa8, 0xb2, 0x3c, 0xa8, 0x8d, 0x9f, 0x3e, 0x1d, 0xda, 0x1d, 0x3d,
  0xbc, 0x3f, 0x15, 0x3e, 0x62, 0x45, 0x12, 0xbf, 0x5e, 0x0c, 0xd2, 0xbe,
  0x2d, 0xc8, 0xf6, 0xbe, 0xd1, 0x81, 0x82, 0x3d, 0x49, 0xba, 0xd2, 0xbd,
  0x54, 0xe4, 0xc0, 0xbc, 0x43, 0x11, 0x5a, 0x3d, 0x78, 0x92, 0x45, 0x3e,
  0xa1, 0x11, 0x0a, 0xbd, 0xc2, 0x80, 0x3c, 0xbf, 0x28, 0x68, 0x1d, 0x3d,
  0xf4, 0x6a, 0x9c, 0x3b, 0xbb, 0x99, 0x00, 0x3d, 0x0f, 0xcb, 0xa4, 0x3e,
  0x03, 0xf1, 0x14, 0x3e, 0xc0, 0x61, 0x1b, 0xbe, 0x2b, 0x4a, 0x3c, 0xbf,
  0x93, 0xd8, 0x5e, 0xbc, 0xa5, 0xd5, 0x0e, 0xbf, 0xac, 0x21, 0x3d, 0x3e,
  0x3c, 0xda, 0x31, 0x3d, 0x92, 0x59, 0x04, 0xbf, 0xfb, 0x56, 0x1a, 0x3d,
  0x6d, 0xf1, 0xae, 0x3e, 0x46, 0x67, 0x34, 0xbd, 0x2f, 0xd1, 0xd9, 0xbe,
  0x23, 0xd4, 0x94, 0xbb, 0x47, 0x2a, 0x4a, 0xbe, 0xe7, 0x90, 0x87, 0x3c,
  0x68, 0x6f, 0x4a, 0x3e, 0x58, 0x4d, 0x99, 0xbc, 0xca, 0x37, 0xb4, 0x3e,
  0x81, 0x19, 0x1a, 0xbf, 0xaa, 0xf8, 0xa7, 0xbe, 0xd8, 0x0e, 0xb7, 0x3d,
  0xed, 0x0e, 0x47, 0xbe, 0x1b, 0xea, 0x0e, 0xbe, 0x9f, 0xf2, 0xda, 0x3d,
  0x61, 0xda, 0xcb, 0x3c, 0xc1, 0x8b, 0x56, 0xbd, 0x5d, 0x76, 0xb2, 0xbc,
  0x01, 0x1b, 0x3f, 0xbe, 0xe1, 0x1b, 0xa3, 0xbb, 0x6d, 0xe5, 0x9d, 0xbe,
  0xab, 0x51, 0xf7, 0x3c, 0x7f, 0x79, 0x6a, 0x3e, 0x0a, 0xc7, 0x05, 0x3d,
  0xf1, 0x8d, 0x6f, 0xbe, 0x21, 0x9e, 0xc7, 0xbe, 0x19, 0x0d, 0x8e, 0xbe,
  0xae, 0x04, 0x3e, 0x3e, 0xbf, 0xc5, 0x3f, 0x3e, 0x19, 0x10, 0x0a, 0x3d,
  0x57, 0x2c, 0x7d, 0xbc, 0x44, 0x95, 0x55, 0x3b, 0x29, 0xa7, 0xbc, 0x3e,
  0x8a, 0xec, 0xa6, 0x3d, 0x27, 0x68, 0x31, 0xbe, 0x86, 0x08, 0x94, 0xbb,
  0x3b, 0x9e, 0x00, 0xbe, 0xbe, 0xef, 0x16, 0x3d, 0x3f, 0xb5, 0x08, 0x3c,
  0x3e, 0x77, 0xda, 0xbd, 0x50, 0xcc, 0x35, 0xbd, 0x27, 0x3f, 0x94, 0xbe,
  0x3b, 0x7e, 0xb9, 0xbd, 0xa1, 0x07, 0x47, 0xbc, 0xb7, 0x97, 0xc1, 0x3d,
  0x66, 0x68, 0xc0, 0xbc, 0xd3, 0xc1, 0xb5, 0x3d, 0x32, 0xf1, 0x5d, 0x3c,
  0xa4, 0x47, 0x13, 0x3e, 0xd7, 0xa7, 0x86, 0x3d, 0x8e, 0xae, 0x58, 0xbe,
  0x36, 0xb5, 0xe2, 0x3b, 0xc2, 0x3f, 0x93, 0x3d, 0x36, 0xfb, 0xe5, 0x3b,
  0x12, 0xd1, 0x87, 0x3b, 0x5b, 0x1f, 0xb4, 0xbd, 0x43, 0x7f, 0x98, 0xbe,
  0xb4, 0xc6, 0x1f, 0xbe, 0x4d, 0x1e, 0xc2, 0xbd, 0x18, 0xd6, 0x89, 0xbb,
  0xad, 0x48, 0x09, 0x3e, 0x91, 0xfa, 0x96, 0x3b, 0x47, 0x66, 0x95, 0xbd,
  0xb7, 0x7e, 0x4f, 0x3c, 0x3f, 0xb8, 0xcf, 0xbc, 0x00, 0x02, 0x9e, 0xbb,
  0xda, 0x72, 0x5f, 0xbe, 0x48, 0x8d, 0x6d, 0x3c, 0xc8, 0x80, 0x49, 0xbd,
  0xec, 0x82, 0xd9, 0x3b, 0x33, 0x3e, 0xbe, 0x3d, 0x52, 0x15, 0xe5, 0x3c,
  0xd4, 0x2e, 0x39, 0xbe, 0x54, 0xe3, 0x24, 0xbe, 0x5b, 0x91, 0x1d, 0xbe,
  0xc7, 0x91, 0x25, 0x3d, 0x78, 0x78, 0x21, 0x3e, 0x74, 0xb2, 0x0d, 0xbd,
  0x57, 0x76, 0xa9, 0x3c, 0x5a, 0x4d, 0x34, 0x3c, 0xb7, 0x3f, 0x42, 0x3e,
  0x83, 0xfd, 0x06, 0xbd, 0x71, 0x85, 0x87, 0xbe, 0x1c, 0x2c, 0x65, 0x3c,
  0x9f, 0x48, 0xaf, 0xbd, 0x12, 0xff, 0x4c, 0x3c, 0x14, 0xb1, 0x17, 0x3e,
  0x79, 0xe0, 0x8a, 0xbd, 0xf5, 0x99, 0x90, 0xbe, 0xbb, 0xda, 0x5e, 0xbd,
  0xd4, 0x09, 0x1f, 0xbe, 0x8f, 0x83, 0x17, 0x3e, 0x29, 0x78, 0xb3, 0x3d,
  0x83, 0x62, 0xe2, 0xbd, 0x5e, 0xc8, 0x14, 0xbd, 0xd4, 0xc7, 0xb3, 0x3c,
  0x7b, 0x84, 0xcb, 0x3d, 0xec, 0x46, 0xd8, 0x3d, 0x07, 0x2c, 0xb4, 0xbe,
  0x5c, 0x86, 0xdf, 0x3c, 0x78, 0xd9, 0x58, 0xbe, 0x83, 0xae, 0xf3, 0x3c,
  0xd5, 0xee, 0xca, 0x3c, 0x0b, 0x8d, 0xc9, 0xbd, 0x7d, 0x39, 0x0e, 0xbe,
  0xed, 0x4a, 0x60, 0xbe, 0xef, 0xc7, 0x9b, 0xbc, 0xd9, 0x2f, 0x97, 0xbd,
  0x28, 0xbb, 0x96, 0x3d, 0x4a, 0x1b, 0xf8, 0x3c, 0x0d, 0xca, 0x40, 0xbe,
  0xed, 0x7a, 0xbb, 0xbc, 0x2a, 0xdc, 0x6c, 0x3e, 0x8e, 0x9a, 0x8d, 0xbb,
  0xd7, 0x06, 0x53, 0xbe, 0xe8, 0xa0, 0xa7, 0xbc, 0x21, 0x30, 0x0c, 0xbe,
  0xdc, 0x8a, 0xef, 0x3c, 0xbd, 0xfb, 0xc7, 0x3d, 0xbe, 0xe5, 0x14, 0x3d,
  0x6e, 0x60, 0x6c, 0x3e, 0x55, 0xdf, 0x87, 0xbe, 0x26, 0x83, 0xdf, 0xbe,
  0xea, 0x21, 0xf1, 0xbe, 0x18, 0x33, 0x3b, 0xbf, 0xde, 0x87, 0x5f, 0xbe,
  0xec, 0x8e, 0x5f, 0xbd, 0x9c, 0xe1, 0x6a, 0xbe, 0x5b, 0xbb, 0x4b, 0xbf,
  0x9f, 0xa1, 0x1a, 0xbe, 0x73, 0xc9, 0xcc, 0xbc, 0xff, 0x3a, 0x11, 0xbe,
  0xd9, 0xb1, 0x92, 0xbe, 0x33, 0x7b, 0x45, 0xbd, 0x63, 0x00, 0x15, 0xbf,
  0x1e, 0x7f, 0x40, 0x3d, 0x3a, 0x18, 0xa1, 0xbe, 0xb5, 0xd5, 0x97, 0xbe,
  0x95, 0x38, 0x6e, 0xbd, 0xd1, 0x71, 0x19, 0xbf, 0x9b, 0xb3, 0x27, 0xbf,
  0xb7, 0x45, 0x17, 0xbe, 0x4e, 0x6d, 0x0c, 0xbe, 0x53, 0x34, 0xda, 0xbd,
  0xf4, 0x40, 0x56, 0xbf, 0x64, 0x09, 0x17, 0x3d, 0xd6, 0x4d, 0xc0, 0xbc,
  0x04, 0x83, 0xe9, 0xbd, 0x79, 0x77, 0x02, 0xbf, 0xf7, 0x06, 0xcb, 0x3c,
  0xc8, 0xd8, 0x65, 0xbd, 0x14, 0xa0, 0x66, 0x3b, 0x43, 0x30, 0x90, 0xbe,
  0xa1, 0xf8, 0x8f, 0xbe, 0xa4, 0xf6, 0xbe, 0xbe, 0xb3, 0x84, 0x0d, 0xbf,
  0xb9, 0xf7, 0x00, 0xbf, 0x12, 0xe8, 0x75, 0xbd, 0x27, 0x35, 0x23, 0xbe,
  0x9a, 0xaf, 0xc8, 0xbd, 0x16, 0x97, 0x85, 0xbf, 0x81, 0xb2, 0x91, 0xbe,
  0xb7, 0xb4, 0x6f, 0x3c, 0xee, 0xee, 0xce, 0xbd, 0x91, 0x13, 0x33, 0xbe,
  0x42, 0x6b, 0x11, 0xbb, 0x16, 0x37, 0x45, 0xbe, 0x09, 0x4a, 0xeb, 0x3d,
  0xa8, 0x2b, 0xf7, 0xbe, 0x0d, 0x64, 0xa3, 0xbe, 0x42, 0x31, 0xdb, 0xbe,
  0x39, 0xba, 0x4b, 0xbf, 0xd7, 0x7c, 0xfa, 0xbe, 0x7a, 0xb7, 0xf9, 0xbd,
  0x41, 0x0c, 0x14, 0xbe, 0xa5, 0x20, 0xe9, 0xbd, 0x03, 0x23, 0x81, 0xbf,
  0x70, 0x72, 0x89, 0xbe, 0xc8, 0xc8, 0xdb, 0xbe, 0x0a, 0x8c, 0xf5, 0xbc,
  0xc7, 0xff, 0x75, 0xbe, 0x0f, 0x92, 0x52, 0xbd, 0xaf, 0x0c, 0xc1, 0xbe,
  0x56, 0xe9, 0x75, 0x3e, 0x9e, 0xbd, 0xba, 0xbe, 0x9a, 0x82, 0xd2, 0xbe,
  0xfb, 0x84, 0x9b, 0xbe, 0xa1, 0x19, 0xf3, 0xbe, 0x3b, 0x4e, 0x47, 0xbd,
  0xde, 0xf4, 0x6f, 0x3d, 0x6c, 0xf3, 0x84, 0xbd, 0x0c, 0xd1, 0x2d, 0xbe,
  0x08, 0x38, 0x37, 0x3f, 0x1d, 0x18, 0xbd, 0xbd, 0x88, 0x34, 0x16, 0x3e,
  0x52, 0xfd, 0xa0, 0xbd, 0xca, 0x91, 0xcf, 0x3e, 0x9f, 0x2f, 0x02, 0x3e,
  0x3d, 0xa7, 0x65, 0xbe, 0x05, 0x51, 0x41, 0x3d, 0xd6, 0x2d, 0x23, 0x3e,
  0x57, 0x90, 0x03, 0xbe, 0xb7, 0xc8, 0xbc, 0xbe, 0x65, 0xbe, 0x0d, 0xbf,
  0x93, 0x6f, 0x09, 0x3e, 0x8c, 0xaf, 0x0f, 0xbc, 0xc7, 0x8c, 0x3e, 0x3a,
  0xcd, 0xf8, 0xaa, 0xbd, 0xf4, 0x75, 0xc7, 0x3e, 0xb6, 0x3f, 0x4a, 0xbe,
  0xf9, 0xc6, 0x5d, 0xbb, 0x60, 0xdf, 0x3a, 0xbc, 0x0b, 0x44, 0xb2, 0x3e,
  0xbd, 0x75, 0x8b, 0x3d, 0x25, 0x29, 0x86, 0xbe, 0x4b, 0x82, 0x61, 0xbc,
  0x90, 0x0e, 0xb9, 0x3e, 0x39, 0xac, 0x8c, 0x3d, 0x2c, 0xff, 0x41, 0xbd,
  0x27, 0x96, 0xc0, 0x3e, 0xa9, 0xe6, 0xc3, 0x3e, 0x10, 0xba, 0x27, 0x3e,
  0x0e, 0xc7, 0x67, 0x3e, 0x46, 0xda, 0xf4, 0x3d, 0x0d, 0x34, 0xae, 0xbc,
  0xed, 0x55, 0x08, 0xbf, 0x5b, 0x67, 0x43, 0x3e, 0x5e, 0xdc, 0x15, 0x3d,
  0xd9, 0x72, 0xbf, 0x3e, 0xce, 0x8f, 0x34, 0x3e, 0xd2, 0x91, 0x98, 0x3e,
  0x0d, 0x2e, 0x9e, 0xbe, 0x47, 0xf2, 0x15, 0x3c, 0xf8, 0x70, 0x7d, 0x3d,
  0xf0, 0x2b, 0x82, 0xbd, 0x88, 0x8a, 0x47, 0x3d, 0x94, 0x1b, 0xda, 0xbd,
  0xe3, 0x54, 0x3d, 0xbe, 0xbc, 0xa0, 0x02, 0xbe, 0xb2, 0xc2, 0x38, 0x3e,
  0x70, 0x95, 0x2e, 0x3e, 0x65, 0xdd, 0x90, 0x3d, 0x1c, 0xe6, 0xab, 0xbd,
  0xe0, 0xbe, 0x87, 0xbe, 0x02, 0x21, 0x87, 0x3d, 0x5e, 0xbb, 0x7f, 0xbd,
  0x43, 0x64, 0xa1, 0x3c, 0xdc, 0xaf, 0xdd, 0xbd, 0xec, 0xf2, 0xa5, 0xbe,
  0x98, 0x03, 0x39, 0xbe, 0xdc, 0xcb, 0xec, 0xbd, 0x32, 0x29, 0xc9, 0x3d,
  0xd0, 0x57, 0xb6, 0xbd, 0x70, 0xac, 0xf5, 0x3c, 0x9d, 0xbb, 0x17, 0x3e,
  0xd2, 0xa4, 0x2f, 0x3d, 0x37, 0x52, 0xa4, 0x3e, 0xc2, 0x91, 0x98, 0x3d,
  0x16, 0x4f, 0x19, 0xbe, 0x56, 0xb0, 0x7a, 0xbe, 0x2b, 0xf0, 0x5e, 0x3e,
  0x71, 0x75, 0x3a, 0xbe, 0x0d, 0xdb, 0x08, 0x3e, 0x48, 0xbf, 0x99, 0xbd,
  0x2c, 0x50, 0x63, 0x3d, 0xf4, 0xb8, 0x37, 0x3e, 0x99, 0x1c, 0x2e, 0x3e,
  0x61, 0xdd, 0x3c, 0x3e, 0x38, 0x7c, 0xfb, 0xbc, 0xed, 0x9c, 0x6a, 0xbd,
  0x78, 0x94, 0xa0, 0x3c, 0x25, 0x8a, 0x47, 0x3e, 0xd3, 0x45, 0x99, 0x3e,
  0x41, 0x60, 0x1f, 0x3b, 0x4c, 0x7b, 0xcf, 0xbd, 0x3b, 0x9b, 0x2f, 0xbe,
  0xd1, 0x79, 0xaf, 0x3e, 0xd0, 0xb9, 0x5e, 0x3c, 0x7e, 0x04, 0x71, 0xbd,
  0xa1, 0x0c, 0x64, 0x3e, 0x4e, 0x12, 0x15, 0xbe, 0x57, 0x4e, 0x72, 0x3d,
  0x59, 0x12, 0x71, 0xbc, 0x02, 0x1d, 0x93, 0x3d, 0x89, 0x25, 0xd4, 0xbd,
  0xbf, 0x05, 0xe0, 0x3c, 0xd1, 0xef, 0xc0, 0xbd, 0xd7, 0xa7, 0x8c, 0x3d,
  0x29, 0x65, 0xe1, 0x3e, 0x84, 0x79, 0x31, 0x3e, 0xda, 0x16, 0x25, 0xbe,
  0xa0, 0x88, 0x94, 0xbe, 0x8b, 0x75, 0xe2, 0x3c, 0xee, 0x1b, 0xcd, 0xbd,
  0x9c, 0x62, 0x9c, 0xbd, 0x1e, 0x86, 0x83, 0x3d, 0x1b, 0x0b, 0x7e, 0x3e,
  0xe9, 0xc4, 0xa7, 0xbd, 0x35, 0x84, 0xaf, 0x3d, 0xf9, 0x12, 0x42, 0x3e,
  0x1e, 0x19, 0xbc, 0x3d, 0x36, 0x16, 0xee, 0x3d, 0xc3, 0xf5, 0x00, 0xba,
  0x1a, 0xd4, 0x9e, 0xbd, 0x8c, 0xf8, 0x77, 0x3e, 0xdd, 0xde, 0x8b, 0x3e,
  0x08, 0xa9, 0x40, 0xbd, 0x67, 0xa3, 0x22, 0xbe, 0x48, 0x5a, 0x19, 0x3d,
  0x47, 0xcf, 0x1b, 0x3b, 0x64, 0xfc, 0x98, 0x3d, 0x82, 0x9e, 0x5b, 0x3c,
  0xec, 0x32, 0xa5, 0xbd, 0x8c, 0x9b, 0x9c, 0xbd, 0xe2, 0xa0, 0x2e, 0x3e,
  0xcb, 0xa1, 0x85, 0x3e, 0xa5, 0x92, 0x13, 0xbb, 0x7d, 0x25, 0xb7, 0x3d,
  0x65, 0xa0, 0x86, 0x3e, 0xfa, 0x72, 0xb2, 0x3c, 0x9e, 0x44, 0x8c, 0x3c,
  0x42, 0x0d, 0xaa, 0x3d, 0xf9, 0xbe, 0xac, 0xbd, 0x7d, 0x6e, 0x5e, 0xbe,
  0xc8, 0x99, 0xa4, 0x3d, 0x87, 0x95, 0x5c, 0x3c, 0x58, 0xb9, 0x0f, 0x3e,
  0xd7, 0x10, 0x56, 0x3e, 0xce, 0x3a, 0x54, 0xbe, 0xd8, 0x53, 0x8a, 0xbd,
  0x1c, 0x50, 0x2c, 0xbe, 0xb8, 0x04, 0x15, 0x3c, 0x8a, 0xe1, 0xfb, 0x3d,
  0xc4, 0xb8, 0x81, 0xbd, 0x75, 0x4e, 0x47, 0x3e, 0xda, 0xb5, 0x1b, 0xbe,
  0xc9, 0x02, 0xf7, 0xbd, 0x7e, 0xe4, 0x85, 0x3e, 0xeb, 0xac, 0x34, 0xbe,
  0xeb, 0x3b, 0xee, 0xbd, 0x7d, 0x87, 0xa9, 0x3d, 0x11, 0x41, 0x39, 0xbd,
  0x28, 0x31, 0x62, 0xbd, 0x5a, 0x8a, 0x27, 0x3e, 0x8d, 0xfb, 0xd1, 0xba,
  0x30, 0x0a, 0x61, 0xbd, 0x31, 0xc2, 0xd6, 0xbd, 0x55, 0x99, 0xb2, 0xbe,
  0xe1, 0xac, 0x4a, 0xbe, 0x47, 0x1f, 0xe8, 0xbd, 0xe5, 0x6f, 0x0b, 0xbc,
  0x76, 0x7a, 0xe7, 0xbe, 0x12, 0x31, 0x11, 0xbe, 0xe6, 0x53, 0xea, 0x3d,
  0xde, 0x69, 0x55, 0xbd, 0xed, 0xa2, 0x73, 0xbe, 0x8e, 0x32, 0x62, 0x3d,
  0xf7, 0xe9, 0x52, 0xbe, 0xa6, 0xd1, 0xb4, 0xbd, 0x50, 0xa8, 0x38, 0xbe,
  0xa5, 0x78, 0x0e, 0xbe, 0x4b, 0x78, 0x8b, 0xbe, 0x1b, 0x29, 0x49, 0x3d,
  0x1d, 0x04, 0xa7, 0xbe, 0x6e, 0x6f, 0xc7, 0x3d, 0x1c, 0xc2, 0xe6, 0xbd,
  0xf6, 0x2f, 0xeb, 0x3c, 0x50, 0x18, 0xc3, 0xbe, 0x35, 0x7f, 0xa6, 0xbe,
  0xa6, 0x0d, 0xd5, 0xbd, 0x4e, 0xd9, 0x9a, 0xbd, 0x58, 0xbe, 0x52, 0xbe,
  0x1a, 0xd7, 0x8d, 0xbe, 0x3d, 0x36, 0x3f, 0xbe, 0xf3, 0x6d, 0x89, 0xbc,
  0xef, 0x25, 0xcc, 0xbd, 0xc6, 0xd8, 0x6b, 0xbe, 0x9b, 0x87, 0x5a, 0xbe,
  0x31, 0xe8, 0x67, 0xbd, 0x16, 0x33, 0x5b, 0xbe, 0x62, 0x8c, 0x79, 0xbe,
  0x74, 0x3c, 0xaf, 0x3a, 0x03, 0x1e, 0x9b, 0x3c, 0x48, 0x7e, 0x11, 0xbe,
  0x23, 0x70, 0xc0, 0xbe, 0x1b, 0x63, 0x07, 0x3e, 0xf9, 0x2e, 0xa7, 0x3d,
  0x0d, 0x0e, 0x48, 0xbe, 0x75, 0x38, 0x28, 0xbe, 0xeb, 0x7f, 0x9e, 0xbc,
  0x33, 0xca, 0xbc, 0xbd, 0x29, 0x03, 0x94, 0xbe, 0x2d, 0x28, 0x84, 0xbe,
  0xef, 0xc5, 0x99, 0xbe, 0xac, 0x1c, 0x7a, 0xb9, 0x5d, 0x84, 0x2d, 0xbe,
  0xc7, 0xc9, 0x08, 0xbe, 0x53, 0x2c, 0x82, 0xbe, 0xde, 0x92, 0x16, 0xbe,
  0x06, 0x3b, 0x29, 0xbe, 0x04, 0xdd, 0x60, 0xbe, 0xc5, 0x0b, 0x21, 0x3e,
  0x45, 0x4a, 0x11, 0xbe, 0xb3, 0x11, 0x50, 0xbe, 0xfb, 0x84, 0x6c, 0xbc,
  0xe9, 0xaa, 0x9c, 0xbd, 0x86, 0xc4, 0x97, 0xbc, 0xf6, 0x50, 0xe6, 0x3d,
  0xb3, 0xb9, 0x35, 0x3d, 0x28, 0xd9, 0x71, 0xbe, 0x47, 0xb0, 0x30, 0xbe,
  0x59, 0xa8, 0x43, 0xbd, 0x07, 0x99, 0xba, 0x3e, 0x91, 0xcd, 0x87, 0x3d,
  0xa4, 0xcb, 0x05, 0x3e, 0x7b, 0xd5, 0x73, 0xbe, 0xa0, 0x35, 0xca, 0x3e,
  0x92, 0x45, 0x80, 0xbd, 0xc3, 0x83, 0x8e, 0x3e, 0x31, 0x75, 0xcd, 0xbd,
  0x1e, 0x0c, 0x3f, 0xbd, 0x43, 0x5e, 0x8f, 0x3b, 0x26, 0x20, 0x41, 0xbe,
  0xc1, 0x1f, 0x3f, 0xbe, 0xbf, 0xec, 0x81, 0xbd, 0xc4, 0x99, 0x1a, 0xbd,
  0x69, 0x54, 0x4b, 0xbe, 0x9f, 0xe1, 0xa2, 0xbd, 0x58, 0xae, 0x1b, 0x3e,
  0x3d, 0xf7, 0x9a, 0x3d, 0x77, 0xbb, 0xcb, 0x3d, 0xe9, 0x7d, 0xb0, 0xbd,
  0x5f, 0xae, 0x77, 0x3e, 0xe9, 0xe9, 0x04, 0xbe, 0x29, 0x0f, 0x19, 0x3e,
  0x20, 0x37, 0xc7, 0xbd, 0xab, 0x47, 0x8b, 0x3e, 0x9a, 0xc4, 0x0b, 0x3e,
  0x95, 0x6b, 0xda, 0x3d, 0xc8, 0x76, 0xc0, 0xbd, 0x7b, 0x18, 0x70, 0x3c,
  0x13, 0x33, 0x8c, 0x3d, 0x79, 0x91, 0x4b, 0xbd, 0xbd, 0x0b, 0x0f, 0xbe,
  0x27, 0x7f, 0x11, 0xbe, 0x5b, 0x56, 0x47, 0xbe, 0x49, 0x5a, 0x39, 0xbd,
  0x0c, 0x00, 0xe0, 0x3d, 0xfa, 0xcd, 0x40, 0x3d, 0x52, 0x64, 0x7a, 0x3d,
  0x7c, 0xad, 0xd6, 0xbd, 0x71, 0xc9, 0x87, 0xbc, 0x0a, 0xc5, 0x42, 0x3c,
  0x5c, 0xb6, 0xf7, 0xbd, 0xbb, 0x62, 0x02, 0xbe, 0xb5, 0x31, 0xa1, 0xbe,
  0xd1, 0x66, 0x65, 0x3e, 0x00, 0xb5, 0xcb, 0xbc, 0xd0, 0xf4, 0xd1, 0x3c,
  0x25, 0x4c, 0x65, 0xbe, 0x0c, 0xc5, 0xef, 0xbd, 0xdf, 0x04, 0x62, 0xbe,
  0x3a, 0x44, 0x04, 0xbe, 0x2f, 0x87, 0x2c, 0xbd, 0xe1, 0xac, 0x84, 0x3d,
  0x5e, 0x62, 0x7c, 0xbd, 0x00, 0x9e, 0xec, 0xbd, 0xd5, 0xc0, 0x67, 0x3c,
  0x91, 0x4b, 0x1f, 0xbe, 0xe0, 0xbe, 0x20, 0xbe, 0x2c, 0x58, 0x81, 0xbd,
  0x2d, 0x4c, 0x15, 0x3d, 0x87, 0x7b, 0x9d, 0xbe, 0x5e, 0x1f, 0x0b, 0xbe,
  0xd6, 0x7f, 0xe1, 0xbd, 0x3e, 0xbd, 0xa6, 0xbd, 0x04, 0x60, 0x8c, 0x3b,
  0x8f, 0xcc, 0x24, 0xbd, 0x59, 0x63, 0xc4, 0x3d, 0x2d, 0xcf, 0xb8, 0xbe,
  0x71, 0x1b, 0x6a, 0x3d, 0xb8, 0xd2, 0x9c, 0x3b, 0xfd, 0x12, 0x15, 0x3d,
  0x4c, 0x73, 0x12, 0x3d, 0x59, 0x69, 0x1b, 0x3e, 0xb9, 0x8d, 0x7b, 0xbe,
  0xa8, 0x1c, 0xa9, 0xbe, 0x8f, 0x82, 0x5a, 0xbe, 0x0f, 0x91, 0xc8, 0xbd,
  0xea, 0x27, 0x92, 0xbe, 0x04, 0x8b, 0x9c, 0xbd, 0xe2, 0x2e, 0x36, 0xbe,
  0x24, 0xc8, 0x06, 0xbe, 0x34, 0x3f, 0xb3, 0xbc, 0x75, 0x29, 0xa2, 0x3d,
  0xb5, 0x5c, 0x14, 0xbe, 0xe3, 0x2f, 0x06, 0x3e, 0x31, 0x7a, 0xcc, 0x3d,
  0xc8, 0x5d, 0x64, 0x3d, 0xa6, 0x86, 0x8a, 0xbe, 0x84, 0x78, 0xe1, 0xbd,
  0x30, 0x07, 0xa5, 0xbe, 0x3b, 0x61, 0x92, 0x3d, 0x49, 0xe8, 0x29, 0xbe,
  0x6a, 0x3f, 0x75, 0xbe, 0x1e, 0x5b, 0x4c, 0xbe, 0xf2, 0x92, 0xde, 0xbd,
  0x02, 0xb9, 0xe6, 0x3d, 0x20, 0x13, 0x06, 0x3e, 0xd4, 0x6e, 0x6e, 0xbd,
  0x81, 0x9c, 0x0a, 0xbe, 0x02, 0xaf, 0xa9, 0xbe, 0xd3, 0x1d, 0x03, 0xbd,
  0x14, 0xde, 0x26, 0x3e, 0x05, 0xfc, 0x8e, 0xbd, 0xa7, 0x1d, 0x77, 0xbe,
  0x2a, 0x62, 0x56, 0x3e, 0x3e, 0x5e, 0xa4, 0xbe, 0x94, 0x33, 0x48, 0xbe,
  0x75, 0xb2, 0x0a, 0xbe, 0x68, 0xdf, 0x1b, 0xbe, 0x28, 0x98, 0x86, 0xbe,
  0xbb, 0x59, 0xf2, 0xbd, 0x8d, 0xce, 0x93, 0xbd, 0xcd, 0x3b, 0xea, 0xbd,
  0x96, 0xb5, 0x15, 0xbc, 0x59, 0x9f, 0x25, 0x3d, 0xf9, 0xab, 0x99, 0xbe,
  0x57, 0x04, 0x09, 0x3d, 0x9e, 0xce, 0xe9, 0xbd, 0x3f, 0xfe, 0xb1, 0x3d,
  0xe4, 0x0a, 0x86, 0xbe, 0xd0, 0x6c, 0xcf, 0xbd, 0x14, 0xcc, 0x55, 0x3e,
  0x1a, 0xe7, 0x0e, 0x3e, 0x45, 0xc6, 0x07, 0xbd, 0x17, 0x4a, 0x20, 0x3d,
  0xc4, 0x72, 0x16, 0x3e, 0xdc, 0xb8, 0x06, 0xbe, 0x60, 0xc0, 0x71, 0xbe,
  0x68, 0xae, 0xd6, 0xbd, 0x47, 0xea, 0xc7, 0xbc, 0xbb, 0xe8, 0xae, 0x3c,
  0xde, 0x2e, 0x0a, 0x3e, 0xe9, 0x33, 0x65, 0x3e, 0x7c, 0x1a, 0x58, 0x3d,
  0xb8, 0x22, 0xc7, 0xbd, 0x0c, 0x37, 0xfe, 0xbc, 0x24, 0x40, 0xaf, 0xbd,
  0x74, 0x8c, 0x60, 0xbe, 0x34, 0x13, 0x14, 0x3e, 0x63, 0xae, 0x29, 0xbe,
  0xc0, 0xa3, 0x04, 0x3e, 0xee, 0x7d, 0xab, 0xbc, 0x47, 0xdf, 0x3f, 0xbe,
  0x73, 0x56, 0x93, 0xbe, 0x50, 0xbb, 0xd5, 0xbd, 0xb9, 0x1a, 0x10, 0x3c,
  0x0d, 0x62, 0x3e, 0xbd, 0x2d, 0xcc, 0x32, 0xbe, 0x2a, 0xee, 0x00, 0x3d,
  0x55, 0x76, 0x8c, 0xbe, 0x78, 0x60, 0x38, 0xbd, 0x40, 0x06, 0x4f, 0xbd,
  0x80, 0x67, 0x9f, 0x3d, 0x75, 0xc8, 0x87, 0xbe, 0x58, 0xbd, 0xcc, 0x3c,
  0xde, 0xda, 0x71, 0xbd, 0x02, 0xae, 0x62, 0xbc, 0xda, 0xb3, 0xa2, 0x3d,
  0xfc, 0x1b, 0x49, 0xbe, 0x92, 0xd6, 0x5f, 0xbe, 0x14, 0xa0, 0x34, 0xbe,
  0x2f, 0x58, 0xd9, 0xbe, 0x9d, 0xea, 0xbd, 0xbe, 0x60, 0x97, 0x2e, 0xbe,
  0x14, 0x1f, 0x72, 0x3d, 0x9b, 0x13, 0x43, 0xbe, 0x33, 0x8e, 0xac, 0xbe,
  0xea, 0x9f, 0x19, 0xbf, 0x5a, 0xbc, 0x89, 0xbd, 0x30, 0xb4, 0xc8, 0xbe,
  0xd5, 0xb5, 0xb8, 0x3c, 0x8c, 0xcc, 0x5c, 0xbe, 0xc6, 0x84, 0xd7, 0x3e,
  0x7a, 0x96, 0x8b, 0xbe, 0x93, 0x1c, 0x87, 0xbe, 0x12, 0xf4, 0xed, 0x3d,
  0x35, 0xaf, 0xd1, 0xbd, 0x91, 0x05, 0xd3, 0xbd, 0x2e, 0x63, 0x2a, 0xbe,
  0xbf, 0xf7, 0x3a, 0xbe, 0xa8, 0xcb, 0x20, 0x3f, 0x2b, 0x88, 0x40, 0xbc,
  0xab, 0x11, 0x3e, 0xbe, 0x88, 0x38, 0x84, 0xbe, 0x02, 0x92, 0xe4, 0x3c,
  0x7c, 0xf7, 0x77, 0xbe, 0x01, 0x5e, 0xbc, 0x3d, 0x4c, 0x64, 0x37, 0xbe,
  0xf6, 0xe8, 0x84, 0x3f, 0x73, 0x55, 0x73, 0xbd, 0xbc, 0x8f, 0x1f, 0x3d,
  0x11, 0x71, 0x9a, 0xbd, 0xa0, 0x7e, 0x5f, 0xbd, 0xfb, 0x9c, 0x58, 0xbe,
  0x99, 0xc0, 0x83, 0xbd, 0x17, 0xe8, 0x1d, 0xbe, 0x26, 0x8b, 0x06, 0x3f,
  0x33, 0x23, 0x8c, 0xbd, 0x02, 0xe6, 0x5f, 0xbe, 0xe3, 0xc8, 0xd4, 0xbd,
  0xbc, 0x2d, 0x89, 0xbe, 0xc8, 0x89, 0x6c, 0xbe, 0x48, 0x28, 0x63, 0xbd,
  0xb2, 0x74, 0x9f, 0xbe, 0x0e, 0xc4, 0x19, 0x3f, 0xb7, 0x61, 0xcd, 0xbd,
  0x62, 0x81, 0x9c, 0xbe, 0xca, 0x9f, 0x78, 0xbe, 0xa3, 0x14, 0x84, 0xbe,
  0xba, 0xca, 0x4f, 0xbe, 0x4b, 0xf0, 0xb2, 0xbc, 0x85, 0x38, 0xc8, 0xbe,
  0x0b, 0xdd, 0xfe, 0x3e, 0xd4, 0xc1, 0x0f, 0xbe, 0x42, 0xc2, 0x07, 0x3d,
  0xd9, 0x4f, 0x07, 0xbe, 0x67, 0x1d, 0x96, 0x3d, 0xd7, 0x8f, 0xc5, 0xbc,
  0xc8, 0x00, 0x9a, 0xbe, 0xf7, 0x7a, 0x9c, 0xbd, 0x32, 0xbe, 0x52, 0x3f,
  0xf3, 0x96, 0x09, 0xbd, 0x8b, 0xf1, 0x79, 0x3d, 0x73, 0x0f, 0x96, 0x3d,
  0xd6, 0xaa, 0x11, 0xbe, 0x84, 0xe6, 0xc0, 0xbe, 0xfc, 0x60, 0x4d, 0xbe,
  0x8c, 0xdd, 0xa3, 0xbd, 0x44, 0xa7, 0xa7, 0x3e, 0xb3, 0x7c, 0x14, 0xbd,
  0xa9, 0x7b, 0x15, 0x3e, 0x2d, 0x9b, 0x9f, 0xbd, 0xc2, 0x38, 0x3e, 0xbd,
  0x50, 0x81, 0x6e, 0xbe, 0x27, 0xdb, 0x6a, 0xbe, 0xff, 0xc6, 0xcd, 0x3b,
  0x8f, 0xc4, 0xc9, 0x3e, 0x57, 0x64, 0x4f, 0x3c, 0xa1, 0x9b, 0x94, 0x3c,
  0x70, 0x0f, 0x7d, 0xbd, 0x89, 0x17, 0x82, 0xbc, 0x20, 0x86, 0x0d, 0x3c,
  0xf3, 0xa2, 0x15, 0xbd, 0x55, 0xbc, 0xcf, 0xbe, 0x29, 0x02, 0x98, 0x3e,
  0x61, 0xf9, 0x6d, 0x3d, 0x33, 0x8a, 0x5f, 0x3d, 0x7d, 0xf7, 0x62, 0xbe,
  0xd3, 0xd1, 0xc5, 0xbd, 0x09, 0x27, 0x86, 0xbe, 0x5b, 0xeb, 0x4c, 0xbe,
  0x85, 0xda, 0xee, 0xbc, 0x86, 0x60, 0xa3, 0x3d, 0xa3, 0x01, 0x91, 0xbe,
  0x54, 0xb6, 0xe1, 0xbe, 0x39, 0x0a, 0x84, 0xbe, 0xea, 0x18, 0x93, 0xbe,
  0xc0, 0xf2, 0x2f, 0xbe, 0x31, 0xd2, 0x39, 0xbe, 0xa1, 0x30, 0xf6, 0xbe,
  0xb1, 0x83, 0x2a, 0xbd, 0x60, 0x3d, 0x31, 0x3e, 0xbe, 0x0c, 0xea, 0xbc,
  0x2c, 0xf1, 0x3f, 0xbe, 0xf6, 0xca, 0xee, 0xbc, 0x90, 0xb9, 0x2c, 0xbd,
  0xfb, 0xfc, 0xdc, 0xbe, 0x24, 0x4b, 0x1f, 0x3d, 0x0f, 0x3f, 0xae, 0x3e,
  0xa3, 0x61, 0xb0, 0xbe, 0x62, 0xfd, 0xff, 0xff, 0x10, 0x00, 0x00, 0x00,
  0x07, 0x00, 0x00, 0x00, 0x14, 0x00, 0x00, 0x00, 0x2c, 0x00, 0x00, 0x00,
  0x02, 0x00, 0x00, 0x00, 0x10, 0x00, 0x00, 0x00, 0x70, 0x00, 0x00, 0x00,
  0x17, 0x00, 0x00, 0x00, 0x73, 0x65, 0x71, 0x75, 0x65, 0x6e, 0x74, 0x69,
  0x61, 0x6c, 0x2f, 0x64, 0x65, 0x6e, 0x73, 0x65, 0x2f, 0x4d, 0x61, 0x74,
  0x4d, 0x75, 0x6c, 0x00, 0xcc, 0xfc, 0xff, 0xff, 0xd6, 0xfd, 0xff, 0xff,
  0x04, 0x00, 0x00, 0x00, 0x08, 0x00, 0x00, 0x00, 0xff, 0xff, 0xff, 0xff,
  0x70, 0x00, 0x00, 0x00, 0x00, 0x00, 0x0e, 0x00, 0x18, 0x00, 0x08, 0x00,
  0x07, 0x00, 0x0c, 0x00, 0x10, 0x00, 0x14, 0x00, 0x0e, 0x00, 0x00, 0x00,
  0x00, 0x00, 0x00, 0x02, 0x10, 0x00, 0x00, 0x00, 0x06, 0x00, 0x00, 0x00,
  0x10, 0x00, 0x00, 0x00, 0x2c, 0x00, 0x00, 0x00, 0x01, 0x00, 0x00, 0x00,
  0x02, 0x00, 0x00, 0x00, 0x18, 0x00, 0x00, 0x00, 0x73, 0x65, 0x71, 0x75,
  0x65, 0x6e, 0x74, 0x69, 0x61, 0x6c, 0x2f, 0x66, 0x6c, 0x61, 0x74, 0x74,
  0x65, 0x6e, 0x2f, 0x43, 0x6f, 0x6e, 0x73, 0x74, 0x00, 0x00, 0x00, 0x00,
  0x34, 0xfd, 0xff, 0xff, 0x3e, 0xfe, 0xff, 0xff, 0x04, 0x00, 0x00, 0x00,
  0x10, 0x00, 0x00, 0x00, 0x4f, 0xb5, 0xd3, 0xbe, 0x5b, 0xa9, 0xb4, 0x3f,
  0xdd, 0x25, 0x0d, 0xc0, 0xeb, 0x8c, 0x8c, 0xbe, 0x26, 0xfe, 0xff, 0xff,
  0x10, 0x00, 0x00, 0x00, 0x05, 0x00, 0x00, 0x00, 0x10, 0x00, 0x00, 0x00,
  0x44, 0x00, 0x00, 0x00, 0x01, 0x00, 0x00, 0x00, 0x04, 0x00, 0x00, 0x00,
  0x32, 0x00, 0x00, 0x00, 0x73, 0x65, 0x71, 0x75, 0x65, 0x6e, 0x74, 0x69,
  0x61, 0x6c, 0x2f, 0x64, 0x65, 0x6e, 0x73, 0x65, 0x5f, 0x31, 0x2f, 0x42,
  0x69, 0x61, 0x73, 0x41, 0x64, 0x64, 0x2f, 0x52, 0x65, 0x61, 0x64, 0x56,
  0x61, 0x72, 0x69, 0x61, 0x62, 0x6c, 0x65, 0x4f, 0x70, 0x2f, 0x72, 0x65,
  0x73, 0x6f, 0x75, 0x72, 0x63, 0x65, 0x00, 0x00, 0xa8, 0xfd, 0xff, 0xff,
  0xb2, 0xfe, 0xff, 0xff, 0x04, 0x00, 0x00, 0x00, 0x40, 0x00, 0x00, 0x00,
  0x5a, 0x51, 0x7f, 0xbe, 0x64, 0x32, 0x17, 0xbe, 0x39, 0xba, 0x57, 0xbe,
  0x6e, 0x0c, 0xc7, 0x3e, 0x81, 0x76, 0x80, 0xbf, 0x7f, 0x8a, 0x02, 0x40,
  0x58, 0xc3, 0x1e, 0xbe, 0xcc, 0xa3, 0x02, 0xbf, 0x4d, 0x1d, 0x8b, 0xbe,
  0x47, 0xfd, 0x28, 0x40, 0x0c, 0x15, 0x02, 0x40, 0xd3, 0x5c, 0xbb, 0xbf,
  0x3e, 0x74, 0x16, 0x3e, 0x84, 0xc6, 0x10, 0xbf, 0x0e, 0x06, 0x4f, 0xbe,
  0x76, 0x0d, 0x82, 0x3f, 0xca, 0xfe, 0xff, 0xff, 0x10, 0x00, 0x00, 0x00,
  0x04, 0x00, 0x00, 0x00, 0x10, 0x00, 0x00, 0x00, 0x44, 0x00, 0x00, 0x00,
  0x01, 0x00, 0x00, 0x00, 0x10, 0x00, 0x00, 0x00, 0x30, 0x00, 0x00, 0x00,
  0x73, 0x65, 0x71, 0x75, 0x65, 0x6e, 0x74, 0x69, 0x61, 0x6c, 0x2f, 0x64,
  0x65, 0x6e, 0x73, 0x65, 0x2f, 0x42, 0x69, 0x61, 0x73, 0x41, 0x64, 0x64,
  0x2f, 0x52, 0x65, 0x61, 0x64, 0x56, 0x61, 0x72, 0x69, 0x61, 0x62, 0x6c,
  0x65, 0x4f, 0x70, 0x2f, 0x72, 0x65, 0x73, 0x6f, 0x75, 0x72, 0x63, 0x65,
  0x00, 0x00, 0x00, 0x00, 0x4c, 0xfe, 0xff, 0xff, 0x56, 0xff, 0xff, 0xff,
  0x04, 0x00, 0x00, 0x00, 0x40, 0x00, 0x00, 0x00, 0x6a, 0x60, 0x15, 0xc0,
  0xba, 0x28, 0x1b, 0x3f, 0xf6, 0x22, 0xf8, 0x3e, 0x66, 0x02, 0x71, 0xbf,
  0x4e, 0xc1, 0x7d, 0x3e, 0x15, 0x88, 0x81, 0xbe, 0x3d, 0x4c, 0x76, 0x3f,
  0x00, 0x21, 0x0f, 0x3f, 0xd4, 0x6e, 0xfd, 0xbf, 0x50, 0x1f, 0xac, 0xbf,
  0x92, 0x46, 0x7e, 0xbe, 0xd8, 0xd6, 0x12, 0xbf, 0x53, 0xe3, 0x96, 0xbf,
  0x19, 0xfc, 0xdd, 0x3e, 0x94, 0xd3, 0x9b, 0x3f, 0xcd, 0x2c, 0x0c, 0xc0,
  0x6e, 0xff, 0xff, 0xff, 0x10, 0x00, 0x00, 0x00, 0x03, 0x00, 0x00, 0x00,
  0x10, 0x00, 0x00, 0x00, 0x48, 0x00, 0x00, 0x00, 0x01, 0x00, 0x00, 0x00,
  0x10, 0x00, 0x00, 0x00, 0x33, 0x00, 0x00, 0x00, 0x73, 0x65, 0x71, 0x75,
  0x65, 0x6e, 0x74, 0x69, 0x61, 0x6c, 0x2f, 0x63, 0x6f, 0x6e, 0x76, 0x32,
  0x64, 0x5f, 0x31, 0x2f, 0x42, 0x69, 0x61, 0x73, 0x41, 0x64, 0x64, 0x2f,
  0x52, 0x65, 0x61, 0x64, 0x56, 0x61, 0x72, 0x69, 0x61, 0x62, 0x6c, 0x65,
  0x4f, 0x70, 0x2f, 0x72, 0x65, 0x73, 0x6f, 0x75, 0x72, 0x63, 0x65, 0x00,
  0x04, 0x00, 0x06, 0x00, 0x04, 0x00, 0x00, 0x00, 0x00, 0x00, 0x06, 0x00,
  0x08, 0x00, 0x04, 0x00, 0x06, 0x00, 0x00, 0x00, 0x04, 0x00, 0x00, 0x00,
  0x20, 0x00, 0x00, 0x00, 0xb0, 0x87, 0xc6, 0xbf, 0xfa, 0xe4, 0xa9, 0xbf,
  0xae, 0xfb, 0x19, 0xbf, 0x5a, 0xab, 0x43, 0xbf, 0x3c, 0xaa, 0x3e, 0xbf,
  0xdb, 0xda, 0xa4, 0xbf, 0xab, 0xcf, 0xe1, 0x3d, 0x64, 0x8a, 0xb5, 0x3f,
  0x00, 0x00, 0x0e, 0x00, 0x14, 0x00, 0x04, 0x00, 0x00, 0x00, 0x08, 0x00,
  0x0c, 0x00, 0x10, 0x00, 0x0e, 0x00, 0x00, 0x00, 0x10, 0x00, 0x00, 0x00,
  0x02, 0x00, 0x00, 0x00, 0x10, 0x00, 0x00, 0x00, 0x44, 0x00, 0x00, 0x00,
  0x01, 0x00, 0x00, 0x00, 0x08, 0x00, 0x00, 0x00, 0x31, 0x00, 0x00, 0x00,
  0x73, 0x65, 0x71, 0x75, 0x65, 0x6e, 0x74, 0x69, 0x61, 0x6c, 0x2f, 0x63,
  0x6f, 0x6e, 0x76, 0x32, 0x64, 0x2f, 0x42, 0x69, 0x61, 0x73, 0x41, 0x64,
  0x64, 0x2f, 0x52, 0x65, 0x61, 0x64, 0x56, 0x61, 0x72, 0x69, 0x61, 0x62,
  0x6c, 0x65, 0x4f, 0x70, 0x2f, 0x72, 0x65, 0x73, 0x6f, 0x75, 0x72, 0x63,
  0x65, 0x00, 0x00, 0x00, 0x90, 0xff, 0xff, 0xff, 0x14, 0x00, 0x18, 0x00,
  0x04, 0x00, 0x00, 0x00, 0x08, 0x00, 0x0c, 0x00, 0x10, 0x00, 0x00, 0x00,
  0x00, 0x00, 0x14, 0x00, 0x14, 0x00, 0x00, 0x00, 0x14, 0x00, 0x00, 0x00,
  0x01, 0x00, 0x00, 0x00, 0x20, 0x00, 0x00, 0x00, 0x44, 0x00, 0x00, 0x00,
  0x2c, 0x00, 0x00, 0x00, 0x04, 0x00, 0x00, 0x00, 0x01, 0x00, 0x00, 0x00,
  0x40, 0x00, 0x00, 0x00, 0x03, 0x00, 0x00, 0x00, 0x01, 0x00, 0x00, 0x00,
  0x0c, 0x00, 0x00, 0x00, 0x63, 0x6f, 0x6e, 0x76, 0x32, 0x64, 0x5f, 0x69,
  0x6e, 0x70, 0x75, 0x74, 0x00, 0x00, 0x00, 0x00, 0x04, 0x00, 0x00, 0x00,
  0xff, 0xff, 0xff, 0xff, 0x40, 0x00, 0x00, 0x00, 0x03, 0x00, 0x00, 0x00,
  0x01, 0x00, 0x00, 0x00, 0xfc, 0xff, 0xff, 0xff, 0x04, 0x00, 0x04, 0x00,
  0x04, 0x00, 0x00, 0x00
};

unsigned int model_tflite_len = 13120;// Fill the int in `src/model.cc` here