#include "magic_wand_model_data.h"

// We need to keep the data array aligned on some architectures.
#ifdef __has_attribute
#define HAVE_ATTRIBUTE(x) __has_attribute(x)
#else
#define HAVE_ATTRIBUTE(x) 0
#endif
#if HAVE_ATTRIBUTE(aligned) || (defined(__GNUC__) && !defined(__clang__))
#define DATA_ALIGN_ATTRIBUTE __attribute__((aligned(4)))
#else
#define DATA_ALIGN_ATTRIBUTE
#endif

const unsigned char g_magic_wand_model_data[] DATA_ALIGN_ATTRIBUTE = {
  // Paste the data of the char array in `src/model.cc` here
  0x1c, 0x00, 0x00, 0x00, 0x54, 0x46, 0x4c, 0x33, 0x14, 0x00, 0x20, 0x00,
  0x04, 0x00, 0x08, 0x00, 0x0c, 0x00, 0x10, 0x00, 0x14, 0x00, 0x00, 0x00,
  0x18, 0x00, 0x1c, 0x00, 0x14, 0x00, 0x00, 0x00, 0x03, 0x00, 0x00, 0x00,
  0x18, 0x00, 0x00, 0x00, 0x2c, 0x00, 0x00, 0x00, 0xd8, 0x00, 0x00, 0x00,
  0x2c, 0x00, 0x00, 0x00, 0x80, 0x00, 0x00, 0x00, 0x78, 0x00, 0x00, 0x00,
  0x05, 0x00, 0x00, 0x00, 0x28, 0x07, 0x00, 0x00, 0x44, 0x06, 0x00, 0x00,
  0xbc, 0x03, 0x00, 0x00, 0xf8, 0x02, 0x00, 0x00, 0xac, 0x01, 0x00, 0x00,
  0x01, 0x00, 0x00, 0x00, 0xd0, 0x00, 0x00, 0x00, 0x14, 0x00, 0x00, 0x00,
  0xdc, 0x32, 0x00, 0x00, 0xd8, 0x32, 0x00, 0x00, 0xd0, 0x31, 0x00, 0x00,
  0x1c, 0x31, 0x00, 0x00, 0x74, 0x30, 0x00, 0x00, 0xfc, 0x2f, 0x00, 0x00,
  0x90, 0x2f, 0x00, 0x00, 0x40, 0x13, 0x00, 0x00, 0xec, 0x11, 0x00, 0x00,
  0x10, 0x10, 0x00, 0x00, 0xb4, 0x07, 0x00, 0x00, 0xb0, 0x32, 0x00, 0x00,
  0xac, 0x32, 0x00, 0x00, 0xa8, 0x32, 0x00, 0x00, 0xa4, 0x32, 0x00, 0x00,
  0xa0, 0x32, 0x00, 0x00, 0x9c, 0x32, 0x00, 0x00, 0x98, 0x32, 0x00, 0x00,
  0x94, 0x32, 0x00, 0x00, 0x3c, 0x00, 0x00, 0x00, 0x00, 0x00, 0x00, 0x00,
  0x01, 0x00, 0x00, 0x00, 0x0c, 0x00, 0x00, 0x00, 0x08, 0x00, 0x0c, 0x00,
  0x04, 0x00, 0x08, 0x00, 0x08, 0x00, 0x00, 0x00, 0x08, 0x00, 0x00, 0x00,
  0x13, 0x00, 0x00, 0x00, 0x13, 0x00, 0x00, 0x00, 0x6d, 0x69, 0x6e, 0x5f,
  0x72, 0x75, 0x6e, 0x74, 0x69, 0x6d, 0x65, 0x5f, 0x76, 0x65, 0x72, 0x73,
  0x69, 0x6f, 0x6e, 0x00, 0xb6, 0xce, 0xff, 0xff, 0x04, 0x00, 0x00, 0x00,
  0x10, 0x00, 0x00, 0x00, 0x31, 0x2e, 0x35, 0x2e, 0x30, 0x00, 0x00, 0x00,
  0x00, 0x00, 0x00, 0x00, 0x00, 0x00, 0x00, 0x00, 0x0f, 0x00, 0x00, 0x00,
  0x4d, 0x4c, 0x49, 0x52, 0x20, 0x43, 0x6f, 0x6e, 0x76, 0x65, 0x72, 0x74,
  0x65, 0x64, 0x2e, 0x00, 0x00, 0x00, 0x0e, 0x00, 0x18, 0x00, 0x04, 0x00,
  0x08, 0x00, 0x0c, 0x00, 0x10, 0x00, 0x14, 0x00, 0x0e, 0x00, 0x00, 0x00,
  0x14, 0x00, 0x00, 0x00, 0x5c, 0x00, 0x00, 0x00, 0x60, 0x00, 0x00, 0x00,
  0x64, 0x00, 0x00, 0x00, 0x84, 0x00, 0x00, 0x00, 0x12, 0x00, 0x00, 0x00,
  0x9c, 0x31, 0x00, 0x00, 0x2c, 0x31, 0x00, 0x00, 0x88, 0x30, 0x00, 0x00,
  0xe0, 0x2f, 0x00, 0x00, 0x38, 0x2f, 0x00, 0x00, 0xd4, 0x2e, 0x00, 0x00,
  0x6c, 0x2e, 0x00, 0x00, 0x18, 0x12, 0x00, 0x00, 0xbc, 0x10, 0x00, 0x00,
  0xe0, 0x0e, 0x00, 0x00, 0x0c, 0x06, 0x00, 0x00, 0x28, 0x05, 0x00, 0x00,
  0xe8, 0x03, 0x00, 0x00, 0x3c, 0x03, 0x00, 0x00, 0x98, 0x02, 0x00, 0x00,
  0xd4, 0x01, 0x00, 0x00, 0x10, 0x01, 0x00, 0x00, 0x84, 0x00, 0x00, 0x00,
  0x01, 0x00, 0x00, 0x00, 0x00, 0x00, 0x00, 0x00, 0x01, 0x00, 0x00, 0x00,
  0x11, 0x00, 0x00, 0x00, 0x08, 0x00, 0x00, 0x00, 0x74, 0x05, 0x00, 0x00,
  0x94, 0x04, 0x00, 0x00, 0x78, 0x03, 0x00, 0x00, 0xbc, 0x02, 0x00, 0x00,
  0x30, 0x02, 0x00, 0x00, 0x50, 0x01, 0x00, 0x00, 0xa8, 0x00, 0x00, 0x00,
  0x10, 0x00, 0x00, 0x00, 0x04, 0x00, 0x00, 0x00, 0x6d, 0x61, 0x69, 0x6e,
  0x00, 0x00, 0x00, 0x00, 0x7a, 0xff, 0xff, 0xff, 0x00, 0x00, 0x00, 0x09,
  0x04, 0x00, 0x00, 0x00, 0x1c, 0x00, 0x00, 0x00, 0x10, 0x00, 0x00, 0x00,
  0x04, 0x00, 0x00, 0x00, 0xb2, 0xcf, 0xff, 0xff, 0x00, 0x00, 0x80, 0x3f,
  0x01, 0x00, 0x00, 0x00, 0x11, 0x00, 0x00, 0x00, 0x01, 0x00, 0x00, 0x00,
  0x10, 0x00, 0x00, 0x00, 0xa0, 0xfa, 0xff, 0xff, 0x19, 0x00, 0x00, 0x00,
  0x00, 0x00, 0x00, 0x19, 0x01, 0x00, 0x00, 0x00, 0x40, 0xcf, 0xff, 0xff,
  0x14, 0x00, 0x00, 0x00, 0x12, 0x00, 0x00, 0x00, 0x18, 0x00, 0x00, 0x00,
  0x30, 0x00, 0x00, 0x00, 0x20, 0x00, 0x00, 0x00, 0x02, 0x00, 0x00, 0x00,
  0x01, 0x00, 0x00, 0x00, 0x04, 0x00, 0x00, 0x00, 0x08, 0x00, 0x00, 0x00,
  0x49, 0x64, 0x65, 0x6e, 0x74, 0x69, 0x74, 0x79, 0x00, 0x00, 0x00, 0x00,
  0x02, 0x00, 0x00, 0x00, 0xff, 0xff, 0xff, 0xff, 0x04, 0x00, 0x00, 0x00,
  0x24, 0xd0, 0xff, 0xff, 0x00, 0x00, 0x0e, 0x00, 0x18, 0x00, 0x08, 0x00,
  0x0c, 0x00, 0x10, 0x00, 0x07, 0x00, 0x14, 0x00, 0x0e, 0x00, 0x00, 0x00,
  0x00, 0x00, 0x00, 0x08, 0x03, 0x00, 0x00, 0x00, 0x18, 0x00, 0x00, 0x00,
  0x0c, 0x00, 0x00, 0x00, 0x04, 0x00, 0x00, 0x00, 0x40, 0xcf, 0xff, 0xff,
  0x01, 0x00, 0x00, 0x00, 0x10, 0x00, 0x00, 0x00, 0x03, 0x00, 0x00, 0x00,
  0x0f, 0x00, 0x00, 0x00, 0x07, 0x00, 0x00, 0x00, 0x04, 0x00, 0x00, 0x00,
  0xc8, 0xcf, 0xff, 0xff, 0x14, 0x00, 0x00, 0x00, 0x11, 0x00, 0x00, 0x00,
  0x18, 0x00, 0x00, 0x00, 0x5c, 0x00, 0x00, 0x00, 0x4c, 0x00, 0x00, 0x00,
  0x02, 0x00, 0x00, 0x00, 0x01, 0x00, 0x00, 0x00, 0x04, 0x00, 0x00, 0x00,
  0x34, 0x00, 0x00, 0x00, 0x73, 0x65, 0x71, 0x75, 0x65, 0x6e, 0x74, 0x69,
  0x61, 0x6c, 0x2f, 0x64, 0x65, 0x6e, 0x73, 0x65, 0x5f, 0x31, 0x2f, 0x4d,
  0x61, 0x74, 0x4d, 0x75, 0x6c, 0x3b, 0x73, 0x65, 0x71, 0x75, 0x65, 0x6e,
  0x74, 0x69, 0x61, 0x6c, 0x2f, 0x64, 0x65, 0x6e, 0x73, 0x65, 0x5f, 0x31,
  0x2f, 0x42, 0x69, 0x61, 0x73, 0x41, 0x64, 0x64, 0x00, 0x00, 0x00, 0x00,
  0x02, 0x00, 0x00, 0x00, 0xff, 0xff, 0xff, 0xff, 0x04, 0x00, 0x00, 0x00,
  0xc8, 0xcf, 0xff, 0xff, 0xda, 0xfc, 0xff, 0xff, 0x00, 0x00, 0x00, 0x08,
  0x03, 0x00, 0x00, 0x00, 0x24, 0x00, 0x00, 0x00, 0x18, 0x00, 0x00, 0x00,
  0x0c, 0x00, 0x00, 0x00, 0x00, 0x00, 0x06, 0x00, 0x08, 0x00, 0x07, 0x00,
  0x06, 0x00, 0x00, 0x00, 0x00, 0x00, 0x00, 0x01, 0x01, 0x00, 0x00, 0x00,
  0x0f, 0x00, 0x00, 0x00, 0x03, 0x00, 0x00, 0x00, 0x0e, 0x00, 0x00, 0x00,
  0x06, 0x00, 0x00, 0x00, 0x03, 0x00, 0x00, 0x00, 0xe8, 0xfb, 0xff, 0xff,
  0x09, 0x00, 0x00, 0x00, 0x00, 0x00, 0x00, 0x09, 0x01, 0x00, 0x00, 0x00,
  0x88, 0xd0, 0xff, 0xff, 0x14, 0x00, 0x00, 0x00, 0x10, 0x00, 0x00, 0x00,
  0x18, 0x00, 0x00, 0x00, 0x6c, 0x00, 0x00, 0x00, 0x5c, 0x00, 0x00, 0x00,
  0x02, 0x00, 0x00, 0x00, 0x01, 0x00, 0x00, 0x00, 0x10, 0x00, 0x00, 0x00,
  0x46, 0x00, 0x00, 0x00, 0x73, 0x65, 0x71, 0x75, 0x65, 0x6e, 0x74, 0x69,
  0x61, 0x6c, 0x2f, 0x64, 0x65, 0x6e, 0x73, 0x65, 0x2f, 0x4d, 0x61, 0x74,
  0x4d, 0x75, 0x6c, 0x3b, 0x73, 0x65, 0x71, 0x75, 0x65, 0x6e, 0x74, 0x69,
  0x61, 0x6c, 0x2f, 0x64, 0x65, 0x6e, 0x73, 0x65, 0x2f, 0x52, 0x65, 0x6c,
  0x75, 0x3b, 0x73, 0x65, 0x71, 0x75, 0x65, 0x6e, 0x74, 0x69, 0x61, 0x6c,
  0x2f, 0x64, 0x65, 0x6e, 0x73, 0x65, 0x2f, 0x42, 0x69, 0x61, 0x73, 0x41,
  0x64, 0x64, 0x00, 0x00, 0x02, 0x00, 0x00, 0x00, 0xff, 0xff, 0xff, 0xff,
  0x10, 0x00, 0x00, 0x00, 0xa8, 0xd1, 0xff, 0xff, 0x00, 0x00, 0x0a, 0x00,
  0x10, 0x00, 0x04, 0x00, 0x08, 0x00, 0x0c, 0x00, 0x0a, 0x00, 0x00, 0x00,
  0x02, 0x00, 0x00, 0x00, 0x10, 0x00, 0x00, 0x00, 0x04, 0x00, 0x00, 0x00,
  0x01, 0x00, 0x00, 0x00, 0x0e, 0x00, 0x00, 0x00, 0x02, 0x00, 0x00, 0x00,
  0x0d, 0x00, 0x00, 0x00, 0x05, 0x00, 0x00, 0x00, 0xa8, 0xfc, 0xff, 0xff,
  0x16, 0x00, 0x00, 0x00, 0x00, 0x00, 0x00, 0x16, 0x01, 0x00, 0x00, 0x00,
  0x48, 0xd1, 0xff, 0xff, 0x14, 0x00, 0x00, 0x00, 0x0f, 0x00, 0x00, 0x00,
  0x18, 0x00, 0x00, 0x00, 0x40, 0x00, 0x00, 0x00, 0x30, 0x00, 0x00, 0x00,
  0x02, 0x00, 0x00, 0x00, 0x01, 0x00, 0x00, 0x00, 0x70, 0x00, 0x00, 0x00,
  0x1a, 0x00, 0x00, 0x00, 0x73, 0x65, 0x71, 0x75, 0x65, 0x6e, 0x74, 0x69,
  0x61, 0x6c, 0x2f, 0x66, 0x6c, 0x61, 0x74, 0x74, 0x65, 0x6e, 0x2f, 0x52,
  0x65, 0x73, 0x68, 0x61, 0x70, 0x65, 0x00, 0x00, 0x02, 0x00, 0x00, 0x00,
  0xff, 0xff, 0xff, 0xff, 0x70, 0x00, 0x00, 0x00, 0x2c, 0xd1, 0xff, 0xff,
  0x3e, 0xfe, 0xff, 0xff, 0x00, 0x00, 0x00, 0x05, 0x01, 0x00, 0x00, 0x00,
  0x38, 0x00, 0x00, 0x00, 0x2c, 0x00, 0x00, 0x00, 0x14, 0x00, 0x00, 0x00,
  0x00, 0x00, 0x0e, 0x00, 0x14, 0x00, 0x00, 0x00, 0x10, 0x00, 0x0c, 0x00,
  0x08, 0x00, 0x04, 0x00, 0x0e, 0x00, 0x00, 0x00, 0x03, 0x00, 0x00, 0x00,
  0x01, 0x00, 0x00, 0x00, 0x03, 0x00, 0x00, 0x00, 0x01, 0x00, 0x00, 0x00,
  0x01, 0x00, 0x00, 0x00, 0x0d, 0x00, 0x00, 0x00, 0x01, 0x00, 0x00, 0x00,
  0x0c, 0x00, 0x00, 0x00, 0xe8, 0xd1, 0xff, 0xff, 0x14, 0x00, 0x00, 0x00,
  0x0e, 0x00, 0x00, 0x00, 0x20, 0x00, 0x00, 0x00, 0x58, 0x00, 0x00, 0x00,
  0x40, 0x00, 0x00, 0x00, 0x04, 0x00, 0x00, 0x00, 0x01, 0x00, 0x00, 0x00,
  0x07, 0x00, 0x00, 0x00, 0x01, 0x00, 0x00, 0x00, 0x10, 0x00, 0x00, 0x00,
  0x22, 0x00, 0x00, 0x00, 0x73, 0x65, 0x71, 0x75, 0x65, 0x6e, 0x74, 0x69,
  0x61, 0x6c, 0x2f, 0x6d, 0x61, 0x78, 0x5f, 0x70, 0x6f, 0x6f, 0x6c, 0x69,
  0x6e, 0x67, 0x32, 0x64, 0x5f, 0x31, 0x2f, 0x4d, 0x61, 0x78, 0x50, 0x6f,
  0x6f, 0x6c, 0x00, 0x00, 0x04, 0x00, 0x00, 0x00, 0xff, 0xff, 0xff, 0xff,
  0x07, 0x00, 0x00, 0x00, 0x01, 0x00, 0x00, 0x00, 0x10, 0x00, 0x00, 0x00,
  0xe4, 0xd1, 0xff, 0xff, 0x1a, 0xfe, 0xff, 0xff, 0x00, 0x00, 0x00, 0x01,
  0x24, 0x00, 0x00, 0x00, 0x18, 0x00, 0x00, 0x00, 0x04, 0x00, 0x00, 0x00,
  0x0c, 0xfe, 0xff, 0xff, 0x01, 0x00, 0x00, 0x00, 0x01, 0x00, 0x00, 0x00,
  0x00, 0x00, 0x00, 0x01, 0x01, 0x00, 0x00, 0x00, 0x0c, 0x00, 0x00, 0x00,
  0x03, 0x00, 0x00, 0x00, 0x0b, 0x00, 0x00, 0x00, 0x09, 0x00, 0x00, 0x00,
  0x02, 0x00, 0x00, 0x00, 0x90, 0xd2, 0xff, 0xff, 0x14, 0x00, 0x00, 0x00,
  0x0d, 0x00, 0x00, 0x00, 0x20, 0x00, 0x00, 0x00, 0xb8, 0x00, 0x00, 0x00,
  0xa0, 0x00, 0x00, 0x00, 0x04, 0x00, 0x00, 0x00, 0x01, 0x00, 0x00, 0x00,
  0x15, 0x00, 0x00, 0x00, 0x01, 0x00, 0x00, 0x00, 0x10, 0x00, 0x00, 0x00,
  0x83, 0x00, 0x00, 0x00, 0x73, 0x65, 0x71, 0x75, 0x65, 0x6e, 0x74, 0x69,
  0x61, 0x6c, 0x2f, 0x63, 0x6f, 0x6e, 0x76, 0x32, 0x64, 0x5f, 0x31, 0x2f,
  0x52, 0x65, 0x6c, 0x75, 0x3b, 0x73, 0x65, 0x71, 0x75, 0x65, 0x6e, 0x74,
  0x69, 0x61, 0x6c, 0x2f, 0x63, 0x6f, 0x6e, 0x76, 0x32, 0x64, 0x5f, 0x31,
  0x2f, 0x42, 0x69, 0x61, 0x73, 0x41, 0x64, 0x64, 0x3b, 0x73, 0x65, 0x71,
  0x75, 0x65, 0x6e, 0x74, 0x69, 0x61, 0x6c, 0x2f, 0x63, 0x6f, 0x6e, 0x76,
  0x32, 0x64, 0x5f, 0x31, 0x2f, 0x43, 0x6f, 0x6e, 0x76, 0x32, 0x44, 0x3b,
  0x73, 0x65, 0x71, 0x75, 0x65, 0x6e, 0x74, 0x69, 0x61, 0x6c, 0x2f, 0x63,
  0x6f, 0x6e, 0x76, 0x32, 0x64, 0x5f, 0x31, 0x2f, 0x42, 0x69, 0x61, 0x73,
  0x41, 0x64, 0x64, 0x2f, 0x52, 0x65, 0x61, 0x64, 0x56, 0x61, 0x72, 0x69,
  0x61, 0x62, 0x6c, 0x65, 0x4f, 0x70, 0x2f, 0x72, 0x65, 0x73, 0x6f, 0x75,
  0x72, 0x63, 0x65, 0x00, 0x04, 0x00, 0x00, 0x00, 0xff, 0xff, 0xff, 0xff,
  0x15, 0x00, 0x00, 0x00, 0x01, 0x00, 0x00, 0x00, 0x10, 0x00, 0x00, 0x00,
  0xfc, 0xd3, 0xff, 0xff, 0x00, 0x00, 0x0e, 0x00, 0x1a, 0x00, 0x08, 0x00,
  0x0c, 0x00, 0x10, 0x00, 0x07, 0x00, 0x14, 0x00, 0x0e, 0x00, 0x00, 0x00,
  0x00, 0x00, 0x00, 0x05, 0x01, 0x00, 0x00, 0x00, 0x3c, 0x00, 0x00, 0x00,
  0x30, 0x00, 0x00, 0x00, 0x14, 0x00, 0x00, 0x00, 0x00, 0x00, 0x0e, 0x00,
  0x18, 0x00, 0x17, 0x00, 0x10, 0x00, 0x0c, 0x00, 0x08, 0x00, 0x04, 0x00,
  0x0e, 0x00, 0x00, 0x00, 0x03, 0x00, 0x00, 0x00, 0x03, 0x00, 0x00, 0x00,
  0x03, 0x00, 0x00, 0x00, 0x03, 0x00, 0x00, 0x00, 0x00, 0x00, 0x00, 0x01,
  0x01, 0x00, 0x00, 0x00, 0x0b, 0x00, 0x00, 0x00, 0x01, 0x00, 0x00, 0x00,
  0x0a, 0x00, 0x00, 0x00, 0x2c, 0xff, 0xff, 0xff, 0x11, 0x00, 0x00, 0x00,
  0x00, 0x00, 0x00, 0x11, 0x01, 0x00, 0x00, 0x00, 0xcc, 0xd3, 0xff, 0xff,
  0x14, 0x00, 0x00, 0x00, 0x0c, 0x00, 0x00, 0x00, 0x20, 0x00, 0x00, 0x00,
  0x58, 0x00, 0x00, 0x00, 0x40, 0x00, 0x00, 0x00, 0x04, 0x00, 0x00, 0x00,
  0x01, 0x00, 0x00, 0x00, 0x15, 0x00, 0x00, 0x00, 0x01, 0x00, 0x00, 0x00,
  0x08, 0x00, 0x00, 0x00, 0x20, 0x00, 0x00, 0x00, 0x73, 0x65, 0x71, 0x75,
  0x65, 0x6e, 0x74, 0x69, 0x61, 0x6c, 0x2f, 0x6d, 0x61, 0x78, 0x5f, 0x70,
  0x6f, 0x6f, 0x6c, 0x69, 0x6e, 0x67, 0x32, 0x64, 0x2f, 0x4d, 0x61, 0x78,
  0x50, 0x6f, 0x6f, 0x6c, 0x00, 0x00, 0x00, 0x00, 0x04, 0x00, 0x00, 0x00,
  0xff, 0xff, 0xff, 0xff, 0x15, 0x00, 0x00, 0x00, 0x01, 0x00, 0x00, 0x00,
  0x08, 0x00, 0x00, 0x00, 0xd8, 0xd4, 0xff, 0xff, 0x00, 0x00, 0x0e, 0x00,
  0x14, 0x00, 0x00, 0x00, 0x08, 0x00, 0x0c, 0x00, 0x07, 0x00, 0x10, 0x00,
  0x0e, 0x00, 0x00, 0x00, 0x00, 0x00, 0x00, 0x01, 0x30, 0x00, 0x00, 0x00,
  0x24, 0x00, 0x00, 0x00, 0x10, 0x00, 0x00, 0x00, 0x0c, 0x00, 0x10, 0x00,
  0x00, 0x00, 0x04, 0x00, 0x08, 0x00, 0x0f, 0x00, 0x0c, 0x00, 0x00, 0x00,
  0x01, 0x00, 0x00, 0x00, 0x01, 0x00, 0x00, 0x00, 0x00, 0x00, 0x00, 0x01,
  0x01, 0x00, 0x00, 0x00, 0x0a, 0x00, 0x00, 0x00, 0x03, 0x00, 0x00, 0x00,
  0x00, 0x00, 0x00, 0x00, 0x08, 0x00, 0x00, 0x00, 0x01, 0x00, 0x00, 0x00,
  0x0c, 0x00, 0x10, 0x00, 0x0b, 0x00, 0x00, 0x00, 0x0c, 0x00, 0x04, 0x00,
  0x0c, 0x00, 0x00, 0x00, 0x03, 0x00, 0x00, 0x00, 0x00, 0x00, 0x00, 0x03,
  0x01, 0x00, 0x00, 0x00, 0xac, 0xd4, 0xff, 0xff, 0x14, 0x00, 0x00, 0x00,
  0x0b, 0x00, 0x00, 0x00, 0x20, 0x00, 0x00, 0x00, 0xb0, 0x00, 0x00, 0x00,
  0x98, 0x00, 0x00, 0x00, 0x04, 0x00, 0x00, 0x00, 0x01, 0x00, 0x00, 0x00,
  0x40, 0x00, 0x00, 0x00, 0x03, 0x00, 0x00, 0x00, 0x08, 0x00, 0x00, 0x00,
  0x7b, 0x00, 0x00, 0x00, 0x73, 0x65, 0x71, 0x75, 0x65, 0x6e, 0x74, 0x69,
  0x61, 0x6c, 0x2f, 0x63, 0x6f, 0x6e, 0x76, 0x32, 0x64, 0x2f, 0x52, 0x65,
  0x6c, 0x75, 0x3b, 0x73, 0x65, 0x71, 0x75, 0x65, 0x6e, 0x74, 0x69, 0x61,
  0x6c, 0x2f, 0x63, 0x6f, 0x6e, 0x76, 0x32, 0x64, 0x2f, 0x42, 0x69, 0x61,
  0x73, 0x41, 0x64, 0x64, 0x3b, 0x73, 0x65, 0x71, 0x75, 0x65, 0x6e, 0x74,
  0x69, 0x61, 0x6c, 0x2f, 0x63, 0x6f, 0x6e, 0x76, 0x32, 0x64, 0x2f, 0x43,
  0x6f, 0x6e, 0x76, 0x32, 0x44, 0x3b, 0x73, 0x65, 0x71, 0x75, 0x65, 0x6e,
  0x74, 0x69, 0x61, 0x6c, 0x2f, 0x63, 0x6f, 0x6e, 0x76, 0x32, 0x64, 0x2f,
  0x42, 0x69, 0x61, 0x73, 0x41, 0x64, 0x64, 0x2f, 0x52, 0x65, 0x61, 0x64,
  0x56, 0x61, 0x72, 0x69, 0x61, 0x62, 0x6c, 0x65, 0x4f, 0x70, 0x2f, 0x72,
  0x65, 0x73, 0x6f, 0x75, 0x72, 0x63, 0x65, 0x00, 0x04, 0x00, 0x00, 0x00,
  0xff, 0xff, 0xff, 0xff, 0x40, 0x00, 0x00, 0x00, 0x03, 0x00, 0x00, 0x00,
  0x08, 0x00, 0x00, 0x00, 0x00, 0xd5, 0xff, 0xff, 0x0a, 0xd6, 0xff, 0xff,
  0x04, 0x00, 0x00, 0x00, 0x00, 0x08, 0x00, 0x00, 0x32, 0x7a, 0x38, 0xbd,
  0xe4, 0x9b, 0xbb, 0x3e, 0xc0, 0xdb, 0x88, 0xbd, 0xeb, 0x58, 0xc3, 0x3d,
  0x3c, 0xd4, 0x77, 0xbc, 0xc3, 0x76, 0x12, 0x3e, 0xf7, 0x73, 0xd4, 0xbc,
  0xa7, 0x92, 0xdc, 0x3e, 0xbb, 0xcb, 0x2e, 0xbe, 0xe9, 0x51, 0xe0, 0xbc,
  0x29, 0x6c, 0xae, 0xbd, 0x82, 0xad, 0xb8, 0x3c, 0x40, 0x2a, 0xee, 0xbc,
  0x47, 0xda, 0xbe, 0xbd, 0xd9, 0xa0, 0x70, 0xbd, 0x4e, 0xfd, 0x28, 0xbd,
  0xf9, 0x9a, 0xdf, 0xbd, 0x9a, 0x5f, 0x99, 0xbc, 0xb7, 0x98, 0x05, 0xbe,
  0x66, 0xf3, 0xe6, 0x3c, 0x57, 0x9c, 0x8c, 0x3d, 0x83, 0xcf, 0x28, 0xbe,
  0x9b, 0x71, 0x72, 0xbd, 0x43, 0xa1, 0x18, 0xbe, 0x55, 0x02, 0x86, 0xbd,
  0x09, 0x7b, 0x51, 0xbe, 0x1c, 0xcc, 0xf5, 0xbd, 0x9e, 0x32, 0x0e, 0x3e,
  0x7b, 0xf9, 0x3f, 0x3e, 0x4e, 0xdd, 0x88, 0xbe, 0x0d, 0xab, 0x9c, 0xbb,
  0xe2, 0x68, 0xa8, 0xbe, 0x8e, 0xa7, 0x26, 0x3b, 0x36, 0x7d, 0x9c, 0xbe,
  0x0c, 0xdc, 0xb5, 0xbc, 0x3d, 0x82, 0x7a, 0xbe, 0x16, 0xe5, 0x28, 0xbe,
  0x64, 0x48, 0x0f, 0xbe, 0x17, 0x0f, 0xdc, 0x3d, 0x05, 0x0e, 0x08, 0xbf,
  0x87, 0x38, 0x57, 0xbd, 0x11, 0xee, 0x1d, 0xbe, 0xec, 0x63, 0xde, 0xbc,
  0x82, 0xe0, 0x67, 0xbe, 0x7f, 0x96, 0x13, 0xbe, 0xb0, 0x26, 0x35, 0xbe,
  0x4c, 0xf8, 0x5b, 0xbd, 0x8c, 0x6f, 0x68, 0x3d, 0x7b, 0xf6, 0x85, 0xbc,
  0x82, 0x47, 0xa2, 0x3d, 0x04, 0xd4, 0x8f, 0xbc, 0xec, 0xe4, 0x45, 0xbe,
  0xe2, 0xe5, 0xeb, 0xbd, 0x4d, 0x8a, 0x28, 0x3e, 0x09, 0xe2, 0x08, 0xbd,
  0xb9, 0x30, 0xde, 0xbd, 0xa9, 0x47, 0x5f, 0xbd, 0xf9, 0x08, 0x8e, 0x3e,
  0xf0, 0xfb, 0xcb, 0xbb, 0x79, 0xa7, 0x5d, 0xbe, 0x4d, 0xca, 0x38, 0xbe,
  0x6f, 0x26, 0x28, 0x3e, 0x67, 0x81, 0x13, 0xbd, 0xdc, 0x0f, 0x80, 0x3f,
  0xae, 0x76, 0xbd, 0xbc, 0x90, 0x19, 0x8b, 0x3d, 0x44, 0x9a, 0x2b, 0x3c,
  0xe4, 0x86, 0xda, 0xbc, 0x6d, 0x84, 0x22, 0x3d, 0x0a, 0x44, 0x46, 0x3e,
  0xd2, 0x28, 0x79, 0x3e, 0xf4, 0x78, 0x66, 0xbc, 0x97, 0x64, 0x29, 0xbe,
  0x26, 0x40, 0x0f, 0x3d, 0x7d, 0x47, 0x04, 0xbd, 0x2c, 0x59, 0x66, 0x3e,
  0xf7, 0x89, 0x05, 0x3e, 0xd9, 0x33, 0x4c, 0x3c, 0x19, 0x85, 0x7d, 0xbc,
  0x1f, 0xdf, 0xbe, 0xbd, 0xf4, 0xa8, 0x6e, 0xbe, 0x35, 0x9e, 0x45, 0x3e,
  0xd3, 0xbe, 0x1a, 0xbe, 0x32, 0x7f, 0xdc, 0xbd, 0x5f, 0xa8, 0xbe, 0xbd,
  0x70, 0x7c, 0xfd, 0xbd, 0x26, 0x5f, 0xf7, 0xbd, 0x7a, 0x40, 0xee, 0xbd,
  0xca, 0xde, 0x80, 0xbe, 0x2f, 0x8c, 0x25, 0x3c, 0x0d, 0x33, 0x06, 0xbe,
  0x58, 0x28, 0x16, 0xbe, 0xeb, 0x67, 0x19, 0xbe, 0x90, 0x34, 0xaa, 0xbe,
  0xf5, 0x36, 0xb0, 0xbd, 0x4a, 0xb1, 0x18, 0x3e, 0x25, 0xc8, 0x29, 0xbe,
  0x7f, 0xcb, 0x2d, 0xbe, 0xd6, 0x64, 0x0f, 0xbf, 0x60, 0x4a, 0xeb, 0xbd,
  0x4f, 0xae, 0x1c, 0x3d, 0x73, 0xba, 0x86, 0x3d, 0xd8, 0x52, 0x30, 0x3e,
  0x01, 0x09, 0xd1, 0x3e, 0x16, 0x7a, 0xdd, 0xbe, 0x7f, 0x26, 0x8b, 0x3e,
  0x36, 0xaa, 0x5e, 0xbf, 0x1b, 0xf5, 0x62, 0xbe, 0xf7, 0x18, 0xf2, 0xbe,
  0x77, 0xa5, 0xdf, 0x3e, 0x1d, 0x0f, 0x83, 0xbe, 0x01, 0x14, 0x15, 0x3e,
  0x04, 0x84, 0x16, 0xbe, 0x80, 0xde, 0x88, 0x3e, 0xef, 0x8b, 0x91, 0xbe,
  0xf0, 0x2d, 0x89, 0x3d, 0x65, 0x1e, 0xe9, 0xbc, 0x54, 0x42, 0x1a, 0x3e,
  0x78, 0x0b, 0xd3, 0xbc, 0x64, 0x35, 0x8a, 0x3e, 0xe9, 0x83, 0xda, 0xbd,
  0xaa, 0xc3, 0x3f, 0x3e, 0x94, 0xf2, 0x19, 0x3d, 0x03, 0x97, 0x13, 0x3c,
  0xd5, 0xcf, 0x23, 0x3e, 0x5d, 0x7f, 0xf1, 0x3d, 0xe3, 0x57, 0x21, 0x3d,
  0x4b, 0xcc, 0x72, 0x3e, 0xbf, 0x80, 0x87, 0xbe, 0x2a, 0x72, 0x4a, 0xbc,
  0x58, 0x74, 0x25, 0xbe, 0x80, 0x29, 0x8e, 0x3e, 0x5f, 0xe7, 0x3d, 0x3e,
  0x2e, 0xd4, 0xe9, 0x3d, 0xb8, 0x0e, 0xb0, 0x3c, 0x68, 0x01, 0xf6, 0x3d,
  0xeb, 0x33, 0x91, 0xbd, 0x4f, 0xa4, 0xca, 0x3e, 0x22, 0xbe, 0xb4, 0xbe,
  0x53, 0xa5, 0xc4, 0xbd, 0x3e, 0x3f, 0x8a, 0xbd, 0x82, 0xb8, 0xdf, 0x3d,
  0x33, 0x52, 0x37, 0xbe, 0x33, 0x77, 0x91, 0x3e, 0x08, 0x81, 0x24, 0xbc,
  0xe6, 0xba, 0x06, 0x3f, 0x66, 0x64, 0x8e, 0xbe, 0x78, 0x59, 0x76, 0x3c,
  0xb1, 0x78, 0x97, 0x3c, 0x16, 0x6e, 0x4c, 0x3e, 0xa7, 0x6d, 0x37, 0xbd,
  0x05, 0x9a, 0xff, 0x3d, 0x07, 0xa1, 0x2b, 0xbb, 0x8b, 0xe7, 0x21, 0xbe,
  0x7a, 0x97, 0x9e, 0xbe, 0x24, 0x92, 0x44, 0xbd, 0x52, 0xae, 0x10, 0xbe,
  0x20, 0x86, 0x84, 0x3d, 0x4c, 0x07, 0x0e, 0xbd, 0x78, 0x95, 0x82, 0x3e,
  0xfb, 0x1c, 0x1d, 0xbe, 0x40, 0xaa, 0xde, 0x3d, 0x08, 0xec, 0xaf, 0x3d,
  0x7f, 0xbd, 0xb1, 0x3d, 0x97, 0xb5, 0x14, 0x3f, 0xbe, 0xe8, 0x38, 0xbd,
  0xdc, 0x8f, 0xf2, 0xbc, 0x1f, 0x0b, 0x16, 0x3e, 0x6f, 0x68, 0x4a, 0xbe,
  0xd3, 0x73, 0x68, 0xbe, 0xd5, 0x84, 0xbe, 0xbd, 0x72, 0xdf, 0xed, 0xbd,
  0x90, 0xb0, 0x1b, 0xbe, 0xa0, 0xad, 0x05, 0xbf, 0xcd, 0x12, 0xa7, 0xbd,
  0x89, 0x76, 0x66, 0x3c, 0x52, 0x69, 0x8a, 0xbd, 0xf7, 0x5f, 0xa0, 0x3d,
  0xe4, 0xc0, 0xc7, 0xbd, 0x46, 0xbb, 0xf7, 0xbd, 0x41, 0x87, 0x10, 0xbe,
  0xfb, 0x8b, 0x8f, 0xbe, 0xd4, 0xed, 0x1d, 0xbd, 0x52, 0xaa, 0x88, 0x3e,
  0x40, 0xe8, 0x85, 0x3e, 0x3b, 0x08, 0xa6, 0xbc, 0x13, 0xdb, 0xca, 0xbd,
  0x86, 0x0b, 0x1d, 0xbe, 0x6d, 0x3a, 0x36, 0xbe, 0xd4, 0x91, 0x59, 0xbe,
  0x3d, 0xaa, 0x39, 0x3d, 0x19, 0xf2, 0x37, 0x3e, 0x66, 0xb4, 0x27, 0x3d,
  0x73, 0xe1, 0x3b, 0x3e, 0x53, 0xc7, 0x10, 0xbe, 0x30, 0x26, 0x3d, 0xbe,
  0x20, 0x6f, 0xda, 0xbd, 0xfb, 0xd3, 0x77, 0x3e, 0xa9, 0x0a, 0x4c, 0x3d,
  0x5d, 0x9b, 0x15, 0x3e, 0xc2, 0xf5, 0x44, 0xbe, 0x65, 0xa3, 0x0a, 0xbe,
  0xdb, 0x98, 0x10, 0x3b, 0x39, 0xbd, 0xaf, 0xbe, 0xb5, 0x95, 0xc2, 0xbe,
  0x7c, 0x1a, 0x6d, 0xbd, 0x43, 0x07, 0x80, 0x3e, 0x71, 0x71, 0x80, 0xbe,
  0x6e, 0xe8, 0x0b, 0x3d, 0xcd, 0x47, 0xab, 0xbe, 0xb2, 0xca, 0xb8, 0x3d,
  0xa6, 0xe5, 0x69, 0xbe, 0x9e, 0x50, 0xf3, 0xbd, 0x77, 0x8a, 0x96, 0x3d,
  0x1c, 0x46, 0x77, 0x3d, 0x1e, 0x3e, 0x68, 0xbe, 0x2a, 0xb1, 0x6f, 0xbd,
  0x09, 0x46, 0x72, 0xbe, 0xc6, 0x22, 0xb0, 0x3d, 0x22, 0x15, 0x26, 0xbe,
  0x73, 0x31, 0xcc, 0xbd, 0xd3, 0x54, 0x72, 0xbc, 0x01, 0x64, 0x02, 0x3e,
  0x08, 0x53, 0xe1, 0xbb, 0xc6, 0x64, 0x9f, 0xbd, 0xdc, 0x65, 0x11, 0xbd,
  0xb5, 0xd3, 0xb6, 0xbc, 0xd3, 0x3c, 0x30, 0x3e, 0x52, 0xb5, 0x25, 0x3c,
  0x97, 0x0b, 0xca, 0x3c, 0x76, 0xb0, 0x95, 0x3e, 0x78, 0x6e, 0x23, 0xbd,
  0x47, 0xdb, 0xd6, 0xbd, 0xd7, 0x32, 0x08, 0xbe, 0xa8, 0x93, 0x04, 0x3d,
  0x3a, 0x82, 0x32, 0xbc, 0xf1, 0x4f, 0x01, 0x3e, 0x72, 0x5c, 0x9a, 0x3c,
  0x7e, 0x3b, 0xa6, 0xbd, 0x25, 0x19, 0xa5, 0x3d, 0x78, 0xc6, 0x09, 0xbe,
  0xce, 0xe2, 0xc6, 0x3d, 0x07, 0x00, 0xb6, 0xbd, 0xd0, 0x3b, 0x69, 0x3c,
  0x09, 0x5e, 0xed, 0xbc, 0x16, 0xb9, 0x82, 0x3d, 0x45, 0x95, 0x8e, 0xbd,
  0xd1, 0xa7, 0x3a, 0x3e, 0x9f, 0x89, 0x65, 0xbe, 0xc5, 0xcf, 0x3a, 0xbe,
  0x7d, 0x18, 0x1b, 0xbe, 0x0b, 0x2e, 0xff, 0xbd, 0xcd, 0x0a, 0x20, 0xbe,
  0x64, 0x31, 0x03, 0xbf, 0xf5, 0x88, 0x1b, 0xbe, 0x4f, 0xda, 0x36, 0x3e,
  0x65, 0xfe, 0x7f, 0xbd, 0x51, 0xc2, 0xc5, 0xbe, 0x8c, 0x72, 0x88, 0x3d,
  0xa4, 0xa8, 0xab, 0xbe, 0x54, 0x81, 0x23, 0xbe, 0x3c, 0x84, 0xd4, 0xbe,
  0xda, 0xf8, 0x9e, 0xbd, 0x0c, 0xc5, 0x62, 0x3e, 0x37, 0xb8, 0xa5, 0xbe,
  0x56, 0x7c, 0x4c, 0x3d, 0xa5, 0xc3, 0xfe, 0xbd, 0x48, 0x63, 0xe6, 0xbe,
  0xfc, 0x17, 0x5a, 0xbf, 0x05, 0xa2, 0xdc, 0x3d, 0x92, 0xff, 0xc3, 0xbe,
  0x1b, 0xa9, 0x1e, 0x3e, 0x74, 0xc2, 0x3c, 0xbe, 0x4c, 0x17, 0x58, 0x3e,
  0xfd, 0xe0, 0x7b, 0x3d, 0x18, 0xa8, 0x09, 0xbd, 0x88, 0x33, 0xea, 0xbd,
  0x4e, 0xc6, 0x20, 0x3e, 0xdb, 0x46, 0x8f, 0x3a, 0x28, 0x78, 0x0b, 0x3e,
  0xb2, 0x7e, 0x1a, 0x3d, 0x0d, 0x09, 0xb9, 0x3e, 0x66, 0x95, 0xd9, 0x3d,
  0x9f, 0xc8, 0x0f, 0x3d, 0x17, 0x8d, 0x27, 0x3e, 0x43, 0x5c, 0xe7, 0x3b,
  0xd7, 0x01, 0xa9, 0x3c, 0xc9, 0x0c, 0x8d, 0xbd, 0x5d, 0xf5, 0xc6, 0xbd,
  0x91, 0x6b, 0x3b, 0xbe, 0x8d, 0xba, 0x08, 0xbd, 0x1b, 0xfa, 0xbc, 0xbe,
  0x1e, 0xbd, 0x94, 0xbe, 0x01, 0x5c, 0x8d, 0x3e, 0xb8, 0xb9, 0x8c, 0x3d,
  0x17, 0x06, 0xe8, 0xbd, 0xb3, 0x57, 0x24, 0x3c, 0x2b, 0xa7, 0x1c, 0xbd,
  0xc3, 0xbe, 0x51, 0xbc, 0x26, 0xfa, 0x48, 0xbe, 0x73, 0x3d, 0x97, 0xbe,
  0x2c, 0xba, 0xef, 0xbb, 0xe8, 0xe3, 0xb1, 0xbc, 0xe2, 0x26, 0x58, 0x3d,
  0xc3, 0xd5, 0x17, 0x3d, 0xfa, 0xb0, 0x37, 0xbe, 0x7b, 0x9b, 0xe4, 0xbb,
  0xfc, 0x86, 0x8e, 0xbe, 0x3a, 0x2d, 0x38, 0xbe, 0xd5, 0x9d, 0x86, 0xbe,
  0x2d, 0x77, 0x5d, 0xbd, 0xa9, 0x6f, 0x72, 0x3f, 0x0f, 0xaa, 0xf9, 0xbc,
  0xcf, 0x76, 0xbc, 0x3e, 0xfa, 0x5f, 0xf9, 0xbb, 0x4d, 0x14, 0x57, 0xbe,
  0x3e, 0xeb, 0x6b, 0xbe, 0x6d, 0x60, 0x03, 0xbc, 0x22, 0x56, 0xc2, 0xbd,
  0x07, 0x3e, 0xa2, 0xbd, 0xb0, 0xf5, 0xb8, 0xbd, 0xbf, 0xf0, 0xe3, 0xbe,
  0x2f, 0x76, 0x0a, 0xbe, 0xda, 0x98, 0x89, 0x3d, 0x33, 0xd1, 0xb2, 0xbb,
  0x26, 0x2e, 0xc5, 0xbe, 0x08, 0xe5, 0x93, 0xbc, 0x0d, 0x24, 0xe2, 0xbe,
  0xd0, 0x7d, 0x43, 0xbd, 0x0e, 0xa8, 0x84, 0xbd, 0x4a, 0x9a, 0x21, 0xbe,
  0x31, 0xcf, 0x0f, 0xbd, 0xd7, 0xf2, 0x4e, 0x3e, 0x3a, 0xf1, 0x01, 0xbf,
  0x7e, 0xde, 0x08, 0x3c, 0xac, 0xeb, 0x4a, 0x3e, 0xd1, 0x9f, 0x11, 0xbe,
  0xd5, 0x86, 0x03, 0x3f, 0x6e, 0x07, 0xa0, 0xbe, 0x8e, 0xbd, 0x3e, 0xbd,
  0x0e, 0x23, 0x9a, 0xbd, 0x0a, 0x2f, 0x3c, 0xbd, 0x97, 0x23, 0x38, 0xbe,
  0x7c, 0xcb, 0xe1, 0x3e, 0xbe, 0x4d, 0xea, 0xbd, 0x3d, 0x21, 0x8e, 0x3d,
  0x50, 0x09, 0x7d, 0xbe, 0x4f, 0xba, 0x99, 0x3e, 0xbb, 0x71, 0x84, 0x3d,
  0xba, 0x6a, 0x6a, 0xbe, 0x22, 0xf9, 0x61, 0xbe, 0x71, 0x76, 0x44, 0xbf,
  0x46, 0x6a, 0x1f, 0x3e, 0x0b, 0x09, 0xa8, 0x3e, 0x01, 0x75, 0x50, 0xbe,
  0x5b, 0x45, 0x7d, 0xbd, 0x2e, 0x29, 0x53, 0x3d, 0xa2, 0x7c, 0xee, 0xbd,
  0xe0, 0x9e, 0xbd, 0xbe, 0xef, 0x28, 0xd3, 0x3d, 0x76, 0xf5, 0xa7, 0xbd,
  0x47, 0x7e, 0x14, 0x3d, 0xfa, 0x00, 0x9f, 0xbe, 0x68, 0xcd, 0x88, 0xbc,
  0xba, 0x2c, 0xba, 0xbe, 0x14, 0xe2, 0x51, 0x3e, 0x64, 0x78, 0x95, 0xbe,
  0x50, 0x46, 0x89, 0x3d, 0x9a, 0xfa, 0xd8, 0x3d, 0x0a, 0x0f, 0x0e, 0x3e,
  0x44, 0x64, 0x17, 0x3e, 0xbf, 0xa7, 0x01, 0x3c, 0x8c, 0x18, 0x4b, 0x3d,
  0x20, 0x97, 0xea, 0x3d, 0x1b, 0xb4, 0x02, 0xbd, 0xac, 0x89, 0x94, 0x3e,
  0xfd, 0x45, 0x8b, 0xbc, 0xed, 0x67, 0xcb, 0xbd, 0xeb, 0x38, 0xc5, 0x3d,
  0x69, 0xdf, 0x38, 0xbd, 0x9a, 0xb1, 0x4f, 0x39, 0xef, 0x51, 0xca, 0x3c,
  0x45, 0x85, 0x13, 0xbc, 0xe1, 0x21, 0x97, 0x3d, 0x0f, 0x3a, 0x9e, 0xbd,
  0x32, 0x96, 0x42, 0x3d, 0xc5, 0x92, 0x89, 0xbc, 0x7d, 0x36, 0x81, 0xbf,
  0x40, 0x37, 0x32, 0xbf, 0xaf, 0xd3, 0x92, 0x3e, 0xa6, 0x92, 0xde, 0x3c,
  0x34, 0xe5, 0x4f, 0x3d, 0x19, 0x2b, 0xea, 0xbd, 0xdc, 0x66, 0x84, 0x3d,
  0x0e, 0xc9, 0x23, 0xbc, 0x1a, 0x68, 0xdb, 0xbe, 0x9f, 0x5c, 0xfa, 0xbe,
  0x1f, 0xfb, 0xd3, 0xbc, 0x4b, 0x33, 0xf0, 0xbd, 0x24, 0x21, 0x29, 0x3f,
  0x58, 0x7b, 0x68, 0xbd, 0xb2, 0xe4, 0xd5, 0x3d, 0x3f, 0x3d, 0x3b, 0xbd,
  0xb2, 0x2d, 0xe4, 0xbe, 0xb6, 0x00, 0x04, 0xbf, 0xd4, 0xbd, 0x41, 0x3e,
  0xde, 0xd6, 0x02, 0xbf, 0x48, 0x9d, 0x3d, 0xbc, 0xb9, 0xd5, 0x60, 0x3e,
  0x66, 0x32, 0xa9, 0x3b, 0xe3, 0xec, 0x08, 0xbc, 0x76, 0xf0, 0x39, 0xbf,
  0x4b, 0x4f, 0x02, 0xbf, 0x96, 0x1b, 0x63, 0x3d, 0xe0, 0xe5, 0x32, 0xbe,
  0x64, 0x75, 0x10, 0x3f, 0x29, 0xe6, 0x19, 0x3e, 0x36, 0xec, 0x2a, 0x3d,
  0x34, 0xee, 0x8f, 0xbe, 0x26, 0x3a, 0x02, 0x3e, 0x43, 0xc5, 0x7b, 0x3d,
  0x72, 0xb2, 0x93, 0xbe, 0x7f, 0x54, 0x58, 0xbe, 0x98, 0x2f, 0x62, 0xbe,
  0xf2, 0x9d, 0x4d, 0x3e, 0x3e, 0xd7, 0x64, 0x3d, 0xf4, 0x6e, 0x32, 0xbe,
  0xef, 0xd0, 0xac, 0x3d, 0x3a, 0xb7, 0x86, 0x3d, 0xdc, 0x45, 0x9a, 0xbe,
  0xcc, 0x8e, 0x04, 0x3e, 0x33, 0x17, 0x81, 0xbc, 0x9f, 0x1a, 0x84, 0xbd,
  0x33, 0xe2, 0x3d, 0xbe, 0xf2, 0x19, 0x88, 0xbe, 0xf6, 0xee, 0x0d, 0xbe,
  0x22, 0x73, 0x7e, 0xbe, 0x9a, 0x4b, 0x12, 0x3e, 0xfc, 0x85, 0xde, 0x3d,
  0x1f, 0x35, 0x7a, 0xbe, 0xea, 0x7d, 0x23, 0xbc, 0x1e, 0x63, 0x52, 0x3e,
  0x0d, 0xa0, 0x75, 0xbe, 0x8e, 0x85, 0x1f, 0xbf, 0x71, 0xe1, 0xb6, 0xbe,
  0xac, 0x00, 0xb2, 0xbe, 0x2a, 0x27, 0x71, 0xbd, 0xa6, 0x53, 0x23, 0x3e,
  0x9b, 0xe6, 0x30, 0xbd, 0xa1, 0xa9, 0x05, 0xbe, 0x2b, 0xd3, 0x3d, 0xbe,
  0x58, 0xfd, 0x0f, 0xbe, 0x3b, 0x62, 0x29, 0xbe, 0x4f, 0x6e, 0xcc, 0xbe,
  0xd0, 0xcc, 0xd5, 0xbc, 0x40, 0x4d, 0x4a, 0x3e, 0x2f, 0xc2, 0xa0, 0xbd,
  0xcb, 0x52, 0x5a, 0xbe, 0x1d, 0xd3, 0x47, 0xbe, 0x0e, 0xcf, 0x36, 0xbe,
  0x80, 0xef, 0x53, 0xbe, 0x89, 0x38, 0xaf, 0xbd, 0xc1, 0x25, 0x45, 0xbd,
  0x4e, 0xf8, 0x84, 0xbe, 0x22, 0xf6, 0x03, 0xbd, 0x2f, 0x15, 0x9d, 0x3e,
  0x0b, 0xa0, 0x0a, 0xbe, 0xb2, 0xc6, 0xeb, 0xbd, 0x4e, 0x80, 0xa8, 0xbd,
  0xbf, 0xd4, 0x8d, 0x3e, 0x9b, 0x91, 0x57, 0xbc, 0x2c, 0x1a, 0x5b, 0xbe,
  0x1d, 0x01, 0x76, 0xbd, 0x24, 0xa5, 0x20, 0x3e, 0x62, 0xda, 0x86, 0xbd,
  0xed, 0x8b, 0x33, 0x3e, 0x0d, 0x17, 0xbb, 0x3e, 0x68, 0x7f, 0x24, 0x3e,
  0x6b, 0xfa, 0x78, 0x3e, 0xc4, 0x0f, 0x8a, 0x3c, 0xc8, 0xd4, 0x55, 0x3e,
  0xd6, 0xc2, 0xab, 0x3d, 0x71, 0x10, 0x88, 0x3d, 0x41, 0xb9, 0x47, 0xbe,
  0x0f, 0x06, 0x71, 0xbe, 0x34, 0xd4, 0xa9, 0xbe, 0x12, 0xf1, 0x3e, 0xbe,
  0x2b, 0x2c, 0xb2, 0xbc, 0x82, 0x2f, 0x16, 0xbe, 0xff, 0x38, 0xee, 0x3c,
  0xf8, 0x52, 0x2f, 0xbe, 0xf5, 0x29, 0x73, 0xbe, 0xa1, 0xdf, 0x07, 0xbe,
  0x91, 0xae, 0xac, 0x3c, 0x3d, 0x06, 0xc4, 0xbd, 0xc8, 0xca, 0x0f, 0xbc,
  0x79, 0x25, 0x48, 0xbe, 0xec, 0x1e, 0xd9, 0x39, 0x18, 0x59, 0xc4, 0xbe,
  0x12, 0x95, 0xb2, 0xbe, 0x9a, 0x36, 0x0c, 0xbe, 0xa4, 0x6f, 0x98, 0xbe,
  0x6e, 0xe7, 0xd1, 0xbe, 0x84, 0x8e, 0x28, 0x3c, 0x6e, 0x6b, 0xfb, 0xbd,
  0x1b, 0x51, 0x8e, 0xbe, 0x6e, 0x7c, 0x52, 0xbc, 0x74, 0x83, 0xb3, 0xbe,
  0x01, 0x69, 0xb1, 0x3d, 0x8f, 0xb2, 0x98, 0xbe, 0x70, 0xfa, 0x9d, 0xbe,
  0xc9, 0x1d, 0x40, 0xbe, 0xe2, 0xdd, 0xff, 0xff, 0x10, 0x00, 0x00, 0x00,
  0x0a, 0x00, 0x00, 0x00, 0x1c, 0x00, 0x00, 0x00, 0x38, 0x00, 0x00, 0x00,
  0x04, 0x00, 0x00, 0x00, 0x10, 0x00, 0x00, 0x00, 0x04, 0x00, 0x00, 0x00,
  0x01, 0x00, 0x00, 0x00, 0x08, 0x00, 0x00, 0x00, 0x1a, 0x00, 0x00, 0x00,
  0x73, 0x65, 0x71, 0x75, 0x65, 0x6e, 0x74, 0x69, 0x61, 0x6c, 0x2f, 0x63,
  0x6f, 0x6e, 0x76, 0x32, 0x64, 0x5f, 0x31, 0x2f, 0x43, 0x6f, 0x6e, 0x76,
  0x32, 0x44, 0x00, 0x00, 0x58, 0xdd, 0xff, 0xff, 0x62, 0xde, 0xff, 0xff,
  0x04, 0x00, 0x00, 0x00, 0x80, 0x01, 0x00, 0x00, 0x03, 0x8a, 0x3c, 0x3e,
  0xeb, 0x5f, 0x9a, 0x3d, 0xca, 0x13, 0x9c, 0xbd, 0xe3, 0xdf, 0x05, 0xbe,
  0x09, 0x40, 0x8d, 0xbd, 0x78, 0x52, 0x8a, 0xbd, 0xe6, 0xde, 0xa1, 0x3c,
  0x2e, 0x3e, 0xc7, 0x3d, 0x82, 0x20, 0xa8, 0xbd, 0xf1, 0x1b, 0x95, 0xbd,
  0x86, 0xc2, 0xde, 0x3d, 0x94, 0xc0, 0xa3, 0xbe, 0x71, 0x36, 0x9e, 0xbc,
  0x30, 0x0d, 0xab, 0x3e, 0xa3, 0x64, 0x98, 0x3e, 0xf7, 0x5c, 0x44, 0xbe,
  0x47, 0xb5, 0x03, 0xbe, 0xd2, 0x10, 0xfd, 0x3d, 0x5e, 0x54, 0xcc, 0x3d,
  0x90, 0xf2, 0x9e, 0xbe, 0xc7, 0xd9, 0x8d, 0xbe, 0xf6, 0x20, 0xf8, 0x3c,
  0x77, 0x4a, 0x00, 0x3d, 0x6e, 0x7a, 0x2b, 0xbe, 0xb2, 0x60, 0xdb, 0x3d,
  0x9d, 0x95, 0xb9, 0xbd, 0x99, 0xba, 0x55, 0xbe, 0x56, 0xdc, 0xa8, 0x3c,
  0xfa, 0x01, 0xe5, 0xbc, 0xad, 0x0b, 0x49, 0xbe, 0xd2, 0x1e, 0x8b, 0xbd,
  0x57, 0xa1, 0x8b, 0xbc, 0x64, 0x20, 0xe6, 0xbd, 0x9b, 0x40, 0x82, 0x3d,
  0xca, 0x66, 0x60, 0xbd, 0xf2, 0xdc, 0x30, 0xbd, 0xfe, 0xea, 0x39, 0x3e,
  0x7a, 0x3f, 0x97, 0xbe, 0x42, 0x40, 0x48, 0x3e, 0xdf, 0x21, 0x69, 0xbe,
  0x74, 0x11, 0xc4, 0xbd, 0x81, 0x3f, 0xf3, 0x3c, 0x0b, 0xee, 0x0a, 0xbe,
  0x4d, 0x57, 0x04, 0x3e, 0xa5, 0xdb, 0x8c, 0x3e, 0x43, 0x78, 0xad, 0xbd,
  0x35, 0xd6, 0xa7, 0xbd, 0x2d, 0xd1, 0x10, 0xbe, 0x10, 0x71, 0x42, 0x3d,
  0x89, 0xa2, 0x70, 0xbe, 0x94, 0xe0, 0x8f, 0x3d, 0x50, 0xc5, 0x6b, 0xbd,
  0x31, 0xdc, 0xc6, 0xbe, 0xb8, 0x92, 0xe6, 0x3d, 0x28, 0x03, 0x46, 0xbe,
  0x9c, 0x47, 0xe8, 0x3d, 0xb1, 0x09, 0x4d, 0xbd, 0x54, 0x79, 0xfc, 0xbd,
  0x97, 0x3a, 0x22, 0x3e, 0x3a, 0xfc, 0xd1, 0xbc, 0x6d, 0xd2, 0x98, 0xbc,
  0x8a, 0x7a, 0x86, 0x3e, 0x23, 0x0d, 0x9e, 0xbc, 0x4c, 0x29, 0x0b, 0x3e,
  0x99, 0x8a, 0x53, 0x3d, 0xa0, 0x6c, 0x8e, 0x3e, 0xb6, 0x63, 0xe7, 0x3c,
  0x8b, 0xe4, 0x20, 0xbe, 0x59, 0xb3, 0xed, 0xbd, 0x19, 0xd6, 0x6c, 0xbe,
  0x55, 0x0b, 0x95, 0xbe, 0xa5, 0x04, 0xbf, 0xbe, 0xd8, 0xbb, 0x01, 0xbe,
  0x21, 0x17, 0x4a, 0x3d, 0x2b, 0x5f, 0xd0, 0xbe, 0x24, 0x8e, 0xd4, 0x3d,
  0x42, 0xa4, 0x92, 0x3d, 0xd1, 0x00, 0x93, 0xbe, 0x79, 0x0e, 0x12, 0xbd,
  0x57, 0xb6, 0x3c, 0xbd, 0xdc, 0xc1, 0x81, 0xbe, 0xb1, 0x19, 0x8e, 0xbd,
  0xec, 0xd4, 0x08, 0xbe, 0x25, 0x1f, 0x4f, 0xbe, 0xf9, 0x25, 0x67, 0xbe,
  0x4c, 0xd9, 0x8b, 0x3c, 0xc3, 0x3c, 0x86, 0x3e, 0x97, 0x66, 0xa8, 0xbe,
  0x22, 0xe2, 0x14, 0xbf, 0x1d, 0x28, 0xda, 0xbd, 0xfb, 0x3f, 0x86, 0x3e,
  0xe5, 0x4f, 0xc2, 0x3d, 0xef, 0x57, 0x81, 0xbe, 0xfc, 0xc3, 0x97, 0x3e,
  0x4f, 0x86, 0xb4, 0x3e, 0x3d, 0x44, 0x7f, 0x3b, 0xba, 0xdf, 0xff, 0xff,
  0x10, 0x00, 0x00, 0x00, 0x09, 0x00, 0x00, 0x00, 0x1c, 0x00, 0x00, 0x00,
  0x38, 0x00, 0x00, 0x00, 0x04, 0x00, 0x00, 0x00, 0x08, 0x00, 0x00, 0x00,
  0x04, 0x00, 0x00, 0x00, 0x03, 0x00, 0x00, 0x00, 0x01, 0x00, 0x00, 0x00,
  0x18, 0x00, 0x00, 0x00, 0x73, 0x65, 0x71, 0x75, 0x65, 0x6e, 0x74, 0x69,
  0x61, 0x6c, 0x2f, 0x63, 0x6f, 0x6e, 0x76, 0x32, 0x64, 0x2f, 0x43, 0x6f,
  0x6e, 0x76, 0x32, 0x44, 0x00, 0x00, 0x00, 0x00, 0x30, 0xdf, 0xff, 0xff,
  0x3a, 0xe0, 0xff, 0xff, 0x04, 0x00, 0x00, 0x00, 0x00, 0x01, 0x00, 0x00,
  0xa6, 0xde, 0x59, 0x3e, 0xcb, 0x1d, 0x76, 0xbe, 0x86, 0x98, 0x8a, 0x3e,
  0x40, 0xaa, 0xfc, 0x3d, 0x8a, 0x33, 0xc2, 0x3e, 0x49, 0x9e, 0xce, 0x3e,
  0x33, 0xe9, 0x78, 0x3e, 0xfc, 0x44, 0x4c, 0x3e, 0x0c, 0x39, 0xc2, 0x3d,
  0xdc, 0xa5, 0x70, 0xbd, 0x57, 0xca, 0x24, 0x3e, 0x37, 0xe5, 0xd3, 0x3d,
  0x61, 0x77, 0x83, 0x3e, 0x98, 0x21, 0x8b, 0xbe, 0xca, 0xb8, 0x96, 0x3e,
  0x17, 0xfe, 0x22, 0xbd, 0x28, 0x5d, 0x1c, 0xbe, 0x19, 0x19, 0x80, 0xbe,
  0xa9, 0x26, 0x81, 0x3e, 0xb7, 0x52, 0x14, 0x3e, 0x2e, 0x08, 0xca, 0x3e,
  0x35, 0x14, 0xdc, 0x3e, 0x32, 0xba, 0x3a, 0x3e, 0xfb, 0x08, 0x34, 0xbf,
  0xed, 0xc1, 0x9b, 0x3d, 0x93, 0x69, 0xb7, 0xbd, 0xed, 0x15, 0x4d, 0x3e,
  0xc9, 0x9a, 0x4a, 0x3d, 0xa2, 0xdd, 0x9e, 0x3e, 0x6a, 0x42, 0x5f, 0xbe,
  0x36, 0x41, 0x4a, 0x3e, 0xc6, 0x6f, 0x03, 0xbb, 0x60, 0xa9, 0x99, 0xbf,
  0x6b, 0x2d, 0xec, 0xbe, 0x7e, 0xcc, 0x8a, 0x3d, 0x32, 0x5c, 0xfa, 0x3c,
  0xaa, 0x59, 0xa3, 0x3e, 0x5a, 0xe3, 0x24, 0x3e, 0x91, 0x81, 0x1a, 0xbe,
  0x05, 0x9f, 0xc2, 0xbf, 0xec, 0x5f, 0xdd, 0xbe, 0xbe, 0x0a, 0x9d, 0xbe,
  0x1f, 0x1a, 0x3b, 0x3e, 0xd0, 0xc9, 0x8e, 0xbe, 0x4d, 0xd2, 0x5c, 0x3e,
  0xd9, 0xb3, 0x3e, 0xbe, 0xb6, 0x9a, 0x4f, 0xbf, 0x69, 0x2e, 0xf3, 0xbd,
  0x1e, 0x86, 0x63, 0xbd, 0x00, 0x76, 0x59, 0xbe, 0xdb, 0xb9, 0x36, 0x3e,
  0x6d, 0x0b, 0x60, 0x3d, 0x26, 0x40, 0xd4, 0x3e, 0xc1, 0x9f, 0xcb, 0x3e,
  0x75, 0x78, 0x36, 0x3e, 0x0e, 0x80, 0xf3, 0xbe, 0xe5, 0xfb, 0xf9, 0x3d,
  0x0a, 0x6e, 0x67, 0xbd, 0xc4, 0xf3, 0xf1, 0x3d, 0x57, 0xac, 0x81, 0x3d,
  0x9b, 0xba, 0x70, 0x3e, 0x3d, 0xba, 0x8c, 0xbe, 0x17, 0x4b, 0xfb, 0xbd,
  0x79, 0x6e, 0x8f, 0xbd, 0x12, 0xe1, 0xff, 0xff, 0x10, 0x00, 0x00, 0x00,
  0x08, 0x00, 0x00, 0x00, 0x14, 0x00, 0x00, 0x00, 0x30, 0x00, 0x00, 0x00,
  0x02, 0x00, 0x00, 0x00, 0x04, 0x00, 0x00, 0x00, 0x10, 0x00, 0x00, 0x00,
  0x19, 0x00, 0x00, 0x00, 0x73, 0x65, 0x71, 0x75, 0x65, 0x6e, 0x74, 0x69,
  0x61, 0x6c, 0x2f, 0x64, 0x65, 0x6e, 0x73, 0x65, 0x5f, 0x31, 0x2f, 0x4d,
  0x61, 0x74, 0x4d, 0x75, 0x6c, 0x00, 0x00, 0x00, 0x80, 0xe0, 0xff, 0xff,
  0x8a, 0xe1, 0xff, 0xff, 0x04, 0x00, 0x00, 0x00, 0x00, 0x1c, 0x00, 0x00,
  0x7a, 0x0b, 0xe7, 0xbe, 0x7f, 0x31, 0x19, 0xbe, 0x02, 0xa7, 0x12, 0x3f,
  0x83, 0x6d, 0x31, 0xbd, 0x14, 0xe0, 0xba, 0xbe, 0x07, 0x2b, 0xb5, 0xbe,
  0xf7, 0xf0, 0xac, 0xbc, 0x5a, 0x50, 0x5b, 0x3e, 0xe9, 0xf9, 0x3e, 0xbe,
  0x79, 0x7b, 0xa5, 0xbe, 0x49, 0xc1, 0x82, 0xbe, 0x88, 0x42, 0x04, 0xbf,
  0xd1, 0x02, 0xbb, 0xbe, 0xa7, 0xb5, 0x1b, 0x3e, 0x01, 0x02, 0xb1, 0xbe,
  0xad, 0x90, 0x9d, 0x3c, 0xab, 0x85, 0x2e, 0xbe, 0xd7, 0xbd, 0xb9, 0x3d,
  0x57, 0xb6, 0xe5, 0x3e, 0x75, 0x0f, 0xa1, 0xbb, 0x0e, 0x7f, 0x6d, 0xbe,
  0x93, 0xa4, 0xe7, 0xbd, 0x14, 0xe5, 0xdf, 0xbd, 0x6c, 0x2e, 0x92, 0x3e,
  0xbf, 0x95, 0x76, 0xbe, 0x56, 0x5f, 0x85, 0xbe, 0xc9, 0xb9, 0x3f, 0xbd,
  0x38, 0x65, 0xbd, 0xbe, 0x28, 0xe6, 0xac, 0xbd, 0x03, 0x4c, 0x29, 0x3d,
  0x36, 0x57, 0xc6, 0x3c, 0x44, 0x9c, 0x67, 0xbb, 0x53, 0x46, 0xc2, 0xbe,
  0xc7, 0xce, 0x11, 0x3d, 0xf8, 0xf5, 0x55, 0x3f, 0x6a, 0xf3, 0x87, 0x3d,
  0xd9, 0x04, 0x23, 0xbe, 0x91, 0x3a, 0x62, 0xbd, 0x7a, 0x59, 0xbd, 0xbd,
  0x7a, 0xdd, 0x2b, 0x3e, 0xad, 0xcd, 0x04, 0xbd, 0xf2, 0x48, 0x86, 0xbe,
  0x37, 0xd3, 0x95, 0x3e, 0xa3, 0x36, 0xf1, 0xbe, 0x0c, 0x1e, 0xc0, 0xbe,
  0xa4, 0xf5, 0xae, 0xbb, 0x2f, 0x84, 0xd2, 0xbd, 0x4e, 0x7a, 0x3d, 0x3e,
  0x1b, 0xa3, 0x0a, 0xbe, 0x7a, 0xe7, 0x35, 0xbe, 0xe3, 0xff, 0x4d, 0x3f,
  0x6f, 0x0f, 0xa3, 0xbe, 0xbb, 0xa6, 0xb0, 0xbd, 0x86, 0x5e, 0x6b, 0xbe,
  0xb4, 0x36, 0x58, 0xbd, 0xf7, 0x06, 0x5e, 0x3e, 0xfa, 0x8e, 0xbd, 0xbe,
  0x17, 0x67, 0xc0, 0xbc, 0x35, 0xf8, 0x3b, 0x3e, 0x12, 0x38, 0xf2, 0xbe,
  0x4f, 0x26, 0x04, 0xbd, 0x0a, 0x89, 0x06, 0x3e, 0xee, 0x76, 0x51, 0xbe,
  0xa6, 0xa0, 0x1e, 0xbd, 0x07, 0x0d, 0xb6, 0xbe, 0x0c, 0xe9, 0x87, 0x3d,
  0x8c, 0xd3, 0x71, 0x3f, 0x07, 0x3a, 0x69, 0xbe, 0x2e, 0xb9, 0x08, 0x3e,
  0xa7, 0x3a, 0x85, 0xbe, 0x49, 0x85, 0xc2, 0xbe, 0x74, 0xcd, 0x5e, 0x3e,
  0x7b, 0xf3, 0x47, 0xbe, 0x2e, 0x90, 0x9f, 0xbe, 0xd2, 0xfe, 0xeb, 0xbd,
  0xdf, 0x8e, 0xc9, 0xbe, 0x9c, 0xca, 0x97, 0xbe, 0xe3, 0x7c, 0x0d, 0x3e,
  0xbc, 0x2d, 0xb1, 0xbd, 0x6a, 0xf2, 0x5c, 0xbe, 0x57, 0x24, 0x76, 0xbe,
  0x9c, 0xd7, 0xfa, 0xbc, 0xbb, 0xe7, 0x22, 0x3f, 0xe5, 0x07, 0x60, 0xbc,
  0xea, 0x0b, 0xa3, 0x3d, 0x8b, 0xda, 0x39, 0xbe, 0x18, 0xa3, 0xa2, 0x3d,
  0xe1, 0x7f, 0x31, 0x3f, 0xb4, 0x92, 0xa0, 0xbd, 0xb1, 0x29, 0xfb, 0xbd,
  0xd5, 0xc5, 0x23, 0x3e, 0xb5, 0x55, 0xaf, 0xbe, 0x0e, 0x5e, 0x9a, 0xbe,
  0x52, 0xe6, 0x55, 0x3e, 0x79, 0x9c, 0x9d, 0x3d, 0x23, 0x7c, 0x1e, 0xbd,
  0xc0, 0x8b, 0x84, 0xbe, 0xd4, 0xb6, 0x1c, 0xbd, 0xf0, 0x73, 0xd1, 0xbe,
  0xf0, 0x6c, 0x30, 0xbe, 0x87, 0x9b, 0x72, 0xbe, 0x85, 0x15, 0x72, 0xba,
  0x85, 0x8e, 0xbf, 0xbe, 0xf8, 0x07, 0xa6, 0xbe, 0x95, 0xb1, 0xcd, 0xbe,
  0x49, 0x6c, 0x16, 0x3d, 0x58, 0x58, 0x7c, 0xbe, 0xa7, 0x60, 0xab, 0xbe,
  0x91, 0xbd, 0xb6, 0x3c, 0xb0, 0xa1, 0x22, 0xbe, 0xc2, 0x7d, 0x9e, 0xbe,
  0xf2, 0x30, 0x8a, 0xbd, 0xbb, 0x8a, 0xfb, 0x3c, 0x9e, 0xcb, 0xad, 0x3d,
  0x2e, 0x47, 0xb4, 0xbe, 0x71, 0x0b, 0x3f, 0xbd, 0xce, 0xc9, 0xa7, 0xbc,
  0x15, 0xe8, 0xe7, 0xbd, 0xa0, 0x3b, 0x3c, 0xbf, 0xd3, 0xd5, 0x7e, 0xbe,
  0xe6, 0xec, 0xbb, 0xbe, 0x70, 0xb9, 0x42, 0x3e, 0x57, 0x56, 0x81, 0xbd,
  0xa3, 0xfa, 0x31, 0x3b, 0xea, 0x64, 0x10, 0xbe, 0x4e, 0x6c, 0x8f, 0x3e,
  0x40, 0x9f, 0xaf, 0xbe, 0xc3, 0x00, 0x56, 0x3b, 0x54, 0x6b, 0x13, 0x3d,
  0x93, 0x86, 0x33, 0x3c, 0xe0, 0x17, 0x6c, 0xbe, 0xbb, 0xf2, 0x03, 0x3e,
  0x15, 0xc5, 0x03, 0x3e, 0x80, 0x4f, 0x36, 0xbe, 0x5d, 0xe8, 0xbf, 0xbe,
  0x38, 0x28, 0x64, 0xbe, 0x66, 0x1c, 0xe5, 0xbe, 0xf9, 0xd7, 0x33, 0xbd,
  0x62, 0x78, 0x41, 0x3e, 0xff, 0x13, 0x35, 0x3c, 0x6c, 0x6f, 0xce, 0xbe,
  0x94, 0xc0, 0xb8, 0x3e, 0x6f, 0xff, 0xf2, 0xbc, 0x27, 0xeb, 0x42, 0x3e,
  0xb6, 0x4a, 0xa7, 0x3d, 0x9f, 0x9d, 0x81, 0xbd, 0x25, 0xa3, 0xc5, 0xbe,
  0xc5, 0x84, 0xc7, 0x3e, 0x8b, 0x0e, 0x80, 0x3e, 0xca, 0x8d, 0x8b, 0xbd,
  0x70, 0x46, 0x9f, 0xbe, 0xef, 0xe4, 0xdb, 0x3d, 0x3e, 0xef, 0x74, 0xbe,
  0x82, 0x04, 0xee, 0x3c, 0xff, 0x44, 0xc2, 0x3e, 0x56, 0x4f, 0x1b, 0x3d,
  0xba, 0x5c, 0xb1, 0xbe, 0x61, 0x28, 0x8a, 0x3e, 0xf2, 0x05, 0xa0, 0xbd,
  0xeb, 0x87, 0x56, 0xbc, 0x3e, 0x2b, 0x80, 0x3d, 0x6b, 0xa7, 0x3f, 0x3d,
  0x89, 0xdf, 0x7b, 0xbe, 0x22, 0x22, 0x2a, 0x3e, 0x3a, 0xcb, 0xc8, 0x3d,
  0x8f, 0x7f, 0x5e, 0xbd, 0x5b, 0x67, 0xc3, 0xbe, 0x0b, 0x86, 0x03, 0x3c,
  0x91, 0x92, 0x4f, 0xbe, 0x69, 0x44, 0xb6, 0x3d, 0x16, 0xe8, 0xf6, 0x3d,
  0x05, 0x5e, 0x0d, 0x3c, 0x84, 0x00, 0x51, 0xbe, 0x8e, 0xfd, 0x5c, 0x3e,
  0x4d, 0xde, 0xa4, 0x3c, 0xe2, 0x7b, 0x03, 0x3e, 0x1c, 0xc9, 0x7d, 0xbb,
  0x60, 0x1e, 0x13, 0x3d, 0x37, 0x0f, 0x9a, 0x3c, 0xda, 0x1b, 0x18, 0x3e,
  0x6a, 0x32, 0x78, 0x3d, 0x56, 0x75, 0x0c, 0xbe, 0x54, 0x01, 0x1b, 0xbe,
  0x94, 0xba, 0xa6, 0xbb, 0xba, 0xfe, 0x83, 0xbe, 0xf4, 0x83, 0xa3, 0xbd,
  0x55, 0x30, 0xcb, 0xbd, 0xb9, 0xff, 0x81, 0xbc, 0x85, 0x57, 0xf4, 0xbd,
  0x99, 0x9b, 0x55, 0x3e, 0x1e, 0x56, 0x27, 0xbe, 0xc9, 0x60, 0xb9, 0x3e,
  0x72, 0x1e, 0xbc, 0x3d, 0x35, 0xe9, 0x21, 0xbe, 0xb9, 0x5f, 0x1f, 0xbe,
  0xef, 0xfe, 0x0b, 0x3e, 0xe4, 0x6f, 0x06, 0x3e, 0x5e, 0x3d, 0x8b, 0xbd,
  0x13, 0xca, 0xfe, 0xbe, 0xa4, 0x20, 0x20, 0xbe, 0x19, 0x9a, 0x3d, 0xbe,
  0x69, 0x45, 0xbd, 0xbc, 0xa5, 0x4d, 0xa1, 0xbc, 0x3b, 0xa7, 0x81, 0x3c,
  0xb4, 0x68, 0x93, 0xbe, 0x21, 0xc5, 0x9e, 0x3d, 0x08, 0xc6, 0x64, 0xbe,
  0x16, 0x3c, 0x97, 0x3d, 0xbd, 0x16, 0x5d, 0xbb, 0x71, 0xb8, 0xa8, 0xbd,
  0x85, 0xb1, 0xb9, 0xbd, 0xb1, 0xf9, 0x90, 0x3d, 0x4d, 0x53, 0x61, 0x3d,
  0x5e, 0xfd, 0x21, 0xbd, 0xc9, 0x50, 0x76, 0x3e, 0x76, 0x51, 0x73, 0x3d,
  0x45, 0xad, 0x2a, 0xbe, 0x7e, 0x55, 0x5f, 0x3c, 0xbf, 0xda, 0xc3, 0x3d,
  0x9d, 0xd0, 0x0f, 0xbd, 0x65, 0xb1, 0x09, 0xbe, 0x50, 0xb4, 0x32, 0x3d,
  0xac, 0xc6, 0x8a, 0xbd, 0xd5, 0xe2, 0xb5, 0x3c, 0x49, 0x33, 0xbf, 0xbb,
  0xd4, 0xf0, 0xe3, 0xbd, 0x29, 0x99, 0x1c, 0x3e, 0xda, 0xc5, 0xf9, 0x3c,
  0xad, 0x65, 0xa0, 0x3d, 0x14, 0x37, 0x16, 0x3e, 0x80, 0xa8, 0xc6, 0xbd,
  0x95, 0xc4, 0xa6, 0x3e, 0x40, 0x4c, 0xac, 0xbd, 0x9d, 0x71, 0x81, 0xbd,
  0xea, 0xf3, 0xa2, 0x3e, 0x13, 0x82, 0x61, 0x3d, 0x38, 0x3f, 0xaa, 0xbd,
  0x18, 0xef, 0x2f, 0x3e, 0xe1, 0x6b, 0x44, 0x3d, 0x0c, 0xa4, 0x10, 0x3e,
  0xc9, 0xb6, 0x3d, 0x3b, 0x3a, 0xcf, 0x4c, 0xbf, 0x90, 0xaf, 0xbd, 0x3c,
  0x76, 0xe6, 0xb2, 0xbe, 0x68, 0x97, 0x8b, 0xbc, 0xe2, 0xaa, 0x04, 0x3e,
  0xa3, 0xb5, 0x90, 0xbd, 0x82, 0x64, 0xa4, 0x3d, 0xd8, 0x1b, 0x90, 0xbe,
  0xc3, 0x76, 0x13, 0xbf, 0x5d, 0xaa, 0xba, 0xbe, 0xa8, 0x88, 0xd8, 0xbd,
  0x49, 0x29, 0xed, 0xbe, 0x43, 0x22, 0xb4, 0x3c, 0x98, 0x0c, 0xe3, 0xbd,
  0xf3, 0xeb, 0x43, 0x3e, 0xcf, 0x71, 0xf1, 0xbd, 0x48, 0xb5, 0x45, 0xbe,
  0x58, 0x0b, 0x10, 0xbe, 0xc9, 0x8c, 0xb0, 0xbe, 0xaa, 0xd2, 0x1c, 0xbe,
  0x2a, 0x3c, 0x45, 0x3e, 0xc2, 0xdf, 0x4f, 0xbd, 0x8e, 0xd9, 0x15, 0xbb,
  0xae, 0xbe, 0x6f, 0x3d, 0xb4, 0xfa, 0x8d, 0xbe, 0xa2, 0xd0, 0x4a, 0xbe,
  0xeb, 0x23, 0xd9, 0xbd, 0x57, 0xdd, 0x40, 0x3c, 0xa3, 0x95, 0x55, 0x3d,
  0x6b, 0xba, 0x20, 0x3d, 0x03, 0x6d, 0x60, 0xbe, 0xca, 0xdb, 0xcd, 0xbd,
  0xf8, 0xcf, 0xbc, 0xbe, 0xc0, 0x75, 0x67, 0x3e, 0x71, 0x1b, 0xb6, 0xbe,
  0x04, 0x2f, 0x1f, 0xbe, 0x87, 0x90, 0x01, 0xbe, 0xaf, 0x4e, 0x91, 0xbc,
  0xa3, 0xee, 0x38, 0xbe, 0x0b, 0x67, 0x32, 0xbd, 0xbf, 0x46, 0xf9, 0xbd,
  0xcf, 0x38, 0x7a, 0xbe, 0x3b, 0xc2, 0x29, 0xbd, 0x68, 0x0f, 0x57, 0x3d,
  0xde, 0x84, 0x54, 0xbc, 0x62, 0x63, 0x13, 0x3e, 0xca, 0xb3, 0xde, 0xbd,
  0x44, 0x1e, 0xc4, 0xbc, 0x15, 0xb4, 0x1b, 0xbe, 0xf4, 0x1d, 0x48, 0x3e,
  0x3e, 0x19, 0x15, 0xbe, 0x83, 0xfc, 0x9b, 0xbd, 0x8f, 0x5e, 0xa3, 0x3d,
  0x34, 0x0b, 0xa7, 0x3c, 0xdb, 0x67, 0xcf, 0xbd, 0x7d, 0x6a, 0x86, 0xbe,
  0xa7, 0x21, 0x84, 0xbe, 0x3b, 0xb3, 0xa8, 0xbe, 0xed, 0x26, 0xa2, 0xbd,
  0xcf, 0x6d, 0x57, 0xbe, 0xdd, 0x5f, 0x8d, 0x3c, 0xb7, 0x46, 0xd5, 0x3d,
  0xb1, 0xfd, 0xd7, 0xbd, 0x35, 0x06, 0x09, 0xbe, 0xe9, 0xae, 0x4b, 0x3b,
  0x60, 0xea, 0x0e, 0xbc, 0x92, 0x00, 0x48, 0xbe, 0x6a, 0x41, 0x98, 0xbd,
  0xca, 0xe7, 0x44, 0x3d, 0xfb, 0x6b, 0x5e, 0xbc, 0xbb, 0xb8, 0xd0, 0xbd,
  0x03, 0x13, 0xcd, 0xbe, 0x41, 0x43, 0xaf, 0xbe, 0x28, 0x36, 0x5f, 0xbe,
  0x7b, 0x09, 0xdc, 0xbd, 0x92, 0xc8, 0x36, 0xbe, 0x4c, 0x61, 0xa4, 0x3c,
  0x65, 0x00, 0x3c, 0x3e, 0xa4, 0x64, 0x51, 0xbd, 0xab, 0x09, 0x1d, 0x3e,
  0x32, 0x78, 0xe4, 0x3c, 0xf3, 0x35, 0x22, 0xbc, 0xec, 0x04, 0xd0, 0x3d,
  0xdd, 0x4c, 0x29, 0x3d, 0x75, 0x87, 0x61, 0x3d, 0x8b, 0xf2, 0x07, 0x3d,
  0xe7, 0x1d, 0xf5, 0x3b, 0x26, 0x85, 0xc5, 0xbc, 0x07, 0x31, 0x70, 0x3d,
  0xfe, 0xbe, 0xb1, 0x3d, 0xb8, 0xf7, 0x91, 0xbc, 0x4f, 0x35, 0xf6, 0x3d,
  0x18, 0x18, 0x38, 0xbb, 0x61, 0x76, 0x23, 0x3e, 0xb7, 0xa9, 0x06, 0x3c,
  0x51, 0x1b, 0xe7, 0xbd, 0x54, 0x70, 0xb8, 0xbe, 0xcd, 0xbd, 0xaf, 0xbe,
  0x94, 0x2f, 0xe6, 0xbc, 0x5f, 0x53, 0x9b, 0xbd, 0xb1, 0xad, 0xbe, 0xbe,
  0x1b, 0xf2, 0xb2, 0x3b, 0x38, 0xf0, 0x87, 0xbe, 0xd3, 0xf8, 0xc6, 0xbe,
  0x4b, 0xb1, 0xce, 0xbe, 0x7e, 0x85, 0x92, 0xbe, 0x1f, 0xc7, 0x15, 0xbe,
  0xc4, 0xa5, 0xbb, 0xbe, 0x17, 0x98, 0x2f, 0x3e, 0xe1, 0xc3, 0x07, 0xbe,
  0xcb, 0x08, 0xbe, 0x3d, 0x72, 0xfc, 0xb1, 0xbe, 0x65, 0xf0, 0x1c, 0xbf,
  0x1e, 0xea, 0x02, 0xbe, 0x43, 0x18, 0x8c, 0xbe, 0xb2, 0x2a, 0xd9, 0xbe,
  0xa2, 0x6b, 0x9e, 0xbe, 0x41, 0x99, 0x82, 0xba, 0x76, 0x7b, 0xd1, 0xbe,
  0x5d, 0xe0, 0xff, 0xbe, 0xfe, 0xd8, 0xf9, 0xbe, 0x03, 0xef, 0xad, 0xbe,
  0x07, 0x6b, 0x97, 0xbd, 0x87, 0x72, 0xb6, 0xbe, 0x6a, 0xfa, 0x51, 0x3d,
  0xe3, 0x57, 0x0e, 0xbd, 0xa5, 0x17, 0x97, 0xbe, 0xb9, 0xad, 0x64, 0xbe,
  0x3c, 0xd6, 0x58, 0xbf, 0xdb, 0xba, 0x20, 0xbe, 0xf0, 0x60, 0x34, 0xbe,
  0xa2, 0xb7, 0xa8, 0xbe, 0x5c, 0xc1, 0xdc, 0xbe, 0xf6, 0x14, 0x0a, 0xbc,
  0x0b, 0x21, 0x33, 0xbd, 0xcb, 0x0e, 0x30, 0xbf, 0x45, 0x64, 0x1b, 0xbf,
  0xce, 0xf4, 0xdc, 0xbd, 0x1f, 0x7f, 0x17, 0xbe, 0xb1, 0x9f, 0x10, 0xbf,
  0x13, 0x26, 0x09, 0x3e, 0x6d, 0x04, 0xe2, 0xbd, 0x29, 0x61, 0x01, 0xbe,
  0xb2, 0x3a, 0xce, 0xbd, 0x5c, 0xa3, 0xe1, 0xbe, 0xf3, 0xf5, 0x5e, 0xbd,
  0x35, 0x33, 0x13, 0xbf, 0xcf, 0x9b, 0x17, 0xbf, 0xb6, 0x69, 0x5b, 0x3e,
  0xdc, 0xf3, 0x16, 0xbc, 0x26, 0xfc, 0x8f, 0x3d, 0xe9, 0xc7, 0x3c, 0xbf,
  0x74, 0x20, 0xfc, 0xbe, 0x3f, 0xb7, 0x2b, 0xbe, 0x02, 0xa5, 0xc8, 0xbe,
  0x10, 0xd1, 0x84, 0xbe, 0x00, 0xf7, 0x8a, 0x3d, 0x2b, 0xe8, 0xfb, 0xbe,
  0x05, 0x1e, 0xb5, 0x3c, 0x29, 0xeb, 0x9b, 0xbe, 0xcf, 0x35, 0xc0, 0x3d,
  0x5c, 0xe3, 0x5d, 0xbd, 0xef, 0x48, 0x1f, 0x3e, 0x76, 0x78, 0x6c, 0xbe,
  0xa2, 0xb4, 0x15, 0x3d, 0x44, 0x9f, 0x8f, 0xbc, 0x47, 0x70, 0x89, 0xbd,
  0xcc, 0x26, 0x1e, 0x3e, 0xa5, 0x08, 0x16, 0x3e, 0xf6, 0x7a, 0x8d, 0x3e,
  0x29, 0xba, 0x8d, 0xbe, 0xd6, 0x8e, 0xb8, 0xbe, 0x5e, 0x51, 0x78, 0x3c,
  0x20, 0xc4, 0x2c, 0x3e, 0x1b, 0x77, 0x2c, 0xbe, 0xa2, 0x85, 0x95, 0x3d,
  0xc8, 0x28, 0xfa, 0x3d, 0xa1, 0x01, 0xfa, 0x3d, 0x12, 0xb3, 0x51, 0x3d,
  0xd3, 0x21, 0x4e, 0x3c, 0x3d, 0x39, 0x27, 0x3d, 0x09, 0xd5, 0x00, 0xbd,
  0xa3, 0xbb, 0x0a, 0x3e, 0x3f, 0x9c, 0xae, 0x3c, 0x28, 0x86, 0x14, 0xbd,
  0xc7, 0x6b, 0x2f, 0xbe, 0x50, 0x68, 0xcd, 0x3d, 0x48, 0x61, 0x41, 0xbe,
  0xf2, 0xd2, 0x8c, 0xbd, 0xba, 0x5b, 0xdd, 0x3c, 0xd7, 0x42, 0x26, 0xbe,
  0x2f, 0x72, 0x49, 0x3e, 0x70, 0xfe, 0x4c, 0x3e, 0xaa, 0x66, 0x91, 0xbb,
  0x67, 0xfb, 0xfe, 0x3c, 0x7d, 0x20, 0x11, 0x3d, 0x2d, 0x35, 0x29, 0x3d,
  0x09, 0x1c, 0x2e, 0xbe, 0x4f, 0x54, 0x10, 0x3b, 0x2d, 0x20, 0x12, 0x3d,
  0x40, 0x48, 0x9c, 0x3d, 0x91, 0xee, 0xc0, 0x3d, 0x8d, 0xe9, 0x43, 0xbc,
  0x62, 0x94, 0x49, 0xbd, 0x47, 0xca, 0xdc, 0xbd, 0xb6, 0xcc, 0xb3, 0x3d,
  0x11, 0x49, 0xa4, 0xbe, 0x3f, 0x84, 0x32, 0x3c, 0x2a, 0xca, 0x0a, 0xbe,
  0x9b, 0x2a, 0x9f, 0xbe, 0x4e, 0xb7, 0x78, 0xbd, 0x83, 0xea, 0x54, 0xbe,
  0x39, 0x6a, 0x00, 0xbe, 0xd0, 0x50, 0xa6, 0x3d, 0x8f, 0x4e, 0x4f, 0xbe,
  0xff, 0xf2, 0xbe, 0x3b, 0x2f, 0x2f, 0x92, 0xbd, 0x30, 0xcd, 0xc2, 0xbd,
  0x69, 0x26, 0x9b, 0x3d, 0x5a, 0x5d, 0xcd, 0x3c, 0xb0, 0xcf, 0x2e, 0x3f,
  0x19, 0x04, 0x1c, 0xbe, 0x0c, 0xc6, 0x68, 0x3d, 0xef, 0xa7, 0xd4, 0xbd,
  0xf0, 0xa7, 0xf2, 0xbe, 0xf8, 0xb4, 0xab, 0xbe, 0x67, 0xd5, 0xaf, 0x3e,
  0xcd, 0x50, 0x2e, 0x3e, 0xa2, 0x39, 0x12, 0xbf, 0xff, 0xb0, 0xce, 0x3c,
  0x2b, 0xd6, 0xd7, 0xbe, 0xf7, 0x2a, 0x4f, 0x3d, 0xd7, 0xbc, 0xce, 0xbe,
  0x9b, 0x2b, 0x9d, 0x3e, 0xbf, 0xa5, 0x75, 0x3c, 0x73, 0x32, 0xcd, 0xbe,
  0x25, 0x30, 0x3f, 0x3f, 0x2e, 0xa5, 0x9c, 0xbe, 0xe1, 0x4c, 0x5d, 0x3e,
  0xba, 0xc1, 0x56, 0x3d, 0xff, 0x56, 0x5b, 0xbe, 0x20, 0x7c, 0xbd, 0xbe,
  0x78, 0x66, 0xb1, 0x3e, 0x51, 0x29, 0xa4, 0x3e, 0x40, 0x2f, 0xe6, 0xbe,
  0x86, 0x29, 0x89, 0x3c, 0x32, 0x97, 0x54, 0xbd, 0xaf, 0xeb, 0xcb, 0x3d,
  0xe6, 0x8a, 0xa2, 0xbe, 0x72, 0x90, 0x53, 0x3e, 0xeb, 0x2b, 0x99, 0x3c,
  0xd2, 0x87, 0x35, 0xbe, 0x13, 0xd0, 0xc5, 0x3e, 0x53, 0x63, 0x70, 0xbd,
  0xda, 0x48, 0xf0, 0x39, 0xde, 0xf0, 0x9d, 0xbb, 0xc8, 0xd7, 0x47, 0xbe,
  0x9c, 0x70, 0x0c, 0xbe, 0x32, 0x1f, 0x4d, 0x3e, 0x99, 0xaa, 0x86, 0x3e,
  0x92, 0x4f, 0xa2, 0xbe, 0xdd, 0xdb, 0x7b, 0x3d, 0x05, 0x01, 0x4b, 0xbe,
  0xed, 0xd8, 0x46, 0x3d, 0xd9, 0x53, 0x07, 0xbe, 0xa7, 0x65, 0x08, 0x3e,
  0xeb, 0x62, 0x3a, 0x3c, 0xc5, 0x29, 0xde, 0xbd, 0x17, 0x96, 0x9e, 0x3e,
  0x6b, 0x30, 0x88, 0xbd, 0xa7, 0x0d, 0xe4, 0xbc, 0xc9, 0x1a, 0x8f, 0x3d,
  0x69, 0x5c, 0x94, 0xbe, 0x5e, 0x53, 0x01, 0xbe, 0x9b, 0x31, 0x84, 0x3e,
  0xdd, 0x84, 0x5e, 0x3e, 0x00, 0xd1, 0x83, 0xbe, 0x98, 0x78, 0xf6, 0x3c,
  0xf2, 0x70, 0x42, 0xbe, 0x6e, 0xae, 0xa2, 0xbc, 0xe0, 0x21, 0xec, 0xbd,
  0xba, 0x00, 0x66, 0x3e, 0x96, 0x2c, 0x07, 0x3d, 0x20, 0x24, 0x2e, 0xbe,
  0xdf, 0x88, 0xa5, 0xbd, 0x54, 0xe7, 0x00, 0xbe, 0xb5, 0xd6, 0xd5, 0xbd,
  0x77, 0x24, 0x72, 0x3d, 0x85, 0x33, 0x16, 0xbf, 0x10, 0x4c, 0x8d, 0xbe,
  0x06, 0xb1, 0x8c, 0x3e, 0x9b, 0xba, 0x88, 0x3e, 0xaa, 0x0d, 0xb8, 0xbe,
  0x65, 0xe1, 0x8f, 0x3d, 0xe9, 0xa1, 0x82, 0xbe, 0xbd, 0x72, 0x05, 0xbd,
  0xcc, 0x0a, 0xc4, 0xbe, 0xd1, 0xfb, 0x74, 0x3e, 0xe6, 0xbd, 0xa7, 0x3c,
  0x05, 0x28, 0x9b, 0xbe, 0x5e, 0x30, 0xe3, 0x3d, 0xc1, 0xee, 0xbc, 0xbe,
  0xd0, 0xb0, 0x1e, 0xbe, 0xa0, 0xb2, 0x46, 0xbe, 0xb2, 0xbb, 0x7a, 0xbd,
  0x57, 0x88, 0xad, 0x3c, 0x9d, 0x24, 0x1b, 0x3e, 0x35, 0xdf, 0x90, 0xbc,
  0x9c, 0x67, 0xa7, 0xbe, 0x7a, 0x88, 0x01, 0x3e, 0x7d, 0x2f, 0x5e, 0x3d,
  0x26, 0x64, 0x0f, 0x3d, 0x61, 0x63, 0xb7, 0xbd, 0x27, 0x2f, 0x9c, 0xbc,
  0x2c, 0x4b, 0xee, 0xbc, 0xeb, 0xa8, 0x96, 0x3c, 0xa3, 0xf4, 0x83, 0x3d,
  0xf8, 0x69, 0xa4, 0x3c, 0x3a, 0x7f, 0x42, 0xbb, 0xd8, 0x0b, 0x54, 0xbd,
  0x18, 0xa9, 0xc7, 0x3d, 0x78, 0x9a, 0x9d, 0xbd, 0x40, 0xf6, 0xc1, 0x3d,
  0x80, 0x73, 0x64, 0x3d, 0x5b, 0xab, 0x93, 0xbd, 0x0b, 0xab, 0xf5, 0x3c,
  0xc3, 0x1d, 0x1c, 0xbd, 0xec, 0x40, 0x14, 0x3e, 0x70, 0x99, 0xbb, 0xbd,
  0x61, 0xf9, 0xbc, 0x3e, 0xc6, 0xd9, 0x84, 0x3d, 0x72, 0x5f, 0x7c, 0xbd,
  0x50, 0x5c, 0xe4, 0x3e, 0xbd, 0x86, 0xb6, 0x3d, 0xa7, 0x8b, 0x84, 0xbc,
  0x4c, 0x4d, 0x9d, 0xbd, 0x33, 0x36, 0x1a, 0xbe, 0xee, 0x60, 0x3a, 0xbe,
  0x36, 0xc7, 0x85, 0x3e, 0x70, 0xcf, 0x44, 0xbe, 0xfe, 0xfe, 0xd9, 0xbd,
  0x26, 0x30, 0xac, 0x3d, 0x45, 0x52, 0xc1, 0xbd, 0xa1, 0xb3, 0x5d, 0xbe,
  0x71, 0xd3, 0xad, 0xbe, 0x10, 0x98, 0x1b, 0xbe, 0x93, 0xd7, 0xef, 0x3b,
  0x01, 0x86, 0x14, 0xbf, 0xe7, 0x9e, 0xb9, 0x3e, 0x1a, 0xfc, 0x8f, 0x3d,
  0x01, 0xda, 0xef, 0x3d, 0x65, 0x98, 0x80, 0x3e, 0x48, 0x56, 0x01, 0xbf,
  0xb3, 0xa4, 0x64, 0x3e, 0xf9, 0x7a, 0x13, 0xbf, 0xa4, 0x3b, 0x35, 0xbe,
  0x4e, 0xe2, 0x16, 0xbd, 0x49, 0xdd, 0x81, 0x3d, 0x12, 0x98, 0x38, 0xbd,
  0x6f, 0x27, 0x8d, 0xbe, 0x90, 0xc1, 0x99, 0xbe, 0x1a, 0xe8, 0x28, 0x3b,
  0xc4, 0x3f, 0x04, 0xbe, 0x11, 0x32, 0xb4, 0xbe, 0x90, 0x11, 0x66, 0x3e,
  0xca, 0xbf, 0x0d, 0xbf, 0x41, 0xbd, 0xa0, 0x3d, 0xea, 0xa2, 0xb2, 0xbd,
  0x29, 0xc0, 0xdd, 0xbe, 0x8d, 0x91, 0x80, 0xbd, 0xe7, 0x7a, 0x8c, 0xbe,
  0x11, 0x68, 0x45, 0x3b, 0x2a, 0x15, 0xfe, 0xbd, 0xd4, 0x6c, 0x4c, 0xbc,
  0x33, 0x91, 0xdf, 0xbd, 0x69, 0x38, 0x7f, 0xbe, 0xe2, 0x87, 0xae, 0xbe,
  0x30, 0x61, 0x39, 0xbd, 0x55, 0x0f, 0xc2, 0xbd, 0xf2, 0x21, 0x12, 0xbe,
  0x39, 0xea, 0x46, 0x3e, 0xe7, 0x43, 0xf2, 0xbe, 0x35, 0x1e, 0xf8, 0x3d,
  0x4d, 0xb3, 0xb7, 0xbd, 0x55, 0xd2, 0xc1, 0x3c, 0x5c, 0xb5, 0x14, 0xbe,
  0x99, 0xb8, 0xe5, 0xbe, 0x4a, 0x2d, 0x1a, 0xbd, 0x2f, 0x25, 0x34, 0xbd,
  0xc7, 0x95, 0x46, 0x3d, 0x5b, 0xef, 0x9a, 0xbd, 0x27, 0x3a, 0x90, 0xbe,
  0x6a, 0x93, 0x36, 0xbe, 0xb3, 0x96, 0x9f, 0xbd, 0xfa, 0xce, 0x0b, 0xbe,
  0xe7, 0x5d, 0x84, 0xbe, 0x5e, 0xe4, 0xbf, 0x3e, 0xb9, 0x50, 0x97, 0xbe,
  0x7a, 0xaf, 0x46, 0xbe, 0x1a, 0x32, 0xbc, 0xbd, 0xcf, 0x6a, 0x70, 0x3c,
  0x3a, 0x2e, 0xf3, 0xbd, 0x5c, 0xbb, 0x9f, 0x3e, 0x0a, 0xa0, 0x18, 0x3e,
  0xc3, 0xc3, 0x28, 0xbd, 0x40, 0x8e, 0x1a, 0x3d, 0x60, 0xa9, 0x40, 0xbd,
  0xed, 0x80, 0x36, 0x3e, 0xf8, 0x91, 0x25, 0xbe, 0x47, 0xda, 0xe0, 0x3d,
  0x94, 0xc4, 0xa2, 0xbc, 0xf4, 0x78, 0xb1, 0xbe, 0x18, 0x0c, 0xe3, 0x3e,
  0xd6, 0x70, 0x38, 0x3c, 0xa9, 0x1e, 0x99, 0xbd, 0xa2, 0x48, 0xe1, 0xbd,
  0xfb, 0xa7, 0xbc, 0xbd, 0x89, 0x56, 0x8c, 0x3d, 0xcc, 0xf1, 0x8c, 0x3c,
  0x2e, 0xd8, 0x58, 0x3d, 0xed, 0x15, 0x73, 0xbd, 0x91, 0x82, 0x25, 0xbc,
  0xd1, 0xa7, 0xc7, 0x3c, 0xd9, 0xcb, 0xe2, 0x3d, 0xa3, 0x0d, 0xe0, 0x3d,
  0x75, 0x35, 0x9d, 0x3e, 0xdc, 0x9c, 0x41, 0x3c, 0x69, 0xef, 0x8a, 0xbe,
  0xe8, 0x65, 0xa1, 0x3d, 0x59, 0x37, 0xc6, 0xba, 0x41, 0xcd, 0xce, 0xbc,
  0x61, 0x9c, 0x86, 0xbd, 0x57, 0x12, 0xf1, 0xbe, 0x54, 0xdc, 0x56, 0x3e,
  0x8c, 0x90, 0xca, 0xbe, 0x43, 0xbd, 0x7f, 0xbd, 0x2e, 0x38, 0x83, 0x3e,
  0x52, 0x48, 0x9f, 0xbd, 0x37, 0x0d, 0x95, 0x3e, 0x34, 0xa0, 0x8e, 0xbe,
  0xa5, 0xeb, 0x8c, 0xbe, 0xd0, 0xaa, 0xd1, 0xbe, 0xcf, 0xb9, 0xa6, 0xbe,
  0x23, 0x86, 0xbe, 0xbe, 0x4c, 0x47, 0x25, 0xbe, 0xf1, 0xf9, 0x19, 0xbe,
  0xcc, 0xce, 0x92, 0x3c, 0x2a, 0x39, 0x8c, 0xbd, 0xf3, 0xbd, 0x64, 0xbe,
  0xc1, 0x7f, 0x92, 0x3e, 0xcf, 0x9d, 0x0c, 0xbe, 0xb0, 0x59, 0x6e, 0x3e,
  0x13, 0x79, 0xf8, 0x3d, 0x4a, 0xa8, 0x86, 0xbb, 0x4a, 0x83, 0x46, 0x3e,
  0xd6, 0xc6, 0x04, 0xbe, 0xc3, 0x1e, 0xcf, 0xbe, 0xb5, 0xcf, 0xbd, 0xbe,
  0x63, 0xe9, 0x58, 0xbe, 0x3f, 0xf1, 0xb4, 0xbe, 0xe4, 0xb0, 0x4b, 0xbe,
  0x8e, 0x8f, 0x28, 0x3e, 0x3d, 0x09, 0x1b, 0x3e, 0x9a, 0x95, 0x3e, 0xbe,
  0x0a, 0x42, 0x86, 0xbe, 0x4d, 0x76, 0x65, 0xbe, 0x1f, 0xe6, 0x1e, 0xbe,
  0x63, 0xce, 0x74, 0xbe, 0xb6, 0xde, 0xaa, 0x3e, 0xe1, 0x45, 0x84, 0x3d,
  0x71, 0xc6, 0x84, 0xbe, 0xe1, 0xd7, 0x46, 0xbe, 0x74, 0xef, 0x6d, 0xbe,
  0x2a, 0xb5, 0x49, 0xbe, 0x36, 0x91, 0x14, 0xbe, 0xb8, 0xca, 0x2e, 0xbd,
  0xdf, 0xc3, 0xbf, 0xbd, 0x6c, 0x76, 0x8a, 0x3e, 0xca, 0xf3, 0x56, 0x3e,
  0x01, 0xdc, 0x18, 0x3d, 0xa3, 0x75, 0xa7, 0xbe, 0xc4, 0xcf, 0x93, 0x3e,
  0xcd, 0xeb, 0xcd, 0xbe, 0xa3, 0x0b, 0x65, 0xbd, 0xde, 0xda, 0x38, 0x3c,
  0xc6, 0xbf, 0x39, 0x3d, 0xfd, 0xe3, 0x12, 0x3e, 0x45, 0x4c, 0x8a, 0xbe,
  0x45, 0xdf, 0x08, 0xbe, 0xff, 0xda, 0xc0, 0xbe, 0xac, 0x8f, 0xd4, 0x3c,
  0x25, 0x3f, 0xf6, 0x3c, 0x20, 0x8c, 0x2b, 0xbe, 0x97, 0xff, 0x4c, 0x3e,
  0x56, 0x9f, 0xce, 0xbd, 0x0b, 0x87, 0x23, 0xbb, 0xe2, 0x39, 0x11, 0xbf,
  0x74, 0x52, 0x15, 0x3e, 0x69, 0xf6, 0xeb, 0xbe, 0x35, 0xe4, 0x79, 0x3d,
  0xf6, 0xc2, 0x93, 0x3e, 0x59, 0x0f, 0x54, 0x3c, 0xea, 0x24, 0x91, 0x3e,
  0x2c, 0x6c, 0x42, 0xbe, 0xfe, 0x43, 0x08, 0xbf, 0x70, 0x5c, 0x8b, 0xbe,
  0xbf, 0xbd, 0x1e, 0x3d, 0x8a, 0x24, 0x4c, 0xbe, 0x7a, 0xb1, 0x55, 0xbe,
  0x48, 0xc6, 0x12, 0x3e, 0xa9, 0x32, 0x33, 0x3d, 0x83, 0xc4, 0x5d, 0xbd,
  0x6f, 0x92, 0xce, 0xbd, 0x66, 0xab, 0x62, 0x3e, 0x51, 0x4d, 0xc0, 0xbe,
  0x33, 0x5c, 0x0a, 0xbc, 0x9b, 0x9d, 0x8c, 0x3e, 0xed, 0x1a, 0x74, 0x3c,
  0x0a, 0xf4, 0x1d, 0x3e, 0xed, 0x07, 0x80, 0xbe, 0x9f, 0x22, 0xb5, 0xbe,
  0x85, 0x0f, 0xa4, 0xbc, 0xe3, 0x04, 0x12, 0xbe, 0x4b, 0xb9, 0xb6, 0xbe,
  0xab, 0x63, 0xdc, 0xbd, 0xcd, 0x37, 0x91, 0x3d, 0xf8, 0x1d, 0xc9, 0xbc,
  0x9e, 0xe2, 0x06, 0x3e, 0x19, 0xa1, 0x98, 0xbd, 0xd6, 0x2a, 0xb1, 0xbc,
  0xf3, 0x22, 0x97, 0xbe, 0xcf, 0x12, 0x5f, 0x3c, 0xb0, 0x5d, 0x68, 0x3e,
  0x5c, 0xc4, 0xde, 0xbd, 0x5d, 0x5b, 0xb1, 0xbd, 0xaa, 0xc8, 0xb2, 0xbe,
  0xb7, 0x0a, 0xe2, 0xbd, 0x85, 0x7e, 0xb4, 0xbe, 0x9e, 0xca, 0x83, 0xbe,
  0x16, 0x69, 0xd0, 0xbe, 0xb2, 0x9a, 0x10, 0xbd, 0x14, 0x8d, 0x3a, 0x3e,
  0x54, 0x22, 0x0a, 0x3e, 0x90, 0xf6, 0x01, 0xbf, 0xaf, 0xf4, 0xca, 0x3b,
  0xbc, 0xe7, 0xf5, 0x3e, 0x7a, 0xa8, 0xba, 0xbd, 0xb7, 0x82, 0x8e, 0xbe,
  0xa1, 0x4d, 0xa3, 0xbe, 0xba, 0x0e, 0xe4, 0xbe, 0xcc, 0x9a, 0xb6, 0x3d,
  0xf1, 0x97, 0x70, 0xbe, 0x61, 0x22, 0xf4, 0xbd, 0x4f, 0xb7, 0x11, 0xbe,
  0x62, 0x44, 0xfd, 0xbe, 0x72, 0x51, 0x98, 0xbe, 0x4d, 0x1c, 0x0a, 0x3d,
  0xce, 0x86, 0x34, 0xbe, 0x47, 0xff, 0xd3, 0x3d, 0x53, 0x25, 0x44, 0xbe,
  0x09, 0xe5, 0xe2, 0xbd, 0x32, 0x34, 0x17, 0x3f, 0x48, 0x51, 0x3f, 0xbe,
  0xeb, 0x1a, 0x5d, 0x3d, 0xff, 0xca, 0xd2, 0xbd, 0x59, 0xd4, 0x90, 0xbe,
  0x8d, 0xd1, 0xee, 0x3d, 0x0e, 0x7d, 0x90, 0xbe, 0x7a, 0x5f, 0x6f, 0xbd,
  0x2e, 0x9b, 0x68, 0x3e, 0x8f, 0x7a, 0x60, 0xbe, 0x2c, 0x55, 0xaf, 0x3d,
  0xfe, 0xfc, 0x8b, 0x3e, 0x44, 0x5a, 0x18, 0xbe, 0xa3, 0xbe, 0x9f, 0x3d,
  0x9e, 0x38, 0xa0, 0x3c, 0x44, 0x24, 0xdf, 0xbc, 0x9f, 0xa9, 0x20, 0x3f,
  0x56, 0xd4, 0x6c, 0xbe, 0xad, 0xa2, 0x23, 0xbe, 0x6f, 0xb6, 0x31, 0x3e,
  0xbc, 0x7f, 0x9f, 0xbe, 0xa0, 0xfd, 0xa3, 0x3c, 0x84, 0x84, 0x80, 0xbe,
  0xb3, 0xd1, 0xf5, 0x3c, 0x97, 0xb6, 0xfe, 0x3d, 0x5a, 0xa2, 0xef, 0xbe,
  0xce, 0xdb, 0xe6, 0xbd, 0x3c, 0xf9, 0x96, 0x3d, 0x73, 0x44, 0x64, 0x3d,
  0x43, 0x92, 0x86, 0xbe, 0x4e, 0x0e, 0x9f, 0xbe, 0xe0, 0x3f, 0xab, 0x3d,
  0x0e, 0x92, 0x08, 0x3f, 0x3e, 0x11, 0x1b, 0xbe, 0xf3, 0x5e, 0x1d, 0xbe,
  0x79, 0x37, 0x4d, 0xbe, 0xd5, 0x9c, 0xaa, 0xbe, 0x84, 0x32, 0xac, 0x3e,
  0x1b, 0x60, 0xae, 0xbe, 0x49, 0x42, 0x26, 0xbe, 0xd5, 0x12, 0xd1, 0xbd,
  0x6d, 0xde, 0xe9, 0xbe, 0xc6, 0xdb, 0xa7, 0x3d, 0x1e, 0x24, 0x13, 0x3e,
  0xa2, 0xb5, 0x06, 0xbe, 0x29, 0x91, 0x39, 0x3c, 0x55, 0x56, 0xbc, 0x3d,
  0x96, 0x50, 0x68, 0xbe, 0xe4, 0x76, 0x32, 0x3e, 0x09, 0xea, 0x41, 0xbe,
  0x51, 0xe5, 0x14, 0x3c, 0xa4, 0x8b, 0xb4, 0xbd, 0x30, 0xc7, 0x4a, 0xbe,
  0x4c, 0x51, 0x6a, 0x3e, 0x7b, 0xb6, 0xa8, 0xbe, 0x82, 0xa0, 0xc3, 0xbd,
  0x62, 0xd6, 0xcc, 0xbd, 0xc2, 0x67, 0x99, 0xbe, 0xf8, 0xd7, 0x8e, 0xbe,
  0xc5, 0xda, 0x59, 0x3c, 0x8c, 0x88, 0x88, 0xbe, 0x85, 0xff, 0xdb, 0xbd,
  0x33, 0x99, 0x0d, 0xbe, 0x72, 0x9d, 0x24, 0xbe, 0x0a, 0x54, 0x74, 0x3f,
  0x9d, 0xb4, 0x22, 0xbe, 0xfd, 0xa1, 0x8d, 0xbe, 0x3f, 0x9d, 0x87, 0xbe,
  0x66, 0x78, 0x51, 0xbe, 0xc7, 0xb7, 0x2e, 0x3e, 0x41, 0x57, 0x0c, 0xbb,
  0xbb, 0x26, 0x97, 0xbb, 0x7f, 0x9c, 0x0d, 0x3e, 0xb3, 0xdf, 0xb1, 0xbe,
  0xa7, 0xeb, 0xfb, 0x3d, 0x36, 0xf7, 0x72, 0xbd, 0xcc, 0x3b, 0x79, 0x3d,
  0xa1, 0xd0, 0x1a, 0xbe, 0xff, 0x1e, 0xd2, 0xbe, 0x16, 0x71, 0xb3, 0xbd,
  0x95, 0x25, 0x82, 0xbe, 0x57, 0x60, 0xd6, 0xbc, 0x7f, 0xc9, 0xa5, 0xbe,
  0x38, 0xe0, 0x8f, 0xbd, 0x6d, 0xc5, 0xb5, 0xbe, 0xca, 0x60, 0xba, 0xbe,
  0x5d, 0x55, 0x5a, 0xbe, 0x38, 0xc7, 0xb3, 0xbe, 0xa4, 0x6c, 0xa1, 0x3d,
  0xe2, 0x28, 0xf1, 0xbe, 0x05, 0x77, 0x82, 0xbd, 0xb6, 0x87, 0x1a, 0xbe,
  0x18, 0x92, 0xbc, 0xbe, 0xf3, 0xb6, 0xbd, 0xbe, 0x8e, 0x21, 0xdd, 0x3c,
  0x46, 0xeb, 0x26, 0xbe, 0x86, 0x75, 0xd9, 0xbe, 0xfd, 0xdd, 0xbb, 0xbe,
  0x5a, 0x5b, 0xa9, 0xbe, 0x29, 0x23, 0x95, 0xbe, 0x23, 0x19, 0x3d, 0xbe,
  0x22, 0x93, 0x6e, 0xbe, 0x07, 0xfa, 0xfb, 0xbc, 0x58, 0x3d, 0xd5, 0xbc,
  0xec, 0xf2, 0x3b, 0x3e, 0x9a, 0x60, 0xaa, 0xbe, 0xa4, 0x60, 0x8d, 0xbe,
  0x8d, 0x18, 0xac, 0x3e, 0x81, 0xb7, 0xae, 0xbe, 0x19, 0x29, 0x4d, 0x3e,
  0x2c, 0x79, 0xbb, 0x3d, 0x23, 0x3d, 0x1b, 0xbe, 0x84, 0x58, 0x81, 0xbd,
  0x6e, 0x02, 0xd5, 0xbd, 0xb7, 0x77, 0x83, 0x3d, 0xce, 0x28, 0xce, 0xbd,
  0x6c, 0x32, 0x58, 0xbe, 0xe4, 0xa7, 0x8a, 0x3d, 0x18, 0x69, 0x2d, 0xbd,
  0x5f, 0x17, 0x70, 0xbd, 0xc5, 0x6c, 0xce, 0x3e, 0x6e, 0xdf, 0xb5, 0xbd,
  0xb8, 0x39, 0x84, 0xbe, 0xb2, 0xde, 0xa9, 0x3e, 0x00, 0xac, 0x04, 0xbe,
  0xa1, 0xda, 0x1b, 0x3e, 0xda, 0x9e, 0x36, 0x3d, 0x36, 0x0c, 0xf1, 0xbd,
  0x45, 0xa8, 0x83, 0x3b, 0x46, 0x90, 0x1e, 0xbe, 0x91, 0x6d, 0x29, 0xbe,
  0xbb, 0xd3, 0xdf, 0x3d, 0xbe, 0xfb, 0x1e, 0x3c, 0x52, 0xe9, 0xff, 0x3d,
  0x63, 0xff, 0x3b, 0xbe, 0xbe, 0xd0, 0x2c, 0x3e, 0xea, 0x90, 0x65, 0x3e,
  0xc1, 0x86, 0x97, 0xbb, 0x1d, 0x22, 0xca, 0xbd, 0xea, 0x37, 0x42, 0x3e,
  0x37, 0x48, 0x9f, 0xbe, 0xcd, 0x44, 0x41, 0xbd, 0xeb, 0x15, 0x2a, 0xbd,
  0x81, 0xfd, 0xdd, 0xbc, 0xf4, 0xa6, 0x84, 0xbe, 0x8c, 0x52, 0x52, 0x3e,
  0x71, 0x83, 0xd4, 0x3c, 0xa5, 0xa3, 0xbd, 0xbc, 0x52, 0xff, 0xe6, 0x3d,
  0x28, 0xab, 0xf6, 0x3d, 0x78, 0xdd, 0x40, 0x3d, 0x83, 0x40, 0xfc, 0xbd,
  0x9e, 0xf6, 0x45, 0x3e, 0xb5, 0x6e, 0x73, 0xbd, 0x69, 0x4c, 0x7c, 0xbe,
  0x11, 0xcc, 0x23, 0x3e, 0xa2, 0x52, 0x59, 0xbe, 0x2f, 0x22, 0xa6, 0x3c,
  0x32, 0xed, 0xfb, 0x3d, 0x8b, 0x5f, 0x6b, 0xbe, 0x6b, 0x94, 0x58, 0xbb,
  0x31, 0x15, 0x2f, 0xbc, 0x2a, 0xd2, 0x17, 0xbd, 0xee, 0xfa, 0x4d, 0xbe,
  0x15, 0x17, 0x49, 0xbe, 0xa5, 0xc4, 0xca, 0x3d, 0x06, 0xf5, 0x9d, 0x3d,
  0x5e, 0xca, 0x02, 0xbc, 0xc8, 0x78, 0x4c, 0x3e, 0xdb, 0x27, 0x46, 0xbd,
  0x30, 0xe4, 0xb7, 0xbc, 0x28, 0x7c, 0xbe, 0x3d, 0x8c, 0x57, 0xac, 0xbe,
  0x3e, 0x10, 0xfd, 0x3b, 0x0a, 0x7b, 0x7a, 0x3d, 0x0c, 0xd0, 0x9e, 0xbe,
  0xcc, 0x67, 0x8a, 0xbd, 0x1b, 0xd3, 0xa6, 0xbd, 0x27, 0x78, 0xb4, 0x3d,
  0xa9, 0x6d, 0x84, 0xbd, 0x60, 0x1e, 0x82, 0xbe, 0x27, 0x25, 0xc4, 0x3d,
  0x14, 0xff, 0xe3, 0x3d, 0x46, 0x79, 0x26, 0xbe, 0x33, 0x77, 0x30, 0x3e,
  0x2e, 0x26, 0x0d, 0xbd, 0x9a, 0x46, 0x3a, 0xbd, 0x9f, 0x98, 0xa0, 0xbd,
  0xc5, 0x21, 0xe8, 0xbe, 0x59, 0x4f, 0x2e, 0x3e, 0xb7, 0x24, 0xb1, 0xbd,
  0x94, 0x29, 0x72, 0xbe, 0x4a, 0xde, 0xab, 0x3d, 0x7b, 0x38, 0x8a, 0xbe,
  0x95, 0x93, 0x5b, 0x3c, 0xda, 0xfa, 0x08, 0xbd, 0x40, 0x65, 0xe5, 0xbd,
  0xbc, 0x34, 0xef, 0xbd, 0x1c, 0x3a, 0xbd, 0x3d, 0xad, 0x34, 0x61, 0xbe,
  0xa8, 0x91, 0x4b, 0x3e, 0x37, 0xcb, 0x29, 0x3d, 0x88, 0x60, 0x41, 0x3d,
  0x2b, 0x8b, 0xc6, 0x3d, 0xbb, 0x53, 0x32, 0xbe, 0xcc, 0x9e, 0x0f, 0xbd,
  0x32, 0xc9, 0x57, 0xbb, 0xf3, 0x1f, 0x42, 0xbe, 0xaa, 0xb4, 0xf4, 0x3d,
  0x1a, 0xa6, 0x0d, 0xbe, 0x20, 0xdd, 0x2e, 0x3c, 0xdc, 0x78, 0x63, 0xbc,
  0xf5, 0x05, 0x93, 0x3c, 0x7b, 0x72, 0xe2, 0x3c, 0x43, 0x87, 0x07, 0xbf,
  0x63, 0x99, 0x60, 0xbe, 0x73, 0x68, 0x01, 0xbe, 0xb6, 0x2a, 0xf6, 0xbd,
  0x89, 0xbd, 0x7d, 0xbd, 0x79, 0x6a, 0x25, 0x3e, 0xfa, 0xc6, 0x6d, 0xbd,
  0xca, 0xee, 0xcc, 0xbb, 0x59, 0xe1, 0x20, 0xbd, 0xbe, 0x87, 0x38, 0xbe,
  0xd6, 0x0d, 0x2d, 0xbc, 0x5b, 0x2e, 0x0a, 0xbd, 0x79, 0x6a, 0x24, 0x3e,
  0x4d, 0xb8, 0xae, 0x3c, 0xd8, 0xb1, 0xb0, 0x3c, 0x2b, 0x8d, 0xb1, 0x3d,
  0x73, 0xd6, 0x78, 0xbe, 0x38, 0x65, 0x2b, 0x3e, 0xf4, 0x06, 0x46, 0x3e,
  0x21, 0x54, 0x3f, 0x3d, 0x17, 0x81, 0x0d, 0xbf, 0x5f, 0x85, 0x12, 0xbd,
  0xb4, 0x28, 0xa0, 0x3c, 0xbe, 0x39, 0x24, 0x3b, 0xb6, 0x1f, 0xab, 0x3d,
  0xb2, 0x19, 0xa3, 0xbe, 0x72, 0x20, 0x98, 0x3d, 0x3c, 0xee, 0x55, 0x3e,
  0x57, 0x23, 0xee, 0x3d, 0xdc, 0x55, 0x24, 0x3e, 0x31, 0x52, 0xaf, 0x3c,
  0x8c, 0x60, 0x5c, 0x3d, 0x6c, 0x97, 0xe2, 0xbe, 0xcb, 0x31, 0x89, 0xbd,
  0x3a, 0x8a, 0xf4, 0x3d, 0x20, 0x60, 0xca, 0x3c, 0xbc, 0x38, 0x0d, 0xbf,
  0x4d, 0x93, 0x64, 0xbd, 0xb6, 0x61, 0x5a, 0x3e, 0xf0, 0x85, 0xd2, 0xbd,
  0xc7, 0x26, 0x70, 0xbd, 0x16, 0xb9, 0x79, 0xbe, 0xd1, 0xa9, 0xd1, 0x3d,
  0x93, 0xa9, 0xb4, 0x3d, 0xb8, 0x13, 0x54, 0x3e, 0x12, 0xba, 0x81, 0x3e,
  0x18, 0xb4, 0x10, 0x3c, 0xaa, 0x3b, 0xea, 0x3d, 0x37, 0xcc, 0x5d, 0xbd,
  0x34, 0xfc, 0x0e, 0xbe, 0x2c, 0x84, 0xb2, 0xbd, 0x56, 0x38, 0xc8, 0xbc,
  0x29, 0xfe, 0x1c, 0xbf, 0x4b, 0x1c, 0x0d, 0xbe, 0x79, 0xa3, 0x5b, 0x3e,
  0xa6, 0xea, 0x14, 0x3e, 0x5f, 0x52, 0xc3, 0x3c, 0x1a, 0x9e, 0xa0, 0xbe,
  0xe5, 0x0e, 0x7a, 0x3e, 0x76, 0x63, 0xd6, 0xbc, 0x14, 0xfb, 0x46, 0x3e,
  0x63, 0x11, 0x76, 0x3e, 0x2e, 0x2f, 0xf6, 0x3c, 0x89, 0x51, 0x56, 0x3c,
  0xac, 0x45, 0xaf, 0xbe, 0x1c, 0x3a, 0x16, 0xbe, 0x86, 0xab, 0xb2, 0xbd,
  0xd2, 0x76, 0x63, 0x3d, 0xd1, 0xda, 0x8a, 0xbe, 0xb8, 0x67, 0x32, 0x3d,
  0x4c, 0xc2, 0x09, 0x3d, 0x0d, 0xb0, 0x66, 0x3e, 0x42, 0x8a, 0xa6, 0x3d,
  0xaf, 0xa3, 0xa8, 0xbe, 0xe7, 0xec, 0x5f, 0x3e, 0x6e, 0x78, 0xbf, 0xbd,
  0x66, 0xd3, 0x50, 0x3d, 0x24, 0x89, 0xe0, 0x3d, 0xdd, 0xbb, 0x1e, 0x3d,
  0x9c, 0xdb, 0x6a, 0x3d, 0x55, 0x40, 0x0d, 0xbf, 0xc5, 0x64, 0xc0, 0xbd,
  0x43, 0xd6, 0xe5, 0xbc, 0x9c, 0x52, 0xad, 0xbd, 0x96, 0x3e, 0xfe, 0xbd,
  0x02, 0xe4, 0xcd, 0x3d, 0x55, 0x70, 0x3f, 0xbc, 0x61, 0xd5, 0x01, 0xbe,
  0xca, 0xbc, 0x37, 0x3d, 0x55, 0x66, 0x33, 0xbe, 0x8c, 0x98, 0x47, 0x3d,
  0x23, 0x62, 0xe8, 0xbd, 0xdc, 0x82, 0xa7, 0x3d, 0x59, 0x0a, 0xa3, 0x3d,
  0x26, 0x6a, 0x04, 0x3d, 0x6c, 0xa7, 0x6c, 0x3d, 0xa7, 0x3e, 0x93, 0xbd,
  0x90, 0x99, 0x54, 0xbe, 0xa7, 0xc4, 0xb4, 0xbd, 0x60, 0x4a, 0xcc, 0xbb,
  0xba, 0x2e, 0x70, 0xbe, 0x4b, 0x1e, 0xda, 0x3d, 0x84, 0x8b, 0x9b, 0x3c,
  0x59, 0xbf, 0xb5, 0x3c, 0x9c, 0x29, 0x5b, 0x3d, 0x06, 0xb1, 0x3e, 0x3d,
  0x5e, 0xa3, 0xa9, 0xbd, 0x7a, 0xd8, 0xf9, 0x3d, 0x2f, 0x23, 0x3c, 0x3e,
  0x12, 0x69, 0xe5, 0xbb, 0xde, 0xa4, 0x41, 0xbe, 0x1b, 0x31, 0x8c, 0xbc,
  0x1c, 0x7f, 0x94, 0x3d, 0xf3, 0x0c, 0x8d, 0x3d, 0xa7, 0x0e, 0xa4, 0x3e,
  0xf6, 0x8e, 0xae, 0x3d, 0xcd, 0x47, 0x8a, 0xba, 0x02, 0x64, 0x91, 0x3d,
  0x95, 0x7e, 0x8e, 0x3d, 0x10, 0x53, 0xa1, 0xbd, 0x91, 0x46, 0x04, 0xbb,
  0x89, 0x71, 0xae, 0x3e, 0x83, 0xb8, 0x77, 0xbd, 0x7c, 0x7c, 0xf2, 0xbe,
  0x01, 0xed, 0xdd, 0xbe, 0x90, 0x9d, 0xa2, 0x3d, 0x92, 0xc4, 0x67, 0xbe,
  0xa8, 0x6a, 0x12, 0xbd, 0xfc, 0x5e, 0xd8, 0xbe, 0x46, 0xba, 0x95, 0x3c,
  0xb0, 0xcb, 0x49, 0xba, 0x80, 0x92, 0x5f, 0xbe, 0xb2, 0xa6, 0xa3, 0x3d,
  0x68, 0x3f, 0x32, 0x3e, 0xf3, 0x8e, 0x21, 0xbf, 0xce, 0xcf, 0x91, 0xbe,
  0x5d, 0xa5, 0x85, 0xbd, 0x46, 0x71, 0xf4, 0xbd, 0xbd, 0xe5, 0xc0, 0xbd,
  0xc2, 0x25, 0x79, 0xbe, 0x2b, 0xa4, 0x65, 0xbe, 0x73, 0x71, 0xd8, 0xbd,
  0xdd, 0xfd, 0xee, 0xbd, 0x2f, 0x82, 0xd6, 0xbd, 0x78, 0x20, 0x84, 0xbe,
  0x17, 0xd8, 0x97, 0xbd, 0x96, 0x24, 0xc9, 0x3d, 0x0e, 0xf7, 0x02, 0xb9,
  0x51, 0x22, 0x27, 0x3b, 0x4d, 0xb3, 0x0a, 0x3e, 0x12, 0xd5, 0xad, 0xbe,
  0x61, 0x80, 0x94, 0xbe, 0x48, 0x52, 0xca, 0xbd, 0xee, 0xfa, 0xfb, 0x39,
  0x30, 0x44, 0x06, 0xbe, 0x14, 0x76, 0x87, 0xbd, 0x17, 0x2f, 0x5b, 0xbe,
  0x81, 0x72, 0x26, 0xbd, 0x6e, 0xe7, 0xaa, 0xbe, 0x50, 0x30, 0x40, 0xbe,
  0x02, 0xb7, 0x39, 0xbe, 0xb2, 0x0d, 0x40, 0x3d, 0xe1, 0x7c, 0x2b, 0x3e,
  0x44, 0xfc, 0xf9, 0x3b, 0x14, 0xa4, 0xf7, 0x3c, 0xa4, 0xf1, 0x13, 0x3e,
  0x25, 0xc0, 0x88, 0xbe, 0x4b, 0x0c, 0x92, 0x3c, 0x78, 0x93, 0x34, 0xbe,
  0x45, 0x77, 0x55, 0x3d, 0x94, 0x55, 0x87, 0x3c, 0x84, 0x5a, 0x6c, 0xbc,
  0xb2, 0x9b, 0x27, 0x3e, 0xc6, 0x40, 0xbe, 0x3c, 0x17, 0x9a, 0x02, 0xbe,
  0x93, 0x2d, 0x47, 0xbd, 0x10, 0x2a, 0xa3, 0xbe, 0x03, 0x6f, 0xdd, 0x3d,
  0xe0, 0x87, 0xd8, 0x3c, 0x89, 0x82, 0xa2, 0x3c, 0xa1, 0x76, 0x3a, 0x3e,
  0x0d, 0x66, 0x87, 0x3c, 0xc6, 0xf3, 0xbe, 0xbe, 0xb4, 0xc3, 0x7c, 0xbd,
  0x46, 0x1a, 0x81, 0x3b, 0xbb, 0x9a, 0x01, 0x3e, 0x84, 0x85, 0x96, 0x3d,
  0x1d, 0xc0, 0x4a, 0xbe, 0x79, 0xb0, 0x4d, 0xbd, 0x21, 0xa0, 0xf0, 0xbc,
  0x32, 0x8c, 0x07, 0xbe, 0x75, 0x9f, 0x30, 0xbe, 0x6d, 0xd7, 0xe3, 0xbe,
  0x16, 0x52, 0x0f, 0xbd, 0x3e, 0xb6, 0x61, 0x3c, 0x63, 0x2c, 0x0f, 0x3d,
  0xf2, 0x26, 0x9a, 0x3e, 0x81, 0x95, 0x3a, 0x3d, 0x29, 0x42, 0x4c, 0xbb,
  0x33, 0xc1, 0x6d, 0x3d, 0x23, 0x3a, 0x9e, 0xbe, 0xd1, 0x60, 0x80, 0xbd,
  0x13, 0xe2, 0x9a, 0xbd, 0x6a, 0xed, 0x0d, 0x3d, 0x75, 0xae, 0xa7, 0x3c,
  0x43, 0x4e, 0x44, 0xbe, 0x05, 0x43, 0x90, 0xbe, 0xfd, 0x20, 0xf6, 0xbd,
  0x4f, 0x81, 0x1c, 0xbe, 0x77, 0x17, 0xde, 0xbd, 0xe4, 0xfc, 0xa6, 0xbd,
  0x82, 0x0e, 0xc8, 0x3c, 0xd0, 0x50, 0x57, 0xbd, 0x84, 0xdd, 0xc7, 0x3d,
  0x87, 0x3a, 0x3b, 0xbd, 0xee, 0x51, 0xf9, 0x3d, 0x34, 0x7f, 0x0a, 0x3d,
  0xe5, 0xf9, 0x89, 0xbe, 0x7c, 0x7b, 0x6c, 0x3e, 0x30, 0x2b, 0xbe, 0xbe,
  0xd7, 0xd8, 0x83, 0xbe, 0xdd, 0x88, 0x29, 0x3e, 0x11, 0x7f, 0x94, 0xbb,
  0xcb, 0x86, 0x0e, 0x3e, 0x46, 0x7e, 0xaa, 0xbe, 0x60, 0xf0, 0xbf, 0xbe,
  0x99, 0xff, 0xc4, 0xbe, 0xea, 0x4d, 0x90, 0xbe, 0x11, 0x0b, 0x40, 0xbf,
  0x82, 0x78, 0x44, 0xbe, 0x04, 0x1a, 0x8c, 0x3c, 0x19, 0x94, 0x1c, 0x3e,
  0xca, 0xa7, 0x33, 0x3d, 0xc5, 0xd8, 0x90, 0xbe, 0xbb, 0x5c, 0x95, 0x3e,
  0x9a, 0xb5, 0xca, 0xbe, 0xf1, 0x9c, 0x79, 0x3e, 0x9b, 0x58, 0xf0, 0x3d,
  0xc5, 0xf0, 0x15, 0xbd, 0x20, 0xde, 0x00, 0x3e, 0x17, 0xd4, 0xae, 0xbe,
  0x34, 0x74, 0xb7, 0xbe, 0x22, 0xbe, 0xed, 0xbe, 0xae, 0xcf, 0x40, 0xbd,
  0xc2, 0xfb, 0xbf, 0xbe, 0xfd, 0x2e, 0x26, 0xbe, 0x3b, 0xf8, 0x8f, 0x3e,
  0xd8, 0x98, 0x39, 0x3d, 0x17, 0x09, 0x8a, 0xbd, 0x87, 0x3e, 0xa8, 0xbe,
  0x22, 0x14, 0x92, 0x3e, 0xb4, 0x60, 0x4f, 0xbe, 0x48, 0x39, 0x2d, 0x3e,
  0x9a, 0x93, 0x57, 0x3e, 0xfa, 0xb4, 0xa2, 0xbd, 0xe0, 0x08, 0x8f, 0x3e,
  0xb9, 0x60, 0x03, 0x3e, 0x8e, 0xb6, 0x71, 0xbe, 0x00, 0x94, 0xb0, 0xbe,
  0x6f, 0x3d, 0x4f, 0x3c, 0x75, 0xef, 0xd6, 0xbe, 0xaf, 0x5d, 0xeb, 0xbd,
  0xde, 0x7e, 0x78, 0x3e, 0x3c, 0x52, 0x81, 0xbe, 0x61, 0xa4, 0x92, 0x3d,
  0x27, 0x86, 0xd2, 0xbe, 0xc4, 0x52, 0x59, 0x3e, 0xd9, 0x67, 0xaf, 0xbe,
  0x1d, 0x66, 0xf9, 0x3d, 0x77, 0x5b, 0x6d, 0x3e, 0x2c, 0xd8, 0x36, 0xbc,
  0xb0, 0x4d, 0x87, 0x3d, 0xa6, 0x65, 0x00, 0x3d, 0x74, 0xce, 0x38, 0xbe,
  0xa2, 0x64, 0x7f, 0xbe, 0x39, 0xf0, 0xd7, 0xbd, 0x91, 0x41, 0x35, 0xbe,
  0x90, 0x4b, 0xba, 0x3b, 0x95, 0x93, 0x7f, 0x3e, 0x86, 0x07, 0xda, 0x3d,
  0xac, 0x48, 0x32, 0xbd, 0x37, 0xea, 0xbc, 0xbe, 0xc0, 0x51, 0x61, 0x3e,
  0x16, 0x78, 0x17, 0xbe, 0xd7, 0xae, 0x16, 0x3e, 0xe9, 0x37, 0x8f, 0x3e,
  0x1e, 0x43, 0xea, 0x3b, 0xe7, 0xb7, 0x81, 0x3e, 0xd3, 0x8f, 0x9d, 0xbe,
  0x69, 0x93, 0x14, 0xbe, 0xbf, 0xb0, 0x69, 0xbe, 0xb7, 0x47, 0x3f, 0xbd,
  0xcc, 0x04, 0x7b, 0xbd, 0xdd, 0xda, 0xdb, 0x3c, 0x2f, 0x49, 0x69, 0x3e,
  0x90, 0xf0, 0x68, 0xbd, 0x2f, 0xe8, 0x8a, 0xbd, 0xa3, 0x34, 0x12, 0xbf,
  0xf5, 0xad, 0xbe, 0x3e, 0x29, 0xca, 0x22, 0xbf, 0xda, 0x21, 0x15, 0xbe,
  0x8e, 0x75, 0xc0, 0x3e, 0xf2, 0xf2, 0x1a, 0x3d, 0x1f, 0x35, 0x24, 0x3e,
  0x14, 0x78, 0x8f, 0xbe, 0x34, 0xec, 0x06, 0xbf, 0xdd, 0x54, 0xaf, 0xbe,
  0xa2, 0x23, 0x2c, 0xbe, 0x76, 0x01, 0x85, 0xbe, 0x31, 0x5c, 0x75, 0xbc,
  0xaf, 0xfc, 0x3b, 0x3e, 0x7f, 0x09, 0x9c, 0x3d, 0x73, 0x03, 0x6b, 0x3d,
  0x7f, 0x46, 0x56, 0xbd, 0xbc, 0xe6, 0xa3, 0x3c, 0xbf, 0x7a, 0x9d, 0xbe,
  0x2d, 0xd1, 0x92, 0x3d, 0x29, 0x65, 0x91, 0xbe, 0x2d, 0x05, 0xc0, 0x3c,
  0x38, 0xdf, 0x0c, 0x3d, 0x7d, 0x11, 0x51, 0xbe, 0x3c, 0x85, 0x9a, 0xbe,
  0x72, 0xb2, 0xbc, 0xbe, 0xc4, 0x85, 0xc2, 0xbd, 0xd9, 0x9f, 0xa1, 0xbb,
  0x6e, 0x4c, 0xc5, 0xbc, 0x8b, 0xf3, 0xed, 0x3d, 0x1f, 0x2d, 0x27, 0x3e,
  0x28, 0x7b, 0x72, 0xbe, 0x03, 0x03, 0x2b, 0x3e, 0x03, 0x0a, 0x1e, 0xbd,
  0x04, 0x4a, 0x91, 0x3e, 0x7b, 0x7d, 0x2b, 0x3d, 0x25, 0xf5, 0x2a, 0xbe,
  0xa6, 0xd8, 0x75, 0xbe, 0xd4, 0x67, 0x3e, 0xbe, 0xd8, 0xe2, 0x83, 0x3e,
  0x36, 0xd0, 0x72, 0xbd, 0xe9, 0x01, 0x3b, 0x3c, 0xa2, 0x7d, 0xba, 0xbd,
  0x1d, 0xf5, 0xb0, 0xbe, 0xfa, 0x1b, 0x6a, 0x3e, 0xe0, 0x92, 0x85, 0x3d,
  0x91, 0xae, 0x6f, 0x3e, 0xaa, 0xaa, 0x1d, 0x3e, 0x36, 0x52, 0x2a, 0xbf,
  0x7c, 0x65, 0x5a, 0xbe, 0xb2, 0xd6, 0xf3, 0x3d, 0xc4, 0x26, 0xb8, 0xbe,
  0xb1, 0x0c, 0xf4, 0x3c, 0x5f, 0x5a, 0x5a, 0xbe, 0x12, 0x05, 0x1d, 0xbd,
  0x01, 0x29, 0x0a, 0xbf, 0xd4, 0xfc, 0x13, 0xbf, 0x00, 0x5c, 0xdc, 0xbe,
  0x71, 0xcb, 0x04, 0xbe, 0x72, 0x46, 0x39, 0xbf, 0x35, 0xba, 0x2f, 0x3e,
  0x37, 0xab, 0x97, 0xbd, 0x31, 0xdd, 0x59, 0x3e, 0xb7, 0xdc, 0x02, 0xbe,
  0xc2, 0x51, 0x6c, 0xbf, 0x9a, 0x43, 0x9f, 0xbc, 0xba, 0xb5, 0x40, 0xbe,
  0x70, 0x51, 0x21, 0xbe, 0x26, 0x27, 0x26, 0xbe, 0xf2, 0x89, 0xc1, 0xbd,
  0xab, 0x3c, 0xa2, 0xbc, 0x64, 0x75, 0x1b, 0xbf, 0x98, 0xf2, 0x07, 0xbf,
  0xf7, 0x70, 0x0c, 0xbe, 0x38, 0x9e, 0xb8, 0xbe, 0x3c, 0x79, 0x35, 0xbf,
  0x3a, 0x17, 0x4e, 0x3e, 0x7c, 0x98, 0x01, 0xbf, 0x0b, 0x2e, 0x04, 0x3d,
  0x88, 0x6c, 0x03, 0xbf, 0x5a, 0xab, 0xf7, 0xbd, 0xe3, 0x65, 0x62, 0xbe,
  0xb2, 0x0f, 0x90, 0xbe, 0x14, 0x1e, 0xa9, 0xbe, 0x5c, 0x69, 0x6f, 0x3d,
  0x61, 0x79, 0xff, 0xbc, 0xa6, 0x25, 0x86, 0x3d, 0xba, 0x0b, 0xf0, 0xbe,
  0x2f, 0x72, 0x24, 0xbe, 0x90, 0xb3, 0x4d, 0x3e, 0x2b, 0x07, 0x03, 0xbf,
  0x30, 0x8a, 0xf9, 0xbe, 0xac, 0x30, 0x98, 0x3e, 0x91, 0x97, 0x34, 0xbf,
  0x70, 0xef, 0x21, 0xbe, 0xc9, 0x71, 0x00, 0xbe, 0x46, 0x27, 0xfe, 0x3d,
  0x3d, 0xc5, 0x7b, 0xbe, 0xda, 0x92, 0x85, 0x3e, 0x26, 0x7f, 0x06, 0xbe,
  0xd2, 0x5d, 0xcc, 0xbe, 0x98, 0xef, 0x2e, 0xbd, 0x78, 0xa4, 0xc0, 0xbc,
  0xb7, 0x00, 0x6a, 0x3e, 0x60, 0x7b, 0xf4, 0x3d, 0xde, 0x04, 0x77, 0x3e,
  0x16, 0x14, 0x2e, 0xbe, 0x77, 0xe8, 0x51, 0xbe, 0xae, 0x92, 0x8f, 0x3e,
  0xbd, 0xf6, 0x15, 0x3e, 0xa9, 0x73, 0xf6, 0xbd, 0x95, 0xb8, 0x8a, 0xbd,
  0x44, 0xc7, 0x0e, 0x3e, 0xdc, 0xad, 0x71, 0xbe, 0x4e, 0x90, 0x88, 0x3d,
  0xc6, 0xb6, 0x36, 0xbe, 0x96, 0x96, 0x36, 0xbc, 0xe5, 0x13, 0xcf, 0xbc,
  0xaf, 0x78, 0xc9, 0x3d, 0xdb, 0x9e, 0x83, 0x3e, 0x2b, 0x44, 0xbe, 0x3d,
  0x93, 0xb7, 0x2a, 0xbd, 0x81, 0x05, 0xb9, 0x3d, 0x1e, 0x70, 0x22, 0xbd,
  0xa7, 0x80, 0x5d, 0xbe, 0x66, 0x47, 0xe0, 0x3d, 0x06, 0xce, 0x2f, 0xbd,
  0x17, 0x7f, 0xcb, 0xbd, 0xc2, 0xba, 0x83, 0x3d, 0xf8, 0xf5, 0xda, 0xbc,
  0xf0, 0xc2, 0x3e, 0x3e, 0xc0, 0x42, 0x3b, 0xbd, 0x15, 0xc5, 0xf3, 0xbb,
  0x57, 0xac, 0x94, 0xbe, 0x00, 0x08, 0x3c, 0xbc, 0xa1, 0x7c, 0x89, 0x3d,
  0xf8, 0x4d, 0x92, 0x3c, 0x23, 0xb4, 0x99, 0x3e, 0x4a, 0x00, 0x27, 0x3c,
  0xc8, 0xc0, 0xca, 0xbd, 0x61, 0x68, 0xb4, 0xbe, 0x56, 0xc1, 0x48, 0xbd,
  0x5c, 0x8d, 0xfe, 0xbc, 0x4a, 0x3c, 0x8a, 0xbd, 0x2d, 0x0b, 0x05, 0x3e,
  0x6e, 0xe2, 0x42, 0x3e, 0x5e, 0x3f, 0xe6, 0xbd, 0xeb, 0xe0, 0xb5, 0xbe,
  0x61, 0xf5, 0xca, 0xbd, 0xe0, 0x91, 0xad, 0xbc, 0x4e, 0xa1, 0x32, 0x3d,
  0x86, 0x67, 0xd0, 0xbd, 0x70, 0x0d, 0xcf, 0x3d, 0x74, 0xd1, 0x98, 0x3e,
  0x97, 0x72, 0x4c, 0xbd, 0xb0, 0xb7, 0x0a, 0xbe, 0x4e, 0x7a, 0x17, 0xbf,
  0x40, 0xa1, 0x9c, 0x3c, 0xa7, 0x01, 0x88, 0x3e, 0x4f, 0x8c, 0xfa, 0x3c,
  0xb3, 0xd0, 0x1f, 0x3f, 0xae, 0x83, 0xa4, 0x3d, 0x4f, 0xd3, 0x23, 0xbe,
  0x4f, 0x73, 0xa4, 0xbe, 0x3a, 0x87, 0xe1, 0xbd, 0xc8, 0x6c, 0x17, 0x3d,
  0x02, 0x7f, 0x2a, 0x3d, 0x51, 0xf5, 0xbf, 0x3c, 0xac, 0x04, 0xdb, 0x3e,
  0x18, 0x23, 0x24, 0x3e, 0xe1, 0x26, 0x9b, 0x3d, 0x08, 0xc9, 0x4d, 0x3e,
  0x18, 0xda, 0x8a, 0xbe, 0x17, 0x11, 0xb4, 0x3c, 0x72, 0x86, 0xb9, 0xbc,
  0xd1, 0xca, 0xf2, 0xbd, 0x20, 0xa8, 0x9e, 0x3e, 0x7c, 0x83, 0xaa, 0x3e,
  0xc9, 0x3e, 0xe9, 0xbd, 0x34, 0x81, 0x29, 0xbe, 0x4c, 0x52, 0xa4, 0xbd,
  0xe4, 0xe0, 0xaf, 0x3c, 0x7f, 0xe0, 0x23, 0x3e, 0xf7, 0xac, 0xb1, 0xbc,
  0x31, 0xc4, 0xe0, 0x3e, 0xcc, 0xe8, 0x7e, 0x3d, 0x78, 0x90, 0xc5, 0xbb,
  0x25, 0x52, 0xd3, 0x3d, 0x9f, 0xa4, 0x0e, 0xbf, 0x8b, 0x09, 0x17, 0x3e,
  0xc5, 0x3c, 0xe4, 0x3d, 0xb3, 0xf7, 0x23, 0xbe, 0x57, 0x7b, 0x91, 0x3e,
  0x30, 0xa5, 0x14, 0xbe, 0x97, 0x07, 0x75, 0xbe, 0xe2, 0x3b, 0x2f, 0xbe,
  0x81, 0x09, 0x16, 0x3e, 0x10, 0x10, 0x0a, 0xba, 0xa5, 0xdb, 0x21, 0x3e,
  0x34, 0x66, 0x00, 0xbe, 0xd3, 0x93, 0x04, 0x3e, 0xf0, 0x33, 0x27, 0xbe,
  0x1d, 0x58, 0x0f, 0xbe, 0x36, 0xb3, 0x0f, 0x3e, 0x78, 0xed, 0xa1, 0xbe,
  0x0f, 0x0d, 0xce, 0xbc, 0x24, 0xa1, 0x3b, 0x3e, 0x7f, 0x91, 0x0f, 0x3e,
  0xc3, 0x21, 0x8d, 0x3e, 0x23, 0xdb, 0x11, 0xbd, 0xd2, 0xe4, 0x00, 0xbe,
  0x6c, 0x07, 0xaa, 0xbe, 0xac, 0xe6, 0x7e, 0xbd, 0x40, 0x79, 0xa5, 0xbd,
  0xe8, 0x8d, 0xe5, 0xbc, 0x14, 0xcf, 0x29, 0x3e, 0xb7, 0x2d, 0x34, 0x3e,
  0x2e, 0x60, 0xaa, 0x3c, 0x80, 0x26, 0x44, 0xbc, 0x7f, 0x05, 0xf8, 0x3d,
  0x4a, 0x79, 0x84, 0xbe, 0x88, 0x25, 0xe8, 0x3c, 0x5e, 0x5f, 0x2e, 0x3e,
  0xe0, 0x8e, 0x83, 0xbd, 0x6b, 0xdf, 0x79, 0x3e, 0x24, 0x77, 0x94, 0xbe,
  0xd1, 0xa8, 0x61, 0xbe, 0xfa, 0xc4, 0x99, 0xbe, 0x24, 0x72, 0xf7, 0x3c,
  0xba, 0xb7, 0xd4, 0xbc, 0x79, 0xb1, 0x06, 0xbe, 0x32, 0xb0, 0xce, 0x3d,
  0xcb, 0x24, 0x89, 0x3e, 0x80, 0x96, 0x9e, 0x3c, 0xf5, 0xff, 0xbd, 0x3d,
  0x41, 0x29, 0x94, 0x3e, 0x3a, 0x04, 0x8e, 0x3b, 0x63, 0x81, 0x77, 0x3c,
  0x8a, 0x65, 0x1a, 0x3d, 0x22, 0x7d, 0x50, 0xbe, 0x0b, 0x77, 0xc0, 0x3d,
  0x9c, 0xed, 0xc8, 0xbe, 0x2e, 0x01, 0x78, 0xbd, 0x55, 0x7a, 0xbf, 0xbd,
  0xe7, 0x68, 0xad, 0xbe, 0x43, 0x63, 0x2a, 0xbd, 0x21, 0x71, 0xbe, 0xbe,
  0x01, 0x9e, 0x4f, 0xbd, 0x1d, 0x41, 0x06, 0x3e, 0x46, 0x73, 0x6a, 0x3e,
  0x7b, 0x91, 0x08, 0x3e, 0xdb, 0x6b, 0x16, 0x3e, 0xe3, 0xad, 0xaf, 0x3d,
  0x7f, 0x2b, 0x95, 0xbd, 0xb6, 0x92, 0x88, 0x3e, 0x61, 0x42, 0x9b, 0xbe,
  0x89, 0x48, 0xc3, 0xbe, 0x55, 0xcb, 0xb2, 0x3e, 0x3b, 0xec, 0x73, 0xbe,
  0x77, 0xdc, 0xa0, 0xbe, 0x40, 0x7c, 0x86, 0xbe, 0xc3, 0xfc, 0xdd, 0x3c,
  0xb9, 0x6a, 0xd0, 0x3d, 0xcc, 0x93, 0xa6, 0xbd, 0x52, 0xf8, 0xbf, 0xbe,
  0xe5, 0x42, 0x17, 0xbe, 0x86, 0x5e, 0xe7, 0xbe, 0xe3, 0x4c, 0x88, 0xbd,
  0x28, 0x09, 0x0e, 0x3e, 0x5d, 0xd0, 0x46, 0xbe, 0x6e, 0xd4, 0x4a, 0xbd,
  0x15, 0x51, 0x61, 0xbe, 0xd1, 0xdd, 0x40, 0xbe, 0x33, 0x1d, 0xe4, 0x3e,
  0x2a, 0x8c, 0xbf, 0x3d, 0xe7, 0x44, 0xf6, 0xbd, 0x90, 0x1d, 0x0e, 0x3e,
  0x9d, 0x05, 0x65, 0xbe, 0x36, 0xb3, 0x3a, 0x3e, 0x7e, 0x27, 0x43, 0xbe,
  0x1c, 0xa6, 0xe7, 0xbd, 0xff, 0xcf, 0xf4, 0xbd, 0xd4, 0x36, 0x90, 0xbe,
  0x38, 0x84, 0xe1, 0xbd, 0x7e, 0x25, 0x83, 0x3d, 0x91, 0x99, 0x22, 0x3e,
  0x8b, 0x30, 0x9c, 0xbd, 0x3e, 0x9b, 0x11, 0xbe, 0xf6, 0x34, 0x0a, 0xbe,
  0x04, 0x1d, 0xd0, 0x3e, 0x66, 0x94, 0x45, 0xbe, 0x95, 0x2f, 0x0e, 0xbe,
  0x22, 0x07, 0x60, 0xbe, 0x41, 0x84, 0x2a, 0xbe, 0x73, 0x72, 0x20, 0x3e,
  0x42, 0xb7, 0xe1, 0xbd, 0x26, 0xb5, 0x2c, 0xbe, 0x26, 0x6d, 0x47, 0x3c,
  0xa1, 0xb3, 0xca, 0xbd, 0xe7, 0xb9, 0x9b, 0xbe, 0xff, 0xf2, 0xac, 0x3b,
  0xf3, 0xa0, 0x96, 0x3e, 0xe7, 0xa9, 0x2d, 0xbe, 0x13, 0x66, 0x26, 0xbe,
  0x98, 0x27, 0x3a, 0xbe, 0xc9, 0x65, 0xdb, 0x3e, 0xbd, 0xe3, 0x46, 0x3d,
  0x1f, 0x45, 0x9a, 0xbe, 0x38, 0xa6, 0x7b, 0x3d, 0x66, 0x25, 0x85, 0xbe,
  0x05, 0x83, 0x34, 0x3e, 0x21, 0x43, 0x6a, 0xbc, 0x43, 0x5d, 0x69, 0xbe,
  0xe0, 0xed, 0xb6, 0xbc, 0xac, 0x99, 0xba, 0xbe, 0x7c, 0x37, 0xbb, 0xbe,
  0x4a, 0xf4, 0x11, 0x3e, 0xfb, 0x79, 0x0f, 0x3c, 0xf8, 0x72, 0xd0, 0x3d,
  0x5f, 0x33, 0xb8, 0xbd, 0xf3, 0x41, 0x60, 0xbc, 0x36, 0xb0, 0xbd, 0x3e,
  0xe8, 0x21, 0x6c, 0xbe, 0x49, 0x7c, 0xde, 0xbc, 0x87, 0x95, 0xa7, 0x3e,
  0xf4, 0x7f, 0xd7, 0xbe, 0x29, 0x20, 0xf8, 0x3d, 0x1e, 0x72, 0x25, 0xbe,
  0xe1, 0x3b, 0xbf, 0xbd, 0x16, 0x5b, 0x24, 0x3d, 0x46, 0x86, 0xd0, 0xbe,
  0xed, 0xff, 0x18, 0xbe, 0xb4, 0xe4, 0xc4, 0x3d, 0xa0, 0xc0, 0x51, 0xbe,
  0x7d, 0x1e, 0x1e, 0xbe, 0xfc, 0x18, 0x1a, 0x3d, 0x10, 0x28, 0x70, 0xbd,
  0xc5, 0x3f, 0xd5, 0x3e, 0x52, 0x5b, 0x16, 0xbe, 0x68, 0xaa, 0x0a, 0x3e,
  0x64, 0xa8, 0x94, 0x3e, 0x6b, 0xf9, 0x21, 0xbe, 0x91, 0x79, 0x4b, 0x3e,
  0xb7, 0xc5, 0xce, 0xbc, 0x20, 0x10, 0x6d, 0xbe, 0x92, 0x05, 0x37, 0xbe,
  0x74, 0x63, 0xa1, 0xbe, 0x34, 0xee, 0x80, 0xbe, 0xef, 0x26, 0xdd, 0x3c,
  0xa5, 0x9c, 0x2c, 0x3e, 0xe7, 0x19, 0x1d, 0xbe, 0x42, 0x8c, 0xc5, 0xbe,
  0x85, 0xf3, 0xc0, 0xbc, 0x43, 0x91, 0x2f, 0xbe, 0x0f, 0x82, 0x37, 0xbd,
  0x0b, 0x04, 0x70, 0xbe, 0xf8, 0xff, 0xb5, 0xbe, 0x66, 0x5a, 0x5a, 0xbe,
  0x47, 0xa4, 0x65, 0xbe, 0x6f, 0xcb, 0x0c, 0xbe, 0x5b, 0xab, 0x01, 0xbd,
  0xac, 0x3a, 0x1d, 0xbe, 0x60, 0xf7, 0x9c, 0xbe, 0xab, 0x5e, 0x89, 0xbe,
  0x5b, 0x7f, 0x0a, 0xbe, 0x86, 0x1e, 0x89, 0x3c, 0xcd, 0xc0, 0x02, 0xbe,
  0xdf, 0xfa, 0x9a, 0xbe, 0x41, 0xda, 0x83, 0xbe, 0x48, 0xb3, 0x79, 0xbd,
  0x3d, 0xb9, 0xde, 0x3d, 0x90, 0x6c, 0xbd, 0xbd, 0x4c, 0xa0, 0xe8, 0xbd,
  0xef, 0x9c, 0x33, 0xbe, 0x2a, 0xc5, 0xb8, 0xbe, 0xe5, 0x9a, 0x96, 0xbe,
  0x89, 0xe9, 0xe4, 0xbe, 0xf5, 0xde, 0x85, 0x3d, 0x83, 0x9c, 0xb3, 0xbe,
  0x1e, 0xb0, 0x8d, 0xbe, 0x67, 0x0a, 0x90, 0x3d, 0xdf, 0x1f, 0x49, 0xbe,
  0xa5, 0x42, 0x1f, 0xbe, 0xd5, 0x46, 0x17, 0xbe, 0xda, 0xbb, 0xc0, 0xbe,
  0xf3, 0x1e, 0xcf, 0xbd, 0x97, 0x55, 0x0f, 0xbe, 0xd2, 0xc3, 0x14, 0xbd,
  0xb5, 0x0a, 0x05, 0xbe, 0x2d, 0x52, 0x16, 0xbd, 0xb9, 0x68, 0x9f, 0xbe,
  0x29, 0xc7, 0xa6, 0xbe, 0x1c, 0xc6, 0x6f, 0xbe, 0x06, 0x77, 0x8c, 0xbd,
  0x83, 0xbd, 0x3c, 0xbe, 0xf3, 0xa2, 0xf9, 0xbe, 0x9b, 0x9a, 0x9f, 0x3e,
  0x1b, 0x57, 0x14, 0x3d, 0x8b, 0x13, 0xa6, 0xbd, 0x3d, 0x4f, 0x86, 0xbe,
  0x62, 0x2a, 0xdf, 0xbe, 0x0f, 0x93, 0xfa, 0xbd, 0x43, 0x11, 0x22, 0xbd,
  0xfb, 0xd6, 0x84, 0xbe, 0x9c, 0x8b, 0x59, 0xbe, 0x12, 0xbb, 0x22, 0xbe,
  0xee, 0x12, 0x4c, 0xbe, 0x1a, 0x06, 0xaf, 0xbe, 0xa3, 0xa5, 0x82, 0xbe,
  0x10, 0x41, 0x81, 0xbd, 0x8c, 0x36, 0xc0, 0xbe, 0x66, 0xc0, 0xb2, 0xbe,
  0x35, 0x13, 0x6a, 0xb9, 0x6e, 0x4f, 0x8e, 0xbe, 0x87, 0xd4, 0x45, 0xbe,
  0x26, 0x98, 0xbf, 0xbe, 0x62, 0x8f, 0x0e, 0xbf, 0x31, 0x0e, 0x85, 0x3d,
  0x84, 0x26, 0xb2, 0xbe, 0x4e, 0x44, 0x4d, 0xbe, 0xfb, 0x3b, 0x0f, 0xbe,
  0x31, 0xf5, 0x82, 0x3d, 0x01, 0x7f, 0x26, 0xbe, 0x80, 0x7b, 0x00, 0xbf,
  0xe2, 0x1c, 0x28, 0xbe, 0xe2, 0xa6, 0xb7, 0xbd, 0x76, 0x34, 0xc0, 0xbe,
  0x83, 0x91, 0xd2, 0xbe, 0x8e, 0x4a, 0x9a, 0x3d, 0x52, 0x89, 0x6d, 0x3d,
  0x9d, 0x41, 0x80, 0xbe, 0xe4, 0xf4, 0x00, 0xbf, 0x1a, 0x40, 0x5c, 0x3e,
  0x59, 0x9a, 0x0c, 0x3e, 0x1c, 0x45, 0x0a, 0xbd, 0xe4, 0x95, 0xa6, 0xbd,
  0x22, 0xde, 0x43, 0x3d, 0xcb, 0x54, 0x52, 0xbe, 0xe2, 0x98, 0x93, 0x3e,
  0x1b, 0x9d, 0x55, 0xbe, 0x05, 0xf3, 0xc7, 0xbd, 0xd3, 0x81, 0x76, 0x3e,
  0x63, 0x52, 0xc7, 0xbe, 0xde, 0xcf, 0x13, 0x3d, 0x2f, 0x7d, 0x27, 0x3e,
  0x6f, 0xcb, 0xdc, 0xbd, 0x89, 0xb8, 0x46, 0x39, 0x63, 0xcd, 0x9f, 0xbd,
  0x6c, 0xc2, 0x4f, 0x3c, 0xd3, 0x5f, 0x67, 0xbe, 0x55, 0xd9, 0x49, 0x3e,
  0xf3, 0x0a, 0xc4, 0x3c, 0x70, 0xb8, 0x12, 0x3e, 0xe2, 0xa3, 0x9c, 0xbe,
  0x6e, 0xf0, 0x19, 0xbe, 0x2f, 0x27, 0xe7, 0x3d, 0x39, 0x50, 0x35, 0x3d,
  0x3e, 0x47, 0x93, 0x3d, 0x54, 0x5f, 0x17, 0x3e, 0x02, 0x1c, 0xf6, 0x3c,
  0xc7, 0x67, 0x8b, 0xbe, 0x67, 0x4b, 0x56, 0x3d, 0x6b, 0x95, 0x2b, 0x3c,
  0xbb, 0xd3, 0x49, 0x3d, 0xd1, 0x2e, 0xbc, 0xbe, 0x9a, 0x81, 0xa5, 0xbd,
  0x9d, 0x21, 0x88, 0xbe, 0x30, 0xc8, 0x44, 0xbe, 0xe2, 0xb5, 0x1d, 0x3d,
  0x83, 0x5c, 0x03, 0xbe, 0x27, 0x06, 0xaa, 0x38, 0x6d, 0x4b, 0x10, 0xbe,
  0x33, 0xce, 0xa7, 0xbd, 0xee, 0x64, 0x43, 0x3d, 0xe7, 0x3a, 0x3c, 0xbe,
  0xb8, 0x44, 0x54, 0xbe, 0xc4, 0xb6, 0xb5, 0xbe, 0xfd, 0x4a, 0x40, 0xbe,
  0xd6, 0xd0, 0x9f, 0xbe, 0x62, 0xfd, 0xff, 0xff, 0x10, 0x00, 0x00, 0x00,
  0x07, 0x00, 0x00, 0x00, 0x14, 0x00, 0x00, 0x00, 0x2c, 0x00, 0x00, 0x00,
  0x02, 0x00, 0x00, 0x00, 0x10, 0x00, 0x00, 0x00, 0x70, 0x00, 0x00, 0x00,
  0x17, 0x00, 0x00, 0x00, 0x73, 0x65, 0x71, 0x75, 0x65, 0x6e, 0x74, 0x69,
  0x61, 0x6c, 0x2f, 0x64, 0x65, 0x6e, 0x73, 0x65, 0x2f, 0x4d, 0x61, 0x74,
  0x4d, 0x75, 0x6c, 0x00, 0xcc, 0xfc, 0xff, 0xff, 0xd6, 0xfd, 0xff, 0xff,
  0x04, 0x00, 0x00, 0x00, 0x08, 0x00, 0x00, 0x00, 0xff, 0xff, 0xff, 0xff,
  0x70, 0x00, 0x00, 0x00, 0x00, 0x00, 0x0e, 0x00, 0x18, 0x00, 0x08, 0x00,
  0x07, 0x00, 0x0c, 0x00, 0x10, 0x00, 0x14, 0x00, 0x0e, 0x00, 0x00, 0x00,
  0x00, 0x00, 0x00, 0x02, 0x10, 0x00, 0x00, 0x00, 0x06, 0x00, 0x00, 0x00,
  0x10, 0x00, 0x00, 0x00, 0x2c, 0x00, 0x00, 0x00, 0x01, 0x00, 0x00, 0x00,
  0x02, 0x00, 0x00, 0x00, 0x18, 0x00, 0x00, 0x00, 0x73, 0x65, 0x71, 0x75,
  0x65, 0x6e, 0x74, 0x69, 0x61, 0x6c, 0x2f, 0x66, 0x6c, 0x61, 0x74, 0x74,
  0x65, 0x6e, 0x2f, 0x43, 0x6f, 0x6e, 0x73, 0x74, 0x00, 0x00, 0x00, 0x00,
  0x34, 0xfd, 0xff, 0xff, 0x3e, 0xfe, 0xff, 0xff, 0x04, 0x00, 0x00, 0x00,
  0x10, 0x00, 0x00, 0x00, 0x67, 0xa6, 0x92, 0xc0, 0x1e, 0x70, 0x9b, 0xc0,
  0x51, 0x81, 0x28, 0x40, 0x70, 0x58, 0x40, 0x3f, 0x26, 0xfe, 0xff, 0xff,
  0x10, 0x00, 0x00, 0x00, 0x05, 0x00, 0x00, 0x00, 0x10, 0x00, 0x00, 0x00,
  0x44, 0x00, 0x00, 0x00, 0x01, 0x00, 0x00, 0x00, 0x04, 0x00, 0x00, 0x00,
  0x32, 0x00, 0x00, 0x00, 0x73, 0x65, 0x71, 0x75, 0x65, 0x6e, 0x74, 0x69,
  0x61, 0x6c, 0x2f, 0x64, 0x65, 0x6e, 0x73, 0x65, 0x5f, 0x31, 0x2f, 0x42,
  0x69, 0x61, 0x73, 0x41, 0x64, 0x64, 0x2f, 0x52, 0x65, 0x61, 0x64, 0x56,
  0x61, 0x72, 0x69, 0x61, 0x62, 0x6c, 0x65, 0x4f, 0x70, 0x2f, 0x72, 0x65,
  0x73, 0x6f, 0x75, 0x72, 0x63, 0x65, 0x00, 0x00, 0xa8, 0xfd, 0xff, 0xff,
  0xb2, 0xfe, 0xff, 0xff, 0x04, 0x00, 0x00, 0x00, 0x40, 0x00, 0x00, 0x00,
  0x31, 0x9a, 0x2b, 0x40, 0x6d, 0x47, 0xef, 0x3f, 0x99, 0xfb, 0x1f, 0xbd,
  0x16, 0x45, 0xc8, 0xbf, 0xaa, 0xed, 0x2a, 0x40, 0xc1, 0xd4, 0x24, 0x3f,
  0x6d, 0x6c, 0x33, 0x3f, 0x1a, 0x23, 0x0b, 0x3f, 0x1e, 0xf0, 0x3a, 0x3f,
  0x6b, 0x00, 0x88, 0x3f, 0xf3, 0xa2, 0xa5, 0xbf, 0x6f, 0x81, 0x48, 0x3f,
  0x72, 0x0b, 0xc4, 0xbf, 0xf2, 0x9d, 0x5c, 0xbe, 0x43, 0x37, 0x8f, 0x3f,
  0xc1, 0xf3, 0x33, 0xbf, 0xca, 0xfe, 0xff, 0xff, 0x10, 0x00, 0x00, 0x00,
  0x04, 0x00, 0x00, 0x00, 0x10, 0x00, 0x00, 0x00, 0x44, 0x00, 0x00, 0x00,
  0x01, 0x00, 0x00, 0x00, 0x10, 0x00, 0x00, 0x00, 0x30, 0x00, 0x00, 0x00,
  0x73, 0x65, 0x71, 0x75, 0x65, 0x6e, 0x74, 0x69, 0x61, 0x6c, 0x2f, 0x64,
  0x65, 0x6e, 0x73, 0x65, 0x2f, 0x42, 0x69, 0x61, 0x73, 0x41, 0x64, 0x64,
  0x2f, 0x52, 0x65, 0x61, 0x64, 0x56, 0x61, 0x72, 0x69, 0x61, 0x62, 0x6c,
  0x65, 0x4f, 0x70, 0x2f, 0x72, 0x65, 0x73, 0x6f, 0x75, 0x72, 0x63, 0x65,
  0x00, 0x00, 0x00, 0x00, 0x4c, 0xfe, 0xff, 0xff, 0x56, 0xff, 0xff, 0xff,
  0x04, 0x00, 0x00, 0x00, 0x40, 0x00, 0x00, 0x00, 0xcf, 0xdd, 0xca, 0xbd,
  0xa4, 0xda, 0x1f, 0xbf, 0x8f, 0x1c, 0x27, 0x40, 0xb1, 0x65, 0xa5, 0xbd,
  0x4f, 0x93, 0x97, 0xbe, 0x29, 0xd8, 0xe3, 0xbf, 0xd0, 0x1e, 0xa5, 0x3e,
  0xc5, 0xa5, 0xf6, 0x3f, 0x00, 0x90, 0x60, 0xbf, 0x5a, 0x54, 0x5a, 0xbf,
  0xac, 0x42, 0xe3, 0xbd, 0xcd, 0x4b, 0xf1, 0x3c, 0xc3, 0x63, 0xc8, 0xbf,
  0x21, 0x30, 0xda, 0x3f, 0xbd, 0x01, 0x5b, 0xbf, 0x38, 0xc2, 0x2f, 0xbf,
  0x6e, 0xff, 0xff, 0xff, 0x10, 0x00, 0x00, 0x00, 0x03, 0x00, 0x00, 0x00,
  0x10, 0x00, 0x00, 0x00, 0x48, 0x00, 0x00, 0x00, 0x01, 0x00, 0x00, 0x00,
  0x10, 0x00, 0x00, 0x00, 0x33, 0x00, 0x00, 0x00, 0x73, 0x65, 0x71, 0x75,
  0x65, 0x6e, 0x74, 0x69, 0x61, 0x6c, 0x2f, 0x63, 0x6f, 0x6e, 0x76, 0x32,
  0x64, 0x5f, 0x31, 0x2f, 0x42, 0x69, 0x61, 0x73, 0x41, 0x64, 0x64, 0x2f,
  0x52, 0x65, 0x61, 0x64, 0x56, 0x61, 0x72, 0x69, 0x61, 0x62, 0x6c, 0x65,
  0x4f, 0x70, 0x2f, 0x72, 0x65, 0x73, 0x6f, 0x75, 0x72, 0x63, 0x65, 0x00,
  0x04, 0x00, 0x06, 0x00, 0x04, 0x00, 0x00, 0x00, 0x00, 0x00, 0x06, 0x00,
  0x08, 0x00, 0x04, 0x00, 0x06, 0x00, 0x00, 0x00, 0x04, 0x00, 0x00, 0x00,
  0x20, 0x00, 0x00, 0x00, 0x90, 0x04, 0xf6, 0xbc, 0x8d, 0x18, 0x83, 0xbf,
  0x83, 0xc8, 0xa4, 0xbf, 0xb8, 0xb1, 0xa0, 0x3e, 0x78, 0x5b, 0x54, 0xbf,
  0x08, 0x3e, 0xf4, 0xbe, 0x6f, 0xa9, 0x1f, 0xbf, 0x23, 0xa3, 0x3d, 0xbf,
  0x00, 0x00, 0x0e, 0x00, 0x14, 0x00, 0x04, 0x00, 0x00, 0x00, 0x08, 0x00,
  0x0c, 0x00, 0x10, 0x00, 0x0e, 0x00, 0x00, 0x00, 0x10, 0x00, 0x00, 0x00,
  0x02, 0x00, 0x00, 0x00, 0x10, 0x00, 0x00, 0x00, 0x44, 0x00, 0x00, 0x00,
  0x01, 0x00, 0x00, 0x00, 0x08, 0x00, 0x00, 0x00, 0x31, 0x00, 0x00, 0x00,
  0x73, 0x65, 0x71, 0x75, 0x65, 0x6e, 0x74, 0x69, 0x61, 0x6c, 0x2f, 0x63,
  0x6f, 0x6e, 0x76, 0x32, 0x64, 0x2f, 0x42, 0x69, 0x61, 0x73, 0x41, 0x64,
  0x64, 0x2f, 0x52, 0x65, 0x61, 0x64, 0x56, 0x61, 0x72, 0x69, 0x61, 0x62,
  0x6c, 0x65, 0x4f, 0x70, 0x2f, 0x72, 0x65, 0x73, 0x6f, 0x75, 0x72, 0x63,
  0x65, 0x00, 0x00, 0x00, 0x90, 0xff, 0xff, 0xff, 0x14, 0x00, 0x18, 0x00,
  0x04, 0x00, 0x00, 0x00, 0x08, 0x00, 0x0c, 0x00, 0x10, 0x00, 0x00, 0x00,
  0x00, 0x00, 0x14, 0x00, 0x14, 0x00, 0x00, 0x00, 0x14, 0x00, 0x00, 0x00,
  0x01, 0x00, 0x00, 0x00, 0x20, 0x00, 0x00, 0x00, 0x44, 0x00, 0x00, 0x00,
  0x2c, 0x00, 0x00, 0x00, 0x04, 0x00, 0x00, 0x00, 0x01, 0x00, 0x00, 0x00,
  0x40, 0x00, 0x00, 0x00, 0x03, 0x00, 0x00, 0x00, 0x01, 0x00, 0x00, 0x00,
  0x0c, 0x00, 0x00, 0x00, 0x63, 0x6f, 0x6e, 0x76, 0x32, 0x64, 0x5f, 0x69,
  0x6e, 0x70, 0x75, 0x74, 0x00, 0x00, 0x00, 0x00, 0x04, 0x00, 0x00, 0x00,
  0xff, 0xff, 0xff, 0xff, 0x40, 0x00, 0x00, 0x00, 0x03, 0x00, 0x00, 0x00,
  0x01, 0x00, 0x00, 0x00, 0xfc, 0xff, 0xff, 0xff, 0x04, 0x00, 0x04, 0x00,
  0x04, 0x00, 0x00, 0x00
};

unsigned int model_tflite_len = 13120;// Fill the int in `src/model.cc` here