#include "magic_wand_model_data.h"

// We need to keep the data array aligned on some architectures.
#ifdef __has_attribute
#define HAVE_ATTRIBUTE(x) __has_attribute(x)
#else
#define HAVE_ATTRIBUTE(x) 0
#endif
#if HAVE_ATTRIBUTE(aligned) || (defined(__GNUC__) && !defined(__clang__))
#define DATA_ALIGN_ATTRIBUTE __attribute__((aligned(4)))
#else
#define DATA_ALIGN_ATTRIBUTE
#endif

const unsigned char g_magic_wand_model_data[] DATA_ALIGN_ATTRIBUTE = {
  // Paste the data of the char array in `src/model.cc` here
  0x1c, 0x00, 0x00, 0x00, 0x54, 0x46, 0x4c, 0x33, 0x14, 0x00, 0x20, 0x00,
  0x04, 0x00, 0x08, 0x00, 0x0c, 0x00, 0x10, 0x00, 0x14, 0x00, 0x00, 0x00,
  0x18, 0x00, 0x1c, 0x00, 0x14, 0x00, 0x00, 0x00, 0x03, 0x00, 0x00, 0x00,
  0x18, 0x00, 0x00, 0x00, 0x2c, 0x00, 0x00, 0x00, 0xd8, 0x00, 0x00, 0x00,
  0x2c, 0x00, 0x00, 0x00, 0x80, 0x00, 0x00, 0x00, 0x78, 0x00, 0x00, 0x00,
  0x05, 0x00, 0x00, 0x00, 0x28, 0x07, 0x00, 0x00, 0x44, 0x06, 0x00, 0x00,
  0xbc, 0x03, 0x00, 0x00, 0xf8, 0x02, 0x00, 0x00, 0xac, 0x01, 0x00, 0x00,
  0x01, 0x00, 0x00, 0x00, 0xd0, 0x00, 0x00, 0x00, 0x14, 0x00, 0x00, 0x00,
  0xdc, 0x32, 0x00, 0x00, 0xd8, 0x32, 0x00, 0x00, 0xd0, 0x31, 0x00, 0x00,
  0x1c, 0x31, 0x00, 0x00, 0x74, 0x30, 0x00, 0x00, 0xfc, 0x2f, 0x00, 0x00,
  0x90, 0x2f, 0x00, 0x00, 0x40, 0x13, 0x00, 0x00, 0xec, 0x11, 0x00, 0x00,
  0x10, 0x10, 0x00, 0x00, 0xb4, 0x07, 0x00, 0x00, 0xb0, 0x32, 0x00, 0x00,
  0xac, 0x32, 0x00, 0x00, 0xa8, 0x32, 0x00, 0x00, 0xa4, 0x32, 0x00, 0x00,
  0xa0, 0x32, 0x00, 0x00, 0x9c, 0x32, 0x00, 0x00, 0x98, 0x32, 0x00, 0x00,
  0x94, 0x32, 0x00, 0x00, 0x3c, 0x00, 0x00, 0x00, 0x00, 0x00, 0x00, 0x00,
  0x01, 0x00, 0x00, 0x00, 0x0c, 0x00, 0x00, 0x00, 0x08, 0x00, 0x0c, 0x00,
  0x04, 0x00, 0x08, 0x00, 0x08, 0x00, 0x00, 0x00, 0x08, 0x00, 0x00, 0x00,
  0x13, 0x00, 0x00, 0x00, 0x13, 0x00, 0x00, 0x00, 0x6d, 0x69, 0x6e, 0x5f,
  0x72, 0x75, 0x6e, 0x74, 0x69, 0x6d, 0x65, 0x5f, 0x76, 0x65, 0x72, 0x73,
  0x69, 0x6f, 0x6e, 0x00, 0xb6, 0xce, 0xff, 0xff, 0x04, 0x00, 0x00, 0x00,
  0x10, 0x00, 0x00, 0x00, 0x31, 0x2e, 0x35, 0x2e, 0x30, 0x00, 0x00, 0x00,
  0x00, 0x00, 0x00, 0x00, 0x00, 0x00, 0x00, 0x00, 0x0f, 0x00, 0x00, 0x00,
  0x4d, 0x4c, 0x49, 0x52, 0x20, 0x43, 0x6f, 0x6e, 0x76, 0x65, 0x72, 0x74,
  0x65, 0x64, 0x2e, 0x00, 0x00, 0x00, 0x0e, 0x00, 0x18, 0x00, 0x04, 0x00,
  0x08, 0x00, 0x0c, 0x00, 0x10, 0x00, 0x14, 0x00, 0x0e, 0x00, 0x00, 0x00,
  0x14, 0x00, 0x00, 0x00, 0x5c, 0x00, 0x00, 0x00, 0x60, 0x00, 0x00, 0x00,
  0x64, 0x00, 0x00, 0x00, 0x84, 0x00, 0x00, 0x00, 0x12, 0x00, 0x00, 0x00,
  0x9c, 0x31, 0x00, 0x00, 0x2c, 0x31, 0x00, 0x00, 0x88, 0x30, 0x00, 0x00,
  0xe0, 0x2f, 0x00, 0x00, 0x38, 0x2f, 0x00, 0x00, 0xd4, 0x2e, 0x00, 0x00,
  0x6c, 0x2e, 0x00, 0x00, 0x18, 0x12, 0x00, 0x00, 0xbc, 0x10, 0x00, 0x00,
  0xe0, 0x0e, 0x00, 0x00, 0x0c, 0x06, 0x00, 0x00, 0x28, 0x05, 0x00, 0x00,
  0xe8, 0x03, 0x00, 0x00, 0x3c, 0x03, 0x00, 0x00, 0x98, 0x02, 0x00, 0x00,
  0xd4, 0x01, 0x00, 0x00, 0x10, 0x01, 0x00, 0x00, 0x84, 0x00, 0x00, 0x00,
  0x01, 0x00, 0x00, 0x00, 0x00, 0x00, 0x00, 0x00, 0x01, 0x00, 0x00, 0x00,
  0x11, 0x00, 0x00, 0x00, 0x08, 0x00, 0x00, 0x00, 0x74, 0x05, 0x00, 0x00,
  0x94, 0x04, 0x00, 0x00, 0x78, 0x03, 0x00, 0x00, 0xbc, 0x02, 0x00, 0x00,
  0x30, 0x02, 0x00, 0x00, 0x50, 0x01, 0x00, 0x00, 0xa8, 0x00, 0x00, 0x00,
  0x10, 0x00, 0x00, 0x00, 0x04, 0x00, 0x00, 0x00, 0x6d, 0x61, 0x69, 0x6e,
  0x00, 0x00, 0x00, 0x00, 0x7a, 0xff, 0xff, 0xff, 0x00, 0x00, 0x00, 0x09,
  0x04, 0x00, 0x00, 0x00, 0x1c, 0x00, 0x00, 0x00, 0x10, 0x00, 0x00, 0x00,
  0x04, 0x00, 0x00, 0x00, 0xb2, 0xcf, 0xff, 0xff, 0x00, 0x00, 0x80, 0x3f,
  0x01, 0x00, 0x00, 0x00, 0x11, 0x00, 0x00, 0x00, 0x01, 0x00, 0x00, 0x00,
  0x10, 0x00, 0x00, 0x00, 0xa0, 0xfa, 0xff, 0xff, 0x19, 0x00, 0x00, 0x00,
  0x00, 0x00, 0x00, 0x19, 0x01, 0x00, 0x00, 0x00, 0x40, 0xcf, 0xff, 0xff,
  0x14, 0x00, 0x00, 0x00, 0x12, 0x00, 0x00, 0x00, 0x18, 0x00, 0x00, 0x00,
  0x30, 0x00, 0x00, 0x00, 0x20, 0x00, 0x00, 0x00, 0x02, 0x00, 0x00, 0x00,
  0x01, 0x00, 0x00, 0x00, 0x04, 0x00, 0x00, 0x00, 0x08, 0x00, 0x00, 0x00,
  0x49, 0x64, 0x65, 0x6e, 0x74, 0x69, 0x74, 0x79, 0x00, 0x00, 0x00, 0x00,
  0x02, 0x00, 0x00, 0x00, 0xff, 0xff, 0xff, 0xff, 0x04, 0x00, 0x00, 0x00,
  0x24, 0xd0, 0xff, 0xff, 0x00, 0x00, 0x0e, 0x00, 0x18, 0x00, 0x08, 0x00,
  0x0c, 0x00, 0x10, 0x00, 0x07, 0x00, 0x14, 0x00, 0x0e, 0x00, 0x00, 0x00,
  0x00, 0x00, 0x00, 0x08, 0x03, 0x00, 0x00, 0x00, 0x18, 0x00, 0x00, 0x00,
  0x0c, 0x00, 0x00, 0x00, 0x04, 0x00, 0x00, 0x00, 0x40, 0xcf, 0xff, 0xff,
  0x01, 0x00, 0x00, 0x00, 0x10, 0x00, 0x00, 0x00, 0x03, 0x00, 0x00, 0x00,
  0x0f, 0x00, 0x00, 0x00, 0x07, 0x00, 0x00, 0x00, 0x04, 0x00, 0x00, 0x00,
  0xc8, 0xcf, 0xff, 0xff, 0x14, 0x00, 0x00, 0x00, 0x11, 0x00, 0x00, 0x00,
  0x18, 0x00, 0x00, 0x00, 0x5c, 0x00, 0x00, 0x00, 0x4c, 0x00, 0x00, 0x00,
  0x02, 0x00, 0x00, 0x00, 0x01, 0x00, 0x00, 0x00, 0x04, 0x00, 0x00, 0x00,
  0x34, 0x00, 0x00, 0x00, 0x73, 0x65, 0x71, 0x75, 0x65, 0x6e, 0x74, 0x69,
  0x61, 0x6c, 0x2f, 0x64, 0x65, 0x6e, 0x73, 0x65, 0x5f, 0x31, 0x2f, 0x4d,
  0x61, 0x74, 0x4d, 0x75, 0x6c, 0x3b, 0x73, 0x65, 0x71, 0x75, 0x65, 0x6e,
  0x74, 0x69, 0x61, 0x6c, 0x2f, 0x64, 0x65, 0x6e, 0x73, 0x65, 0x5f, 0x31,
  0x2f, 0x42, 0x69, 0x61, 0x73, 0x41, 0x64, 0x64, 0x00, 0x00, 0x00, 0x00,
  0x02, 0x00, 0x00, 0x00, 0xff, 0xff, 0xff, 0xff, 0x04, 0x00, 0x00, 0x00,
  0xc8, 0xcf, 0xff, 0xff, 0xda, 0xfc, 0xff, 0xff, 0x00, 0x00, 0x00, 0x08,
  0x03, 0x00, 0x00, 0x00, 0x24, 0x00, 0x00, 0x00, 0x18, 0x00, 0x00, 0x00,
  0x0c, 0x00, 0x00, 0x00, 0x00, 0x00, 0x06, 0x00, 0x08, 0x00, 0x07, 0x00,
  0x06, 0x00, 0x00, 0x00, 0x00, 0x00, 0x00, 0x01, 0x01, 0x00, 0x00, 0x00,
  0x0f, 0x00, 0x00, 0x00, 0x03, 0x00, 0x00, 0x00, 0x0e, 0x00, 0x00, 0x00,
  0x06, 0x00, 0x00, 0x00, 0x03, 0x00, 0x00, 0x00, 0xe8, 0xfb, 0xff, 0xff,
  0x09, 0x00, 0x00, 0x00, 0x00, 0x00, 0x00, 0x09, 0x01, 0x00, 0x00, 0x00,
  0x88, 0xd0, 0xff, 0xff, 0x14, 0x00, 0x00, 0x00, 0x10, 0x00, 0x00, 0x00,
  0x18, 0x00, 0x00, 0x00, 0x6c, 0x00, 0x00, 0x00, 0x5c, 0x00, 0x00, 0x00,
  0x02, 0x00, 0x00, 0x00, 0x01, 0x00, 0x00, 0x00, 0x10, 0x00, 0x00, 0x00,
  0x46, 0x00, 0x00, 0x00, 0x73, 0x65, 0x71, 0x75, 0x65, 0x6e, 0x74, 0x69,
  0x61, 0x6c, 0x2f, 0x64, 0x65, 0x6e, 0x73, 0x65, 0x2f, 0x4d, 0x61, 0x74,
  0x4d, 0x75, 0x6c, 0x3b, 0x73, 0x65, 0x71, 0x75, 0x65, 0x6e, 0x74, 0x69,
  0x61, 0x6c, 0x2f, 0x64, 0x65, 0x6e, 0x73, 0x65, 0x2f, 0x52, 0x65, 0x6c,
  0x75, 0x3b, 0x73, 0x65, 0x71, 0x75, 0x65, 0x6e, 0x74, 0x69, 0x61, 0x6c,
  0x2f, 0x64, 0x65, 0x6e, 0x73, 0x65, 0x2f, 0x42, 0x69, 0x61, 0x73, 0x41,
  0x64, 0x64, 0x00, 0x00, 0x02, 0x00, 0x00, 0x00, 0xff, 0xff, 0xff, 0xff,
  0x10, 0x00, 0x00, 0x00, 0xa8, 0xd1, 0xff, 0xff, 0x00, 0x00, 0x0a, 0x00,
  0x10, 0x00, 0x04, 0x00, 0x08, 0x00, 0x0c, 0x00, 0x0a, 0x00, 0x00, 0x00,
  0x02, 0x00, 0x00, 0x00, 0x10, 0x00, 0x00, 0x00, 0x04, 0x00, 0x00, 0x00,
  0x01, 0x00, 0x00, 0x00, 0x0e, 0x00, 0x00, 0x00, 0x02, 0x00, 0x00, 0x00,
  0x0d, 0x00, 0x00, 0x00, 0x05, 0x00, 0x00, 0x00, 0xa8, 0xfc, 0xff, 0xff,
  0x16, 0x00, 0x00, 0x00, 0x00, 0x00, 0x00, 0x16, 0x01, 0x00, 0x00, 0x00,
  0x48, 0xd1, 0xff, 0xff, 0x14, 0x00, 0x00, 0x00, 0x0f, 0x00, 0x00, 0x00,
  0x18, 0x00, 0x00, 0x00, 0x40, 0x00, 0x00, 0x00, 0x30, 0x00, 0x00, 0x00,
  0x02, 0x00, 0x00, 0x00, 0x01, 0x00, 0x00, 0x00, 0x70, 0x00, 0x00, 0x00,
  0x1a, 0x00, 0x00, 0x00, 0x73, 0x65, 0x71, 0x75, 0x65, 0x6e, 0x74, 0x69,
  0x61, 0x6c, 0x2f, 0x66, 0x6c, 0x61, 0x74, 0x74, 0x65, 0x6e, 0x2f, 0x52,
  0x65, 0x73, 0x68, 0x61, 0x70, 0x65, 0x00, 0x00, 0x02, 0x00, 0x00, 0x00,
  0xff, 0xff, 0xff, 0xff, 0x70, 0x00, 0x00, 0x00, 0x2c, 0xd1, 0xff, 0xff,
  0x3e, 0xfe, 0xff, 0xff, 0x00, 0x00, 0x00, 0x05, 0x01, 0x00, 0x00, 0x00,
  0x38, 0x00, 0x00, 0x00, 0x2c, 0x00, 0x00, 0x00, 0x14, 0x00, 0x00, 0x00,
  0x00, 0x00, 0x0e, 0x00, 0x14, 0x00, 0x00, 0x00, 0x10, 0x00, 0x0c, 0x00,
  0x08, 0x00, 0x04, 0x00, 0x0e, 0x00, 0x00, 0x00, 0x03, 0x00, 0x00, 0x00,
  0x01, 0x00, 0x00, 0x00, 0x03, 0x00, 0x00, 0x00, 0x01, 0x00, 0x00, 0x00,
  0x01, 0x00, 0x00, 0x00, 0x0d, 0x00, 0x00, 0x00, 0x01, 0x00, 0x00, 0x00,
  0x0c, 0x00, 0x00, 0x00, 0xe8, 0xd1, 0xff, 0xff, 0x14, 0x00, 0x00, 0x00,
  0x0e, 0x00, 0x00, 0x00, 0x20, 0x00, 0x00, 0x00, 0x58, 0x00, 0x00, 0x00,
  0x40, 0x00, 0x00, 0x00, 0x04, 0x00, 0x00, 0x00, 0x01, 0x00, 0x00, 0x00,
  0x07, 0x00, 0x00, 0x00, 0x01, 0x00, 0x00, 0x00, 0x10, 0x00, 0x00, 0x00,
  0x22, 0x00, 0x00, 0x00, 0x73, 0x65, 0x71, 0x75, 0x65, 0x6e, 0x74, 0x69,
  0x61, 0x6c, 0x2f, 0x6d, 0x61, 0x78, 0x5f, 0x70, 0x6f, 0x6f, 0x6c, 0x69,
  0x6e, 0x67, 0x32, 0x64, 0x5f, 0x31, 0x2f, 0x4d, 0x61, 0x78, 0x50, 0x6f,
  0x6f, 0x6c, 0x00, 0x00, 0x04, 0x00, 0x00, 0x00, 0xff, 0xff, 0xff, 0xff,
  0x07, 0x00, 0x00, 0x00, 0x01, 0x00, 0x00, 0x00, 0x10, 0x00, 0x00, 0x00,
  0xe4, 0xd1, 0xff, 0xff, 0x1a, 0xfe, 0xff, 0xff, 0x00, 0x00, 0x00, 0x01,
  0x24, 0x00, 0x00, 0x00, 0x18, 0x00, 0x00, 0x00, 0x04, 0x00, 0x00, 0x00,
  0x0c, 0xfe, 0xff, 0xff, 0x01, 0x00, 0x00, 0x00, 0x01, 0x00, 0x00, 0x00,
  0x00, 0x00, 0x00, 0x01, 0x01, 0x00, 0x00, 0x00, 0x0c, 0x00, 0x00, 0x00,
  0x03, 0x00, 0x00, 0x00, 0x0b, 0x00, 0x00, 0x00, 0x09, 0x00, 0x00, 0x00,
  0x02, 0x00, 0x00, 0x00, 0x90, 0xd2, 0xff, 0xff, 0x14, 0x00, 0x00, 0x00,
  0x0d, 0x00, 0x00, 0x00, 0x20, 0x00, 0x00, 0x00, 0xb8, 0x00, 0x00, 0x00,
  0xa0, 0x00, 0x00, 0x00, 0x04, 0x00, 0x00, 0x00, 0x01, 0x00, 0x00, 0x00,
  0x15, 0x00, 0x00, 0x00, 0x01, 0x00, 0x00, 0x00, 0x10, 0x00, 0x00, 0x00,
  0x83, 0x00, 0x00, 0x00, 0x73, 0x65, 0x71, 0x75, 0x65, 0x6e, 0x74, 0x69,
  0x61, 0x6c, 0x2f, 0x63, 0x6f, 0x6e, 0x76, 0x32, 0x64, 0x5f, 0x31, 0x2f,
  0x52, 0x65, 0x6c, 0x75, 0x3b, 0x73, 0x65, 0x71, 0x75, 0x65, 0x6e, 0x74,
  0x69, 0x61, 0x6c, 0x2f, 0x63, 0x6f, 0x6e, 0x76, 0x32, 0x64, 0x5f, 0x31,
  0x2f, 0x42, 0x69, 0x61, 0x73, 0x41, 0x64, 0x64, 0x3b, 0x73, 0x65, 0x71,
  0x75, 0x65, 0x6e, 0x74, 0x69, 0x61, 0x6c, 0x2f, 0x63, 0x6f, 0x6e, 0x76,
  0x32, 0x64, 0x5f, 0x31, 0x2f, 0x43, 0x6f, 0x6e, 0x76, 0x32, 0x44, 0x3b,
  0x73, 0x65, 0x71, 0x75, 0x65, 0x6e, 0x74, 0x69, 0x61, 0x6c, 0x2f, 0x63,
  0x6f, 0x6e, 0x76, 0x32, 0x64, 0x5f, 0x31, 0x2f, 0x42, 0x69, 0x61, 0x73,
  0x41, 0x64, 0x64, 0x2f, 0x52, 0x65, 0x61, 0x64, 0x56, 0x61, 0x72, 0x69,
  0x61, 0x62, 0x6c, 0x65, 0x4f, 0x70, 0x2f, 0x72, 0x65, 0x73, 0x6f, 0x75,
  0x72, 0x63, 0x65, 0x00, 0x04, 0x00, 0x00, 0x00, 0xff, 0xff, 0xff, 0xff,
  0x15, 0x00, 0x00, 0x00, 0x01, 0x00, 0x00, 0x00, 0x10, 0x00, 0x00, 0x00,
  0xfc, 0xd3, 0xff, 0xff, 0x00, 0x00, 0x0e, 0x00, 0x1a, 0x00, 0x08, 0x00,
  0x0c, 0x00, 0x10, 0x00, 0x07, 0x00, 0x14, 0x00, 0x0e, 0x00, 0x00, 0x00,
  0x00, 0x00, 0x00, 0x05, 0x01, 0x00, 0x00, 0x00, 0x3c, 0x00, 0x00, 0x00,
  0x30, 0x00, 0x00, 0x00, 0x14, 0x00, 0x00, 0x00, 0x00, 0x00, 0x0e, 0x00,
  0x18, 0x00, 0x17, 0x00, 0x10, 0x00, 0x0c, 0x00, 0x08, 0x00, 0x04, 0x00,
  0x0e, 0x00, 0x00, 0x00, 0x03, 0x00, 0x00, 0x00, 0x03, 0x00, 0x00, 0x00,
  0x03, 0x00, 0x00, 0x00, 0x03, 0x00, 0x00, 0x00, 0x00, 0x00, 0x00, 0x01,
  0x01, 0x00, 0x00, 0x00, 0x0b, 0x00, 0x00, 0x00, 0x01, 0x00, 0x00, 0x00,
  0x0a, 0x00, 0x00, 0x00, 0x2c, 0xff, 0xff, 0xff, 0x11, 0x00, 0x00, 0x00,
  0x00, 0x00, 0x00, 0x11, 0x01, 0x00, 0x00, 0x00, 0xcc, 0xd3, 0xff, 0xff,
  0x14, 0x00, 0x00, 0x00, 0x0c, 0x00, 0x00, 0x00, 0x20, 0x00, 0x00, 0x00,
  0x58, 0x00, 0x00, 0x00, 0x40, 0x00, 0x00, 0x00, 0x04, 0x00, 0x00, 0x00,
  0x01, 0x00, 0x00, 0x00, 0x15, 0x00, 0x00, 0x00, 0x01, 0x00, 0x00, 0x00,
  0x08, 0x00, 0x00, 0x00, 0x20, 0x00, 0x00, 0x00, 0x73, 0x65, 0x71, 0x75,
  0x65, 0x6e, 0x74, 0x69, 0x61, 0x6c, 0x2f, 0x6d, 0x61, 0x78, 0x5f, 0x70,
  0x6f, 0x6f, 0x6c, 0x69, 0x6e, 0x67, 0x32, 0x64, 0x2f, 0x4d, 0x61, 0x78,
  0x50, 0x6f, 0x6f, 0x6c, 0x00, 0x00, 0x00, 0x00, 0x04, 0x00, 0x00, 0x00,
  0xff, 0xff, 0xff, 0xff, 0x15, 0x00, 0x00, 0x00, 0x01, 0x00, 0x00, 0x00,
  0x08, 0x00, 0x00, 0x00, 0xd8, 0xd4, 0xff, 0xff, 0x00, 0x00, 0x0e, 0x00,
  0x14, 0x00, 0x00, 0x00, 0x08, 0x00, 0x0c, 0x00, 0x07, 0x00, 0x10, 0x00,
  0x0e, 0x00, 0x00, 0x00, 0x00, 0x00, 0x00, 0x01, 0x30, 0x00, 0x00, 0x00,
  0x24, 0x00, 0x00, 0x00, 0x10, 0x00, 0x00, 0x00, 0x0c, 0x00, 0x10, 0x00,
  0x00, 0x00, 0x04, 0x00, 0x08, 0x00, 0x0f, 0x00, 0x0c, 0x00, 0x00, 0x00,
  0x01, 0x00, 0x00, 0x00, 0x01, 0x00, 0x00, 0x00, 0x00, 0x00, 0x00, 0x01,
  0x01, 0x00, 0x00, 0x00, 0x0a, 0x00, 0x00, 0x00, 0x03, 0x00, 0x00, 0x00,
  0x00, 0x00, 0x00, 0x00, 0x08, 0x00, 0x00, 0x00, 0x01, 0x00, 0x00, 0x00,
  0x0c, 0x00, 0x10, 0x00, 0x0b, 0x00, 0x00, 0x00, 0x0c, 0x00, 0x04, 0x00,
  0x0c, 0x00, 0x00, 0x00, 0x03, 0x00, 0x00, 0x00, 0x00, 0x00, 0x00, 0x03,
  0x01, 0x00, 0x00, 0x00, 0xac, 0xd4, 0xff, 0xff, 0x14, 0x00, 0x00, 0x00,
  0x0b, 0x00, 0x00, 0x00, 0x20, 0x00, 0x00, 0x00, 0xb0, 0x00, 0x00, 0x00,
  0x98, 0x00, 0x00, 0x00, 0x04, 0x00, 0x00, 0x00, 0x01, 0x00, 0x00, 0x00,
  0x40, 0x00, 0x00, 0x00, 0x03, 0x00, 0x00, 0x00, 0x08, 0x00, 0x00, 0x00,
  0x7b, 0x00, 0x00, 0x00, 0x73, 0x65, 0x71, 0x75, 0x65, 0x6e, 0x74, 0x69,
  0x61, 0x6c, 0x2f, 0x63, 0x6f, 0x6e, 0x76, 0x32, 0x64, 0x2f, 0x52, 0x65,
  0x6c, 0x75, 0x3b, 0x73, 0x65, 0x71, 0x75, 0x65, 0x6e, 0x74, 0x69, 0x61,
  0x6c, 0x2f, 0x63, 0x6f, 0x6e, 0x76, 0x32, 0x64, 0x2f, 0x42, 0x69, 0x61,
  0x73, 0x41, 0x64, 0x64, 0x3b, 0x73, 0x65, 0x71, 0x75, 0x65, 0x6e, 0x74,
  0x69, 0x61, 0x6c, 0x2f, 0x63, 0x6f, 0x6e, 0x76, 0x32, 0x64, 0x2f, 0x43,
  0x6f, 0x6e, 0x76, 0x32, 0x44, 0x3b, 0x73, 0x65, 0x71, 0x75, 0x65, 0x6e,
  0x74, 0x69, 0x61, 0x6c, 0x2f, 0x63, 0x6f, 0x6e, 0x76, 0x32, 0x64, 0x2f,
  0x42, 0x69, 0x61, 0x73, 0x41, 0x64, 0x64, 0x2f, 0x52, 0x65, 0x61, 0x64,
  0x56, 0x61, 0x72, 0x69, 0x61, 0x62, 0x6c, 0x65, 0x4f, 0x70, 0x2f, 0x72,
  0x65, 0x73, 0x6f, 0x75, 0x72, 0x63, 0x65, 0x00, 0x04, 0x00, 0x00, 0x00,
  0xff, 0xff, 0xff, 0xff, 0x40, 0x00, 0x00, 0x00, 0x03, 0x00, 0x00, 0x00,
  0x08, 0x00, 0x00, 0x00, 0x00, 0xd5, 0xff, 0xff, 0x0a, 0xd6, 0xff, 0xff,
  0x04, 0x00, 0x00, 0x00, 0x00, 0x08, 0x00, 0x00, 0x41, 0x35, 0xac, 0xbd,
  0x53, 0x92, 0xcd, 0x3d, 0xaf, 0xb2, 0xfc, 0x3d, 0x64, 0xdf, 0x5f, 0xbd,
  0x9e, 0xcc, 0x7c, 0xbd, 0xc0, 0xc0, 0x18, 0x3f, 0xca, 0xe4, 0xeb, 0xbd,
  0xe9, 0x97, 0xd1, 0xbd, 0xd8, 0x3c, 0xd4, 0xbd, 0x79, 0x02, 0x9f, 0xbd,
  0xd5, 0x60, 0x13, 0xbd, 0x93, 0x65, 0x65, 0xbd, 0x11, 0x63, 0x26, 0xbd,
  0x9e, 0x66, 0xf8, 0x3e, 0x13, 0x3c, 0x03, 0x3f, 0xb1, 0x1d, 0x71, 0xbd,
  0x48, 0x1e, 0xb5, 0xbd, 0xf3, 0x80, 0x15, 0xbd, 0x0b, 0x78, 0xe0, 0x3e,
  0x2b, 0x3e, 0x51, 0xbd, 0x87, 0x9f, 0x4d, 0xbd, 0x7a, 0x41, 0x1b, 0xbe,
  0xa5, 0x1c, 0x35, 0x3d, 0x39, 0x5b, 0xe1, 0x3d, 0xb6, 0x55, 0x2f, 0xbd,
  0xe7, 0x02, 0xb9, 0x3d, 0xaa, 0x25, 0x8f, 0x3d, 0x57, 0xd5, 0x39, 0xbd,
  0xf8, 0x05, 0x1e, 0xbd, 0x59, 0xba, 0x10, 0xbe, 0x6f, 0x85, 0x83, 0xbe,
  0x4b, 0xb4, 0x03, 0xbd, 0xb3, 0xe8, 0x91, 0xbd, 0xc7, 0xe0, 0x8e, 0xbe,
  0xfa, 0xf5, 0x0f, 0x3f, 0x26, 0xf2, 0x32, 0xbd, 0x70, 0x8b, 0x86, 0xbd,
  0xfa, 0x6e, 0x03, 0xbe, 0xac, 0x6a, 0x4c, 0xbe, 0xfc, 0x20, 0x20, 0xbe,
  0x43, 0xd1, 0x93, 0xbd, 0xfd, 0x56, 0x5a, 0xbe, 0x5a, 0x01, 0x95, 0x3d,
  0x83, 0x11, 0x94, 0xbd, 0xe0, 0x14, 0x9c, 0xbd, 0xb8, 0xe3, 0x8d, 0xbe,
  0xea, 0x1b, 0xaa, 0x3d, 0x25, 0x85, 0x2e, 0xbe, 0xf8, 0x41, 0x65, 0xbc,
  0x94, 0xd6, 0x3f, 0xbc, 0x4f, 0xee, 0x8a, 0xbd, 0x52, 0x6b, 0x12, 0xbd,
  0x62, 0x64, 0xb1, 0xbc, 0x36, 0xad, 0xa3, 0xbd, 0x9a, 0xd1, 0xa8, 0xbc,
  0x54, 0xab, 0x8d, 0xbd, 0x41, 0x37, 0xa9, 0xbd, 0x78, 0x3b, 0x16, 0x3e,
  0xcc, 0xe9, 0x82, 0x3e, 0xff, 0x06, 0xcd, 0x3c, 0x91, 0x7b, 0x39, 0x3d,
  0xb8, 0xe0, 0xa6, 0x3e, 0xd2, 0x38, 0xb8, 0x3e, 0x2d, 0x11, 0x9a, 0x3e,
  0x82, 0x10, 0x7b, 0x3c, 0x81, 0xbe, 0x94, 0xbe, 0x75, 0x8e, 0x80, 0xbe,
  0xdf, 0xae, 0xfd, 0xbd, 0x94, 0x26, 0xea, 0xbd, 0x70, 0x0e, 0x8f, 0xbe,
  0x96, 0x20, 0x6c, 0xbe, 0x7d, 0xdf, 0x7a, 0xbe, 0x5b, 0xe7, 0x44, 0xbd,
  0xa9, 0x96, 0x0a, 0x3e, 0x2e, 0xfc, 0x89, 0xbd, 0x33, 0x08, 0x1b, 0xbd,
  0xea, 0x0f, 0xb2, 0xbd, 0x1c, 0x87, 0xa3, 0x3e, 0xde, 0x65, 0xcd, 0xbe,
  0x80, 0x9d, 0xe6, 0x3d, 0x4a, 0xde, 0x59, 0x3d, 0x04, 0x39, 0xb3, 0x3e,
  0xe2, 0xb9, 0x87, 0x3d, 0xff, 0x6a, 0xe9, 0xbc, 0x1e, 0xd3, 0x49, 0xbe,
  0x3a, 0x84, 0x0f, 0x3e, 0xa5, 0x99, 0x0f, 0xbb, 0x12, 0x80, 0x65, 0x3c,
  0x22, 0xdb, 0x45, 0x3b, 0x54, 0xde, 0xf7, 0xbe, 0x5d, 0x8b, 0x14, 0xbe,
  0x4b, 0xf5, 0xa0, 0xbd, 0x73, 0xc8, 0x99, 0xba, 0x31, 0x9d, 0x9e, 0xbe,
  0xe0, 0x3b, 0xa5, 0x3e, 0xfe, 0x8a, 0xc6, 0xbd, 0x83, 0x42, 0xcd, 0x3d,
  0x49, 0x55, 0x3e, 0x3e, 0x20, 0xd3, 0xe0, 0x3d, 0x5a, 0xb0, 0x21, 0xbf,
  0x7d, 0x98, 0x28, 0xbe, 0x57, 0xa6, 0x23, 0x3e, 0xdd, 0xf0, 0xd8, 0x3d,
  0x06, 0x35, 0x02, 0x3e, 0xcd, 0xfa, 0x65, 0xbd, 0x9e, 0x91, 0xf3, 0xbc,
  0xf9, 0xa7, 0x01, 0x3d, 0x5f, 0x36, 0xf6, 0xbe, 0x19, 0x84, 0x47, 0xbe,
  0xeb, 0x7e, 0x4e, 0x3e, 0x4a, 0xe8, 0x13, 0x3d, 0x63, 0xe8, 0xf3, 0x3d,
  0x84, 0x15, 0x0b, 0xbd, 0xf0, 0xbf, 0xbf, 0x3d, 0x11, 0xfb, 0x1e, 0x3d,
  0xa3, 0x58, 0x9d, 0xbe, 0x7e, 0xc0, 0xc3, 0xbe, 0xbf, 0x4d, 0xf9, 0x3d,
  0x7c, 0x5f, 0x32, 0xbd, 0xe4, 0xa1, 0xa4, 0x3e, 0xbd, 0xda, 0x44, 0x3e,
  0x19, 0xcb, 0x83, 0x3d, 0xb0, 0x65, 0x22, 0xbc, 0x4b, 0x15, 0x7f, 0xbe,
  0xaf, 0x9c, 0x40, 0xbe, 0x63, 0xe3, 0x4c, 0x3e, 0x9b, 0x01, 0x26, 0x3c,
  0x6a, 0x28, 0x83, 0x3d, 0x8d, 0xca, 0x72, 0x3b, 0x0a, 0x87, 0x1c, 0x3c,
  0xd7, 0x92, 0x38, 0xbe, 0x38, 0x0e, 0xb5, 0x3e, 0x94, 0xc3, 0xb5, 0x3c,
  0xeb, 0x00, 0x54, 0x3d, 0x42, 0x04, 0x4f, 0xbe, 0x0c, 0xc1, 0x76, 0xbd,
  0x9a, 0x07, 0x34, 0xbe, 0x02, 0x81, 0x8a, 0x3b, 0xd6, 0x74, 0x84, 0xbd,
  0xa4, 0x7a, 0x4c, 0xbd, 0xf4, 0x82, 0x57, 0xbd, 0x9e, 0x74, 0xf8, 0xbc,
  0x46, 0x7c, 0x58, 0x3d, 0xff, 0x9e, 0x84, 0xb9, 0x7a, 0xa0, 0x4c, 0xbe,
  0x59, 0xed, 0x02, 0xbe, 0xfd, 0x8f, 0xb2, 0x3c, 0x09, 0x47, 0x32, 0x3d,
  0xdf, 0x4a, 0xba, 0xbd, 0xcc, 0x09, 0x06, 0xbd, 0x6c, 0x4b, 0x1c, 0xbd,
  0x45, 0xb8, 0x01, 0x3d, 0xfc, 0x00, 0xa2, 0xbd, 0xd3, 0x6a, 0x22, 0x3c,
  0x85, 0xd2, 0xac, 0x3d, 0x51, 0xd4, 0x80, 0x3b, 0x8e, 0x13, 0x03, 0xbe,
  0xf6, 0x54, 0x8c, 0x3c, 0xeb, 0xc8, 0x66, 0x3d, 0x46, 0x35, 0x4d, 0xbe,
  0x67, 0xf7, 0x0c, 0xbf, 0x7c, 0x7d, 0x60, 0x3e, 0x64, 0x54, 0x37, 0x3d,
  0xd7, 0x7d, 0xed, 0xbc, 0x1e, 0xa9, 0x19, 0x3e, 0x3e, 0xff, 0xac, 0x3d,
  0x8e, 0x36, 0xa7, 0x3d, 0xc6, 0x54, 0x00, 0x3f, 0x84, 0x4a, 0xb3, 0xbe,
  0xac, 0x47, 0x48, 0x3d, 0x43, 0xd4, 0xe6, 0x3d, 0x7f, 0xac, 0x9b, 0xbc,
  0xc9, 0xbb, 0xfd, 0xbd, 0xc4, 0xc1, 0x47, 0x3e, 0x20, 0x56, 0xcb, 0xbe,
  0xd8, 0xc9, 0x78, 0xbe, 0xc9, 0x8d, 0x0f, 0xbe, 0xa6, 0x35, 0xcf, 0x3d,
  0xdc, 0x14, 0x29, 0x3e, 0xbb, 0xde, 0x1a, 0xbd, 0x7e, 0x1d, 0xfa, 0xbd,
  0xc3, 0xc8, 0xe7, 0x3d, 0xce, 0x4f, 0x4b, 0xbe, 0x8a, 0xac, 0x80, 0xbe,
  0x28, 0x33, 0x54, 0x3e, 0xa5, 0xc2, 0x06, 0xbe, 0x97, 0x5a, 0xf4, 0x3d,
  0x50, 0xeb, 0x6f, 0xbd, 0xd5, 0x21, 0x0f, 0xbe, 0x3a, 0x22, 0x4a, 0x3e,
  0xd2, 0x1a, 0xec, 0xbd, 0x23, 0xe3, 0xa7, 0xbe, 0xd3, 0xee, 0x6b, 0xbd,
  0xf0, 0x27, 0xa0, 0xbd, 0xf1, 0x19, 0xa0, 0xbe, 0xe2, 0x26, 0x5f, 0xbe,
  0x2b, 0x45, 0x46, 0xbe, 0xf4, 0xaa, 0xc0, 0x3d, 0x6b, 0x95, 0xf0, 0xbe,
  0x58, 0xed, 0xd8, 0xbd, 0xba, 0xb2, 0xdc, 0xbd, 0xb0, 0xbc, 0x5c, 0x3e,
  0x10, 0x1d, 0xa1, 0x3c, 0xd2, 0x3e, 0x68, 0xbe, 0xf1, 0x9a, 0xd0, 0xbe,
  0xf9, 0x4f, 0xde, 0xbd, 0x0c, 0x79, 0x9a, 0x3e, 0x55, 0x09, 0xa0, 0xbd,
  0x5f, 0x29, 0x94, 0xbc, 0x00, 0x3f, 0x35, 0xbe, 0x2f, 0x23, 0x16, 0x3f,
  0xd0, 0x7d, 0x2a, 0xbe, 0xfe, 0xb0, 0x1e, 0xbe, 0x76, 0xfa, 0x9d, 0xbc,
  0xdb, 0x09, 0xfb, 0xbd, 0x38, 0x7e, 0xa0, 0xbd, 0x0a, 0xbd, 0x1f, 0xbd,
  0x00, 0xfc, 0xbc, 0xbd, 0x68, 0x94, 0xb4, 0x3e, 0x3b, 0xdd, 0x09, 0xbe,
  0xdf, 0xfa, 0x26, 0x3c, 0x03, 0x77, 0x12, 0x3e, 0x10, 0x15, 0x7b, 0x3c,
  0x58, 0x98, 0xf3, 0xbd, 0xd4, 0xb4, 0x46, 0x3c, 0xe8, 0xee, 0x8e, 0xbd,
  0xdd, 0x37, 0xf0, 0xbe, 0x40, 0xa7, 0xa8, 0x3c, 0x9e, 0xb3, 0xb2, 0x3c,
  0x67, 0x93, 0x45, 0xbe, 0xed, 0x7b, 0x82, 0xbe, 0xa6, 0xe1, 0x52, 0x3d,
  0x6f, 0x46, 0x3d, 0x3d, 0x3c, 0xbc, 0x8f, 0xbd, 0xbc, 0x4c, 0x68, 0xbe,
  0x62, 0xa4, 0x26, 0x3e, 0x83, 0x9d, 0x71, 0x3b, 0xec, 0x5c, 0x9f, 0xbe,
  0x90, 0x19, 0xea, 0x3c, 0x26, 0xac, 0x08, 0x3d, 0x9f, 0x54, 0x15, 0xbd,
  0x66, 0xf0, 0xea, 0x3d, 0xa4, 0x22, 0xdc, 0x3d, 0xe6, 0x5d, 0x75, 0xbe,
  0x38, 0xb6, 0xe5, 0xbd, 0xbd, 0x8b, 0x33, 0xbe, 0x39, 0x22, 0x87, 0xbc,
  0x43, 0x67, 0x6c, 0xbd, 0x2d, 0x05, 0x08, 0xbe, 0x71, 0x98, 0xe9, 0x3d,
  0x90, 0x14, 0x34, 0xbe, 0x45, 0xfc, 0x18, 0xbe, 0x9b, 0xf4, 0x6e, 0xbe,
  0xa1, 0x13, 0x56, 0xbd, 0xcf, 0xb3, 0x35, 0x3e, 0x92, 0x0e, 0xa0, 0xbe,
  0x19, 0xb4, 0x97, 0x3e, 0xbf, 0xfd, 0x81, 0x3d, 0x14, 0x19, 0x8f, 0xbe,
  0x47, 0x90, 0xae, 0xbe, 0x19, 0xd6, 0xda, 0x3d, 0x25, 0xda, 0xfd, 0x3d,
  0x20, 0x58, 0xe2, 0x3b, 0x35, 0x7b, 0x20, 0xbc, 0x9d, 0x26, 0x7a, 0x3e,
  0xaf, 0xcb, 0xd3, 0x3d, 0xc0, 0x37, 0x77, 0xbe, 0x58, 0xa9, 0x90, 0xbe,
  0xf6, 0x93, 0x34, 0x3e, 0x2b, 0x02, 0xad, 0x3d, 0x45, 0xec, 0x8e, 0xbb,
  0x7d, 0x69, 0x95, 0x3d, 0x2c, 0xe8, 0x92, 0x3e, 0xb7, 0x8d, 0x8c, 0x3b,
  0xa1, 0x33, 0x27, 0xbd, 0xce, 0xc5, 0x84, 0xbe, 0x41, 0x6b, 0x5b, 0xbe,
  0xb6, 0xaa, 0x49, 0x3e, 0x3d, 0x30, 0x00, 0xbe, 0x96, 0x34, 0x1d, 0x3e,
  0x9c, 0x38, 0xfd, 0xbd, 0xfc, 0x2e, 0xd1, 0xbd, 0x15, 0x2e, 0xdd, 0x3d,
  0x99, 0x3e, 0x86, 0xbe, 0xea, 0x4f, 0xf0, 0xbb, 0x40, 0x12, 0x81, 0x3d,
  0xdf, 0xa4, 0x06, 0x3e, 0x38, 0xc7, 0xca, 0x3d, 0x1c, 0x73, 0x83, 0xbd,
  0x2c, 0x15, 0x3a, 0xbd, 0xa7, 0x9b, 0x0a, 0xbd, 0x09, 0x63, 0x81, 0x3d,
  0x75, 0x7e, 0x76, 0xbd, 0x09, 0x5e, 0x1c, 0x3c, 0xe1, 0xff, 0x13, 0xbe,
  0xc5, 0xdf, 0xcf, 0xbe, 0xfc, 0xde, 0x73, 0xbe, 0xe9, 0xc5, 0x70, 0xbe,
  0xe2, 0x5f, 0x99, 0xbe, 0x31, 0x4a, 0xb2, 0x3c, 0x2d, 0xd1, 0x7c, 0xbe,
  0xb0, 0xbd, 0x35, 0xbc, 0xa0, 0xa0, 0x30, 0x3c, 0x6c, 0xe3, 0x14, 0x3b,
  0xfe, 0x7b, 0x0e, 0xbe, 0x13, 0x2c, 0xe7, 0xbd, 0x74, 0x58, 0x84, 0xbc,
  0x45, 0xf6, 0x5c, 0xbe, 0xff, 0xd2, 0x2d, 0xbd, 0x87, 0x32, 0xdf, 0xbd,
  0xbf, 0x66, 0x0c, 0xbe, 0xf0, 0xc3, 0x6d, 0xbc, 0x74, 0x63, 0x2f, 0xbe,
  0xa1, 0x1a, 0x82, 0x3d, 0x42, 0xab, 0x47, 0xbe, 0xa9, 0x7b, 0x73, 0xbc,
  0x21, 0x7a, 0x0c, 0x3d, 0x13, 0x4d, 0xb6, 0xbd, 0x3b, 0xe2, 0x83, 0xbd,
  0x62, 0x95, 0xf7, 0x3b, 0x84, 0xeb, 0x8f, 0x3d, 0x35, 0xa8, 0x8a, 0x3e,
  0x2e, 0x54, 0xa5, 0xbe, 0x98, 0xcc, 0x5d, 0xbe, 0x55, 0xe1, 0xad, 0xbe,
  0xc6, 0x7b, 0xd9, 0x3e, 0x5b, 0x2c, 0x39, 0xbe, 0x75, 0x8f, 0xb2, 0x3d,
  0xf6, 0xcb, 0x4f, 0x3d, 0xe3, 0x0d, 0x3b, 0x3e, 0x9a, 0xe7, 0x1c, 0x3e,
  0xcf, 0x9a, 0x85, 0xbe, 0x34, 0x33, 0x01, 0xbf, 0xaf, 0xe9, 0x3e, 0x3e,
  0xee, 0x30, 0xa3, 0x3e, 0xa0, 0xb1, 0xc0, 0xbd, 0x7b, 0xcc, 0x1e, 0x3d,
  0xa6, 0x91, 0xf1, 0xbe, 0xa9, 0x3f, 0x32, 0x3e, 0xed, 0xa4, 0xed, 0xbd,
  0x72, 0xcf, 0x9b, 0xbd, 0x07, 0x4c, 0x8d, 0x3d, 0xba, 0x50, 0x45, 0x3e,
  0x2a, 0x8b, 0x97, 0xbc, 0xeb, 0xa4, 0x17, 0xbe, 0xaf, 0x8f, 0x9e, 0x3d,
  0xd2, 0x0c, 0x0c, 0x3e, 0xd7, 0x9f, 0xc4, 0xbd, 0x9b, 0x23, 0xd3, 0x3d,
  0xad, 0x15, 0xbd, 0x3d, 0xe9, 0xc2, 0x49, 0xbc, 0xde, 0x20, 0xbf, 0x3c,
  0xd8, 0xec, 0x4d, 0xbd, 0x99, 0x6b, 0x9f, 0x3e, 0xf0, 0xee, 0x54, 0xbe,
  0x5e, 0xa7, 0xa7, 0xbb, 0x24, 0xfa, 0xc1, 0xbd, 0xfd, 0xd6, 0xd9, 0x3e,
  0xac, 0x68, 0x40, 0xbe, 0xea, 0x38, 0x8e, 0x3e, 0x0d, 0x62, 0x5d, 0xbd,
  0x85, 0x95, 0xd0, 0x3c, 0x9c, 0xae, 0x96, 0x3d, 0x32, 0xda, 0x04, 0xbd,
  0x41, 0x9b, 0xf5, 0xbd, 0xa5, 0xac, 0xe5, 0x3e, 0x10, 0x5c, 0x50, 0x3d,
  0x67, 0x57, 0x52, 0xbe, 0x99, 0xe7, 0x95, 0x3d, 0x86, 0x71, 0xe7, 0xbd,
  0x94, 0x12, 0x28, 0xbe, 0x04, 0x54, 0xf6, 0x3c, 0x96, 0x5c, 0x25, 0xbe,
  0x98, 0x52, 0x2c, 0xbe, 0xe7, 0x59, 0x29, 0xbe, 0x7e, 0xbc, 0xbb, 0xbe,
  0x29, 0x8a, 0x22, 0x3c, 0xa4, 0xf2, 0x9c, 0xbe, 0xeb, 0xe5, 0xb0, 0xbd,
  0x4e, 0x9b, 0x9a, 0xbd, 0x9a, 0xb9, 0x82, 0xbe, 0x4e, 0x80, 0x87, 0xbe,
  0xd7, 0x39, 0x18, 0xbe, 0x64, 0xd8, 0x82, 0xbe, 0x36, 0xb5, 0x25, 0x3d,
  0x9a, 0x41, 0x72, 0xbe, 0x08, 0xf7, 0x3d, 0xbe, 0x2b, 0x51, 0x90, 0xbe,
  0x92, 0x85, 0x14, 0xbe, 0xd5, 0x82, 0x95, 0x3c, 0xad, 0x65, 0x4d, 0xbd,
  0x3d, 0xa3, 0x86, 0xbd, 0xf7, 0x9f, 0xc4, 0x3a, 0xb2, 0xb7, 0x05, 0x3f,
  0xd5, 0x5f, 0xbf, 0xbd, 0x70, 0xc2, 0x3d, 0xbe, 0x7b, 0x17, 0x8a, 0xbe,
  0x78, 0xb6, 0x21, 0x3f, 0x48, 0x53, 0x4c, 0x3e, 0xd5, 0xed, 0x5b, 0x3d,
  0xb7, 0x3a, 0x2a, 0x3d, 0x13, 0x76, 0xaa, 0xbe, 0x68, 0x8b, 0xbe, 0x3c,
  0xbe, 0xe8, 0x46, 0xbe, 0xd6, 0x23, 0x44, 0xbe, 0xa8, 0x64, 0x04, 0xbd,
  0x61, 0xc5, 0x38, 0x3e, 0x0d, 0x09, 0xa4, 0xbd, 0xa7, 0xbb, 0x10, 0xbe,
  0xe5, 0xf2, 0x09, 0x3b, 0x6e, 0xd1, 0x6b, 0x3d, 0xcc, 0x6c, 0xcf, 0xbd,
  0x3a, 0x77, 0xc1, 0xbc, 0x87, 0xbd, 0x0c, 0x3e, 0x89, 0x50, 0x55, 0x3d,
  0xd1, 0x7f, 0x1f, 0xbd, 0xb5, 0x72, 0x0a, 0xbf, 0xa2, 0xe1, 0x2c, 0x3e,
  0xca, 0x03, 0x3d, 0x3d, 0x2e, 0x8e, 0xa2, 0x3d, 0xde, 0x53, 0x40, 0x3e,
  0xee, 0x17, 0x13, 0x3e, 0x3f, 0xbb, 0xeb, 0x3d, 0xec, 0x00, 0x2e, 0x3e,
  0xbb, 0xf9, 0x15, 0xbf, 0x7d, 0x1c, 0x83, 0xbd, 0xf1, 0x56, 0x15, 0x3e,
  0xfb, 0xcb, 0xb3, 0xbb, 0x75, 0x3f, 0x1c, 0xbe, 0x48, 0x81, 0x75, 0x3d,
  0x9a, 0xc4, 0xfa, 0x3d, 0x88, 0xce, 0xfc, 0x3e, 0xe7, 0xd0, 0x85, 0xbe,
  0x2a, 0xfc, 0x8c, 0x3d, 0x55, 0xf0, 0xb1, 0x3e, 0x03, 0x99, 0x9f, 0xbd,
  0xff, 0x85, 0x2e, 0xbe, 0x20, 0x7f, 0xb5, 0x3c, 0x93, 0xd1, 0xbd, 0xbd,
  0x09, 0x45, 0x91, 0xbe, 0x47, 0x9d, 0x2a, 0x3e, 0x28, 0xdd, 0x82, 0xbd,
  0xcc, 0x7d, 0xec, 0x3d, 0x16, 0xaf, 0x0c, 0xbe, 0xd8, 0xeb, 0x80, 0xbe,
  0x54, 0xb9, 0x2e, 0x3e, 0xf9, 0x06, 0x94, 0xbe, 0xfe, 0xdd, 0xec, 0xbe,
  0x53, 0x74, 0x11, 0xbd, 0x05, 0x5c, 0x06, 0x3d, 0x37, 0xdb, 0x39, 0x3d,
  0xe7, 0x81, 0x9c, 0xbe, 0x57, 0x65, 0x56, 0xbe, 0xb0, 0x17, 0x9b, 0xbe,
  0x47, 0x62, 0x0b, 0xbe, 0x06, 0xd7, 0x9c, 0xbe, 0x39, 0x52, 0x6a, 0xbd,
  0x72, 0xf1, 0xfd, 0xbe, 0x88, 0x90, 0x33, 0x3b, 0x9f, 0x28, 0x46, 0xbe,
  0x9b, 0x25, 0x83, 0xbc, 0x35, 0x52, 0xc8, 0xbe, 0x3d, 0x5f, 0xc0, 0xbe,
  0xdb, 0xe1, 0xbd, 0xbe, 0xa8, 0xe2, 0xa7, 0xb9, 0xca, 0x6f, 0x91, 0xbe,
  0x56, 0x22, 0xb5, 0xbe, 0xda, 0x08, 0x84, 0xbe, 0xd1, 0xf6, 0x46, 0xbe,
  0x72, 0x7f, 0x34, 0xbe, 0xa3, 0x57, 0x8e, 0xbe, 0x7c, 0xaa, 0x99, 0xbe,
  0x69, 0x7b, 0x69, 0x3e, 0x49, 0xd5, 0x5b, 0xbe, 0x4d, 0x0f, 0x89, 0xbd,
  0xd4, 0x29, 0x4c, 0xbe, 0x10, 0x60, 0x83, 0xbe, 0x1e, 0x87, 0xa6, 0xbe,
  0x29, 0x8b, 0x2a, 0xbe, 0xdb, 0xa9, 0x51, 0x3d, 0xd5, 0x05, 0x39, 0x3d,
  0xd5, 0x4d, 0xcf, 0xbc, 0x3e, 0xea, 0xe3, 0xbd, 0xf8, 0x9b, 0x33, 0x3e,
  0x32, 0x98, 0x58, 0xbe, 0xde, 0x8d, 0x9d, 0xbd, 0x75, 0x96, 0x1b, 0xbe,
  0x9a, 0x6c, 0xee, 0xbd, 0x48, 0xaa, 0x83, 0xbd, 0xc9, 0xcb, 0x27, 0xbc,
  0x75, 0xd9, 0x1b, 0xbd, 0xa2, 0x67, 0xfc, 0x3d, 0xff, 0xfa, 0x59, 0xbe,
  0xd5, 0x05, 0x21, 0x3d, 0x26, 0x93, 0xa0, 0x3c, 0xce, 0xb0, 0x17, 0xbe,
  0xf3, 0x57, 0xae, 0x3c, 0x04, 0x99, 0x4f, 0x3e, 0xf6, 0x37, 0xbf, 0x3b,
  0xb9, 0x80, 0x3f, 0xbd, 0x76, 0xc8, 0x67, 0xbe, 0x18, 0xfb, 0x2c, 0x3d,
  0x5c, 0x8f, 0xa8, 0x3c, 0x77, 0x2c, 0x1c, 0xbe, 0x76, 0x4c, 0x00, 0x3e,
  0x75, 0x3b, 0x43, 0xbe, 0xd4, 0xcc, 0x94, 0xbd, 0x5f, 0x60, 0x33, 0x3e,
  0xa5, 0xc0, 0x71, 0xbe, 0x5c, 0xf4, 0x7d, 0x3d, 0xbc, 0x5e, 0x28, 0xbe,
  0x4a, 0x42, 0x06, 0xbe, 0xe2, 0xdd, 0xff, 0xff, 0x10, 0x00, 0x00, 0x00,
  0x0a, 0x00, 0x00, 0x00, 0x1c, 0x00, 0x00, 0x00, 0x38, 0x00, 0x00, 0x00,
  0x04, 0x00, 0x00, 0x00, 0x10, 0x00, 0x00, 0x00, 0x04, 0x00, 0x00, 0x00,
  0x01, 0x00, 0x00, 0x00, 0x08, 0x00, 0x00, 0x00, 0x1a, 0x00, 0x00, 0x00,
  0x73, 0x65, 0x71, 0x75, 0x65, 0x6e, 0x74, 0x69, 0x61, 0x6c, 0x2f, 0x63,
  0x6f, 0x6e, 0x76, 0x32, 0x64, 0x5f, 0x31, 0x2f, 0x43, 0x6f, 0x6e, 0x76,
  0x32, 0x44, 0x00, 0x00, 0x58, 0xdd, 0xff, 0xff, 0x62, 0xde, 0xff, 0xff,
  0x04, 0x00, 0x00, 0x00, 0x80, 0x01, 0x00, 0x00, 0x4a, 0x6f, 0xc0, 0x3e,
  0x50, 0xe2, 0xf5, 0x3c, 0xce, 0x12, 0x21, 0x3e, 0x82, 0xc0, 0xe6, 0xbd,
  0x0b, 0x1f, 0x3d, 0xbc, 0x55, 0x8d, 0x35, 0xbe, 0x6a, 0xb2, 0x32, 0x3e,
  0x77, 0x0b, 0x2c, 0xbe, 0x89, 0xe7, 0x5d, 0x3d, 0xdd, 0x61, 0x1d, 0x3c,
  0x33, 0xaf, 0xb9, 0x3e, 0xa9, 0x01, 0x9d, 0xbd, 0x43, 0x8b, 0x3f, 0xbc,
  0x5a, 0x6f, 0x16, 0xbe, 0x31, 0xb5, 0x9f, 0xbc, 0xe2, 0x1b, 0x03, 0xbd,
  0x0f, 0x83, 0x9c, 0xbe, 0xe8, 0xdf, 0x8f, 0xbe, 0x73, 0xb4, 0x02, 0xbd,
  0x73, 0x73, 0xb5, 0x3e, 0x26, 0x71, 0xcf, 0x3d, 0xc9, 0x28, 0x13, 0x3d,
  0x77, 0xfb, 0x5b, 0x3d, 0x0c, 0x46, 0x88, 0x3e, 0x8c, 0xa6, 0x43, 0xbe,
  0xa4, 0xce, 0x87, 0x3e, 0xe5, 0xc8, 0x4f, 0x3e, 0xed, 0xcb, 0x8a, 0xbd,
  0xc1, 0x25, 0x53, 0x3e, 0x94, 0xb2, 0x5b, 0x3e, 0xd2, 0xf3, 0x72, 0x3e,
  0x5b, 0x83, 0x2c, 0xbe, 0xb3, 0x1d, 0xc8, 0xbd, 0x68, 0x3a, 0x2b, 0x3d,
  0xab, 0x33, 0x7a, 0xbe, 0x66, 0xcb, 0x64, 0xbe, 0x7e, 0xe4, 0x19, 0xbe,
  0x08, 0x11, 0x01, 0x3d, 0xf9, 0x2f, 0x92, 0x3d, 0x93, 0x04, 0xf2, 0xbd,
  0x54, 0xbf, 0x6c, 0x3d, 0x29, 0x21, 0x21, 0x3d, 0x0a, 0x93, 0x70, 0xbd,
  0xe2, 0x96, 0xe5, 0x3d, 0xc8, 0x44, 0x08, 0xbc, 0x2f, 0x2a, 0x00, 0xbd,
  0x19, 0xe4, 0x00, 0x3e, 0x75, 0xa3, 0xaa, 0x3c, 0x57, 0xf0, 0x96, 0xbc,
  0x64, 0x1e, 0x3a, 0x3c, 0x02, 0x4e, 0x2d, 0xbe, 0x15, 0x62, 0x8b, 0xbd,
  0x62, 0x8e, 0xff, 0x3b, 0x3d, 0xea, 0xf0, 0xbd, 0x86, 0x6c, 0x97, 0x3c,
  0xd4, 0x53, 0x70, 0x3d, 0xd6, 0xf6, 0x0c, 0xbe, 0x9f, 0xf4, 0xb4, 0xbc,
  0x80, 0x34, 0x35, 0xbe, 0x95, 0x19, 0xe8, 0x3c, 0x2d, 0xb4, 0xed, 0xba,
  0xcf, 0x16, 0x99, 0xbb, 0x8d, 0x4c, 0xcd, 0xbc, 0xa5, 0x81, 0x22, 0xbe,
  0xcb, 0x34, 0xc3, 0xbe, 0x27, 0x6f, 0xe5, 0xbe, 0x82, 0x9e, 0x3d, 0x3e,
  0xb5, 0xcc, 0xc6, 0x3e, 0x57, 0x3c, 0xd7, 0x3e, 0x29, 0xcf, 0x1a, 0xbd,
  0xc5, 0xca, 0x51, 0x3c, 0x6d, 0xee, 0x39, 0x3d, 0x04, 0x04, 0xa7, 0x3d,
  0x01, 0x2f, 0x8a, 0xbc, 0x40, 0xaf, 0xcf, 0xbc, 0x0d, 0x35, 0xe2, 0x3e,
  0xbc, 0x4b, 0x88, 0x3e, 0x1d, 0x67, 0x21, 0x3e, 0x27, 0x0f, 0x62, 0xbe,
  0x02, 0x44, 0x54, 0xbd, 0x33, 0x21, 0x80, 0x3c, 0x3f, 0xa4, 0x8b, 0xbe,
  0xa0, 0x71, 0x72, 0xbe, 0x35, 0xa6, 0x10, 0xbe, 0xce, 0x43, 0xfd, 0x3b,
  0xd5, 0x30, 0x98, 0x3e, 0xaa, 0x6f, 0x87, 0xbe, 0x91, 0xb6, 0x82, 0xbd,
  0x4e, 0x7c, 0xde, 0x3d, 0xc3, 0xe0, 0xa1, 0xbe, 0x1a, 0x78, 0x2e, 0x3e,
  0xa8, 0xef, 0x91, 0xbe, 0x81, 0x52, 0x7a, 0x3e, 0x69, 0x3b, 0xf1, 0xbc,
  0xd3, 0x7c, 0xc9, 0xbd, 0x31, 0x87, 0x1f, 0x3e, 0xba, 0xdf, 0xff, 0xff,
  0x10, 0x00, 0x00, 0x00, 0x09, 0x00, 0x00, 0x00, 0x1c, 0x00, 0x00, 0x00,
  0x38, 0x00, 0x00, 0x00, 0x04, 0x00, 0x00, 0x00, 0x08, 0x00, 0x00, 0x00,
  0x04, 0x00, 0x00, 0x00, 0x03, 0x00, 0x00, 0x00, 0x01, 0x00, 0x00, 0x00,
  0x18, 0x00, 0x00, 0x00, 0x73, 0x65, 0x71, 0x75, 0x65, 0x6e, 0x74, 0x69,
  0x61, 0x6c, 0x2f, 0x63, 0x6f, 0x6e, 0x76, 0x32, 0x64, 0x2f, 0x43, 0x6f,
  0x6e, 0x76, 0x32, 0x44, 0x00, 0x00, 0x00, 0x00, 0x30, 0xdf, 0xff, 0xff,
  0x3a, 0xe0, 0xff, 0xff, 0x04, 0x00, 0x00, 0x00, 0x00, 0x01, 0x00, 0x00,
  0x0b, 0xa8, 0xef, 0x3d, 0x42, 0x9c, 0x8c, 0xbd, 0xac, 0x40, 0xbc, 0x3e,
  0xa9, 0xa2, 0x35, 0xbe, 0x4f, 0xd5, 0x5f, 0x3d, 0xe9, 0x1d, 0x62, 0x3e,
  0x7b, 0xcc, 0xb2, 0x3d, 0x84, 0x15, 0xc8, 0x3e, 0xe0, 0x69, 0xa9, 0x3e,
  0xa3, 0xe3, 0xfa, 0x3d, 0xd7, 0xd5, 0x5c, 0x3e, 0x49, 0x0e, 0xf1, 0x3d,
  0x7d, 0x23, 0x5b, 0xbd, 0x92, 0x54, 0x70, 0x3d, 0x35, 0xcb, 0xa0, 0xbd,
  0x57, 0xf9, 0xef, 0x3e, 0xa7, 0x49, 0x06, 0x3e, 0x68, 0xa8, 0xd8, 0xbc,
  0x50, 0xe1, 0xc7, 0x3e, 0x4c, 0x05, 0xce, 0xbd, 0x3c, 0xe6, 0x0a, 0x3c,
  0x82, 0x9e, 0x93, 0x3e, 0x6d, 0x07, 0x45, 0x3d, 0xb9, 0x64, 0xb4, 0x3e,
  0xea, 0x17, 0xc7, 0x3e, 0x24, 0x65, 0x24, 0x3e, 0x91, 0xbe, 0x15, 0x3e,
  0xcd, 0xa7, 0x68, 0x3e, 0x13, 0x75, 0x9a, 0xbc, 0xd4, 0xf1, 0x17, 0x3c,
  0xf8, 0x4e, 0x84, 0x3c, 0x8b, 0x31, 0xfe, 0x3e, 0xbf, 0xe1, 0x7a, 0xbf,
  0x51, 0x4e, 0x63, 0xbf, 0xac, 0x35, 0x2f, 0xbf, 0x77, 0xe7, 0x31, 0xbf,
  0x64, 0xc5, 0x10, 0xbe, 0x9f, 0x24, 0xe4, 0xbe, 0xb6, 0x55, 0x61, 0xbf,
  0x75, 0x9f, 0x2f, 0xbf, 0x6f, 0xef, 0x89, 0xbf, 0x9b, 0x97, 0x26, 0xbf,
  0xbe, 0xc7, 0x61, 0xbf, 0xc3, 0xca, 0xcc, 0x3e, 0x98, 0xa3, 0x18, 0xbe,
  0xe2, 0xb7, 0x25, 0xbf, 0x10, 0x1f, 0x05, 0xbe, 0xd5, 0xc9, 0xcb, 0x3d,
  0x24, 0x19, 0x48, 0x3e, 0x06, 0xeb, 0x81, 0x3c, 0x61, 0x5d, 0x8f, 0x3e,
  0x19, 0xed, 0x40, 0xbc, 0xab, 0x86, 0x1c, 0x3c, 0x31, 0x59, 0xac, 0x3e,
  0x0d, 0x97, 0xd7, 0x3c, 0xc1, 0xe3, 0xa4, 0x3e, 0x40, 0xa4, 0xb0, 0x3e,
  0x97, 0xaf, 0xa2, 0x3d, 0xa8, 0xbf, 0x1e, 0x3e, 0x30, 0xab, 0xb0, 0xbe,
  0xfe, 0xa4, 0x11, 0x3d, 0x64, 0xe2, 0x7a, 0xbd, 0xb1, 0x5f, 0xfa, 0xbd,
  0x8b, 0xb5, 0xda, 0x3e, 0x12, 0xe1, 0xff, 0xff, 0x10, 0x00, 0x00, 0x00,
  0x08, 0x00, 0x00, 0x00, 0x14, 0x00, 0x00, 0x00, 0x30, 0x00, 0x00, 0x00,
  0x02, 0x00, 0x00, 0x00, 0x04, 0x00, 0x00, 0x00, 0x10, 0x00, 0x00, 0x00,
  0x19, 0x00, 0x00, 0x00, 0x73, 0x65, 0x71, 0x75, 0x65, 0x6e, 0x74, 0x69,
  0x61, 0x6c, 0x2f, 0x64, 0x65, 0x6e, 0x73, 0x65, 0x5f, 0x31, 0x2f, 0x4d,
  0x61, 0x74, 0x4d, 0x75, 0x6c, 0x00, 0x00, 0x00, 0x80, 0xe0, 0xff, 0xff,
  0x8a, 0xe1, 0xff, 0xff, 0x04, 0x00, 0x00, 0x00, 0x00, 0x1c, 0x00, 0x00,
  0xfe, 0xe2, 0xf4, 0xbe, 0x77, 0x68, 0x4a, 0x3d, 0xbd, 0x74, 0xa7, 0xbe,
  0x1c, 0x84, 0x9c, 0x3e, 0xa9, 0xa7, 0x1b, 0x3e, 0xf4, 0x5b, 0x83, 0xbe,
  0xb6, 0xf2, 0xa5, 0xbe, 0x06, 0x47, 0x20, 0x3f, 0xf2, 0x60, 0x60, 0xbb,
  0xa3, 0xdd, 0x71, 0x3e, 0xf7, 0xe2, 0x8d, 0xbe, 0x00, 0xbd, 0xc3, 0xbe,
  0x7a, 0x7f, 0x49, 0xbe, 0xa1, 0x9b, 0xac, 0xbe, 0xd0, 0x53, 0x47, 0xbf,
  0xd7, 0xc7, 0xd7, 0x3d, 0x70, 0xe0, 0x5e, 0xbe, 0x92, 0xe0, 0x41, 0xbc,
  0x62, 0x66, 0xe9, 0xbe, 0x7f, 0xe4, 0x08, 0x3f, 0x1c, 0xc5, 0x29, 0x3c,
  0x09, 0x50, 0xc5, 0xbe, 0x6b, 0xe5, 0x80, 0x3e, 0x9e, 0x1c, 0x66, 0x3e,
  0xe2, 0xc9, 0x5e, 0x3d, 0x97, 0x50, 0xf7, 0x3e, 0x7e, 0x49, 0x9a, 0x3e,
  0x35, 0x94, 0x92, 0xbd, 0xf6, 0x61, 0x81, 0x3e, 0x94, 0xf5, 0x36, 0xbe,
  0x63, 0xd3, 0x39, 0xbf, 0x4d, 0xc9, 0xa5, 0xbd, 0x83, 0xe2, 0x1b, 0xbe,
  0x09, 0xd8, 0x93, 0x3c, 0x79, 0xc4, 0xc7, 0xbe, 0x57, 0x4d, 0x1d, 0x3f,
  0x32, 0x49, 0x4e, 0x3d, 0xe0, 0x4e, 0x8b, 0xbe, 0x47, 0xe8, 0xa9, 0x3e,
  0x81, 0xa8, 0xc9, 0x3e, 0x54, 0x70, 0x03, 0x3e, 0x7c, 0x66, 0xdd, 0x3e,
  0xa3, 0xf7, 0x90, 0x3e, 0x31, 0x11, 0x0c, 0x3e, 0xc1, 0xf2, 0x83, 0x3e,
  0x29, 0xe2, 0x81, 0xbd, 0xcc, 0xb8, 0x41, 0xbf, 0xe4, 0x38, 0xc5, 0x3d,
  0x54, 0x77, 0x3e, 0xbe, 0x10, 0x80, 0x48, 0xbe, 0x7f, 0x11, 0xd0, 0x3d,
  0x5c, 0x29, 0x15, 0x3f, 0x3f, 0xc5, 0x66, 0x3d, 0xa3, 0x57, 0x8f, 0xbd,
  0x40, 0xfd, 0x85, 0x3e, 0x78, 0xca, 0xf2, 0x3e, 0x1e, 0x35, 0xa4, 0x3d,
  0x89, 0x61, 0x12, 0x3f, 0xef, 0x4c, 0xde, 0x3d, 0x9b, 0xac, 0x2d, 0x3d,
  0xdb, 0xab, 0xec, 0x3e, 0xb3, 0x82, 0x04, 0x3d, 0x2f, 0x43, 0x29, 0xbf,
  0x9e, 0x07, 0xc4, 0x3d, 0x8e, 0xc4, 0xbc, 0xbd, 0x5c, 0x84, 0x06, 0xbe,
  0xab, 0xdc, 0x2e, 0xbe, 0x8b, 0x04, 0xe3, 0x3e, 0xe1, 0x04, 0xb3, 0x3d,
  0xb3, 0x4b, 0x38, 0xbe, 0x1f, 0x97, 0x43, 0x3e, 0x2f, 0xac, 0x6a, 0x3e,
  0xcd, 0x50, 0x49, 0x3d, 0x8e, 0xc8, 0x98, 0x3e, 0x77, 0xfb, 0x0c, 0x3e,
  0xb2, 0xc8, 0x05, 0x3e, 0x0b, 0xbb, 0x29, 0x3e, 0xba, 0x6e, 0x25, 0x3d,
  0xd7, 0x18, 0x08, 0xbf, 0x58, 0xe0, 0x9a, 0x3c, 0x86, 0x29, 0xba, 0xbd,
  0x32, 0xce, 0xb7, 0xbe, 0x8a, 0xa0, 0x0e, 0xbe, 0x06, 0x53, 0xa1, 0x3e,
  0x36, 0x16, 0xae, 0x3d, 0x70, 0x28, 0xcc, 0xbd, 0x8b, 0xac, 0xe3, 0xbd,
  0x21, 0x5f, 0xfb, 0x3e, 0x2f, 0x2c, 0x74, 0x3e, 0x5c, 0xb8, 0x39, 0x3f,
  0xd1, 0xb2, 0xbe, 0x3d, 0x02, 0xef, 0x6f, 0x3e, 0xa1, 0x33, 0x71, 0x3d,
  0x8b, 0x02, 0xa0, 0xbb, 0x1d, 0x13, 0x2a, 0xbf, 0xc5, 0x7d, 0xa1, 0x3d,
  0x01, 0x5d, 0x8a, 0xbd, 0xa5, 0x1a, 0xea, 0xbc, 0xba, 0x1c, 0xec, 0xbd,
  0xdb, 0x7c, 0xa5, 0x3e, 0x10, 0x72, 0x80, 0x3d, 0xaa, 0x5b, 0xf7, 0xbc,
  0x62, 0x28, 0x7a, 0x3d, 0x92, 0x8a, 0x70, 0x3e, 0x03, 0x0d, 0x81, 0x3d,
  0xfa, 0x48, 0xae, 0x3e, 0xa4, 0xd7, 0xa0, 0xbd, 0x46, 0x46, 0xfe, 0xbd,
  0xc2, 0xfb, 0x4e, 0xbd, 0x65, 0x4c, 0x8e, 0xbc, 0x4f, 0x17, 0x93, 0xbe,
  0x81, 0x9f, 0x83, 0x3d, 0xd7, 0x79, 0x8e, 0xbe, 0x77, 0x26, 0x69, 0x3c,
  0x2f, 0x97, 0x83, 0xbe, 0x5f, 0x48, 0xa2, 0x3e, 0xdf, 0x58, 0x90, 0x3c,
  0x75, 0x1f, 0x87, 0xbc, 0x34, 0xa1, 0x3d, 0xbe, 0x46, 0x10, 0x48, 0x3f,
  0xb1, 0x59, 0xf8, 0xbd, 0x6d, 0x52, 0xf0, 0x3d, 0x9e, 0x6e, 0x57, 0xbd,
  0x82, 0x0a, 0x51, 0xbe, 0x95, 0x06, 0x70, 0xbe, 0xf6, 0x97, 0x38, 0xbe,
  0x51, 0xf8, 0xc7, 0xbe, 0x83, 0x79, 0xa7, 0x3d, 0xee, 0x8b, 0xaa, 0xbe,
  0x91, 0xf8, 0xeb, 0x3d, 0xd6, 0xc9, 0x77, 0xbe, 0xe4, 0x40, 0x53, 0xbe,
  0x93, 0x39, 0x85, 0x3d, 0xa8, 0x55, 0x79, 0xbe, 0x08, 0x5d, 0x52, 0xbd,
  0x6e, 0x65, 0x3f, 0x3e, 0x90, 0xc1, 0x54, 0xbd, 0x22, 0xb2, 0x19, 0x3e,
  0xce, 0xf9, 0xa7, 0x3d, 0x4c, 0x7c, 0xd3, 0x3d, 0xeb, 0x6c, 0xb8, 0x3d,
  0x51, 0x9a, 0xad, 0xbe, 0xa8, 0x17, 0x9c, 0xbe, 0x44, 0x6d, 0x4a, 0xbd,
  0x5a, 0xbe, 0x66, 0xbe, 0xc5, 0x34, 0x09, 0x3e, 0x8b, 0x20, 0xc6, 0xbe,
  0x1d, 0x79, 0x43, 0xbe, 0x3c, 0xd8, 0x2d, 0xbe, 0xe3, 0x03, 0x30, 0xbc,
  0x1e, 0x9e, 0xa2, 0xbc, 0xce, 0xa7, 0x8a, 0x3e, 0x45, 0xda, 0x1b, 0x3e,
  0x3c, 0xe0, 0x74, 0x3b, 0x7f, 0xfa, 0x8e, 0x3d, 0x6e, 0xcd, 0x51, 0xbc,
  0xfe, 0x83, 0x40, 0x3e, 0x06, 0xbd, 0x53, 0x3e, 0x6e, 0xac, 0x8f, 0xbe,
  0x3b, 0x03, 0xc1, 0xbd, 0xef, 0x5a, 0x8a, 0xbe, 0x85, 0xda, 0x56, 0x3d,
  0xd3, 0xf6, 0x16, 0x3d, 0x52, 0xdf, 0x85, 0x3d, 0xba, 0x9c, 0x3e, 0xbe,
  0xb3, 0x1f, 0xb9, 0xbb, 0x58, 0x6e, 0x5e, 0x3c, 0x2e, 0x44, 0xfe, 0x3e,
  0xda, 0xf0, 0x2c, 0x3e, 0x34, 0x0a, 0xde, 0x3e, 0xd8, 0xac, 0xae, 0x3d,
  0x49, 0xe5, 0x8d, 0x3e, 0x60, 0xd6, 0xaa, 0x3d, 0x99, 0xbb, 0x58, 0xbd,
  0x03, 0x3c, 0x2b, 0xbe, 0x76, 0xe3, 0x11, 0xbd, 0xfa, 0xcf, 0x24, 0xbe,
  0xf6, 0xd4, 0x1b, 0xbc, 0x3b, 0x7e, 0x16, 0x3d, 0xc8, 0x41, 0x8b, 0xbe,
  0xae, 0x89, 0xd0, 0x3d, 0x89, 0x72, 0xa7, 0x3c, 0xc0, 0x36, 0x26, 0x3e,
  0x1f, 0xda, 0xc6, 0x3e, 0x6c, 0x13, 0x6a, 0xbd, 0xeb, 0x78, 0xf5, 0x3d,
  0xf9, 0x05, 0xa4, 0x3d, 0x96, 0x94, 0x45, 0x3d, 0x67, 0x2c, 0x19, 0x3e,
  0xb9, 0xb9, 0x24, 0xbe, 0x0a, 0xbd, 0x8b, 0xbe, 0x63, 0x60, 0xc5, 0x3d,
  0x89, 0xe7, 0x80, 0xbe, 0xb1, 0x34, 0x10, 0xbe, 0x5c, 0x67, 0xb9, 0xbe,
  0xce, 0x2a, 0xc1, 0x3c, 0xfd, 0x96, 0x4d, 0xbd, 0x6b, 0x05, 0xc1, 0xbb,
  0x7b, 0x46, 0xa9, 0x3c, 0xfe, 0x8d, 0x2f, 0x3f, 0x13, 0xfa, 0x1a, 0x3d,
  0x77, 0x4d, 0xe4, 0x3e, 0x58, 0xb9, 0x44, 0x3d, 0xea, 0x4c, 0x99, 0x3e,
  0xc6, 0x87, 0x1e, 0x3e, 0x7d, 0x0f, 0xb1, 0x3c, 0x0b, 0x30, 0xa3, 0xbe,
  0x9d, 0xa8, 0x17, 0x3e, 0x25, 0x88, 0x32, 0xbd, 0xde, 0x14, 0xc3, 0x3d,
  0xd8, 0x79, 0x1e, 0x3c, 0xd4, 0x3a, 0xc5, 0xbd, 0x85, 0xd2, 0x0c, 0x3e,
  0x9b, 0x24, 0xf9, 0x3b, 0xa2, 0x70, 0x5b, 0x3e, 0x25, 0x24, 0xe1, 0x3c,
  0xb7, 0x16, 0x21, 0x3c, 0x46, 0xb7, 0x03, 0x3f, 0x40, 0x35, 0x43, 0xbe,
  0xe0, 0x9d, 0xe0, 0xbc, 0x3d, 0xe1, 0x59, 0xbe, 0x24, 0x2c, 0xa2, 0xbe,
  0x8f, 0x17, 0xa7, 0xbe, 0x0d, 0x00, 0x38, 0x3e, 0x3f, 0x1a, 0x2b, 0x3e,
  0x21, 0x4b, 0x71, 0xbb, 0x17, 0x8b, 0x9e, 0x3e, 0xa4, 0xb9, 0x7d, 0xbe,
  0xdb, 0x56, 0x41, 0xbd, 0x58, 0x9c, 0x09, 0x3d, 0x64, 0x64, 0x69, 0x3d,
  0x22, 0x3c, 0x91, 0xbe, 0x3e, 0x2a, 0x81, 0xbd, 0xce, 0x0b, 0x0f, 0xbe,
  0xc2, 0xf5, 0x25, 0x3d, 0x28, 0x12, 0xa5, 0x3e, 0x2d, 0x2a, 0x00, 0x3e,
  0xc6, 0xec, 0x38, 0xbc, 0x38, 0x5c, 0xbb, 0x3f, 0x27, 0xd4, 0x1f, 0x3d,
  0x56, 0x45, 0x1b, 0x3e, 0x2d, 0x65, 0x6a, 0xbd, 0xfc, 0xda, 0x86, 0x3e,
  0x4b, 0x21, 0x99, 0xbe, 0x90, 0x2c, 0x29, 0xbd, 0xe8, 0x9a, 0xaa, 0x3d,
  0x5e, 0x3a, 0x9b, 0x3e, 0xf1, 0x75, 0x3a, 0xbe, 0xcf, 0xaa, 0x83, 0x3c,
  0xe4, 0x4d, 0x0f, 0x3e, 0x76, 0x9e, 0xbd, 0x3c, 0x69, 0x50, 0x83, 0x3d,
  0xf0, 0x73, 0xc7, 0xbd, 0x86, 0xef, 0xb5, 0xbb, 0x24, 0x87, 0xb7, 0x3f,
  0x71, 0x14, 0xf3, 0xbc, 0x1c, 0x5d, 0x10, 0xbe, 0x1a, 0xd7, 0x2f, 0xbe,
  0xc5, 0x5e, 0x81, 0x3f, 0x9e, 0x3c, 0xe8, 0xbe, 0xae, 0xe8, 0xda, 0x3b,
  0x54, 0xde, 0x12, 0x3e, 0xfe, 0x8a, 0x02, 0xbe, 0xd7, 0x75, 0x95, 0xbd,
  0xc5, 0x4b, 0x05, 0xbe, 0xbc, 0xea, 0xe4, 0xbb, 0x66, 0xb6, 0x08, 0xbf,
  0x7d, 0x14, 0xbf, 0xbd, 0xf9, 0x46, 0x19, 0xbf, 0x27, 0x33, 0xaf, 0x3d,
  0x88, 0xf6, 0x80, 0x3f, 0xb3, 0xea, 0xe5, 0xbb, 0xa2, 0x10, 0x1a, 0xbe,
  0xda, 0x02, 0x3d, 0xbd, 0x7a, 0xc3, 0xad, 0xbb, 0x6f, 0x7f, 0x04, 0xbf,
  0x25, 0x78, 0x7b, 0x3c, 0xc4, 0x22, 0x44, 0xbd, 0xfa, 0x48, 0x94, 0xbe,
  0x39, 0xde, 0xb9, 0xbd, 0xad, 0xae, 0xde, 0xbd, 0x18, 0xb2, 0x21, 0xbe,
  0x86, 0x8b, 0x75, 0xbe, 0x41, 0xb6, 0x17, 0xbe, 0x37, 0xea, 0xd0, 0xbe,
  0x3a, 0xf1, 0x7a, 0x3d, 0x75, 0x68, 0xa2, 0x3f, 0xdd, 0x7c, 0x15, 0xbb,
  0xae, 0x02, 0x66, 0x3d, 0x43, 0x35, 0xb8, 0x3d, 0x36, 0x7b, 0x3b, 0x3f,
  0x9f, 0x88, 0x4d, 0xbe, 0x8a, 0x03, 0xf0, 0xbc, 0x62, 0x74, 0x94, 0x3d,
  0x8a, 0xa1, 0x72, 0x3e, 0xbb, 0xe2, 0x8d, 0xbd, 0x81, 0xe3, 0x7d, 0xbd,
  0xd1, 0xe0, 0x95, 0xbe, 0x37, 0xa5, 0x06, 0xbe, 0x41, 0x11, 0x05, 0xbd,
  0xa8, 0x7e, 0x82, 0xbc, 0x54, 0x41, 0x23, 0xbc, 0x9c, 0x32, 0x8f, 0x3f,
  0x7f, 0x90, 0xad, 0x3c, 0xfe, 0xfe, 0x4e, 0x3d, 0x4a, 0x10, 0x3e, 0x3e,
  0xfd, 0x3d, 0xf6, 0x3e, 0x9b, 0x7f, 0x77, 0xbe, 0x51, 0x18, 0x91, 0xbc,
  0xaf, 0x93, 0x45, 0xbc, 0xbf, 0xad, 0xe3, 0x3d, 0x13, 0x40, 0xcb, 0xbd,
  0x48, 0x71, 0xb1, 0x3b, 0xee, 0xb9, 0x20, 0xbe, 0x20, 0x93, 0x29, 0x3d,
  0x11, 0x94, 0x5d, 0xbe, 0xdd, 0x2f, 0x14, 0x3e, 0x54, 0xd1, 0xce, 0xbc,
  0xcb, 0x34, 0x52, 0x3f, 0x5f, 0x29, 0x2a, 0xbd, 0xf2, 0x51, 0x03, 0x3d,
  0xe0, 0x4f, 0x9a, 0xbd, 0xc3, 0x99, 0x40, 0xbc, 0x93, 0x0a, 0xc6, 0xbd,
  0xfc, 0x8f, 0xff, 0xbc, 0xf9, 0xa4, 0x77, 0xbc, 0x38, 0xd5, 0x9e, 0x3d,
  0x06, 0xfb, 0xcc, 0x3c, 0x25, 0x97, 0xac, 0xbd, 0xe1, 0xb5, 0x9c, 0xbd,
  0xb7, 0xd6, 0xf1, 0x3c, 0xb4, 0x30, 0xba, 0xbd, 0x38, 0x7e, 0x06, 0xbe,
  0x4a, 0xad, 0xf9, 0xbc, 0x64, 0x99, 0x9c, 0x3f, 0x92, 0x74, 0x1c, 0xbd,
  0x24, 0x39, 0x79, 0x3c, 0x3f, 0xda, 0x25, 0x3c, 0x05, 0x0e, 0x4f, 0xbd,
  0x76, 0xe8, 0xf4, 0x3d, 0x2d, 0xe0, 0x3e, 0xbe, 0xbd, 0x25, 0x42, 0xbe,
  0x8b, 0xfa, 0x5c, 0x3d, 0x2c, 0x10, 0x2b, 0x3c, 0x1a, 0xf0, 0xaf, 0x3d,
  0x63, 0x93, 0xea, 0x3d, 0x7e, 0x4c, 0x75, 0x3d, 0xac, 0x6d, 0x70, 0xbd,
  0x6f, 0x8f, 0x16, 0x3e, 0xd9, 0x1f, 0x5b, 0xbe, 0xd6, 0x3c, 0x46, 0xbd,
  0xf1, 0x70, 0x90, 0xbe, 0x0b, 0xeb, 0x86, 0xbd, 0xc1, 0x9d, 0x9e, 0xbd,
  0x25, 0x1b, 0x09, 0xbe, 0x31, 0x9a, 0xd9, 0x3e, 0x27, 0x69, 0x08, 0xbf,
  0x38, 0xa5, 0xe8, 0xbd, 0xf4, 0xd6, 0x9e, 0xbd, 0xef, 0x18, 0x31, 0x3e,
  0x73, 0x31, 0x7c, 0x3e, 0x25, 0x08, 0x4f, 0x3b, 0x2d, 0x5b, 0xe9, 0x3d,
  0x8d, 0x46, 0x43, 0x3d, 0x4d, 0x88, 0x2e, 0x3e, 0xaf, 0x01, 0xa4, 0xbe,
  0xe4, 0x80, 0x44, 0xbe, 0x19, 0x4a, 0x65, 0xbe, 0x0b, 0xb7, 0x2a, 0x3e,
  0xdb, 0x9e, 0x45, 0xbc, 0x28, 0x77, 0x9c, 0x3d, 0x02, 0x90, 0x40, 0x3f,
  0x8e, 0x70, 0x92, 0xbe, 0xe5, 0x7b, 0x32, 0xbc, 0xe8, 0x8c, 0xf5, 0x3d,
  0x9a, 0xc5, 0x0e, 0x3d, 0x85, 0x7e, 0xe8, 0xbb, 0xa3, 0xcd, 0x3a, 0xbd,
  0x64, 0xd8, 0x43, 0x3e, 0x76, 0x93, 0x58, 0xbe, 0xc9, 0xac, 0xc3, 0x3e,
  0x8c, 0x55, 0x65, 0x3e, 0xc1, 0x1c, 0xab, 0xbe, 0xa9, 0x7b, 0x4a, 0xbe,
  0x17, 0xdc, 0x3f, 0xbd, 0xe6, 0x30, 0x2f, 0x3e, 0xd5, 0x31, 0xb7, 0x3e,
  0x05, 0xc8, 0xae, 0x3e, 0x1b, 0xf5, 0xcd, 0xbe, 0x8c, 0x95, 0x7f, 0x3e,
  0x1b, 0xc0, 0x05, 0x3f, 0xba, 0x91, 0x9b, 0x3e, 0xcf, 0xdc, 0x4f, 0x3e,
  0x11, 0x89, 0x6e, 0x3e, 0x02, 0x75, 0xce, 0x3d, 0xe6, 0xf6, 0x4b, 0x3e,
  0x4d, 0xb9, 0x82, 0x3e, 0x72, 0xfb, 0x60, 0xbc, 0x42, 0x02, 0xa7, 0xbe,
  0x04, 0xd9, 0xa8, 0xbe, 0x3f, 0x47, 0x3b, 0x3d, 0xa2, 0x1a, 0x3a, 0xbd,
  0x53, 0xc5, 0x26, 0xbe, 0xb9, 0x19, 0x62, 0x3e, 0xf4, 0xb8, 0xaf, 0xbe,
  0x23, 0x90, 0xd1, 0xbd, 0xe1, 0x84, 0xf8, 0x3d, 0x30, 0x74, 0xa1, 0x3b,
  0xca, 0x85, 0xed, 0x3d, 0x90, 0xa4, 0x2f, 0xbd, 0xee, 0x7c, 0xff, 0x3d,
  0x34, 0x54, 0x0c, 0x3e, 0x13, 0x0e, 0x86, 0x3d, 0x01, 0x59, 0x16, 0x3c,
  0xd1, 0xaa, 0x77, 0xbe, 0x07, 0xbb, 0x8f, 0xbe, 0x17, 0x83, 0xaf, 0xbd,
  0xcb, 0x6d, 0x36, 0xbe, 0x99, 0x61, 0x39, 0xbe, 0xd6, 0x43, 0x5d, 0x3e,
  0x83, 0xe4, 0x3b, 0xbe, 0x9a, 0x25, 0xd4, 0x3c, 0x83, 0x1b, 0x22, 0xbe,
  0x3c, 0x4f, 0x3a, 0x3e, 0xfa, 0x68, 0x14, 0x3e, 0x02, 0xa5, 0x12, 0x3e,
  0xd9, 0xa9, 0xf7, 0x3d, 0x3e, 0xf5, 0xa9, 0xbd, 0xdf, 0x67, 0x68, 0x3e,
  0x69, 0x9c, 0x86, 0xbd, 0x30, 0x0b, 0xae, 0xbe, 0xc2, 0xaa, 0xe7, 0xbe,
  0xb4, 0xce, 0xf8, 0xbd, 0x9b, 0xfe, 0xb3, 0xbe, 0xc8, 0xd1, 0x40, 0x3c,
  0x87, 0xde, 0xeb, 0x3e, 0xe7, 0xda, 0xd3, 0xbe, 0x44, 0xe7, 0xbe, 0x3d,
  0x5e, 0x22, 0x02, 0x3c, 0xe8, 0x02, 0xc0, 0xbe, 0x59, 0x2a, 0x2a, 0xbd,
  0x8a, 0x46, 0xb7, 0x3d, 0xad, 0xda, 0xcd, 0x3d, 0xc8, 0x0d, 0x15, 0xbe,
  0xb4, 0x3c, 0xba, 0xbc, 0x5a, 0x1b, 0x96, 0xbe, 0xee, 0xec, 0x90, 0xbe,
  0xae, 0xac, 0x0e, 0xbf, 0x0a, 0xde, 0xcd, 0xbc, 0xbb, 0x92, 0x58, 0xbe,
  0x3a, 0x4e, 0xa2, 0x3d, 0x80, 0x40, 0x7e, 0xbd, 0x15, 0x0b, 0xe6, 0x3e,
  0x71, 0x71, 0xca, 0x3e, 0x1f, 0xbc, 0x46, 0xbe, 0x89, 0x26, 0xff, 0x3e,
  0xc3, 0x22, 0xf7, 0xbd, 0x51, 0xfb, 0xe6, 0x3d, 0x34, 0xb9, 0x35, 0xbe,
  0x2d, 0xc9, 0x19, 0x3e, 0x67, 0xbe, 0x5d, 0xbc, 0x97, 0xaa, 0x70, 0xbd,
  0xd0, 0x70, 0xdd, 0x3f, 0xca, 0x6f, 0x32, 0xbe, 0x66, 0x04, 0xdb, 0xbd,
  0x0f, 0x16, 0x57, 0x3e, 0xd0, 0x6d, 0xa8, 0x3f, 0xf0, 0xae, 0x21, 0x3e,
  0xa6, 0x6c, 0x8b, 0xbd, 0xf9, 0x8d, 0x52, 0xbc, 0xcf, 0x21, 0x57, 0x3d,
  0x86, 0xed, 0xac, 0x3e, 0x90, 0xe9, 0x67, 0xbe, 0xc1, 0x9d, 0x34, 0x3e,
  0x04, 0xdc, 0xad, 0x3c, 0xc0, 0xa9, 0xb5, 0xbd, 0xf2, 0xb8, 0x85, 0x3c,
  0x9f, 0x6b, 0x41, 0x3e, 0xd9, 0x59, 0xe5, 0x3f, 0x58, 0x8d, 0xa3, 0x3d,
  0x84, 0xad, 0x5e, 0x3d, 0x79, 0xe2, 0x70, 0x3e, 0x72, 0x05, 0xdc, 0x3f,
  0x43, 0x05, 0xbd, 0x3e, 0x2a, 0xbd, 0x67, 0xbe, 0xd1, 0x7e, 0x89, 0xbe,
  0xe3, 0x8b, 0x97, 0xbe, 0xab, 0x93, 0x21, 0x3f, 0x40, 0x5d, 0xad, 0xbe,
  0xb0, 0x71, 0x2c, 0x3e, 0x44, 0x42, 0x9c, 0xbe, 0x5c, 0x41, 0x13, 0xbe,
  0x08, 0x1c, 0x07, 0xbd, 0x08, 0x64, 0x0b, 0xbe, 0xff, 0x87, 0xc5, 0x3f,
  0xc4, 0xcd, 0x32, 0xbd, 0x2a, 0x2d, 0x30, 0x3e, 0x8d, 0x97, 0xb8, 0xbe,
  0x44, 0x7d, 0xc9, 0x3f, 0xfe, 0x19, 0xf4, 0xbc, 0x68, 0xec, 0x0b, 0xbd,
  0x07, 0x3b, 0xba, 0x3c, 0x03, 0x45, 0x3e, 0xbe, 0xdd, 0x0d, 0x39, 0x3e,
  0xdb, 0x68, 0xc6, 0xbe, 0x3a, 0x97, 0x51, 0x3e, 0x63, 0xae, 0xa7, 0xbe,
  0x13, 0x8f, 0xc2, 0xbe, 0xd7, 0xbb, 0x65, 0xbe, 0xc5, 0xa3, 0x33, 0xbe,
  0xf1, 0x5a, 0xa4, 0x3f, 0x06, 0x14, 0x71, 0x3d, 0x22, 0x31, 0x3e, 0xbe,
  0x3e, 0xaa, 0xc4, 0xbd, 0x0c, 0x7d, 0x3b, 0x3f, 0xc3, 0x64, 0x32, 0x3f,
  0x6e, 0x9e, 0xcc, 0xbd, 0xc7, 0x15, 0xa1, 0xbe, 0x23, 0x97, 0x43, 0xbe,
  0x6c, 0x01, 0x14, 0x3f, 0xce, 0x0e, 0x53, 0xbe, 0x67, 0x5b, 0x27, 0x3d,
  0x63, 0x78, 0x95, 0xbe, 0x8c, 0x20, 0x84, 0x3d, 0x96, 0x1a, 0x37, 0xbe,
  0x4f, 0xc3, 0xd1, 0xbc, 0x52, 0xf1, 0x9c, 0x3f, 0xdd, 0x9e, 0xdd, 0xbd,
  0x33, 0xf5, 0x9a, 0xbe, 0xe7, 0xe3, 0xe2, 0xbd, 0x8c, 0x0d, 0x00, 0x3f,
  0xe6, 0x8c, 0xeb, 0x3e, 0xc9, 0xee, 0xd0, 0xbd, 0xe4, 0x2e, 0x35, 0xbc,
  0xea, 0xaf, 0x5e, 0xbc, 0xab, 0x8e, 0x35, 0x3f, 0x8a, 0xa8, 0x8c, 0x3d,
  0x3f, 0xfe, 0x04, 0xbd, 0x5d, 0x61, 0xca, 0xbe, 0xdb, 0xb6, 0xa6, 0x3d,
  0x75, 0x1c, 0x22, 0xbe, 0x6b, 0x63, 0x54, 0xbe, 0xe7, 0x22, 0xad, 0x3f,
  0xa2, 0xea, 0x3c, 0xbe, 0x73, 0x2f, 0x8a, 0xbe, 0xf0, 0xd5, 0x7e, 0xbe,
  0x46, 0x36, 0x3f, 0x3e, 0xb3, 0x35, 0x2b, 0xbd, 0xb5, 0xf8, 0x2c, 0xbe,
  0xd8, 0x87, 0x5d, 0xbe, 0x30, 0xdc, 0x6f, 0xbe, 0x0b, 0xda, 0x65, 0xbd,
  0x81, 0x6a, 0x56, 0xbe, 0xdc, 0xd8, 0x1f, 0x3e, 0x54, 0xc3, 0x3e, 0xbe,
  0xf6, 0x14, 0x25, 0xbe, 0x1a, 0x71, 0x2d, 0xbe, 0xd2, 0x54, 0x69, 0xbe,
  0xf4, 0x0d, 0x0d, 0x40, 0xe4, 0x91, 0x6f, 0xbe, 0xa5, 0x11, 0xc4, 0xbe,
  0xd7, 0x48, 0x3b, 0xbc, 0x73, 0x5b, 0x4b, 0xbf, 0x9e, 0x3b, 0x86, 0x3e,
  0x94, 0x48, 0xff, 0x3c, 0xd9, 0x40, 0xb1, 0xbe, 0xa2, 0x40, 0xac, 0xbe,
  0x60, 0xf6, 0x3a, 0x3f, 0x35, 0x05, 0xf8, 0x3d, 0xdd, 0x97, 0xe3, 0x3e,
  0xe4, 0x53, 0x96, 0xbe, 0x53, 0x00, 0x22, 0xbf, 0xcd, 0xa8, 0x7c, 0xbe,
  0x88, 0xf5, 0xc3, 0xbe, 0x7a, 0x78, 0x9e, 0xbf, 0x8b, 0xf8, 0x24, 0x3e,
  0x87, 0xdc, 0x26, 0xbe, 0x85, 0x43, 0xab, 0xbd, 0x97, 0x53, 0x16, 0x3e,
  0xf2, 0x83, 0x41, 0x3f, 0xa4, 0x89, 0x45, 0x3d, 0x41, 0x30, 0xcf, 0xbe,
  0x0e, 0xa8, 0x87, 0xba, 0x36, 0x63, 0x22, 0x3f, 0xde, 0x7c, 0x8c, 0x3d,
  0x4f, 0xb3, 0x20, 0x3f, 0x30, 0xeb, 0x71, 0x3c, 0x9c, 0xd9, 0x1e, 0x3d,
  0x16, 0xb0, 0xa2, 0x3e, 0xac, 0x0b, 0x85, 0xbe, 0xd3, 0x4b, 0x43, 0xbf,
  0x96, 0x03, 0x3e, 0x3e, 0x31, 0x78, 0xc5, 0xbd, 0x44, 0x5d, 0x37, 0xbe,
  0xd1, 0x48, 0x43, 0x3e, 0x99, 0x1b, 0xf6, 0x3e, 0xbe, 0x47, 0x3e, 0x3d,
  0xdd, 0x97, 0xbd, 0xbd, 0xb1, 0x25, 0x6c, 0x3d, 0x4b, 0xe7, 0xd2, 0x3e,
  0xdb, 0xe1, 0x40, 0x3d, 0xf1, 0xe2, 0xfd, 0x3e, 0xf6, 0xc7, 0x73, 0x3e,
  0x4a, 0x6a, 0x8b, 0x3e, 0xd0, 0x8d, 0xbc, 0x3e, 0x9e, 0xf8, 0xfd, 0xbd,
  0x82, 0xad, 0x65, 0xbf, 0x1f, 0x1d, 0xd7, 0x3d, 0x1d, 0x2c, 0x7d, 0xbe,
  0x30, 0xcc, 0x3e, 0xbe, 0x73, 0x3c, 0x8a, 0x3e, 0x4f, 0x9c, 0xc3, 0x3e,
  0xbf, 0x6a, 0x45, 0x3d, 0x54, 0xf2, 0x06, 0xbe, 0x5c, 0x62, 0x13, 0x3f,
  0xe2, 0x43, 0x1b, 0x3f, 0x3a, 0x4e, 0x09, 0x3d, 0x9e, 0x67, 0x09, 0x3f,
  0x6c, 0xb6, 0xc0, 0x3e, 0x3f, 0x36, 0xb4, 0x3e, 0xc8, 0x55, 0xea, 0x3e,
  0xd7, 0xc0, 0x10, 0xbe, 0xec, 0x22, 0x83, 0xbf, 0x7f, 0x3b, 0x0b, 0x3e,
  0xa0, 0x86, 0x14, 0xbe, 0x2c, 0x95, 0x80, 0xbe, 0xf3, 0x5f, 0xa9, 0x3d,
  0x9c, 0x34, 0xb2, 0x3e, 0x03, 0x6a, 0xcb, 0x3d, 0xa7, 0x2b, 0x95, 0xbe,
  0x99, 0x46, 0xc9, 0xbd, 0xd2, 0xa9, 0x17, 0x3f, 0x32, 0x13, 0xbe, 0x3d,
  0x90, 0xd8, 0x3a, 0x3f, 0xbc, 0x8d, 0x00, 0xbe, 0x28, 0xc1, 0x54, 0x3e,
  0x47, 0xa9, 0xad, 0x3e, 0x3e, 0x4e, 0x0f, 0xbe, 0x08, 0xdc, 0x43, 0xbf,
  0x12, 0x22, 0x45, 0x3d, 0xac, 0x42, 0x4b, 0xbe, 0xcf, 0xae, 0x1a, 0xbf,
  0xa8, 0xba, 0xb3, 0x3d, 0x90, 0x9c, 0xd4, 0x3e, 0xd5, 0xb5, 0x1f, 0x3d,
  0xec, 0x63, 0xa9, 0xbd, 0x67, 0x44, 0x7b, 0xbe, 0xf2, 0xa7, 0xe2, 0x3e,
  0x60, 0x48, 0xbd, 0x3d, 0x07, 0xe9, 0x14, 0x3f, 0x66, 0x05, 0x04, 0xbd,
  0xab, 0x32, 0x35, 0x3e, 0x40, 0x49, 0xc7, 0x3d, 0xf6, 0x07, 0xa6, 0xbd,
  0xca, 0xd7, 0x32, 0xbf, 0x3d, 0xc8, 0x8a, 0x3c, 0x7b, 0xea, 0xbd, 0xbd,
  0x9d, 0x6a, 0x8e, 0xbd, 0x3b, 0x91, 0x5a, 0xbe, 0xac, 0xa6, 0x9a, 0x3e,
  0xc0, 0x54, 0xc1, 0x3d, 0x6a, 0x8a, 0x23, 0xbe, 0x91, 0xa9, 0x66, 0xbd,
  0xf5, 0x75, 0xdc, 0x3d, 0x82, 0x2f, 0x90, 0x3d, 0x93, 0x99, 0x22, 0xbe,
  0x7f, 0x28, 0xdc, 0xbd, 0xb2, 0xc3, 0x3b, 0xbe, 0x36, 0x28, 0x2a, 0x3a,
  0x13, 0x73, 0x38, 0x3d, 0x6f, 0xfe, 0x40, 0xbf, 0x47, 0xc8, 0xab, 0xbd,
  0x6f, 0x0c, 0xaf, 0xbd, 0x4e, 0x0e, 0xde, 0xbd, 0x43, 0x83, 0x30, 0x3d,
  0x07, 0x9e, 0x88, 0xbc, 0x3c, 0x01, 0x19, 0x3c, 0x26, 0x5c, 0xa1, 0xbd,
  0x27, 0x6c, 0x22, 0xbe, 0x5e, 0x12, 0xab, 0x3d, 0x67, 0xe2, 0x01, 0xbe,
  0x23, 0x92, 0x1b, 0x3c, 0x80, 0xc4, 0xab, 0xbd, 0x81, 0x07, 0x00, 0x3f,
  0x49, 0x25, 0xac, 0xbe, 0x73, 0xb4, 0x4a, 0x3e, 0x09, 0xac, 0x2e, 0x40,
  0x30, 0x11, 0xa8, 0xbe, 0x52, 0xfd, 0x21, 0xbe, 0xc7, 0x2a, 0xc8, 0x3d,
  0x25, 0x99, 0xbd, 0x3f, 0x0b, 0xde, 0xe3, 0x3d, 0x22, 0x1b, 0x23, 0x3d,
  0xca, 0xa2, 0xce, 0x3e, 0x71, 0x24, 0xa0, 0xbd, 0xa5, 0x1e, 0x12, 0x3c,
  0xe1, 0x39, 0xaf, 0xbe, 0x09, 0xd7, 0x75, 0x3d, 0xe8, 0xb2, 0xd9, 0xbb,
  0xc3, 0x1e, 0x8a, 0x3c, 0x0e, 0x16, 0x67, 0x3c, 0x54, 0x4e, 0x01, 0x3e,
  0x5f, 0x82, 0x35, 0x40, 0x64, 0xbe, 0xbe, 0xbd, 0x66, 0xc1, 0x91, 0x3e,
  0xd4, 0xa8, 0xd4, 0x3e, 0xac, 0xac, 0x5a, 0x3f, 0xba, 0xca, 0xc2, 0xbd,
  0xe7, 0x4e, 0x72, 0xbd, 0x55, 0xd0, 0xa5, 0x3e, 0xe2, 0x3b, 0x04, 0xbe,
  0x08, 0xbf, 0xcf, 0x3d, 0xa1, 0x4d, 0xc6, 0xbe, 0x2f, 0x34, 0xac, 0x3c,
  0x7e, 0x87, 0x13, 0xbe, 0x99, 0x7d, 0x22, 0xbe, 0x82, 0x4b, 0xa5, 0xbe,
  0x09, 0x72, 0xb2, 0x3d, 0x4a, 0x37, 0x3a, 0x40, 0xc3, 0xdd, 0x4e, 0xbe,
  0xd1, 0xf1, 0x07, 0x3e, 0x5f, 0xa8, 0x9e, 0x3d, 0x4f, 0x29, 0x59, 0x3e,
  0xbf, 0x07, 0x05, 0xbe, 0xf5, 0xdf, 0x4b, 0x3c, 0x5d, 0x78, 0x32, 0x3e,
  0x14, 0xb2, 0xfb, 0xbc, 0x6d, 0x3d, 0x53, 0x3d, 0x54, 0xa9, 0x8d, 0xbe,
  0x7e, 0xe7, 0xd1, 0x3c, 0x14, 0x63, 0x88, 0x3c, 0x1e, 0xf2, 0x26, 0x3e,
  0xb6, 0xc7, 0x7b, 0xbb, 0x1d, 0xc2, 0xc2, 0x3d, 0xd9, 0x21, 0x4a, 0x40,
  0x93, 0x40, 0x3b, 0xbe, 0x6b, 0x31, 0x08, 0x3e, 0x47, 0x19, 0x85, 0x3d,
  0x79, 0x23, 0x88, 0x3e, 0xca, 0xc1, 0x96, 0xbe, 0xc7, 0xfc, 0x83, 0x35,
  0xe3, 0x06, 0x8b, 0x3e, 0xdb, 0x80, 0x3f, 0xbe, 0x56, 0x97, 0x4c, 0x3e,
  0x9b, 0xfc, 0xad, 0xbe, 0x49, 0x3a, 0x70, 0x3d, 0x46, 0x84, 0x00, 0xbf,
  0x97, 0xcd, 0x8a, 0x3e, 0xff, 0x27, 0xcb, 0xbe, 0xf3, 0x89, 0x50, 0x3e,
  0x6f, 0x4b, 0x1f, 0x40, 0xa1, 0x53, 0xce, 0xbd, 0xbf, 0xde, 0x03, 0xbd,
  0x56, 0xb1, 0xcd, 0x3d, 0x1e, 0x64, 0x3e, 0x3d, 0xa5, 0x92, 0x7f, 0xbb,
  0x2e, 0xb7, 0xc3, 0x3c, 0xab, 0x8b, 0x5d, 0x3e, 0xa6, 0xd4, 0x8d, 0xbe,
  0xac, 0x09, 0x0c, 0xbe, 0x4d, 0xdf, 0xab, 0xbe, 0xa8, 0x17, 0x4c, 0xbe,
  0x45, 0x1e, 0xd6, 0xbe, 0xb5, 0xe1, 0x03, 0x3e, 0xb7, 0x5e, 0x75, 0xbe,
  0xc5, 0xd6, 0xb8, 0x3e, 0xe4, 0x82, 0x23, 0x40, 0x91, 0x4b, 0xcf, 0xbd,
  0xdb, 0x2d, 0xe4, 0x3d, 0x12, 0x92, 0x29, 0xbd, 0x0b, 0xb1, 0x9c, 0xbe,
  0x5d, 0xcd, 0x24, 0xbe, 0x2c, 0xb9, 0x71, 0xbd, 0x1a, 0xbc, 0xca, 0x3d,
  0xa9, 0x7b, 0xe6, 0xbd, 0x9e, 0xbf, 0x5e, 0xbe, 0xbf, 0x0f, 0xc0, 0xbd,
  0x26, 0xf8, 0x8d, 0x3d, 0x22, 0x8b, 0x42, 0xbe, 0x16, 0xec, 0x3e, 0x3d,
  0xbc, 0xf4, 0x30, 0xbe, 0xe8, 0x44, 0x88, 0x3c, 0xd4, 0xad, 0xf6, 0x3f,
  0x68, 0x2c, 0x3d, 0xbe, 0xed, 0x2a, 0x1f, 0x3d, 0xde, 0xb4, 0x0c, 0xbe,
  0x67, 0xfe, 0x98, 0xbe, 0x9d, 0x13, 0xe6, 0x3d, 0x7e, 0x40, 0x18, 0x39,
  0xaa, 0x9a, 0xd5, 0x3d, 0xc9, 0x16, 0xb3, 0xbe, 0xde, 0x73, 0x03, 0xbf,
  0x5f, 0xfd, 0xba, 0xbd, 0x80, 0xf2, 0x2e, 0x3e, 0xeb, 0x9e, 0x8a, 0xbe,
  0x68, 0x6d, 0x97, 0x3e, 0x7c, 0x33, 0xd6, 0xbe, 0x70, 0x7a, 0x41, 0x3e,
  0x6e, 0x42, 0xec, 0xbd, 0x09, 0x32, 0x8a, 0xbe, 0x5e, 0x19, 0x23, 0xbb,
  0xbb, 0x24, 0xdc, 0x3b, 0x4b, 0x16, 0x22, 0xbd, 0x28, 0x99, 0x8f, 0xbe,
  0xbd, 0x4e, 0x57, 0x3b, 0x71, 0xdc, 0x24, 0x3e, 0xab, 0x34, 0x1e, 0xbd,
  0x05, 0xe0, 0xbf, 0xbe, 0x8d, 0xb5, 0x9c, 0xbe, 0x24, 0x45, 0x05, 0xbb,
  0x14, 0xed, 0x0b, 0x3e, 0x4b, 0xb6, 0x90, 0x3e, 0x11, 0x09, 0x26, 0xbe,
  0x0b, 0x99, 0xcc, 0x3d, 0x31, 0xef, 0x16, 0x3d, 0xc6, 0x8a, 0xdd, 0xbd,
  0xfa, 0x4a, 0x6b, 0x3d, 0xda, 0x29, 0x03, 0x3e, 0xf9, 0x7f, 0x71, 0xbd,
  0xa2, 0xbb, 0xc1, 0xbe, 0xee, 0x72, 0x96, 0xbc, 0x37, 0x7b, 0x77, 0x3e,
  0x2d, 0x8a, 0xb2, 0xbc, 0xa8, 0xf0, 0x7a, 0x3d, 0xa8, 0x05, 0x9e, 0xbc,
  0x80, 0x05, 0xc8, 0xbd, 0x5a, 0x72, 0xe4, 0x3d, 0x2f, 0xbc, 0x3b, 0xbe,
  0x29, 0x0a, 0x37, 0xbe, 0x66, 0x69, 0xf1, 0x3d, 0x60, 0xd7, 0x10, 0x3e,
  0x53, 0x38, 0xee, 0xbc, 0x16, 0x2d, 0x3c, 0x3e, 0xa9, 0xef, 0x29, 0x3e,
  0x3b, 0x22, 0x60, 0xbe, 0xc1, 0x41, 0xb8, 0xbe, 0xc4, 0x2d, 0x6c, 0xbd,
  0xa8, 0x0f, 0x74, 0x3e, 0xa0, 0xf8, 0x52, 0xbe, 0x38, 0x34, 0x56, 0xbd,
  0x66, 0x0d, 0x8a, 0xbd, 0x56, 0x61, 0x43, 0xbc, 0x65, 0x88, 0xa2, 0xbd,
  0xa2, 0x80, 0x36, 0xbe, 0x88, 0x5c, 0xc8, 0xbe, 0xd5, 0x64, 0x10, 0x3d,
  0xf5, 0x96, 0x11, 0x3e, 0x68, 0xc3, 0x99, 0xbd, 0xb8, 0xb8, 0xbe, 0xbb,
  0xf7, 0xd0, 0x26, 0x3d, 0x31, 0x99, 0xa2, 0xbe, 0x93, 0x9d, 0xb2, 0xbe,
  0x8a, 0xfd, 0x6d, 0xbc, 0x5e, 0x1f, 0x25, 0x3e, 0x03, 0xa7, 0x69, 0xbb,
  0x5f, 0xb7, 0xe3, 0xbd, 0xc0, 0xc6, 0x37, 0xbe, 0x72, 0x31, 0x87, 0xbc,
  0x7f, 0xe6, 0x8f, 0xbe, 0x20, 0x72, 0x42, 0x3e, 0xe2, 0xb9, 0xed, 0xbe,
  0xfc, 0xb1, 0x98, 0x3d, 0xe4, 0xc4, 0xc7, 0xbd, 0xb3, 0x2f, 0x2d, 0xbe,
  0x78, 0xda, 0xc6, 0x3c, 0x03, 0x14, 0xbd, 0x3d, 0x6c, 0x6e, 0xde, 0xbe,
  0x1d, 0xe2, 0xf6, 0xbe, 0x74, 0x9a, 0x8f, 0x3c, 0xff, 0x97, 0xdb, 0x3d,
  0x2c, 0xaf, 0x68, 0xbe, 0x3d, 0x27, 0x3e, 0xbe, 0xa4, 0x04, 0x64, 0xbe,
  0xc1, 0x6e, 0x7c, 0x3d, 0xc8, 0x02, 0x99, 0xbe, 0x69, 0x0f, 0x15, 0xbc,
  0x5e, 0xb7, 0x5c, 0xbe, 0x6b, 0x8e, 0x28, 0x3e, 0x6c, 0x3d, 0x2d, 0xbe,
  0x8b, 0x3f, 0x26, 0xbe, 0x03, 0x3b, 0x5a, 0x3d, 0xab, 0x17, 0x49, 0xbd,
  0x0d, 0x24, 0xe5, 0xbc, 0xf5, 0x1b, 0x11, 0xbe, 0x5e, 0x70, 0xb4, 0x3b,
  0xc1, 0x0d, 0x9d, 0x3d, 0x1e, 0x46, 0x27, 0xbe, 0x70, 0x86, 0x9f, 0x3c,
  0xc7, 0x27, 0x74, 0x39, 0x54, 0x15, 0x14, 0xbe, 0xc3, 0xeb, 0x7e, 0xbd,
  0xd1, 0xcc, 0xb4, 0x3d, 0x17, 0x8d, 0xe1, 0xbc, 0x71, 0x10, 0xbf, 0xb9,
  0x34, 0xa0, 0x07, 0x3d, 0x86, 0xef, 0x67, 0xbe, 0x4c, 0x25, 0x59, 0xbd,
  0x00, 0x51, 0x31, 0x3d, 0xcb, 0xe3, 0xbc, 0x3e, 0x03, 0xb7, 0x88, 0xbe,
  0x32, 0x7e, 0xa9, 0xbe, 0xa3, 0x2d, 0xb9, 0xbd, 0x51, 0x52, 0xba, 0x3e,
  0xb8, 0x02, 0x2f, 0xbd, 0xa2, 0xb2, 0xbf, 0xbd, 0x1c, 0xad, 0xf7, 0xbd,
  0xe6, 0xcc, 0x24, 0x3e, 0x47, 0x06, 0xcf, 0x3d, 0x1e, 0x27, 0x3d, 0x3e,
  0x19, 0x53, 0x7d, 0xbe, 0x12, 0x71, 0x95, 0xbe, 0x8a, 0x1c, 0xd6, 0x3b,
  0xd7, 0xa5, 0x25, 0xbe, 0xbe, 0x9a, 0xcb, 0xbd, 0xdc, 0x1a, 0x81, 0x3d,
  0xcd, 0x14, 0x9a, 0xbe, 0xdb, 0xa4, 0x38, 0xbe, 0x1a, 0xec, 0x27, 0xbd,
  0x23, 0x17, 0xa4, 0xbd, 0x56, 0x1e, 0x85, 0x3b, 0xe6, 0xde, 0x02, 0x3d,
  0x54, 0x05, 0x35, 0xbe, 0x2b, 0x6d, 0x83, 0xbe, 0x73, 0xec, 0xaa, 0xbd,
  0x53, 0xcf, 0x8a, 0xbe, 0x27, 0x79, 0x00, 0xbe, 0xee, 0x7b, 0xcc, 0xbe,
  0x0d, 0xc3, 0xe9, 0x3c, 0x86, 0x66, 0x11, 0xbe, 0xd2, 0x27, 0xaf, 0xbe,
  0x7e, 0x15, 0x9b, 0xbe, 0xa8, 0x5e, 0xad, 0xbe, 0x86, 0xd3, 0x3c, 0xbd,
  0xc6, 0x40, 0x71, 0xbe, 0x6a, 0xe6, 0x42, 0xbe, 0x82, 0xa3, 0x07, 0xbe,
  0xbe, 0xff, 0x91, 0x3d, 0x16, 0xbb, 0x8d, 0x3d, 0x94, 0x1f, 0x7e, 0xbe,
  0xc1, 0x50, 0x3c, 0x3e, 0x19, 0xb1, 0x75, 0xbd, 0x74, 0x9c, 0xdb, 0xbe,
  0x86, 0xf8, 0xb1, 0xbe, 0x35, 0xe1, 0xa1, 0xbc, 0x6a, 0xd5, 0xcb, 0xbe,
  0x04, 0xae, 0x67, 0xbe, 0x14, 0x7f, 0x9a, 0xbd, 0xf4, 0xee, 0x7a, 0xbe,
  0xac, 0x42, 0x83, 0xbd, 0xad, 0xa0, 0xa5, 0x3b, 0xe6, 0x65, 0x57, 0xbe,
  0x26, 0x7e, 0x69, 0xbd, 0x80, 0xc2, 0xed, 0x3c, 0x93, 0x05, 0x96, 0x3e,
  0xd2, 0x4b, 0x68, 0xbe, 0x15, 0xf1, 0x46, 0x3d, 0x81, 0xa7, 0x41, 0xbe,
  0xae, 0x5b, 0x5c, 0xbd, 0x25, 0xc9, 0x9b, 0xbe, 0x91, 0xd6, 0x07, 0x3c,
  0xcf, 0x6c, 0xf6, 0xbd, 0xbe, 0x0c, 0x45, 0x3d, 0x16, 0xd9, 0xf9, 0x3e,
  0x74, 0x2d, 0x93, 0xbe, 0x66, 0xde, 0xe4, 0xbd, 0x5e, 0x86, 0x65, 0xbd,
  0x4f, 0x61, 0x76, 0x3e, 0x8f, 0xfd, 0xfa, 0xbd, 0xb6, 0x4f, 0x0b, 0x3d,
  0x31, 0x79, 0xba, 0xbd, 0xdf, 0xbc, 0x6d, 0x3e, 0x7d, 0x41, 0x4c, 0xbe,
  0x5c, 0xf8, 0x1d, 0x3e, 0xc6, 0x8c, 0x54, 0xbe, 0x9f, 0x24, 0x78, 0xbd,
  0xeb, 0xf4, 0x47, 0x3c, 0xe2, 0x74, 0x06, 0xbb, 0x94, 0x7f, 0x1d, 0x3d,
  0x78, 0x18, 0xfd, 0x3e, 0xdb, 0x19, 0x87, 0xbe, 0xac, 0x00, 0x1b, 0xbe,
  0x8c, 0x42, 0x49, 0x3b, 0x4c, 0xe1, 0x1f, 0x3e, 0x3d, 0x07, 0x74, 0x3e,
  0xc4, 0xba, 0xaf, 0x3d, 0x81, 0xf2, 0xc4, 0x3d, 0x74, 0x35, 0x63, 0x3e,
  0xd5, 0x80, 0x81, 0xbe, 0x07, 0x44, 0x38, 0x3e, 0x5b, 0x3b, 0x94, 0xbe,
  0xe5, 0x74, 0x4f, 0xbe, 0x3a, 0xee, 0x59, 0xbc, 0xb4, 0xb8, 0x93, 0xbb,
  0x4d, 0xf3, 0x9e, 0x3d, 0x26, 0x96, 0x96, 0x3e, 0xb1, 0x7e, 0x71, 0xbd,
  0x9f, 0x6f, 0xed, 0x3c, 0xa8, 0x16, 0xe4, 0xbc, 0x9c, 0x3d, 0xd6, 0x3d,
  0xdc, 0x36, 0xd2, 0x3d, 0xd0, 0xd7, 0xfd, 0x3c, 0xfd, 0xb9, 0x86, 0x3d,
  0x04, 0xa4, 0x86, 0x3d, 0xed, 0x76, 0x38, 0x3d, 0xc1, 0x61, 0x98, 0x3d,
  0xb5, 0xa8, 0x78, 0xbd, 0x9a, 0x99, 0x82, 0x3d, 0x32, 0x55, 0xc8, 0x3c,
  0x75, 0x16, 0x22, 0xbd, 0x7b, 0xd7, 0x10, 0x3e, 0x68, 0x9b, 0x80, 0x3e,
  0x57, 0xc5, 0x03, 0xbe, 0x49, 0xbd, 0xf1, 0xbe, 0x8d, 0xae, 0x25, 0xbe,
  0x1c, 0xe8, 0x9b, 0x3d, 0x3d, 0x44, 0x2c, 0xbe, 0x74, 0x85, 0x8c, 0x3d,
  0xf9, 0x5e, 0xed, 0xbd, 0x4c, 0x77, 0x58, 0x3e, 0xe4, 0xed, 0x4e, 0xba,
  0x0a, 0xb9, 0xda, 0x3d, 0x69, 0xdd, 0x1d, 0xbe, 0x5e, 0xe4, 0xf3, 0x3b,
  0x35, 0x7b, 0x07, 0xbd, 0x9b, 0x70, 0x80, 0x3d, 0xd9, 0x4d, 0x4b, 0x3e,
  0x54, 0xf7, 0x46, 0x3e, 0xb2, 0x15, 0xa4, 0xbe, 0xf5, 0xd7, 0x4c, 0xbd,
  0xd0, 0x67, 0x1e, 0x3d, 0x55, 0xf7, 0x00, 0x3e, 0x25, 0x31, 0x9d, 0xbe,
  0x9f, 0x5d, 0x04, 0xbd, 0x4a, 0xcf, 0xf0, 0x3d, 0x6d, 0x92, 0xd7, 0x3b,
  0xcd, 0x38, 0x1a, 0xbd, 0x21, 0xa1, 0x56, 0x3e, 0x4a, 0xd0, 0xd9, 0xbd,
  0xe7, 0x42, 0xe9, 0xbd, 0x2c, 0xa1, 0xce, 0xbd, 0x0e, 0x08, 0x8f, 0xbd,
  0xa9, 0xd5, 0x98, 0xbe, 0x13, 0x9f, 0x00, 0xbe, 0xb9, 0xbf, 0x76, 0xbe,
  0x11, 0x7e, 0xdb, 0x3c, 0x04, 0xac, 0x6a, 0x3e, 0x36, 0x60, 0x73, 0x3d,
  0x30, 0x22, 0xbf, 0xbc, 0x39, 0xe0, 0x28, 0xbe, 0xf9, 0xdc, 0xdf, 0x3c,
  0x85, 0x73, 0xa4, 0xbe, 0x10, 0xff, 0x3c, 0xbd, 0xe3, 0xb8, 0x13, 0xbe,
  0xfc, 0x2d, 0xd7, 0xbd, 0x36, 0x32, 0x0b, 0x3e, 0x23, 0xcc, 0xbc, 0xbd,
  0xbe, 0x5e, 0xcd, 0xbe, 0x81, 0x97, 0x52, 0xbf, 0x09, 0x94, 0xaf, 0xbd,
  0x2c, 0xcb, 0x29, 0xbb, 0xd1, 0x57, 0xe2, 0x3d, 0xa4, 0xef, 0xc7, 0xbe,
  0x9f, 0xa1, 0x5e, 0xbe, 0x5d, 0x86, 0x28, 0xbe, 0xa8, 0x5d, 0xe4, 0xbd,
  0x42, 0xd7, 0xae, 0x3d, 0x72, 0x11, 0xe7, 0xbe, 0x2e, 0xfa, 0x1d, 0xbe,
  0x30, 0x40, 0x83, 0xbe, 0x69, 0x8f, 0x7a, 0xbe, 0x65, 0xf3, 0xef, 0xbd,
  0x04, 0xa4, 0x66, 0xbd, 0xdb, 0x94, 0xe7, 0xbe, 0x62, 0x54, 0xd8, 0x3c,
  0x8c, 0x0d, 0x10, 0x3f, 0xa8, 0x69, 0x81, 0xbe, 0x2c, 0x10, 0x9c, 0x3d,
  0x57, 0xf6, 0x5e, 0xbe, 0x0f, 0x12, 0xde, 0x3d, 0x93, 0xa3, 0x58, 0xbe,
  0xb5, 0xd5, 0x28, 0xbe, 0xf0, 0x76, 0x52, 0xbe, 0xa9, 0xf9, 0x47, 0xbe,
  0xac, 0x45, 0x04, 0xbe, 0xd8, 0x68, 0x33, 0xbe, 0xd6, 0x0b, 0xa1, 0xbe,
  0x3e, 0x32, 0xd4, 0x3d, 0xb6, 0x2c, 0x00, 0xbe, 0x79, 0xc2, 0x49, 0xbe,
  0x95, 0x9a, 0x24, 0xbe, 0xcf, 0xf4, 0x21, 0x3f, 0x8b, 0x39, 0x7e, 0xbd,
  0x5c, 0x42, 0xc4, 0x3c, 0x78, 0xe5, 0x13, 0xbe, 0x74, 0x4e, 0x7f, 0x3e,
  0xab, 0xaf, 0x9e, 0xbe, 0x45, 0xb1, 0x0f, 0xbe, 0xaa, 0x0f, 0x32, 0xbe,
  0x24, 0xbf, 0x95, 0x3e, 0x97, 0x15, 0x88, 0xbe, 0xb5, 0x58, 0x37, 0xbb,
  0xc3, 0xbb, 0x96, 0xbe, 0x09, 0x31, 0x23, 0x3e, 0xb7, 0x02, 0xc6, 0xbd,
  0x7b, 0x70, 0xd5, 0x3d, 0x34, 0xa8, 0xa1, 0x3c, 0xae, 0xfa, 0xca, 0x3e,
  0x0c, 0x4a, 0x36, 0xbd, 0x46, 0x3a, 0x49, 0xbb, 0x2f, 0x37, 0x09, 0xbe,
  0x49, 0xcf, 0x55, 0x3e, 0x2c, 0xa9, 0xd4, 0xbd, 0xc3, 0x68, 0xf3, 0xbd,
  0x8a, 0xe1, 0xc0, 0xbc, 0x9c, 0xb8, 0x78, 0xbc, 0xfa, 0x0b, 0x22, 0x3e,
  0xda, 0x1b, 0x73, 0x3e, 0x9d, 0x67, 0xfe, 0xbd, 0x9f, 0x1c, 0x08, 0xbd,
  0x19, 0x55, 0xa8, 0x3c, 0xb6, 0x26, 0xff, 0x3c, 0x73, 0x6f, 0xfa, 0xbd,
  0x91, 0x4a, 0x5a, 0x3c, 0xe7, 0x85, 0xfd, 0xbd, 0x1a, 0x43, 0x2a, 0x3e,
  0x76, 0x58, 0x0a, 0x3e, 0xdc, 0x52, 0x97, 0xbe, 0x42, 0x6a, 0xc1, 0xba,
  0x6f, 0x16, 0xb9, 0xbe, 0x17, 0xd7, 0x50, 0xbe, 0xb9, 0xa2, 0x85, 0xbe,
  0x69, 0x25, 0xd6, 0x3d, 0x3c, 0x44, 0xa6, 0xbe, 0x18, 0xdb, 0x9a, 0x3e,
  0x69, 0xe3, 0x26, 0x40, 0x5f, 0x9d, 0xba, 0xbe, 0x49, 0xec, 0xb9, 0xbb,
  0xa3, 0x3e, 0xc1, 0x3d, 0xef, 0xe0, 0x9f, 0x3f, 0xab, 0x62, 0x66, 0xbe,
  0x2d, 0x95, 0xbb, 0x3b, 0xf1, 0xd0, 0x02, 0xbc, 0x3a, 0x8a, 0xbb, 0x3c,
  0xd9, 0x73, 0x21, 0xbe, 0x32, 0x28, 0x83, 0xbe, 0x2d, 0x4e, 0x7b, 0xbe,
  0xca, 0x19, 0xa1, 0xbc, 0xfd, 0x0d, 0x64, 0x3e, 0x94, 0x6e, 0x84, 0xbe,
  0x36, 0x00, 0x7e, 0x3e, 0xea, 0x1d, 0x3b, 0x40, 0xa3, 0x14, 0xc4, 0xbd,
  0x43, 0x00, 0xa6, 0x3e, 0x3c, 0xb9, 0xe3, 0x3e, 0x01, 0xf1, 0xfe, 0x3e,
  0xd8, 0x03, 0xe0, 0xbe, 0xba, 0xd7, 0x6f, 0xbe, 0xf7, 0xc2, 0x44, 0x3e,
  0xa8, 0xb6, 0xd5, 0x3d, 0x93, 0x52, 0x88, 0xbd, 0x09, 0x6b, 0xd5, 0xbd,
  0x79, 0x4d, 0x45, 0x3d, 0x02, 0x04, 0x00, 0x3d, 0x4c, 0x8a, 0x3c, 0x3d,
  0x07, 0xe9, 0x3a, 0xbe, 0x73, 0x52, 0xeb, 0xbc, 0x33, 0xd8, 0x25, 0x40,
  0x3c, 0x6a, 0x2b, 0xbd, 0xa3, 0x63, 0x6d, 0x3e, 0xf0, 0xdc, 0xde, 0x3e,
  0x94, 0xda, 0xa7, 0x3f, 0x46, 0xbe, 0x4d, 0xbe, 0x2d, 0xf8, 0x61, 0xbd,
  0x33, 0xdb, 0x8a, 0x3d, 0xcc, 0x3b, 0xd0, 0x3c, 0x7e, 0xe7, 0x0a, 0xbe,
  0x06, 0x80, 0xfb, 0xbd, 0x82, 0xaf, 0xb0, 0xbd, 0x6c, 0xe1, 0x18, 0xbe,
  0x2c, 0x28, 0xa9, 0xbd, 0xed, 0x8b, 0x7c, 0xbe, 0x2d, 0xa8, 0xed, 0x3d,
  0x00, 0x84, 0x13, 0x40, 0xea, 0xb8, 0x09, 0xbe, 0xb1, 0xa1, 0x15, 0x3d,
  0xf7, 0x4b, 0x1e, 0x3d, 0x82, 0x16, 0x79, 0x3e, 0xe2, 0xa9, 0xb5, 0xbe,
  0xd2, 0xf9, 0x15, 0x3d, 0x6f, 0x03, 0xf8, 0x3e, 0xe6, 0x9e, 0x91, 0x3d,
  0xd1, 0x2b, 0xba, 0xbd, 0x30, 0x57, 0xb0, 0xbd, 0x1d, 0x18, 0x87, 0x3d,
  0x4d, 0xd7, 0x7d, 0xbe, 0x5a, 0xb9, 0x83, 0x3e, 0xa2, 0x4c, 0xd7, 0xbe,
  0xce, 0xef, 0x6f, 0x3e, 0xf9, 0xcb, 0x10, 0x40, 0x71, 0x83, 0x0d, 0xbc,
  0x5b, 0x17, 0x4f, 0xbe, 0xbe, 0x61, 0x68, 0xbc, 0xbf, 0xe7, 0xa4, 0x3e,
  0x44, 0xa6, 0x79, 0xbe, 0x8b, 0x90, 0x96, 0x3c, 0x05, 0xbf, 0xa4, 0x3e,
  0xc0, 0xcb, 0x75, 0xbd, 0xaa, 0x52, 0xd4, 0x3d, 0x79, 0xe9, 0xc5, 0xbd,
  0x5c, 0xc1, 0x8a, 0xbd, 0xea, 0xa6, 0xd5, 0xbd, 0xb7, 0x1b, 0xaf, 0xbd,
  0x96, 0x1f, 0x28, 0xbe, 0x2e, 0x32, 0xe2, 0xbc, 0x02, 0xa9, 0x10, 0x40,
  0xfd, 0x9f, 0xa9, 0xbc, 0xed, 0x30, 0x8b, 0x3c, 0x01, 0xf1, 0x4f, 0x3e,
  0x53, 0x47, 0x07, 0xbe, 0xdb, 0x1c, 0x7c, 0xbe, 0xb6, 0x8f, 0xd0, 0x3d,
  0x9e, 0xe5, 0x97, 0xbe, 0xe4, 0x7e, 0x0a, 0xbd, 0x38, 0x6f, 0x1b, 0x3e,
  0xe8, 0x7a, 0xbb, 0xbc, 0xd3, 0x6a, 0x21, 0x39, 0xf3, 0x80, 0x6c, 0xbe,
  0xe6, 0xe8, 0xbc, 0xbe, 0xda, 0x70, 0x1b, 0xbe, 0x0a, 0x0f, 0x8a, 0x38,
  0xe6, 0x0b, 0x2b, 0x40, 0x37, 0x7f, 0x6a, 0xbd, 0xd3, 0xba, 0x56, 0xbe,
  0xf7, 0x77, 0xc1, 0xbc, 0x82, 0x14, 0x39, 0x3e, 0xe7, 0xc8, 0x50, 0xbe,
  0xb4, 0x91, 0x8d, 0x3c, 0x58, 0x5d, 0x25, 0xbe, 0x59, 0x07, 0x30, 0xbe,
  0x1d, 0xca, 0xa2, 0x3d, 0x92, 0x1b, 0xb4, 0xbd, 0xf3, 0xd4, 0xa1, 0x3c,
  0x8f, 0x1d, 0x43, 0x3b, 0xa7, 0xfa, 0x83, 0x3c, 0xca, 0xf8, 0xac, 0x3d,
  0xaa, 0xde, 0xac, 0xbd, 0xa3, 0x37, 0x00, 0x3e, 0x8e, 0x50, 0x2a, 0x39,
  0x23, 0xbf, 0x07, 0xbe, 0xf8, 0x2d, 0x82, 0x3c, 0x2a, 0x0d, 0x34, 0x3f,
  0xe3, 0xda, 0xe0, 0xbd, 0xce, 0x00, 0x90, 0xbd, 0xdc, 0x21, 0x23, 0xbe,
  0x06, 0xeb, 0x72, 0x3d, 0x78, 0x08, 0x75, 0xbd, 0x01, 0x5e, 0x2b, 0xbe,
  0x6d, 0x59, 0x00, 0xbe, 0x3f, 0x40, 0x00, 0xbe, 0x77, 0x95, 0xbf, 0x3c,
  0xb6, 0xe7, 0xf8, 0xbc, 0x76, 0xab, 0x91, 0xbc, 0xb3, 0xca, 0xe6, 0x3d,
  0x02, 0x6a, 0x7c, 0xbd, 0x7c, 0x0c, 0x27, 0xbd, 0xde, 0x6e, 0xf1, 0x3d,
  0xb0, 0x9c, 0xc8, 0x3e, 0x9d, 0xd3, 0x10, 0x3e, 0x87, 0x10, 0x13, 0xbd,
  0xf4, 0x3d, 0xef, 0x3c, 0x07, 0xe7, 0xcd, 0x3d, 0x42, 0x3c, 0xcc, 0x3d,
  0x50, 0x69, 0xf5, 0xbd, 0xf3, 0xe0, 0x1b, 0x3e, 0x44, 0x7a, 0x7f, 0x3b,
  0xbe, 0x70, 0x41, 0x3e, 0x88, 0xc6, 0x22, 0xbc, 0xd2, 0x93, 0xe9, 0x3c,
  0x73, 0xa8, 0x46, 0x3e, 0x50, 0x4c, 0xc5, 0xbd, 0x2b, 0x29, 0x6b, 0xbe,
  0x47, 0xa1, 0x13, 0xbe, 0xd5, 0x29, 0x2f, 0x3f, 0x9d, 0x20, 0xb4, 0x3c,
  0x25, 0x60, 0x49, 0xbe, 0xb2, 0xbd, 0xdf, 0x3d, 0x1a, 0x0c, 0x84, 0x3d,
  0xe3, 0xc0, 0xc5, 0x3d, 0xa8, 0x7f, 0x8f, 0xbe, 0x5c, 0x51, 0x6b, 0xbd,
  0x7c, 0x29, 0x3b, 0xbe, 0x12, 0xf9, 0xdd, 0x3d, 0xb6, 0x7b, 0x6e, 0xbe,
  0x11, 0xc2, 0x22, 0xbe, 0xcb, 0xa9, 0x93, 0x3e, 0xc0, 0xc7, 0x5f, 0xbe,
  0x6c, 0x67, 0x3f, 0xbc, 0x77, 0xab, 0x7b, 0x3c, 0x72, 0x84, 0x1f, 0x3f,
  0xde, 0x7d, 0xb0, 0x3d, 0x6c, 0xae, 0x90, 0xbe, 0x1c, 0x78, 0x08, 0x3e,
  0x20, 0x17, 0xe0, 0xbd, 0xb4, 0x71, 0xf6, 0xba, 0xb9, 0x96, 0xd9, 0xbd,
  0xfe, 0x62, 0x21, 0x3e, 0x99, 0x8c, 0xf0, 0x3c, 0xa0, 0x4e, 0xb3, 0x3d,
  0x43, 0x06, 0x3a, 0x3d, 0xda, 0xab, 0x87, 0xbe, 0x0d, 0x56, 0x13, 0x3e,
  0x12, 0xd1, 0xc8, 0xbc, 0x2d, 0x5e, 0xc1, 0xbd, 0x67, 0xbe, 0x56, 0xbc,
  0x9e, 0xe5, 0x39, 0x3f, 0x0b, 0x8c, 0xf1, 0x3b, 0x51, 0xbf, 0x35, 0xbe,
  0x52, 0xbf, 0x77, 0xbc, 0x3e, 0x2c, 0xef, 0x3d, 0x31, 0xaf, 0xd1, 0x3d,
  0xbc, 0x02, 0x5f, 0xbc, 0x90, 0xb1, 0xae, 0x3d, 0x4d, 0x14, 0xee, 0xbc,
  0x4c, 0x63, 0x54, 0xbe, 0x52, 0x7e, 0x2f, 0xbe, 0x05, 0x54, 0xcf, 0xbd,
  0xbb, 0xe7, 0x9e, 0x3e, 0xbf, 0x6a, 0x46, 0xbe, 0xfc, 0x03, 0x7b, 0xbd,
  0x8c, 0xe2, 0x83, 0xbe, 0xf4, 0x23, 0xa4, 0x3e, 0x56, 0x0a, 0xee, 0xbc,
  0xbe, 0x9d, 0x10, 0xbe, 0x39, 0x56, 0xc9, 0xbc, 0xd8, 0xc6, 0x34, 0x3e,
  0x41, 0x62, 0x02, 0xbe, 0xe7, 0xef, 0xa2, 0xbe, 0x46, 0x0e, 0xb7, 0xbd,
  0x78, 0x68, 0xd6, 0xbd, 0x45, 0xaf, 0xc3, 0xbc, 0x67, 0x79, 0x88, 0xbe,
  0x2c, 0x8c, 0x1e, 0xbe, 0x40, 0x65, 0x13, 0x3e, 0x1d, 0x04, 0x61, 0xbe,
  0xd8, 0x8d, 0xbc, 0xbe, 0xd9, 0x29, 0x88, 0x39, 0xbe, 0x8e, 0xed, 0xbd,
  0x22, 0x31, 0x6e, 0x3e, 0xc5, 0x05, 0xb1, 0x3d, 0xdc, 0xce, 0xfb, 0xbc,
  0xed, 0x8f, 0xde, 0xbd, 0xdc, 0x21, 0x2b, 0x3e, 0x9a, 0x93, 0xa0, 0x3b,
  0xbd, 0xc1, 0x09, 0x3e, 0x98, 0xc8, 0x86, 0xbd, 0xef, 0x54, 0x69, 0xbe,
  0x9f, 0xb5, 0x73, 0xbe, 0x1c, 0x48, 0x6d, 0xbd, 0xc0, 0x22, 0xb3, 0xbe,
  0xfb, 0x97, 0xbd, 0x3e, 0x1e, 0xbc, 0xcd, 0xbe, 0xef, 0xae, 0xe9, 0x3d,
  0x6f, 0x78, 0xb1, 0xbe, 0x94, 0x1a, 0x12, 0xbd, 0xe4, 0x71, 0xc9, 0xbd,
  0xae, 0xf7, 0x16, 0xbe, 0xc9, 0x39, 0x3b, 0xbe, 0xc6, 0xaa, 0xbd, 0x3e,
  0xbe, 0xd1, 0xc3, 0x3d, 0xf7, 0xc0, 0xc6, 0x3e, 0xf0, 0xba, 0xbc, 0xbc,
  0xaa, 0xe5, 0x9c, 0x3d, 0x2f, 0x81, 0xc2, 0x3b, 0xab, 0x11, 0xae, 0xbd,
  0xa0, 0x1f, 0xb0, 0xbe, 0xb2, 0x01, 0x17, 0xbe, 0x9c, 0x1c, 0xa1, 0xbe,
  0xdf, 0xbe, 0x30, 0x3d, 0x0e, 0x49, 0x99, 0xbe, 0x1f, 0x62, 0xee, 0xbc,
  0x34, 0x78, 0x67, 0xbe, 0xc4, 0xec, 0x33, 0xbe, 0x19, 0xf1, 0x0a, 0x3e,
  0x9f, 0xa1, 0x04, 0x3e, 0xfe, 0x5d, 0x0d, 0x3d, 0xf7, 0x85, 0x44, 0x3e,
  0xd5, 0x05, 0x72, 0xbd, 0x6f, 0x77, 0x12, 0x3e, 0x2c, 0x1e, 0x03, 0xbe,
  0xe5, 0x48, 0x7e, 0x3e, 0x1b, 0x49, 0xd6, 0xbe, 0x80, 0x6b, 0x80, 0xbd,
  0xf7, 0xc4, 0xc9, 0xbe, 0x42, 0x83, 0x7e, 0xbd, 0x17, 0x7d, 0xab, 0xbd,
  0x50, 0x2d, 0x91, 0x3c, 0x69, 0x3e, 0xa1, 0xbd, 0x47, 0xa3, 0xc3, 0xbd,
  0xf8, 0xc5, 0x45, 0x3c, 0x52, 0xc5, 0xe0, 0x3e, 0xad, 0x7c, 0x95, 0x3c,
  0x73, 0xdd, 0xb3, 0x3e, 0xe4, 0x83, 0x06, 0xbe, 0xba, 0xf3, 0x89, 0x3e,
  0x2b, 0x5c, 0xe2, 0x3e, 0xd1, 0xa1, 0x17, 0x3e, 0xe0, 0x4c, 0xa3, 0xbe,
  0x49, 0xdf, 0x86, 0x3c, 0x14, 0x2a, 0xad, 0xbe, 0x76, 0x55, 0x8a, 0xbd,
  0x92, 0xe0, 0x2f, 0xbe, 0xea, 0xe7, 0x3e, 0x3e, 0x1d, 0x15, 0xd1, 0xbd,
  0xd8, 0x43, 0xb3, 0x3c, 0xe8, 0x30, 0xb3, 0x3d, 0xc0, 0x58, 0x07, 0x3f,
  0x0b, 0x8f, 0xb9, 0x3d, 0x92, 0x0b, 0xe2, 0x3e, 0x02, 0x2b, 0xdb, 0xbd,
  0xa5, 0xd0, 0x8e, 0x3e, 0xfe, 0x37, 0x69, 0x3e, 0x5b, 0xac, 0x76, 0x3e,
  0x8e, 0x7c, 0x98, 0xbe, 0x09, 0x81, 0xd1, 0x3d, 0xb5, 0x6d, 0x9b, 0xbe,
  0xe8, 0xce, 0x1c, 0xbe, 0x65, 0x3d, 0x98, 0xbd, 0x6a, 0xca, 0xe1, 0xbd,
  0xe4, 0xd3, 0x35, 0xbd, 0xa1, 0xd0, 0xdc, 0xbd, 0xc6, 0xe0, 0xd8, 0xbc,
  0x95, 0x91, 0x05, 0x3f, 0xb3, 0xcb, 0xad, 0x3c, 0xe1, 0xd5, 0x87, 0x3e,
  0x32, 0xe7, 0x2c, 0xbe, 0xda, 0x05, 0x45, 0x3e, 0x86, 0x5c, 0xc6, 0x3d,
  0xde, 0x46, 0x23, 0x3e, 0x0e, 0xba, 0x86, 0xbe, 0xdd, 0x55, 0xcf, 0xbd,
  0xc3, 0x86, 0x99, 0xbe, 0xe5, 0x4b, 0xff, 0xbd, 0x66, 0x79, 0xf7, 0x3d,
  0x01, 0x93, 0x86, 0x3e, 0xb7, 0xb8, 0xea, 0x3d, 0xfe, 0x00, 0x39, 0xbc,
  0x95, 0x9c, 0x82, 0xbe, 0x15, 0xce, 0x48, 0x3e, 0x5b, 0x52, 0x8a, 0x3d,
  0xb3, 0x95, 0xbc, 0x3e, 0xe8, 0xb1, 0xda, 0xbd, 0x7d, 0x30, 0xa3, 0xbd,
  0x27, 0x81, 0xb5, 0x3d, 0x6e, 0x6a, 0x58, 0x3d, 0x05, 0x94, 0x8e, 0xbe,
  0xdd, 0x91, 0x3b, 0xbc, 0x7b, 0xe5, 0xed, 0xbe, 0x8f, 0x2a, 0x4d, 0xbe,
  0x89, 0x7d, 0xac, 0x3e, 0x7a, 0x75, 0x34, 0x3e, 0xb1, 0xd6, 0x60, 0x3d,
  0x1c, 0x9e, 0x23, 0xbe, 0x53, 0x39, 0xb8, 0xbd, 0x04, 0x81, 0x11, 0x3f,
  0x59, 0x8f, 0x0c, 0xbe, 0x75, 0x15, 0x2a, 0x3e, 0x40, 0xe5, 0x84, 0xbe,
  0x93, 0x09, 0xa7, 0xbd, 0x25, 0xa4, 0x0e, 0x3d, 0xb2, 0x52, 0x20, 0xbd,
  0x62, 0x3b, 0x2b, 0x40, 0x89, 0xd9, 0x95, 0xbe, 0xe2, 0x4f, 0x9a, 0xbe,
  0x67, 0x76, 0x84, 0xbe, 0xba, 0xf4, 0xdc, 0x3f, 0x97, 0x81, 0x23, 0x3f,
  0x6e, 0xf3, 0x52, 0xbd, 0x76, 0x35, 0x02, 0xbe, 0xa4, 0xcd, 0x7d, 0x3d,
  0xac, 0x19, 0x89, 0x3e, 0x1c, 0x1d, 0xaa, 0xbe, 0x24, 0x50, 0x2d, 0xbc,
  0x7e, 0x08, 0x81, 0xbe, 0x76, 0xf4, 0xfc, 0xbd, 0x42, 0xf8, 0x61, 0xbe,
  0x57, 0x88, 0xb4, 0xbd, 0xa0, 0xdf, 0x27, 0x40, 0x4e, 0x6b, 0xa8, 0xbd,
  0x55, 0x50, 0x8a, 0xbe, 0xbf, 0x1d, 0x09, 0xbe, 0xf0, 0x86, 0xf6, 0x3f,
  0x7d, 0xba, 0x18, 0x3f, 0x21, 0xf0, 0x07, 0x3c, 0x85, 0x95, 0xda, 0xbd,
  0x38, 0x5e, 0x9d, 0x3d, 0x56, 0x2b, 0xe8, 0x3e, 0xc4, 0x1c, 0x02, 0xbf,
  0x38, 0x65, 0x07, 0x3e, 0x81, 0x5d, 0x75, 0xbe, 0xaa, 0xee, 0xb3, 0x3d,
  0x6d, 0x2c, 0xe3, 0x3c, 0x82, 0xe8, 0x63, 0xbc, 0x94, 0x9a, 0x3b, 0x40,
  0xd6, 0x18, 0x58, 0xbd, 0xda, 0x56, 0x2e, 0xbe, 0x21, 0xba, 0xbe, 0xba,
  0x67, 0x47, 0x49, 0x3f, 0x32, 0x2f, 0xc9, 0xbd, 0x85, 0x3c, 0xeb, 0xbd,
  0x73, 0x58, 0x9f, 0xbe, 0xa1, 0x14, 0xcc, 0xbd, 0x45, 0x56, 0x6a, 0x3e,
  0x9e, 0x80, 0x42, 0xbe, 0x21, 0xa3, 0xba, 0x3d, 0x0f, 0x5e, 0x3a, 0xbd,
  0x3f, 0xd0, 0x27, 0xbe, 0x79, 0xb2, 0x19, 0xbc, 0xe1, 0x64, 0x31, 0xbe,
  0xe4, 0x07, 0x36, 0x40, 0x4b, 0xc2, 0x9b, 0xbd, 0xcb, 0x06, 0xa7, 0x3c,
  0x5b, 0x2f, 0x9a, 0x3e, 0x6a, 0x3e, 0xee, 0x3e, 0x80, 0xbf, 0xaa, 0x3d,
  0x37, 0xef, 0x8c, 0xbd, 0x06, 0x82, 0x9b, 0xbc, 0x39, 0xbb, 0xfa, 0xbd,
  0x39, 0x5f, 0x61, 0x3e, 0x34, 0x77, 0x08, 0xbe, 0x14, 0xeb, 0xcb, 0xbd,
  0xc1, 0x17, 0x94, 0xbe, 0x3d, 0xd3, 0x5c, 0x3e, 0xef, 0xe9, 0x91, 0xbe,
  0xcb, 0xcf, 0xd5, 0x3e, 0x86, 0xbc, 0x21, 0x40, 0xaf, 0xc0, 0x50, 0xbe,
  0x3f, 0x6e, 0x2e, 0xbd, 0xf1, 0x9e, 0x3a, 0xbe, 0x87, 0x7f, 0xa1, 0x3e,
  0xd3, 0xf0, 0x18, 0x3d, 0x6d, 0x64, 0xc3, 0xbc, 0x84, 0xb1, 0xce, 0x3e,
  0xaa, 0xd4, 0x19, 0xbe, 0xa4, 0xd7, 0x47, 0x3d, 0x3c, 0x4d, 0xbe, 0xbe,
  0x65, 0x70, 0xdc, 0x3d, 0x89, 0x49, 0x07, 0xbe, 0x1a, 0x07, 0x88, 0x3e,
  0xe7, 0x67, 0x52, 0xbe, 0x06, 0xdc, 0x60, 0x3e, 0xa8, 0x0c, 0x29, 0x40,
  0x31, 0x7f, 0x61, 0xbd, 0x12, 0x5a, 0x04, 0xbd, 0x25, 0xd4, 0x40, 0x3e,
  0xbc, 0xc0, 0x6c, 0x3e, 0x20, 0x0f, 0x27, 0xbe, 0x25, 0xce, 0x86, 0xbe,
  0xb8, 0xcf, 0x1c, 0xbe, 0x10, 0xba, 0xb4, 0x3d, 0xc1, 0xea, 0x95, 0xbe,
  0x95, 0xf0, 0xab, 0xbe, 0xe0, 0xf9, 0x24, 0x3e, 0x2d, 0x3d, 0xc1, 0xbd,
  0x5e, 0x0e, 0xaa, 0xbe, 0x42, 0x82, 0x5a, 0xbe, 0xc1, 0x0b, 0x80, 0xbd,
  0x58, 0xfa, 0xd3, 0x3f, 0x84, 0x09, 0x9b, 0xbe, 0x05, 0xd8, 0x10, 0xbe,
  0xd2, 0x86, 0x4c, 0xbe, 0x78, 0xe8, 0x73, 0xbe, 0xa9, 0x25, 0x91, 0xbe,
  0xd0, 0x5a, 0x06, 0xbf, 0x66, 0xad, 0x31, 0xbe, 0x72, 0x07, 0xa2, 0xbe,
  0x53, 0xaf, 0x5f, 0xbe, 0xcc, 0xd6, 0xb5, 0xbd, 0x7e, 0xb1, 0x31, 0x3d,
  0xf5, 0x95, 0x89, 0xbe, 0x31, 0x0f, 0x4a, 0xbe, 0x9e, 0xaa, 0xcf, 0xbe,
  0x21, 0xed, 0x0f, 0xbb, 0x72, 0x2d, 0xdb, 0x3d, 0x4f, 0x60, 0x3d, 0x3d,
  0x7a, 0x3f, 0xe6, 0xbb, 0xba, 0x79, 0x7c, 0xbd, 0x97, 0xbe, 0x4e, 0xbe,
  0x34, 0x08, 0x41, 0x3d, 0x0e, 0x93, 0x08, 0xbf, 0x6e, 0x14, 0x93, 0xbd,
  0x0c, 0x31, 0xe6, 0xbd, 0x17, 0xc5, 0x91, 0xbe, 0x11, 0x9d, 0x31, 0x3c,
  0x4f, 0x41, 0x77, 0xbe, 0x78, 0x48, 0x1e, 0xbe, 0x1d, 0xc7, 0x0d, 0xbe,
  0x76, 0x05, 0x8b, 0xbc, 0x4e, 0x35, 0x8e, 0xbe, 0xe5, 0x9c, 0x15, 0xbe,
  0xcf, 0x07, 0x38, 0x3c, 0x60, 0x36, 0x56, 0xbe, 0x85, 0x7d, 0x0c, 0xbb,
  0x26, 0xbe, 0x13, 0xbe, 0x16, 0x38, 0x37, 0xbe, 0xfe, 0x2a, 0x20, 0xbf,
  0x46, 0x2c, 0x44, 0x3d, 0xb1, 0x3f, 0x06, 0x3e, 0xc3, 0xb8, 0xae, 0xbe,
  0xa3, 0xd1, 0x21, 0x3d, 0x48, 0x4d, 0x4d, 0x3d, 0xed, 0xaf, 0x05, 0x3d,
  0x21, 0xaf, 0x20, 0xbe, 0x45, 0x31, 0x95, 0xbe, 0xb9, 0xa8, 0x8e, 0xbe,
  0xb2, 0xeb, 0x6f, 0xbd, 0xa3, 0x49, 0xb0, 0x3b, 0xed, 0x23, 0x9c, 0xbe,
  0x45, 0xb7, 0xce, 0xbd, 0xa0, 0xf6, 0x22, 0xbe, 0x07, 0xc5, 0xa1, 0x3d,
  0xd3, 0x84, 0x12, 0xbf, 0x8c, 0x91, 0x25, 0x3d, 0x6f, 0x3f, 0xfc, 0xbd,
  0x38, 0x58, 0x66, 0xbe, 0xb9, 0x0b, 0xc8, 0xbd, 0x1b, 0xe8, 0x55, 0xbc,
  0x81, 0x8a, 0xed, 0xbe, 0x5f, 0xa7, 0x04, 0xbe, 0x11, 0x65, 0xdb, 0xbe,
  0x48, 0x94, 0x58, 0xbe, 0x1f, 0x47, 0x60, 0xbd, 0xe1, 0x90, 0x9e, 0x3d,
  0xa9, 0xbd, 0x23, 0x39, 0xf1, 0xcb, 0xc3, 0x3d, 0x33, 0x48, 0x23, 0x3f,
  0x58, 0x6d, 0x83, 0xbe, 0x3d, 0x71, 0xee, 0xbe, 0xd4, 0xae, 0xc1, 0x3d,
  0x55, 0x39, 0x7b, 0x3e, 0xe5, 0x49, 0x1d, 0xbe, 0x52, 0x73, 0xc3, 0x3d,
  0xca, 0xf7, 0x43, 0xbb, 0xb3, 0x76, 0x17, 0x3e, 0xd3, 0x14, 0x9d, 0xbd,
  0x20, 0x52, 0xf9, 0x3d, 0x47, 0xb0, 0x9b, 0x3c, 0x39, 0xf7, 0xb2, 0x3d,
  0x19, 0x3b, 0xc4, 0x3d, 0x2e, 0xfc, 0xfc, 0x3d, 0xa3, 0x91, 0xf7, 0xbc,
  0x44, 0x83, 0xa2, 0x3e, 0xff, 0x7f, 0x29, 0xbe, 0x27, 0x67, 0xd3, 0xbe,
  0xa4, 0xb9, 0x86, 0xbd, 0x41, 0x3a, 0x12, 0x3e, 0xc1, 0xfd, 0x01, 0xbf,
  0xb3, 0xbb, 0x10, 0x3d, 0x3a, 0xd5, 0x91, 0xbe, 0xd5, 0xbd, 0x3e, 0x3e,
  0x41, 0xc0, 0x55, 0xbe, 0x9d, 0x5a, 0x75, 0x3d, 0xd8, 0x7c, 0x05, 0xbe,
  0x82, 0xd3, 0x84, 0x3d, 0xc2, 0xfd, 0x2d, 0xbe, 0xbe, 0xc6, 0x3f, 0xbc,
  0x60, 0x20, 0x96, 0xbc, 0x52, 0xa6, 0xfe, 0xbc, 0xdd, 0x0a, 0x6d, 0xbe,
  0x35, 0x9a, 0xa6, 0x3d, 0x39, 0x72, 0x83, 0x3c, 0x1b, 0xf9, 0x0a, 0xbe,
  0x85, 0x18, 0x83, 0xbe, 0x9d, 0xbb, 0x4e, 0xbe, 0xf2, 0x1a, 0x92, 0xbe,
  0x7e, 0x0a, 0xe8, 0xbe, 0xc4, 0xbb, 0x17, 0x3d, 0x83, 0x3e, 0xf4, 0xbe,
  0x6f, 0x74, 0x00, 0xbd, 0xb9, 0x54, 0x7c, 0xbd, 0x58, 0xc1, 0x1d, 0xbf,
  0xd8, 0x3d, 0xb8, 0x3d, 0x87, 0x2e, 0x05, 0xbd, 0xdc, 0x8c, 0x0b, 0x3f,
  0x4c, 0x9a, 0x8e, 0xbe, 0xda, 0xf7, 0x54, 0xbe, 0xae, 0xbb, 0xae, 0xbe,
  0x1c, 0x13, 0x52, 0x3e, 0x25, 0x26, 0x54, 0xbe, 0xd7, 0xbc, 0x9e, 0xbd,
  0x4c, 0x43, 0xe5, 0xbd, 0x71, 0x0f, 0x2a, 0x3e, 0xb0, 0x4f, 0x55, 0x3e,
  0x3f, 0xa9, 0x8b, 0x3e, 0x45, 0xe6, 0xe7, 0xbe, 0x21, 0x18, 0x17, 0xbe,
  0xb4, 0x36, 0x9a, 0xbd, 0x3e, 0x7e, 0x3a, 0x3d, 0xce, 0x63, 0xa6, 0x3d,
  0x89, 0xa1, 0xe2, 0xb8, 0x4b, 0x02, 0x7b, 0xbe, 0x03, 0xce, 0x9c, 0xbd,
  0xe1, 0x7f, 0xdb, 0xbb, 0x1c, 0x84, 0xab, 0x3e, 0x7b, 0x7a, 0x6c, 0xbe,
  0x88, 0x13, 0xb5, 0xbd, 0x84, 0x7c, 0x9e, 0xbe, 0xca, 0x63, 0xa9, 0xbc,
  0xa9, 0xa4, 0x1e, 0xbe, 0xd3, 0x49, 0x5e, 0xbe, 0x22, 0xd2, 0xba, 0xba,
  0x12, 0x57, 0x1a, 0xbe, 0xf4, 0x75, 0xb1, 0xbd, 0x7c, 0x80, 0xeb, 0xbd,
  0x81, 0xf0, 0x33, 0xbf, 0xb0, 0x69, 0x1c, 0x3e, 0x16, 0xe5, 0x18, 0xbe,
  0x3d, 0xde, 0x1e, 0x3e, 0x31, 0x30, 0x0b, 0x3e, 0x4f, 0xff, 0xb9, 0xbe,
  0xa5, 0xec, 0x34, 0xbd, 0xbb, 0x90, 0x00, 0xbd, 0x0e, 0xcc, 0x63, 0xbd,
  0x56, 0xd9, 0x09, 0xbf, 0x3f, 0x69, 0xd2, 0x3d, 0x1b, 0xef, 0x33, 0xbf,
  0x32, 0x0d, 0x17, 0xbd, 0xb1, 0x4d, 0x01, 0xbe, 0xd6, 0x8f, 0xb5, 0xbd,
  0xb6, 0x77, 0xe7, 0xbe, 0xa7, 0x7e, 0x81, 0xbf, 0xf2, 0x27, 0xf7, 0xbd,
  0x17, 0xf3, 0xef, 0xbd, 0xaf, 0x8a, 0x72, 0x3b, 0x92, 0xcc, 0xc1, 0xbe,
  0x52, 0x6f, 0x8a, 0xbe, 0x9b, 0x7a, 0xb1, 0xbe, 0x6a, 0x58, 0x8f, 0xbc,
  0x20, 0x3c, 0x96, 0xbd, 0xd5, 0xd3, 0xbf, 0xbe, 0x78, 0xc1, 0x9b, 0x3d,
  0x95, 0xd8, 0x3b, 0xbf, 0xf9, 0xbb, 0xcd, 0xbe, 0x9d, 0xf5, 0x22, 0xbc,
  0x10, 0x6e, 0xab, 0xbd, 0xe4, 0x1e, 0x9f, 0xbe, 0x28, 0x07, 0xdc, 0x3b,
  0xca, 0x12, 0xdb, 0x3e, 0xf7, 0xce, 0x23, 0xbe, 0xf6, 0xc7, 0xb4, 0x3d,
  0x35, 0x6d, 0x38, 0xbe, 0xf4, 0xe7, 0x07, 0x3f, 0xed, 0xe6, 0xe9, 0xbb,
  0xdb, 0x2d, 0xc8, 0xbd, 0x02, 0xea, 0xa0, 0x3d, 0x2c, 0xbb, 0x1a, 0x3e,
  0x9b, 0xe8, 0x96, 0xbe, 0xf4, 0xdf, 0x95, 0xbd, 0x21, 0x70, 0xd5, 0xbe,
  0xb4, 0x11, 0x79, 0x3d, 0x3b, 0x07, 0x3f, 0xbd, 0x18, 0x0a, 0xc4, 0xbd,
  0x7c, 0x6b, 0x94, 0xbd, 0x1d, 0x7e, 0x23, 0x3f, 0xd7, 0xa9, 0xdb, 0xbe,
  0xd8, 0x48, 0x10, 0xbd, 0x4d, 0xab, 0xd1, 0xbd, 0xc6, 0x22, 0x92, 0x3e,
  0xcd, 0x4f, 0x48, 0xbe, 0xf6, 0x44, 0x13, 0xbc, 0x9a, 0x27, 0x8b, 0xbd,
  0x96, 0x57, 0x9e, 0x3e, 0x0b, 0x96, 0xa1, 0xbe, 0x57, 0x57, 0x40, 0x3e,
  0x8c, 0x5f, 0x82, 0xbe, 0x07, 0x0f, 0xbb, 0xbb, 0x7f, 0xba, 0x99, 0xbd,
  0xa8, 0x24, 0xe7, 0x3c, 0x2e, 0x72, 0x28, 0x3e, 0xc3, 0x97, 0xd9, 0x3e,
  0x52, 0xe9, 0x87, 0xbe, 0x21, 0xcc, 0xb2, 0xbd, 0xc9, 0xf8, 0x8d, 0x3b,
  0x3b, 0xdc, 0x2c, 0x3e, 0xbf, 0xfc, 0x4b, 0xbd, 0xa9, 0x04, 0x4c, 0x3b,
  0x2e, 0x3a, 0x09, 0xbd, 0x23, 0x8c, 0x97, 0x3c, 0xb4, 0x65, 0x6a, 0x3d,
  0xf4, 0x3b, 0x74, 0x3e, 0x08, 0x0a, 0x9a, 0x3c, 0xdb, 0x9d, 0x66, 0x3e,
  0xb0, 0x5a, 0x5c, 0x3d, 0x62, 0xfd, 0xff, 0xff, 0x10, 0x00, 0x00, 0x00,
  0x07, 0x00, 0x00, 0x00, 0x14, 0x00, 0x00, 0x00, 0x2c, 0x00, 0x00, 0x00,
  0x02, 0x00, 0x00, 0x00, 0x10, 0x00, 0x00, 0x00, 0x70, 0x00, 0x00, 0x00,
  0x17, 0x00, 0x00, 0x00, 0x73, 0x65, 0x71, 0x75, 0x65, 0x6e, 0x74, 0x69,
  0x61, 0x6c, 0x2f, 0x64, 0x65, 0x6e, 0x73, 0x65, 0x2f, 0x4d, 0x61, 0x74,
  0x4d, 0x75, 0x6c, 0x00, 0xcc, 0xfc, 0xff, 0xff, 0xd6, 0xfd, 0xff, 0xff,
  0x04, 0x00, 0x00, 0x00, 0x08, 0x00, 0x00, 0x00, 0xff, 0xff, 0xff, 0xff,
  0x70, 0x00, 0x00, 0x00, 0x00, 0x00, 0x0e, 0x00, 0x18, 0x00, 0x08, 0x00,
  0x07, 0x00, 0x0c, 0x00, 0x10, 0x00, 0x14, 0x00, 0x0e, 0x00, 0x00, 0x00,
  0x00, 0x00, 0x00, 0x02, 0x10, 0x00, 0x00, 0x00, 0x06, 0x00, 0x00, 0x00,
  0x10, 0x00, 0x00, 0x00, 0x2c, 0x00, 0x00, 0x00, 0x01, 0x00, 0x00, 0x00,
  0x02, 0x00, 0x00, 0x00, 0x18, 0x00, 0x00, 0x00, 0x73, 0x65, 0x71, 0x75,
  0x65, 0x6e, 0x74, 0x69, 0x61, 0x6c, 0x2f, 0x66, 0x6c, 0x61, 0x74, 0x74,
  0x65, 0x6e, 0x2f, 0x43, 0x6f, 0x6e, 0x73, 0x74, 0x00, 0x00, 0x00, 0x00,
  0x34, 0xfd, 0xff, 0xff, 0x3e, 0xfe, 0xff, 0xff, 0x04, 0x00, 0x00, 0x00,
  0x10, 0x00, 0x00, 0x00, 0xf5, 0xbc, 0x27, 0xbf, 0x50, 0x67, 0x4e, 0xc0,
  0x58, 0x66, 0xf4, 0xc0, 0xc4, 0x8c, 0x38, 0x40, 0x26, 0xfe, 0xff, 0xff,
  0x10, 0x00, 0x00, 0x00, 0x05, 0x00, 0x00, 0x00, 0x10, 0x00, 0x00, 0x00,
  0x44, 0x00, 0x00, 0x00, 0x01, 0x00, 0x00, 0x00, 0x04, 0x00, 0x00, 0x00,
  0x32, 0x00, 0x00, 0x00, 0x73, 0x65, 0x71, 0x75, 0x65, 0x6e, 0x74, 0x69,
  0x61, 0x6c, 0x2f, 0x64, 0x65, 0x6e, 0x73, 0x65, 0x5f, 0x31, 0x2f, 0x42,
  0x69, 0x61, 0x73, 0x41, 0x64, 0x64, 0x2f, 0x52, 0x65, 0x61, 0x64, 0x56,
  0x61, 0x72, 0x69, 0x61, 0x62, 0x6c, 0x65, 0x4f, 0x70, 0x2f, 0x72, 0x65,
  0x73, 0x6f, 0x75, 0x72, 0x63, 0x65, 0x00, 0x00, 0xa8, 0xfd, 0xff, 0xff,
  0xb2, 0xfe, 0xff, 0xff, 0x04, 0x00, 0x00, 0x00, 0x40, 0x00, 0x00, 0x00,
  0x84, 0x70, 0x12, 0x40, 0x6a, 0xbe, 0x19, 0x3f, 0xc4, 0xd5, 0xc0, 0xbf,
  0x1f, 0xe1, 0x75, 0xbe, 0x45, 0x2e, 0x8d, 0xbe, 0x35, 0x97, 0x59, 0x40,
  0xb8, 0xc0, 0xf0, 0xbe, 0xf7, 0x14, 0xd4, 0xbf, 0xbd, 0x84, 0xab, 0x3f,
  0x85, 0x5f, 0xa8, 0xbf, 0xdd, 0x0c, 0x49, 0xbf, 0x55, 0xb3, 0xc8, 0xbe,
  0xe4, 0xde, 0x9d, 0x3f, 0x19, 0xea, 0xdd, 0x3d, 0x5b, 0x99, 0x8f, 0xbf,
  0xd7, 0x36, 0xbd, 0xbf, 0xca, 0xfe, 0xff, 0xff, 0x10, 0x00, 0x00, 0x00,
  0x04, 0x00, 0x00, 0x00, 0x10, 0x00, 0x00, 0x00, 0x44, 0x00, 0x00, 0x00,
  0x01, 0x00, 0x00, 0x00, 0x10, 0x00, 0x00, 0x00, 0x30, 0x00, 0x00, 0x00,
  0x73, 0x65, 0x71, 0x75, 0x65, 0x6e, 0x74, 0x69, 0x61, 0x6c, 0x2f, 0x64,
  0x65, 0x6e, 0x73, 0x65, 0x2f, 0x42, 0x69, 0x61, 0x73, 0x41, 0x64, 0x64,
  0x2f, 0x52, 0x65, 0x61, 0x64, 0x56, 0x61, 0x72, 0x69, 0x61, 0x62, 0x6c,
  0x65, 0x4f, 0x70, 0x2f, 0x72, 0x65, 0x73, 0x6f, 0x75, 0x72, 0x63, 0x65,
  0x00, 0x00, 0x00, 0x00, 0x4c, 0xfe, 0xff, 0xff, 0x56, 0xff, 0xff, 0xff,
  0x04, 0x00, 0x00, 0x00, 0x40, 0x00, 0x00, 0x00, 0xbf, 0xf0, 0x10, 0xc0,
  0x29, 0x23, 0xc7, 0xbf, 0x31, 0x8c, 0x04, 0x3f, 0x74, 0xc8, 0xb3, 0x3f,
  0xdf, 0x11, 0x45, 0x3f, 0x2c, 0x6c, 0x8f, 0xbf, 0x07, 0x72, 0x65, 0xbf,
  0x4f, 0x8a, 0xe9, 0x3f, 0x6d, 0x75, 0x1a, 0x3f, 0xf5, 0x28, 0x2b, 0xbe,
  0x9e, 0x4d, 0x53, 0xbf, 0xb6, 0x63, 0x93, 0xbf, 0x12, 0x9d, 0x2e, 0xbe,
  0x69, 0x81, 0xa9, 0xbf, 0x4d, 0xa7, 0x6c, 0x40, 0x8c, 0xdb, 0xb9, 0x3e,
  0x6e, 0xff, 0xff, 0xff, 0x10, 0x00, 0x00, 0x00, 0x03, 0x00, 0x00, 0x00,
  0x10, 0x00, 0x00, 0x00, 0x48, 0x00, 0x00, 0x00, 0x01, 0x00, 0x00, 0x00,
  0x10, 0x00, 0x00, 0x00, 0x33, 0x00, 0x00, 0x00, 0x73, 0x65, 0x71, 0x75,
  0x65, 0x6e, 0x74, 0x69, 0x61, 0x6c, 0x2f, 0x63, 0x6f, 0x6e, 0x76, 0x32,
  0x64, 0x5f, 0x31, 0x2f, 0x42, 0x69, 0x61, 0x73, 0x41, 0x64, 0x64, 0x2f,
  0x52, 0x65, 0x61, 0x64, 0x56, 0x61, 0x72, 0x69, 0x61, 0x62, 0x6c, 0x65,
  0x4f, 0x70, 0x2f, 0x72, 0x65, 0x73, 0x6f, 0x75, 0x72, 0x63, 0x65, 0x00,
  0x04, 0x00, 0x06, 0x00, 0x04, 0x00, 0x00, 0x00, 0x00, 0x00, 0x06, 0x00,
  0x08, 0x00, 0x04, 0x00, 0x06, 0x00, 0x00, 0x00, 0x04, 0x00, 0x00, 0x00,
  0x20, 0x00, 0x00, 0x00, 0xdd, 0xad, 0x1b, 0x3e, 0x65, 0x71, 0x8c, 0xbf,
  0xb3, 0x5f, 0x03, 0xc0, 0x9e, 0xd4, 0xc0, 0xbf, 0xcd, 0xc0, 0xd6, 0xbf,
  0x66, 0x52, 0x26, 0xc0, 0x36, 0x0e, 0x25, 0xc0, 0x4b, 0x8d, 0x6b, 0xc0,
  0x00, 0x00, 0x0e, 0x00, 0x14, 0x00, 0x04, 0x00, 0x00, 0x00, 0x08, 0x00,
  0x0c, 0x00, 0x10, 0x00, 0x0e, 0x00, 0x00, 0x00, 0x10, 0x00, 0x00, 0x00,
  0x02, 0x00, 0x00, 0x00, 0x10, 0x00, 0x00, 0x00, 0x44, 0x00, 0x00, 0x00,
  0x01, 0x00, 0x00, 0x00, 0x08, 0x00, 0x00, 0x00, 0x31, 0x00, 0x00, 0x00,
  0x73, 0x65, 0x71, 0x75, 0x65, 0x6e, 0x74, 0x69, 0x61, 0x6c, 0x2f, 0x63,
  0x6f, 0x6e, 0x76, 0x32, 0x64, 0x2f, 0x42, 0x69, 0x61, 0x73, 0x41, 0x64,
  0x64, 0x2f, 0x52, 0x65, 0x61, 0x64, 0x56, 0x61, 0x72, 0x69, 0x61, 0x62,
  0x6c, 0x65, 0x4f, 0x70, 0x2f, 0x72, 0x65, 0x73, 0x6f, 0x75, 0x72, 0x63,
  0x65, 0x00, 0x00, 0x00, 0x90, 0xff, 0xff, 0xff, 0x14, 0x00, 0x18, 0x00,
  0x04, 0x00, 0x00, 0x00, 0x08, 0x00, 0x0c, 0x00, 0x10, 0x00, 0x00, 0x00,
  0x00, 0x00, 0x14, 0x00, 0x14, 0x00, 0x00, 0x00, 0x14, 0x00, 0x00, 0x00,
  0x01, 0x00, 0x00, 0x00, 0x20, 0x00, 0x00, 0x00, 0x44, 0x00, 0x00, 0x00,
  0x2c, 0x00, 0x00, 0x00, 0x04, 0x00, 0x00, 0x00, 0x01, 0x00, 0x00, 0x00,
  0x40, 0x00, 0x00, 0x00, 0x03, 0x00, 0x00, 0x00, 0x01, 0x00, 0x00, 0x00,
  0x0c, 0x00, 0x00, 0x00, 0x63, 0x6f, 0x6e, 0x76, 0x32, 0x64, 0x5f, 0x69,
  0x6e, 0x70, 0x75, 0x74, 0x00, 0x00, 0x00, 0x00, 0x04, 0x00, 0x00, 0x00,
  0xff, 0xff, 0xff, 0xff, 0x40, 0x00, 0x00, 0x00, 0x03, 0x00, 0x00, 0x00,
  0x01, 0x00, 0x00, 0x00, 0xfc, 0xff, 0xff, 0xff, 0x04, 0x00, 0x04, 0x00,
  0x04, 0x00, 0x00, 0x00
};

unsigned int model_tflite_len = 13120;// Fill the int in `src/model.cc` here