#include "magic_wand_model_data.h"

// We need to keep the data array aligned on some architectures.
#ifdef __has_attribute
#define HAVE_ATTRIBUTE(x) __has_attribute(x)
#else
#define HAVE_ATTRIBUTE(x) 0
#endif
#if HAVE_ATTRIBUTE(aligned) || (defined(__GNUC__) && !defined(__clang__))
#define DATA_ALIGN_ATTRIBUTE __attribute__((aligned(4)))
#else
#define DATA_ALIGN_ATTRIBUTE
#endif

const unsigned char g_magic_wand_model_data[] DATA_ALIGN_ATTRIBUTE = {
  // Paste the data of the char array in `src/model.cc` here
  0x1c, 0x00, 0x00, 0x00, 0x54, 0x46, 0x4c, 0x33, 0x14, 0x00, 0x20, 0x00,
  0x04, 0x00, 0x08, 0x00, 0x0c, 0x00, 0x10, 0x00, 0x14, 0x00, 0x00, 0x00,
  0x18, 0x00, 0x1c, 0x00, 0x14, 0x00, 0x00, 0x00, 0x03, 0x00, 0x00, 0x00,
  0x18, 0x00, 0x00, 0x00, 0x2c, 0x00, 0x00, 0x00, 0xd8, 0x00, 0x00, 0x00,
  0x2c, 0x00, 0x00, 0x00, 0x80, 0x00, 0x00, 0x00, 0x78, 0x00, 0x00, 0x00,
  0x05, 0x00, 0x00, 0x00, 0x28, 0x07, 0x00, 0x00, 0x44, 0x06, 0x00, 0x00,
  0xbc, 0x03, 0x00, 0x00, 0xf8, 0x02, 0x00, 0x00, 0xac, 0x01, 0x00, 0x00,
  0x01, 0x00, 0x00, 0x00, 0xd0, 0x00, 0x00, 0x00, 0x14, 0x00, 0x00, 0x00,
  0x98, 0x32, 0x00, 0x00, 0x94, 0x32, 0x00, 0x00, 0x8c, 0x31, 0x00, 0x00,
  0xd8, 0x30, 0x00, 0x00, 0x30, 0x30, 0x00, 0x00, 0xbc, 0x2f, 0x00, 0x00,
  0x50, 0x2f, 0x00, 0x00, 0x00, 0x13, 0x00, 0x00, 0xec, 0x11, 0x00, 0x00,
  0x10, 0x10, 0x00, 0x00, 0xb4, 0x07, 0x00, 0x00, 0x6c, 0x32, 0x00, 0x00,
  0x68, 0x32, 0x00, 0x00, 0x64, 0x32, 0x00, 0x00, 0x60, 0x32, 0x00, 0x00,
  0x5c, 0x32, 0x00, 0x00, 0x58, 0x32, 0x00, 0x00, 0x54, 0x32, 0x00, 0x00,
  0x50, 0x32, 0x00, 0x00, 0x3c, 0x00, 0x00, 0x00, 0x00, 0x00, 0x00, 0x00,
  0x01, 0x00, 0x00, 0x00, 0x0c, 0x00, 0x00, 0x00, 0x08, 0x00, 0x0c, 0x00,
  0x04, 0x00, 0x08, 0x00, 0x08, 0x00, 0x00, 0x00, 0x08, 0x00, 0x00, 0x00,
  0x13, 0x00, 0x00, 0x00, 0x13, 0x00, 0x00, 0x00, 0x6d, 0x69, 0x6e, 0x5f,
  0x72, 0x75, 0x6e, 0x74, 0x69, 0x6d, 0x65, 0x5f, 0x76, 0x65, 0x72, 0x73,
  0x69, 0x6f, 0x6e, 0x00, 0xfa, 0xce, 0xff, 0xff, 0x04, 0x00, 0x00, 0x00,
  0x10, 0x00, 0x00, 0x00, 0x31, 0x2e, 0x35, 0x2e, 0x30, 0x00, 0x00, 0x00,
  0x00, 0x00, 0x00, 0x00, 0x00, 0x00, 0x00, 0x00, 0x0f, 0x00, 0x00, 0x00,
  0x4d, 0x4c, 0x49, 0x52, 0x20, 0x43, 0x6f, 0x6e, 0x76, 0x65, 0x72, 0x74,
  0x65, 0x64, 0x2e, 0x00, 0x00, 0x00, 0x0e, 0x00, 0x18, 0x00, 0x04, 0x00,
  0x08, 0x00, 0x0c, 0x00, 0x10, 0x00, 0x14, 0x00, 0x0e, 0x00, 0x00, 0x00,
  0x14, 0x00, 0x00, 0x00, 0x5c, 0x00, 0x00, 0x00, 0x60, 0x00, 0x00, 0x00,
  0x64, 0x00, 0x00, 0x00, 0x84, 0x00, 0x00, 0x00, 0x12, 0x00, 0x00, 0x00,
  0x58, 0x31, 0x00, 0x00, 0xe8, 0x30, 0x00, 0x00, 0x44, 0x30, 0x00, 0x00,
  0x9c, 0x2f, 0x00, 0x00, 0xf4, 0x2e, 0x00, 0x00, 0x94, 0x2e, 0x00, 0x00,
  0x2c, 0x2e, 0x00, 0x00, 0xd8, 0x11, 0x00, 0x00, 0xbc, 0x10, 0x00, 0x00,
  0xe0, 0x0e, 0x00, 0x00, 0x0c, 0x06, 0x00, 0x00, 0x28, 0x05, 0x00, 0x00,
  0xe8, 0x03, 0x00, 0x00, 0x3c, 0x03, 0x00, 0x00, 0x98, 0x02, 0x00, 0x00,
  0xd4, 0x01, 0x00, 0x00, 0x10, 0x01, 0x00, 0x00, 0x84, 0x00, 0x00, 0x00,
  0x01, 0x00, 0x00, 0x00, 0x00, 0x00, 0x00, 0x00, 0x01, 0x00, 0x00, 0x00,
  0x11, 0x00, 0x00, 0x00, 0x08, 0x00, 0x00, 0x00, 0x74, 0x05, 0x00, 0x00,
  0x94, 0x04, 0x00, 0x00, 0x78, 0x03, 0x00, 0x00, 0xbc, 0x02, 0x00, 0x00,
  0x30, 0x02, 0x00, 0x00, 0x50, 0x01, 0x00, 0x00, 0xa8, 0x00, 0x00, 0x00,
  0x10, 0x00, 0x00, 0x00, 0x04, 0x00, 0x00, 0x00, 0x6d, 0x61, 0x69, 0x6e,
  0x00, 0x00, 0x00, 0x00, 0x7a, 0xff, 0xff, 0xff, 0x00, 0x00, 0x00, 0x09,
  0x04, 0x00, 0x00, 0x00, 0x1c, 0x00, 0x00, 0x00, 0x10, 0x00, 0x00, 0x00,
  0x04, 0x00, 0x00, 0x00, 0xf6, 0xcf, 0xff, 0xff, 0x00, 0x00, 0x80, 0x3f,
  0x01, 0x00, 0x00, 0x00, 0x11, 0x00, 0x00, 0x00, 0x01, 0x00, 0x00, 0x00,
  0x10, 0x00, 0x00, 0x00, 0xa0, 0xfa, 0xff, 0xff, 0x19, 0x00, 0x00, 0x00,
  0x00, 0x00, 0x00, 0x19, 0x01, 0x00, 0x00, 0x00, 0x84, 0xcf, 0xff, 0xff,
  0x14, 0x00, 0x00, 0x00, 0x12, 0x00, 0x00, 0x00, 0x18, 0x00, 0x00, 0x00,
  0x30, 0x00, 0x00, 0x00, 0x20, 0x00, 0x00, 0x00, 0x02, 0x00, 0x00, 0x00,
  0x01, 0x00, 0x00, 0x00, 0x03, 0x00, 0x00, 0x00, 0x08, 0x00, 0x00, 0x00,
  0x49, 0x64, 0x65, 0x6e, 0x74, 0x69, 0x74, 0x79, 0x00, 0x00, 0x00, 0x00,
  0x02, 0x00, 0x00, 0x00, 0xff, 0xff, 0xff, 0xff, 0x03, 0x00, 0x00, 0x00,
  0x68, 0xd0, 0xff, 0xff, 0x00, 0x00, 0x0e, 0x00, 0x18, 0x00, 0x08, 0x00,
  0x0c, 0x00, 0x10, 0x00, 0x07, 0x00, 0x14, 0x00, 0x0e, 0x00, 0x00, 0x00,
  0x00, 0x00, 0x00, 0x08, 0x03, 0x00, 0x00, 0x00, 0x18, 0x00, 0x00, 0x00,
  0x0c, 0x00, 0x00, 0x00, 0x04, 0x00, 0x00, 0x00, 0x84, 0xcf, 0xff, 0xff,
  0x01, 0x00, 0x00, 0x00, 0x10, 0x00, 0x00, 0x00, 0x03, 0x00, 0x00, 0x00,
  0x0f, 0x00, 0x00, 0x00, 0x07, 0x00, 0x00, 0x00, 0x04, 0x00, 0x00, 0x00,
  0x0c, 0xd0, 0xff, 0xff, 0x14, 0x00, 0x00, 0x00, 0x11, 0x00, 0x00, 0x00,
  0x18, 0x00, 0x00, 0x00, 0x5c, 0x00, 0x00, 0x00, 0x4c, 0x00, 0x00, 0x00,
  0x02, 0x00, 0x00, 0x00, 0x01, 0x00, 0x00, 0x00, 0x03, 0x00, 0x00, 0x00,
  0x34, 0x00, 0x00, 0x00, 0x73, 0x65, 0x71, 0x75, 0x65, 0x6e, 0x74, 0x69,
  0x61, 0x6c, 0x2f, 0x64, 0x65, 0x6e, 0x73, 0x65, 0x5f, 0x31, 0x2f, 0x4d,
  0x61, 0x74, 0x4d, 0x75, 0x6c, 0x3b, 0x73, 0x65, 0x71, 0x75, 0x65, 0x6e,
  0x74, 0x69, 0x61, 0x6c, 0x2f, 0x64, 0x65, 0x6e, 0x73, 0x65, 0x5f, 0x31,
  0x2f, 0x42, 0x69, 0x61, 0x73, 0x41, 0x64, 0x64, 0x00, 0x00, 0x00, 0x00,
  0x02, 0x00, 0x00, 0x00, 0xff, 0xff, 0xff, 0xff, 0x03, 0x00, 0x00, 0x00,
  0x0c, 0xd0, 0xff, 0xff, 0xda, 0xfc, 0xff, 0xff, 0x00, 0x00, 0x00, 0x08,
  0x03, 0x00, 0x00, 0x00, 0x24, 0x00, 0x00, 0x00, 0x18, 0x00, 0x00, 0x00,
  0x0c, 0x00, 0x00, 0x00, 0x00, 0x00, 0x06, 0x00, 0x08, 0x00, 0x07, 0x00,
  0x06, 0x00, 0x00, 0x00, 0x00, 0x00, 0x00, 0x01, 0x01, 0x00, 0x00, 0x00,
  0x0f, 0x00, 0x00, 0x00, 0x03, 0x00, 0x00, 0x00, 0x0e, 0x00, 0x00, 0x00,
  0x06, 0x00, 0x00, 0x00, 0x03, 0x00, 0x00, 0x00, 0xe8, 0xfb, 0xff, 0xff,
  0x09, 0x00, 0x00, 0x00, 0x00, 0x00, 0x00, 0x09, 0x01, 0x00, 0x00, 0x00,
  0xcc, 0xd0, 0xff, 0xff, 0x14, 0x00, 0x00, 0x00, 0x10, 0x00, 0x00, 0x00,
  0x18, 0x00, 0x00, 0x00, 0x6c, 0x00, 0x00, 0x00, 0x5c, 0x00, 0x00, 0x00,
  0x02, 0x00, 0x00, 0x00, 0x01, 0x00, 0x00, 0x00, 0x10, 0x00, 0x00, 0x00,
  0x46, 0x00, 0x00, 0x00, 0x73, 0x65, 0x71, 0x75, 0x65, 0x6e, 0x74, 0x69,
  0x61, 0x6c, 0x2f, 0x64, 0x65, 0x6e, 0x73, 0x65, 0x2f, 0x4d, 0x61, 0x74,
  0x4d, 0x75, 0x6c, 0x3b, 0x73, 0x65, 0x71, 0x75, 0x65, 0x6e, 0x74, 0x69,
  0x61, 0x6c, 0x2f, 0x64, 0x65, 0x6e, 0x73, 0x65, 0x2f, 0x52, 0x65, 0x6c,
  0x75, 0x3b, 0x73, 0x65, 0x71, 0x75, 0x65, 0x6e, 0x74, 0x69, 0x61, 0x6c,
  0x2f, 0x64, 0x65, 0x6e, 0x73, 0x65, 0x2f, 0x42, 0x69, 0x61, 0x73, 0x41,
  0x64, 0x64, 0x00, 0x00, 0x02, 0x00, 0x00, 0x00, 0xff, 0xff, 0xff, 0xff,
  0x10, 0x00, 0x00, 0x00, 0xec, 0xd1, 0xff, 0xff, 0x00, 0x00, 0x0a, 0x00,
  0x10, 0x00, 0x04, 0x00, 0x08, 0x00, 0x0c, 0x00, 0x0a, 0x00, 0x00, 0x00,
  0x02, 0x00, 0x00, 0x00, 0x10, 0x00, 0x00, 0x00, 0x04, 0x00, 0x00, 0x00,
  0x01, 0x00, 0x00, 0x00, 0x0e, 0x00, 0x00, 0x00, 0x02, 0x00, 0x00, 0x00,
  0x0d, 0x00, 0x00, 0x00, 0x05, 0x00, 0x00, 0x00, 0xa8, 0xfc, 0xff, 0xff,
  0x16, 0x00, 0x00, 0x00, 0x00, 0x00, 0x00, 0x16, 0x01, 0x00, 0x00, 0x00,
  0x8c, 0xd1, 0xff, 0xff, 0x14, 0x00, 0x00, 0x00, 0x0f, 0x00, 0x00, 0x00,
  0x18, 0x00, 0x00, 0x00, 0x40, 0x00, 0x00, 0x00, 0x30, 0x00, 0x00, 0x00,
  0x02, 0x00, 0x00, 0x00, 0x01, 0x00, 0x00, 0x00, 0x70, 0x00, 0x00, 0x00,
  0x1a, 0x00, 0x00, 0x00, 0x73, 0x65, 0x71, 0x75, 0x65, 0x6e, 0x74, 0x69,
  0x61, 0x6c, 0x2f, 0x66, 0x6c, 0x61, 0x74, 0x74, 0x65, 0x6e, 0x2f, 0x52,
  0x65, 0x73, 0x68, 0x61, 0x70, 0x65, 0x00, 0x00, 0x02, 0x00, 0x00, 0x00,
  0xff, 0xff, 0xff, 0xff, 0x70, 0x00, 0x00, 0x00, 0x70, 0xd1, 0xff, 0xff,
  0x3e, 0xfe, 0xff, 0xff, 0x00, 0x00, 0x00, 0x05, 0x01, 0x00, 0x00, 0x00,
  0x38, 0x00, 0x00, 0x00, 0x2c, 0x00, 0x00, 0x00, 0x14, 0x00, 0x00, 0x00,
  0x00, 0x00, 0x0e, 0x00, 0x14, 0x00, 0x00, 0x00, 0x10, 0x00, 0x0c, 0x00,
  0x08, 0x00, 0x04, 0x00, 0x0e, 0x00, 0x00, 0x00, 0x03, 0x00, 0x00, 0x00,
  0x01, 0x00, 0x00, 0x00, 0x03, 0x00, 0x00, 0x00, 0x01, 0x00, 0x00, 0x00,
  0x01, 0x00, 0x00, 0x00, 0x0d, 0x00, 0x00, 0x00, 0x01, 0x00, 0x00, 0x00,
  0x0c, 0x00, 0x00, 0x00, 0x2c, 0xd2, 0xff, 0xff, 0x14, 0x00, 0x00, 0x00,
  0x0e, 0x00, 0x00, 0x00, 0x20, 0x00, 0x00, 0x00, 0x58, 0x00, 0x00, 0x00,
  0x40, 0x00, 0x00, 0x00, 0x04, 0x00, 0x00, 0x00, 0x01, 0x00, 0x00, 0x00,
  0x07, 0x00, 0x00, 0x00, 0x01, 0x00, 0x00, 0x00, 0x10, 0x00, 0x00, 0x00,
  0x22, 0x00, 0x00, 0x00, 0x73, 0x65, 0x71, 0x75, 0x65, 0x6e, 0x74, 0x69,
  0x61, 0x6c, 0x2f, 0x6d, 0x61, 0x78, 0x5f, 0x70, 0x6f, 0x6f, 0x6c, 0x69,
  0x6e, 0x67, 0x32, 0x64, 0x5f, 0x31, 0x2f, 0x4d, 0x61, 0x78, 0x50, 0x6f,
  0x6f, 0x6c, 0x00, 0x00, 0x04, 0x00, 0x00, 0x00, 0xff, 0xff, 0xff, 0xff,
  0x07, 0x00, 0x00, 0x00, 0x01, 0x00, 0x00, 0x00, 0x10, 0x00, 0x00, 0x00,
  0x28, 0xd2, 0xff, 0xff, 0x1a, 0xfe, 0xff, 0xff, 0x00, 0x00, 0x00, 0x01,
  0x24, 0x00, 0x00, 0x00, 0x18, 0x00, 0x00, 0x00, 0x04, 0x00, 0x00, 0x00,
  0x0c, 0xfe, 0xff, 0xff, 0x01, 0x00, 0x00, 0x00, 0x01, 0x00, 0x00, 0x00,
  0x00, 0x00, 0x00, 0x01, 0x01, 0x00, 0x00, 0x00, 0x0c, 0x00, 0x00, 0x00,
  0x03, 0x00, 0x00, 0x00, 0x0b, 0x00, 0x00, 0x00, 0x09, 0x00, 0x00, 0x00,
  0x02, 0x00, 0x00, 0x00, 0xd4, 0xd2, 0xff, 0xff, 0x14, 0x00, 0x00, 0x00,
  0x0d, 0x00, 0x00, 0x00, 0x20, 0x00, 0x00, 0x00, 0xb8, 0x00, 0x00, 0x00,
  0xa0, 0x00, 0x00, 0x00, 0x04, 0x00, 0x00, 0x00, 0x01, 0x00, 0x00, 0x00,
  0x15, 0x00, 0x00, 0x00, 0x01, 0x00, 0x00, 0x00, 0x10, 0x00, 0x00, 0x00,
  0x83, 0x00, 0x00, 0x00, 0x73, 0x65, 0x71, 0x75, 0x65, 0x6e, 0x74, 0x69,
  0x61, 0x6c, 0x2f, 0x63, 0x6f, 0x6e, 0x76, 0x32, 0x64, 0x5f, 0x31, 0x2f,
  0x52, 0x65, 0x6c, 0x75, 0x3b, 0x73, 0x65, 0x71, 0x75, 0x65, 0x6e, 0x74,
  0x69, 0x61, 0x6c, 0x2f, 0x63, 0x6f, 0x6e, 0x76, 0x32, 0x64, 0x5f, 0x31,
  0x2f, 0x42, 0x69, 0x61, 0x73, 0x41, 0x64, 0x64, 0x3b, 0x73, 0x65, 0x71,
  0x75, 0x65, 0x6e, 0x74, 0x69, 0x61, 0x6c, 0x2f, 0x63, 0x6f, 0x6e, 0x76,
  0x32, 0x64, 0x5f, 0x31, 0x2f, 0x43, 0x6f, 0x6e, 0x76, 0x32, 0x44, 0x3b,
  0x73, 0x65, 0x71, 0x75, 0x65, 0x6e, 0x74, 0x69, 0x61, 0x6c, 0x2f, 0x63,
  0x6f, 0x6e, 0x76, 0x32, 0x64, 0x5f, 0x31, 0x2f, 0x42, 0x69, 0x61, 0x73,
  0x41, 0x64, 0x64, 0x2f, 0x52, 0x65, 0x61, 0x64, 0x56, 0x61, 0x72, 0x69,
  0x61, 0x62, 0x6c, 0x65, 0x4f, 0x70, 0x2f, 0x72, 0x65, 0x73, 0x6f, 0x75,
  0x72, 0x63, 0x65, 0x00, 0x04, 0x00, 0x00, 0x00, 0xff, 0xff, 0xff, 0xff,
  0x15, 0x00, 0x00, 0x00, 0x01, 0x00, 0x00, 0x00, 0x10, 0x00, 0x00, 0x00,
  0x40, 0xd4, 0xff, 0xff, 0x00, 0x00, 0x0e, 0x00, 0x1a, 0x00, 0x08, 0x00,
  0x0c, 0x00, 0x10, 0x00, 0x07, 0x00, 0x14, 0x00, 0x0e, 0x00, 0x00, 0x00,
  0x00, 0x00, 0x00, 0x05, 0x01, 0x00, 0x00, 0x00, 0x3c, 0x00, 0x00, 0x00,
  0x30, 0x00, 0x00, 0x00, 0x14, 0x00, 0x00, 0x00, 0x00, 0x00, 0x0e, 0x00,
  0x18, 0x00, 0x17, 0x00, 0x10, 0x00, 0x0c, 0x00, 0x08, 0x00, 0x04, 0x00,
  0x0e, 0x00, 0x00, 0x00, 0x03, 0x00, 0x00, 0x00, 0x03, 0x00, 0x00, 0x00,
  0x03, 0x00, 0x00, 0x00, 0x03, 0x00, 0x00, 0x00, 0x00, 0x00, 0x00, 0x01,
  0x01, 0x00, 0x00, 0x00, 0x0b, 0x00, 0x00, 0x00, 0x01, 0x00, 0x00, 0x00,
  0x0a, 0x00, 0x00, 0x00, 0x2c, 0xff, 0xff, 0xff, 0x11, 0x00, 0x00, 0x00,
  0x00, 0x00, 0x00, 0x11, 0x01, 0x00, 0x00, 0x00, 0x10, 0xd4, 0xff, 0xff,
  0x14, 0x00, 0x00, 0x00, 0x0c, 0x00, 0x00, 0x00, 0x20, 0x00, 0x00, 0x00,
  0x58, 0x00, 0x00, 0x00, 0x40, 0x00, 0x00, 0x00, 0x04, 0x00, 0x00, 0x00,
  0x01, 0x00, 0x00, 0x00, 0x15, 0x00, 0x00, 0x00, 0x01, 0x00, 0x00, 0x00,
  0x08, 0x00, 0x00, 0x00, 0x20, 0x00, 0x00, 0x00, 0x73, 0x65, 0x71, 0x75,
  0x65, 0x6e, 0x74, 0x69, 0x61, 0x6c, 0x2f, 0x6d, 0x61, 0x78, 0x5f, 0x70,
  0x6f, 0x6f, 0x6c, 0x69, 0x6e, 0x67, 0x32, 0x64, 0x2f, 0x4d, 0x61, 0x78,
  0x50, 0x6f, 0x6f, 0x6c, 0x00, 0x00, 0x00, 0x00, 0x04, 0x00, 0x00, 0x00,
  0xff, 0xff, 0xff, 0xff, 0x15, 0x00, 0x00, 0x00, 0x01, 0x00, 0x00, 0x00,
  0x08, 0x00, 0x00, 0x00, 0x1c, 0xd5, 0xff, 0xff, 0x00, 0x00, 0x0e, 0x00,
  0x14, 0x00, 0x00, 0x00, 0x08, 0x00, 0x0c, 0x00, 0x07, 0x00, 0x10, 0x00,
  0x0e, 0x00, 0x00, 0x00, 0x00, 0x00, 0x00, 0x01, 0x30, 0x00, 0x00, 0x00,
  0x24, 0x00, 0x00, 0x00, 0x10, 0x00, 0x00, 0x00, 0x0c, 0x00, 0x10, 0x00,
  0x00, 0x00, 0x04, 0x00, 0x08, 0x00, 0x0f, 0x00, 0x0c, 0x00, 0x00, 0x00,
  0x01, 0x00, 0x00, 0x00, 0x01, 0x00, 0x00, 0x00, 0x00, 0x00, 0x00, 0x01,
  0x01, 0x00, 0x00, 0x00, 0x0a, 0x00, 0x00, 0x00, 0x03, 0x00, 0x00, 0x00,
  0x00, 0x00, 0x00, 0x00, 0x08, 0x00, 0x00, 0x00, 0x01, 0x00, 0x00, 0x00,
  0x0c, 0x00, 0x10, 0x00, 0x0b, 0x00, 0x00, 0x00, 0x0c, 0x00, 0x04, 0x00,
  0x0c, 0x00, 0x00, 0x00, 0x03, 0x00, 0x00, 0x00, 0x00, 0x00, 0x00, 0x03,
  0x01, 0x00, 0x00, 0x00, 0xf0, 0xd4, 0xff, 0xff, 0x14, 0x00, 0x00, 0x00,
  0x0b, 0x00, 0x00, 0x00, 0x20, 0x00, 0x00, 0x00, 0xb0, 0x00, 0x00, 0x00,
  0x98, 0x00, 0x00, 0x00, 0x04, 0x00, 0x00, 0x00, 0x01, 0x00, 0x00, 0x00,
  0x40, 0x00, 0x00, 0x00, 0x03, 0x00, 0x00, 0x00, 0x08, 0x00, 0x00, 0x00,
  0x7b, 0x00, 0x00, 0x00, 0x73, 0x65, 0x71, 0x75, 0x65, 0x6e, 0x74, 0x69,
  0x61, 0x6c, 0x2f, 0x63, 0x6f, 0x6e, 0x76, 0x32, 0x64, 0x2f, 0x52, 0x65,
  0x6c, 0x75, 0x3b, 0x73, 0x65, 0x71, 0x75, 0x65, 0x6e, 0x74, 0x69, 0x61,
  0x6c, 0x2f, 0x63, 0x6f, 0x6e, 0x76, 0x32, 0x64, 0x2f, 0x42, 0x69, 0x61,
  0x73, 0x41, 0x64, 0x64, 0x3b, 0x73, 0x65, 0x71, 0x75, 0x65, 0x6e, 0x74,
  0x69, 0x61, 0x6c, 0x2f, 0x63, 0x6f, 0x6e, 0x76, 0x32, 0x64, 0x2f, 0x43,
  0x6f, 0x6e, 0x76, 0x32, 0x44, 0x3b, 0x73, 0x65, 0x71, 0x75, 0x65, 0x6e,
  0x74, 0x69, 0x61, 0x6c, 0x2f, 0x63, 0x6f, 0x6e, 0x76, 0x32, 0x64, 0x2f,
  0x42, 0x69, 0x61, 0x73, 0x41, 0x64, 0x64, 0x2f, 0x52, 0x65, 0x61, 0x64,
  0x56, 0x61, 0x72, 0x69, 0x61, 0x62, 0x6c, 0x65, 0x4f, 0x70, 0x2f, 0x72,
  0x65, 0x73, 0x6f, 0x75, 0x72, 0x63, 0x65, 0x00, 0x04, 0x00, 0x00, 0x00,
  0xff, 0xff, 0xff, 0xff, 0x40, 0x00, 0x00, 0x00, 0x03, 0x00, 0x00, 0x00,
  0x08, 0x00, 0x00, 0x00, 0x44, 0xd5, 0xff, 0xff, 0x4e, 0xd6, 0xff, 0xff,
  0x04, 0x00, 0x00, 0x00, 0x00, 0x08, 0x00, 0x00, 0xcb, 0x22, 0xbb, 0xbd,
  0xb4, 0xc8, 0xbf, 0xbc, 0x5a, 0x00, 0x5f, 0xbd, 0x39, 0x9f, 0xbe, 0xbe,
  0x05, 0xd0, 0x1f, 0xbe, 0xa6, 0x6a, 0xa7, 0xbe, 0x90, 0x13, 0x27, 0xbe,
  0xf0, 0x67, 0x7c, 0xbe, 0xfb, 0x20, 0xfe, 0xbe, 0xbb, 0x06, 0x5c, 0xbd,
  0x1e, 0x50, 0x87, 0xbd, 0x72, 0x60, 0xa8, 0xbe, 0xb7, 0x72, 0xcd, 0x3d,
  0xec, 0x14, 0xfa, 0xbd, 0x89, 0x43, 0xbe, 0xbd, 0x1d, 0x1d, 0x56, 0xbe,
  0xec, 0x80, 0x8c, 0xbe, 0x62, 0x3e, 0x8f, 0x3d, 0xfc, 0x72, 0x82, 0x3b,
  0xdd, 0x32, 0xab, 0x3d, 0x65, 0x7a, 0xe7, 0x3c, 0x2f, 0xbc, 0xf6, 0x3e,
  0xc2, 0xa0, 0x41, 0xbd, 0xd2, 0xf4, 0x37, 0xbe, 0x99, 0xf0, 0xa1, 0x3e,
  0x01, 0xc7, 0x23, 0x3d, 0x46, 0xf9, 0x8d, 0xbc, 0x64, 0x6b, 0xd9, 0xbd,
  0x88, 0x80, 0x0d, 0x3e, 0xc8, 0x09, 0xf1, 0x3e, 0xa2, 0xca, 0x95, 0x3e,
  0xb5, 0x80, 0x48, 0x3e, 0x9e, 0x55, 0x88, 0xbe, 0x48, 0x1c, 0x29, 0xbe,
  0x9a, 0x49, 0xa7, 0xbd, 0x38, 0x21, 0x6d, 0x3c, 0x01, 0xa4, 0xf2, 0xbd,
  0x7a, 0x32, 0x9a, 0x3d, 0x2e, 0x91, 0xc4, 0x3d, 0xa1, 0x6e, 0x8f, 0x3c,
  0x8e, 0x20, 0xf0, 0xbc, 0x39, 0x60, 0xaa, 0xbd, 0x11, 0xe9, 0x24, 0xbd,
  0xe0, 0x13, 0x9b, 0x3c, 0x2f, 0x92, 0x54, 0xbe, 0xdf, 0x5a, 0x19, 0x3e,
  0xfd, 0x8d, 0xab, 0xbd, 0x12, 0x22, 0x13, 0x3e, 0x05, 0x40, 0xe4, 0x3e,
  0xf0, 0x63, 0x00, 0xbe, 0xcc, 0x83, 0x0b, 0x3c, 0x7d, 0xe1, 0xdf, 0x3e,
  0x0c, 0x2b, 0x8e, 0x3d, 0xf0, 0x69, 0x34, 0xbf, 0xdb, 0x07, 0xbc, 0xbe,
  0xe4, 0x13, 0x32, 0xbe, 0xa1, 0xf0, 0x33, 0xbe, 0x2c, 0x8e, 0xb5, 0x3c,
  0x8d, 0x3b, 0x8b, 0x3a, 0xef, 0x10, 0x64, 0xbd, 0x6e, 0x30, 0x8a, 0x3d,
  0x23, 0x18, 0x45, 0xbd, 0x5c, 0xae, 0x13, 0xbe, 0x4b, 0x05, 0x18, 0xbe,
  0x75, 0x7c, 0xa2, 0xbe, 0x09, 0x40, 0x04, 0xbe, 0xe0, 0xa7, 0x80, 0xbd,
  0x18, 0xc7, 0xa7, 0x3d, 0x06, 0x43, 0xbb, 0xbc, 0x2b, 0xc5, 0x9f, 0x3d,
  0xc7, 0x66, 0xad, 0xbd, 0x46, 0x0d, 0x65, 0xbe, 0xe4, 0x9c, 0x16, 0xbe,
  0xe1, 0xe9, 0x1a, 0x3d, 0xae, 0x0c, 0xa3, 0xbd, 0xee, 0xe5, 0x81, 0xbd,
  0x6d, 0xe9, 0xb4, 0xbd, 0x71, 0x3b, 0xf6, 0x3b, 0x11, 0x4e, 0x02, 0xbd,
  0xfe, 0x7d, 0x01, 0x3e, 0x53, 0xc1, 0xc7, 0x3d, 0x8f, 0x6b, 0x0f, 0xbe,
  0xd2, 0x3f, 0x50, 0xbd, 0x47, 0x67, 0x6b, 0x3d, 0x8b, 0x65, 0x93, 0xbe,
  0x97, 0x57, 0x63, 0xbe, 0x73, 0x16, 0x14, 0x3d, 0x4f, 0xcc, 0xa9, 0xbd,
  0xf1, 0x51, 0x7b, 0x3e, 0x9c, 0x91, 0x95, 0x3c, 0x63, 0x83, 0xab, 0x3d,
  0x7c, 0x08, 0x14, 0x3f, 0x6d, 0xd1, 0xe6, 0xbd, 0x21, 0xab, 0xca, 0xbc,
  0x2a, 0x4a, 0xdc, 0xbd, 0x10, 0xe8, 0x80, 0xbd, 0x8a, 0xba, 0x59, 0xbe,
  0x13, 0xed, 0xe5, 0xbe, 0xf2, 0x63, 0x09, 0xbe, 0x83, 0xbb, 0xbb, 0xbe,
  0x30, 0xf1, 0x64, 0xbe, 0x83, 0x65, 0x5b, 0xbe, 0xb8, 0xfc, 0xfa, 0xbd,
  0x10, 0xed, 0x15, 0xbe, 0x7e, 0xe9, 0x27, 0x3d, 0xd1, 0x7c, 0x80, 0xbe,
  0xe0, 0x07, 0xd3, 0x3b, 0x30, 0x09, 0x90, 0x3e, 0x00, 0x93, 0xc1, 0xbe,
  0x9f, 0xcd, 0x13, 0x3e, 0x11, 0x3d, 0x0a, 0x3d, 0xe4, 0xa0, 0x5c, 0xbd,
  0x34, 0x6e, 0x44, 0xbe, 0xe8, 0x21, 0x0c, 0xbf, 0x1d, 0xa4, 0xea, 0xbd,
  0xd9, 0x90, 0xc3, 0xbe, 0xf1, 0x2e, 0x7b, 0xbe, 0x50, 0xc6, 0x7e, 0xbe,
  0x3d, 0xe7, 0x85, 0x3d, 0x86, 0x44, 0x0a, 0x3e, 0x07, 0x44, 0x90, 0xbe,
  0xc3, 0x93, 0x8e, 0x3e, 0x88, 0xbd, 0x50, 0xbc, 0x94, 0x01, 0xbf, 0x3d,
  0x04, 0x65, 0x88, 0x3e, 0x0c, 0x3b, 0x47, 0x3e, 0xc5, 0xdf, 0x2b, 0x3e,
  0x50, 0x4f, 0x42, 0x3e, 0x6f, 0x41, 0x13, 0xbe, 0xdb, 0x71, 0xc6, 0xbc,
  0xc9, 0xfa, 0x24, 0xbe, 0xf9, 0x17, 0xa8, 0x3b, 0x34, 0x76, 0x62, 0x3c,
  0x8a, 0x3f, 0x13, 0xbe, 0xd9, 0x65, 0x45, 0xbd, 0x65, 0x38, 0xb4, 0xbc,
  0xc6, 0xbb, 0x90, 0xbe, 0x6a, 0x3b, 0x9b, 0x3e, 0x4a, 0x97, 0x27, 0xbe,
  0x3b, 0x0c, 0xa3, 0xbc, 0x53, 0x02, 0xf4, 0xbc, 0x33, 0xc6, 0x84, 0xbe,
  0xe9, 0x90, 0xce, 0xbd, 0x90, 0x4b, 0x97, 0xbe, 0x78, 0x8b, 0xeb, 0xbd,
  0x41, 0x34, 0x3d, 0x3e, 0x7b, 0xd4, 0x56, 0xbe, 0x59, 0xef, 0x19, 0x3d,
  0x17, 0x90, 0x97, 0x3e, 0x95, 0xa5, 0xe4, 0xbc, 0xd8, 0x41, 0x43, 0xbe,
  0x71, 0x72, 0xf3, 0xbd, 0x5b, 0xdd, 0x99, 0x3d, 0xd1, 0x02, 0x5f, 0x3e,
  0x0e, 0x8f, 0xc9, 0x3c, 0x84, 0x84, 0x78, 0xbd, 0x26, 0x71, 0xa9, 0xbd,
  0x17, 0x4d, 0xc2, 0xbd, 0xd2, 0xca, 0x85, 0xbe, 0xa1, 0x8c, 0xb5, 0xbe,
  0xde, 0x33, 0x4b, 0x3c, 0xa1, 0xf8, 0x8e, 0xbe, 0x9e, 0x8d, 0x34, 0xbe,
  0xc2, 0x53, 0xd3, 0x3e, 0x04, 0x6b, 0x1f, 0xbf, 0x0a, 0x38, 0xbe, 0xbc,
  0xcd, 0xbe, 0x63, 0xbe, 0x1c, 0xd8, 0x52, 0xbe, 0x28, 0xfb, 0x94, 0x3e,
  0x51, 0xb0, 0xe6, 0xba, 0x07, 0xf5, 0x0c, 0xbe, 0x3a, 0x90, 0xa2, 0xbe,
  0x86, 0x87, 0x91, 0xbe, 0x81, 0x9f, 0x87, 0xbd, 0xc8, 0x55, 0x7b, 0x3e,
  0x32, 0x22, 0xb2, 0xbc, 0x60, 0x2a, 0xc2, 0xbd, 0x35, 0x6e, 0xb4, 0xbd,
  0xce, 0x64, 0xe7, 0xbd, 0x6b, 0xb7, 0x9b, 0xbe, 0x7b, 0x81, 0x86, 0xbb,
  0xa4, 0xea, 0x0d, 0xbe, 0xe2, 0xf9, 0xb2, 0xbb, 0x17, 0x25, 0x0b, 0x3d,
  0xff, 0x33, 0x09, 0x3d, 0xd3, 0xa2, 0x2e, 0x3b, 0xc2, 0x50, 0xa3, 0xbd,
  0x7c, 0x82, 0x44, 0xbc, 0x8e, 0xeb, 0x62, 0xbd, 0x31, 0x5a, 0x52, 0xbe,
  0xde, 0xe2, 0xe7, 0x3d, 0x2c, 0x11, 0xb5, 0x3d, 0xec, 0x9e, 0xed, 0xbd,
  0xaa, 0xbc, 0x8e, 0xbe, 0x94, 0x4f, 0x08, 0xbd, 0x1d, 0x6d, 0xbe, 0xbe,
  0x28, 0xe9, 0xb9, 0xbe, 0xd8, 0xed, 0xcb, 0xbe, 0xe6, 0x4f, 0x5a, 0xbe,
  0x16, 0x5d, 0x9f, 0xbe, 0x64, 0xc9, 0x7d, 0x3c, 0x75, 0x39, 0xe3, 0xbd,
  0xd6, 0xa9, 0x27, 0xbc, 0x51, 0x0b, 0x09, 0xbd, 0xa2, 0x6f, 0x85, 0x3d,
  0x84, 0x3d, 0xf6, 0xbe, 0xea, 0x3c, 0xdc, 0xbe, 0x99, 0x1a, 0x67, 0xbe,
  0x46, 0xd7, 0xa6, 0x3d, 0x4c, 0x5b, 0xa2, 0x3e, 0xdc, 0x5a, 0x68, 0xbb,
  0x6b, 0xb9, 0xe9, 0x3e, 0x35, 0x71, 0x32, 0x3e, 0xcd, 0x35, 0xa3, 0x3e,
  0xa9, 0x28, 0xba, 0xbe, 0xf1, 0x69, 0x74, 0xbe, 0xc0, 0xe1, 0x20, 0xbe,
  0xe2, 0x56, 0x5c, 0x3e, 0xcb, 0xf5, 0x02, 0xbd, 0xaa, 0x2d, 0xe0, 0x3d,
  0x65, 0x3e, 0x75, 0x3e, 0xd0, 0x02, 0xf5, 0x3d, 0x6b, 0x15, 0xc5, 0xbe,
  0xe9, 0x1d, 0xfd, 0xbe, 0xac, 0x51, 0xea, 0xbd, 0x3b, 0x01, 0x94, 0x3e,
  0x85, 0x80, 0x9e, 0xbd, 0x3d, 0x19, 0x3b, 0x3d, 0x13, 0xcd, 0xef, 0x3e,
  0xe0, 0x3c, 0x32, 0x3d, 0x49, 0x24, 0xb7, 0x3e, 0x97, 0x0d, 0xca, 0x3c,
  0x95, 0x39, 0xca, 0x3d, 0xf0, 0x1a, 0xbc, 0xbe, 0x54, 0xf1, 0x00, 0xbe,
  0xbc, 0xd8, 0xbb, 0x3d, 0x9f, 0xf8, 0xc9, 0xbe, 0x1c, 0x0b, 0xf5, 0xbd,
  0xaa, 0x83, 0x4d, 0xbd, 0xef, 0x78, 0x27, 0x3e, 0xc0, 0xd9, 0x12, 0x3e,
  0x84, 0xdd, 0x92, 0xbe, 0x13, 0x33, 0x27, 0xbd, 0x02, 0xbf, 0xd6, 0x3d,
  0xc7, 0x60, 0x97, 0xbe, 0x2b, 0xac, 0x83, 0xbe, 0x43, 0x99, 0x0b, 0xbc,
  0x1b, 0x48, 0xb2, 0x3c, 0x3c, 0xf5, 0x20, 0xbf, 0x59, 0x0d, 0x74, 0x3d,
  0xe1, 0x3b, 0x6b, 0xbd, 0x53, 0xc6, 0xb5, 0xbe, 0x82, 0x80, 0xdb, 0xbc,
  0xbd, 0xc2, 0x22, 0x3d, 0xfb, 0x05, 0x79, 0xbd, 0xf2, 0x42, 0x11, 0xbe,
  0xcd, 0xed, 0x08, 0xbf, 0x04, 0x89, 0xcc, 0xbe, 0xcc, 0x81, 0x96, 0xbe,
  0xb0, 0x45, 0x18, 0xbf, 0x9b, 0x17, 0xfd, 0xbe, 0xcc, 0x7a, 0xd4, 0xbe,
  0x1a, 0xe2, 0x25, 0x3c, 0x6b, 0x8f, 0xb4, 0xbd, 0x67, 0x6c, 0x23, 0x39,
  0xa9, 0x38, 0xad, 0xbe, 0xb3, 0xa7, 0xfe, 0xbc, 0x45, 0x06, 0xf4, 0xbc,
  0xde, 0x9e, 0x87, 0xbd, 0x3b, 0x11, 0xa1, 0xbe, 0xb4, 0xe5, 0xfb, 0xbd,
  0x7c, 0xe8, 0xfd, 0xbd, 0x2e, 0x17, 0x26, 0xbe, 0x4d, 0xea, 0xcb, 0x3d,
  0x04, 0x30, 0xfe, 0xbc, 0x69, 0x55, 0xc5, 0x3c, 0x52, 0x11, 0xb8, 0x3e,
  0x64, 0xad, 0xf3, 0x3d, 0x71, 0x42, 0xcb, 0x3b, 0x85, 0x33, 0x4b, 0xbd,
  0xa8, 0xd3, 0x38, 0x3d, 0x7c, 0xa1, 0xb6, 0x3d, 0x45, 0xb8, 0xb7, 0xbc,
  0x05, 0xbe, 0xba, 0xbd, 0x71, 0x62, 0xad, 0x3e, 0xf2, 0xd5, 0xc2, 0x3e,
  0x81, 0xef, 0x3a, 0x3e, 0xdd, 0xbb, 0x09, 0x3e, 0x0f, 0xdb, 0xa6, 0x3d,
  0x89, 0x8c, 0xce, 0x3d, 0xf6, 0x77, 0x19, 0xbc, 0xcf, 0x77, 0xda, 0x3e,
  0x90, 0x67, 0x96, 0x3e, 0xc8, 0x0f, 0x4b, 0x3e, 0xb5, 0x53, 0x8b, 0xbe,
  0xef, 0x4a, 0x98, 0xbe, 0x50, 0xb7, 0x06, 0x3e, 0x3b, 0xac, 0xff, 0x3b,
  0x9b, 0xf4, 0x7b, 0x3b, 0xfb, 0x1f, 0x41, 0x3e, 0x8d, 0x90, 0x7e, 0x3d,
  0xba, 0x01, 0xd5, 0x3d, 0xf0, 0x81, 0xa1, 0xbe, 0x4c, 0x66, 0xa7, 0xbe,
  0x35, 0x60, 0xe3, 0xbe, 0xf4, 0x3c, 0x44, 0xbd, 0x11, 0x48, 0x57, 0xbd,
  0x25, 0xe5, 0x8a, 0xbd, 0x66, 0xe5, 0x91, 0x3d, 0xb3, 0x67, 0xc2, 0x3d,
  0xf5, 0xd6, 0x23, 0xbe, 0xaa, 0xb6, 0x90, 0xbd, 0x2a, 0xd8, 0xef, 0xbe,
  0x29, 0xcb, 0x1a, 0xbe, 0x8f, 0x64, 0xca, 0xbd, 0x10, 0x36, 0x93, 0xbe,
  0xd8, 0x19, 0x83, 0xbd, 0x34, 0xae, 0x41, 0x3e, 0x12, 0x75, 0x1d, 0x3d,
  0x57, 0x1c, 0x4e, 0x3c, 0xbe, 0x7b, 0xf2, 0x3d, 0x41, 0x31, 0xa9, 0x3d,
  0x17, 0xf2, 0x92, 0xbe, 0xb7, 0xc7, 0xe7, 0x3d, 0xf2, 0xb5, 0x0f, 0x3e,
  0x02, 0x44, 0xc8, 0x3e, 0x9f, 0x9a, 0xa6, 0x3c, 0x4d, 0xaa, 0x91, 0x3e,
  0x92, 0xe7, 0x9d, 0x3d, 0x19, 0x00, 0xb9, 0xbe, 0xf8, 0x92, 0x9c, 0xbe,
  0x9e, 0x40, 0x84, 0x3d, 0xb3, 0x5d, 0xfc, 0xbe, 0x64, 0xf3, 0x94, 0xbd,
  0x16, 0xb1, 0x26, 0xbe, 0xd8, 0x69, 0x76, 0x3d, 0x81, 0x01, 0x3c, 0x3e,
  0xa9, 0xa3, 0x4b, 0x3e, 0x74, 0xa6, 0x90, 0xbe, 0x86, 0xab, 0x92, 0xbd,
  0x99, 0xb0, 0xe6, 0xbc, 0x34, 0xd6, 0xcd, 0x3d, 0x7e, 0xe8, 0x5b, 0xbe,
  0xf2, 0xf1, 0x21, 0xbe, 0x93, 0x36, 0x17, 0x3e, 0xfa, 0xc9, 0x87, 0x3e,
  0x8d, 0x1b, 0x70, 0xbe, 0xa9, 0x5e, 0xe8, 0xbd, 0xba, 0x88, 0x82, 0xbd,
  0x21, 0x77, 0x90, 0x3e, 0x71, 0xa4, 0x96, 0x3e, 0xb4, 0xe0, 0xe1, 0xbd,
  0xad, 0x2a, 0xa7, 0x3c, 0x25, 0xd1, 0xda, 0x3d, 0xee, 0x7b, 0xa1, 0xbe,
  0xbc, 0x40, 0x46, 0xbe, 0xd0, 0x13, 0x6b, 0xbe, 0x20, 0x94, 0x2f, 0x3e,
  0xd7, 0x6e, 0x83, 0xbc, 0xbc, 0xcc, 0x06, 0xbd, 0xc8, 0x4c, 0x94, 0xbd,
  0xbf, 0x07, 0x23, 0x3f, 0x92, 0x5a, 0x6e, 0xbe, 0xc4, 0x20, 0x5e, 0xbd,
  0xf1, 0x22, 0x1f, 0x3e, 0x4e, 0xce, 0xf0, 0x3c, 0x02, 0x12, 0x51, 0xbc,
  0x77, 0xa8, 0x15, 0x3e, 0xd9, 0x59, 0x40, 0x3e, 0x76, 0x8f, 0xc7, 0xbd,
  0xcd, 0xf8, 0x4c, 0xbe, 0x83, 0x8f, 0x79, 0x3d, 0x8a, 0x63, 0x14, 0xbe,
  0xac, 0x04, 0x0c, 0xbe, 0xbb, 0x29, 0x31, 0xbd, 0x6e, 0x82, 0xd5, 0xbc,
  0xfd, 0xb4, 0x47, 0xbd, 0x76, 0xf0, 0x84, 0x3e, 0x6e, 0x4c, 0x4b, 0xbe,
  0x88, 0x29, 0x4a, 0x3e, 0xc5, 0xe6, 0x9f, 0xbe, 0xf4, 0x95, 0xcb, 0xbd,
  0x02, 0x43, 0xac, 0xbb, 0x8c, 0x30, 0x10, 0x3e, 0xf3, 0x41, 0xa3, 0xbc,
  0x35, 0x58, 0x70, 0x3e, 0x0e, 0x7f, 0x89, 0xbd, 0x75, 0xbd, 0xf4, 0xbd,
  0x71, 0x5f, 0x86, 0x3e, 0x0f, 0xe4, 0xc6, 0xbc, 0x86, 0x9c, 0xbb, 0x3e,
  0x29, 0xf6, 0x76, 0x3e, 0xbe, 0x32, 0xfc, 0x3d, 0x94, 0xf2, 0x86, 0xbe,
  0xf8, 0x68, 0xb9, 0xb9, 0xe1, 0xde, 0x1f, 0xbd, 0xc9, 0x41, 0x8b, 0xbe,
  0xc8, 0xd9, 0x28, 0x3e, 0xac, 0xb8, 0x90, 0x3d, 0xc0, 0x41, 0xbc, 0x3d,
  0x05, 0xef, 0x1c, 0x3d, 0xd4, 0x60, 0xc0, 0x3d, 0x74, 0x68, 0x47, 0xbc,
  0x79, 0x8e, 0x4b, 0x3d, 0xd8, 0xd0, 0x6a, 0xbe, 0x16, 0x1b, 0x5b, 0xbe,
  0x49, 0xbe, 0xd0, 0x3c, 0x96, 0x60, 0xe7, 0x3b, 0x32, 0x63, 0x59, 0xbb,
  0xc7, 0x5c, 0x08, 0xbe, 0x83, 0x58, 0x8f, 0xbd, 0x75, 0xc3, 0x00, 0xbe,
  0xb2, 0x89, 0x51, 0xbd, 0xd8, 0x05, 0xc5, 0xbd, 0x2a, 0xcb, 0x37, 0x3c,
  0xaf, 0x1e, 0xed, 0xbd, 0xa3, 0x93, 0x2d, 0x3d, 0x63, 0x23, 0x1a, 0x3f,
  0xd1, 0x83, 0x2c, 0xbd, 0x3f, 0xd1, 0x84, 0x3b, 0x92, 0x0d, 0x01, 0x3f,
  0xd2, 0xc7, 0x64, 0x3e, 0x95, 0xd4, 0xed, 0xbc, 0x8a, 0x2b, 0x4a, 0x3e,
  0x34, 0xcd, 0x21, 0xbe, 0xa5, 0xfb, 0x00, 0xbe, 0xed, 0xea, 0xa4, 0xbc,
  0x71, 0x89, 0x37, 0xbe, 0x62, 0x68, 0x53, 0xbe, 0x27, 0x21, 0xfe, 0xbc,
  0x00, 0xd5, 0xb0, 0xbb, 0xcf, 0xfb, 0xfc, 0xbd, 0x6e, 0x9c, 0xdc, 0xbd,
  0x90, 0x9f, 0x2c, 0xbe, 0x1a, 0xbc, 0x2f, 0x3c, 0x42, 0x39, 0x85, 0xbe,
  0xc9, 0x84, 0x85, 0xbe, 0x5e, 0x87, 0xb5, 0xbe, 0xd1, 0x78, 0x98, 0x3d,
  0x65, 0xc0, 0x02, 0xbe, 0x7e, 0xd8, 0xcd, 0x3d, 0xfd, 0x45, 0x9a, 0xbe,
  0x55, 0x6d, 0xfd, 0xbb, 0x15, 0x11, 0xe6, 0xbe, 0xd9, 0x83, 0x28, 0xbe,
  0x16, 0x6c, 0x80, 0xbe, 0x33, 0x78, 0x1a, 0xbd, 0x6f, 0x4a, 0x80, 0xbd,
  0x45, 0xe0, 0xe4, 0xbd, 0xec, 0xf7, 0x87, 0x3d, 0xd4, 0xf4, 0x7a, 0xbd,
  0x92, 0xba, 0x8d, 0xbe, 0x70, 0x9b, 0x3a, 0x3e, 0xd6, 0x67, 0xd4, 0xbd,
  0x75, 0x76, 0x5d, 0xbd, 0x26, 0xf9, 0x76, 0xbe, 0xb7, 0x85, 0xcb, 0xbb,
  0x7a, 0xfa, 0x18, 0x3c, 0xc7, 0x75, 0x97, 0x3e, 0xcf, 0x58, 0xb0, 0xbd,
  0xce, 0xf4, 0xd3, 0xbc, 0xad, 0x7f, 0x09, 0xbe, 0xce, 0x5f, 0x29, 0xbe,
  0xd9, 0x1a, 0x31, 0xbe, 0xa8, 0x8a, 0x1a, 0xbd, 0x31, 0x19, 0xa0, 0xbd,
  0xb2, 0x62, 0x00, 0x3e, 0x1a, 0xd9, 0x2f, 0xbc, 0x7d, 0x76, 0x66, 0x3e,
  0xb7, 0xc4, 0xb6, 0x3c, 0x64, 0xd0, 0x98, 0xbd, 0x92, 0xe3, 0xa9, 0xbd,
  0x09, 0x2d, 0xb2, 0xbd, 0xf4, 0x9b, 0xe3, 0xbd, 0xe4, 0x15, 0xa2, 0x3e,
  0x83, 0x62, 0xe8, 0xbc, 0x82, 0x58, 0x8a, 0x3d, 0xef, 0xc3, 0xbe, 0x3d,
  0x5b, 0x5f, 0x2a, 0xbe, 0x4b, 0xc9, 0x14, 0xbd, 0x75, 0xd4, 0xc1, 0xbd,
  0x93, 0x97, 0xe5, 0x3e, 0x5f, 0xdb, 0xb1, 0xbd, 0xee, 0x2b, 0x28, 0xbc,
  0x38, 0x3f, 0x2f, 0x3e, 0xd1, 0x1f, 0xf6, 0xbc, 0xe9, 0xda, 0xff, 0xbd,
  0x95, 0xc0, 0x68, 0xbe, 0x40, 0x1c, 0x1c, 0xbd, 0xd0, 0xbf, 0x46, 0x3d,
  0x4e, 0x7f, 0x99, 0xbd, 0x4c, 0x4f, 0x84, 0x3d, 0x10, 0xb9, 0xac, 0x3d,
  0xc5, 0x38, 0x63, 0xbd, 0x70, 0xfa, 0xcd, 0xbd, 0xa4, 0xa5, 0x04, 0xbe,
  0x8c, 0x00, 0x05, 0x3e, 0xc4, 0x48, 0x85, 0xbd, 0x14, 0xb5, 0x88, 0xbd,
  0xaa, 0x53, 0xc8, 0x3e, 0x8c, 0xe3, 0xc2, 0x3c, 0x06, 0xaa, 0x45, 0x3f,
  0x87, 0xf8, 0xc6, 0xbc, 0xc9, 0xf0, 0xd5, 0xbd, 0x7a, 0x15, 0x4a, 0xbe,
  0x6c, 0xab, 0x19, 0xbe, 0x46, 0x6d, 0x82, 0xbd, 0x6d, 0x8b, 0x16, 0xbe,
  0x06, 0x66, 0x42, 0x39, 0x4b, 0x03, 0x95, 0xbd, 0xfc, 0x19, 0x60, 0xbd,
  0x77, 0xa1, 0xdf, 0x3b, 0x26, 0xde, 0xff, 0xff, 0x10, 0x00, 0x00, 0x00,
  0x0a, 0x00, 0x00, 0x00, 0x1c, 0x00, 0x00, 0x00, 0x38, 0x00, 0x00, 0x00,
  0x04, 0x00, 0x00, 0x00, 0x10, 0x00, 0x00, 0x00, 0x04, 0x00, 0x00, 0x00,
  0x01, 0x00, 0x00, 0x00, 0x08, 0x00, 0x00, 0x00, 0x1a, 0x00, 0x00, 0x00,
  0x73, 0x65, 0x71, 0x75, 0x65, 0x6e, 0x74, 0x69, 0x61, 0x6c, 0x2f, 0x63,
  0x6f, 0x6e, 0x76, 0x32, 0x64, 0x5f, 0x31, 0x2f, 0x43, 0x6f, 0x6e, 0x76,
  0x32, 0x44, 0x00, 0x00, 0x9c, 0xdd, 0xff, 0xff, 0xa6, 0xde, 0xff, 0xff,
  0x04, 0x00, 0x00, 0x00, 0x80, 0x01, 0x00, 0x00, 0x1d, 0x92, 0x8d, 0x3e,
  0x93, 0x28, 0xba, 0x3e, 0xbf, 0x15, 0x1c, 0x3e, 0x26, 0x33, 0x87, 0x3d,
  0x31, 0x04, 0x9d, 0xbd, 0x15, 0xb6, 0xba, 0x3d, 0x35, 0x9a, 0x41, 0xbe,
  0x1d, 0x78, 0x80, 0xbe, 0x88, 0x03, 0x9b, 0x3b, 0x5d, 0x14, 0x23, 0xbd,
  0xb3, 0x9b, 0x2b, 0xbe, 0x66, 0x84, 0x44, 0xbe, 0x9e, 0x17, 0x44, 0xbc,
  0xb2, 0x5d, 0x9c, 0xbd, 0xd3, 0xec, 0x40, 0xbd, 0xa5, 0x81, 0x4e, 0x3d,
  0x67, 0x36, 0x53, 0xbe, 0x83, 0xb5, 0xd7, 0xbe, 0x63, 0x37, 0x1c, 0xbe,
  0xc3, 0xbe, 0xc8, 0x3e, 0xb9, 0x79, 0x50, 0x3d, 0x6c, 0x21, 0x1a, 0x3e,
  0x89, 0xf6, 0x40, 0xbe, 0x13, 0x10, 0xd6, 0x3e, 0x19, 0x4e, 0x99, 0xbd,
  0xe1, 0x6d, 0x3b, 0x3c, 0x0c, 0x5d, 0x6e, 0x3e, 0x6f, 0xd7, 0xf5, 0xbd,
  0x7f, 0x0d, 0x6e, 0x3d, 0x5e, 0xd3, 0xf2, 0x3d, 0x5e, 0x4b, 0x86, 0xbc,
  0x3e, 0x17, 0x94, 0x3d, 0x2b, 0x55, 0x23, 0x3c, 0xe9, 0xca, 0xf6, 0xbd,
  0x46, 0x45, 0x61, 0x3e, 0xa7, 0xc9, 0x6a, 0x3d, 0x0e, 0xbe, 0xfb, 0x3e,
  0x3b, 0x1f, 0x5e, 0x3e, 0x4e, 0x09, 0xab, 0xbe, 0x71, 0xd1, 0x3b, 0x3c,
  0x97, 0xc4, 0x4f, 0xbd, 0x92, 0xac, 0x6d, 0x3c, 0x01, 0x31, 0x83, 0xbd,
  0x03, 0x9c, 0x4b, 0xbe, 0x24, 0x86, 0x52, 0x3e, 0x45, 0x95, 0xd5, 0xbe,
  0x36, 0x7f, 0xf7, 0x3c, 0x89, 0x79, 0x1c, 0x3e, 0x90, 0xab, 0xde, 0xbd,
  0x5a, 0x47, 0x56, 0x3c, 0xb7, 0x93, 0xa4, 0xbc, 0x89, 0x16, 0x97, 0xbe,
  0x77, 0x9b, 0x37, 0xbe, 0xbf, 0x16, 0x7a, 0xbe, 0x6d, 0x2a, 0xa6, 0x3c,
  0xd8, 0x25, 0x25, 0x3d, 0xd7, 0xdb, 0xb7, 0xbd, 0xcc, 0xb6, 0xc4, 0x3e,
  0x1d, 0xde, 0x13, 0x3e, 0x51, 0x7c, 0x82, 0x3e, 0x7b, 0x2c, 0x48, 0xbe,
  0x2c, 0x72, 0xac, 0xbe, 0xa3, 0x42, 0xbd, 0xbe, 0x4b, 0xbe, 0x82, 0x3d,
  0x02, 0x71, 0x20, 0xbd, 0x83, 0x67, 0x36, 0x3e, 0x3a, 0x52, 0x24, 0x3e,
  0x52, 0x7e, 0xe7, 0x3e, 0x22, 0x38, 0x32, 0x3e, 0xe5, 0xf7, 0xa7, 0xbb,
  0xdd, 0x11, 0x3e, 0x3d, 0xee, 0x8c, 0x45, 0xba, 0x10, 0xf6, 0xa7, 0x3c,
  0x48, 0x34, 0x0d, 0xbe, 0x3b, 0x1b, 0xd5, 0xbd, 0x1b, 0xf6, 0x4b, 0x3e,
  0x14, 0x6e, 0xe1, 0xbc, 0xb3, 0xb0, 0x30, 0xbe, 0x32, 0x0f, 0x17, 0x3e,
  0xcd, 0xb8, 0x7b, 0x3e, 0x8a, 0x58, 0x6a, 0x3e, 0x99, 0x18, 0x5b, 0x3e,
  0xb1, 0x41, 0x45, 0x3e, 0x7c, 0xa0, 0x10, 0x3c, 0x08, 0x3f, 0xa9, 0x3d,
  0x93, 0xda, 0x73, 0xbc, 0x4f, 0x3a, 0xc0, 0xbd, 0x88, 0xab, 0xc3, 0x3e,
  0xb4, 0x2f, 0xca, 0xbc, 0x82, 0x3e, 0xde, 0x3c, 0x7a, 0x4f, 0x70, 0x3e,
  0xd8, 0xa4, 0xa5, 0x3e, 0xe3, 0xcd, 0xfe, 0xbd, 0x3e, 0x55, 0xd0, 0xbe,
  0xbd, 0x6a, 0xf6, 0xbc, 0x0e, 0xab, 0x1d, 0x3d, 0xfe, 0xdf, 0xff, 0xff,
  0x10, 0x00, 0x00, 0x00, 0x09, 0x00, 0x00, 0x00, 0x1c, 0x00, 0x00, 0x00,
  0x38, 0x00, 0x00, 0x00, 0x04, 0x00, 0x00, 0x00, 0x08, 0x00, 0x00, 0x00,
  0x04, 0x00, 0x00, 0x00, 0x03, 0x00, 0x00, 0x00, 0x01, 0x00, 0x00, 0x00,
  0x18, 0x00, 0x00, 0x00, 0x73, 0x65, 0x71, 0x75, 0x65, 0x6e, 0x74, 0x69,
  0x61, 0x6c, 0x2f, 0x63, 0x6f, 0x6e, 0x76, 0x32, 0x64, 0x2f, 0x43, 0x6f,
  0x6e, 0x76, 0x32, 0x44, 0x00, 0x00, 0x00, 0x00, 0x74, 0xdf, 0xff, 0xff,
  0x7e, 0xe0, 0xff, 0xff, 0x04, 0x00, 0x00, 0x00, 0xc0, 0x00, 0x00, 0x00,
  0x32, 0x87, 0x25, 0xbe, 0x08, 0xa3, 0x6b, 0x3e, 0xd2, 0x25, 0x90, 0xbd,
  0x14, 0x17, 0xe6, 0x3d, 0x65, 0xe0, 0x82, 0x3e, 0xf1, 0xe8, 0x96, 0xbe,
  0x74, 0xc5, 0x44, 0xbe, 0x7e, 0xad, 0x22, 0x3d, 0xc0, 0x1c, 0xa6, 0x3e,
  0xa5, 0x2f, 0xae, 0x3e, 0x16, 0xa8, 0xdf, 0x3e, 0xa3, 0xfd, 0xa4, 0xbd,
  0xbc, 0x34, 0x09, 0x3e, 0xdf, 0x42, 0x77, 0xbe, 0xf7, 0x53, 0xbf, 0x3e,
  0xcb, 0xcd, 0xc1, 0xbe, 0xb8, 0x3c, 0xac, 0x3c, 0x24, 0x50, 0x59, 0x3e,
  0x48, 0x8e, 0xae, 0x3e, 0xd4, 0x31, 0xc1, 0x3d, 0x35, 0x0c, 0x2c, 0x3e,
  0x44, 0x6b, 0x69, 0xbe, 0xd8, 0xeb, 0x7b, 0xbd, 0x34, 0x48, 0x87, 0x3d,
  0x43, 0xe5, 0xb9, 0x3e, 0xfe, 0x36, 0xbf, 0x3e, 0xa8, 0x51, 0xc1, 0x3e,
  0x3b, 0x05, 0xbb, 0xbc, 0x97, 0x4b, 0x25, 0x3e, 0x08, 0x3a, 0xa4, 0xbe,
  0xde, 0x4b, 0xd6, 0x3e, 0x28, 0xa3, 0xa5, 0xbe, 0x1a, 0x2e, 0xf7, 0x3d,
  0xf8, 0x55, 0x2f, 0x3e, 0xde, 0xe4, 0xbb, 0x3e, 0x04, 0xd5, 0x89, 0x3d,
  0x4e, 0x39, 0x85, 0x3e, 0x55, 0xdd, 0x1c, 0xbe, 0x16, 0xbe, 0xef, 0xbd,
  0xc9, 0x24, 0xfa, 0x3d, 0x37, 0x9d, 0xa3, 0x3e, 0xfa, 0xf8, 0xb2, 0x3e,
  0xd7, 0xc6, 0xc2, 0x3e, 0x41, 0x0a, 0xd8, 0xbd, 0x2d, 0x72, 0x54, 0x3e,
  0x3d, 0xb7, 0xc9, 0xbe, 0xe4, 0xee, 0xb1, 0x3e, 0x47, 0x7d, 0x8c, 0xbe,
  0x16, 0xe1, 0xff, 0xff, 0x10, 0x00, 0x00, 0x00, 0x08, 0x00, 0x00, 0x00,
  0x14, 0x00, 0x00, 0x00, 0x30, 0x00, 0x00, 0x00, 0x02, 0x00, 0x00, 0x00,
  0x03, 0x00, 0x00, 0x00, 0x10, 0x00, 0x00, 0x00, 0x19, 0x00, 0x00, 0x00,
  0x73, 0x65, 0x71, 0x75, 0x65, 0x6e, 0x74, 0x69, 0x61, 0x6c, 0x2f, 0x64,
  0x65, 0x6e, 0x73, 0x65, 0x5f, 0x31, 0x2f, 0x4d, 0x61, 0x74, 0x4d, 0x75,
  0x6c, 0x00, 0x00, 0x00, 0x84, 0xe0, 0xff, 0xff, 0x8e, 0xe1, 0xff, 0xff,
  0x04, 0x00, 0x00, 0x00, 0x00, 0x1c, 0x00, 0x00, 0xbb, 0x9d, 0x9c, 0xbc,
  0x2f, 0xd7, 0x73, 0xbd, 0xcf, 0xbf, 0x1e, 0xbe, 0x6b, 0x18, 0x39, 0xbe,
  0x07, 0xc0, 0xa2, 0x3e, 0x79, 0x9b, 0xc3, 0x3e, 0xf0, 0x1c, 0xed, 0xbc,
  0x1e, 0x4c, 0x68, 0x3d, 0xc7, 0x66, 0x45, 0xbd, 0x53, 0x01, 0xd1, 0xbd,
  0x86, 0x45, 0x3c, 0x3e, 0x91, 0x8d, 0x25, 0x3e, 0x14, 0x85, 0x6c, 0xbe,
  0x9b, 0x39, 0x00, 0x3e, 0x9a, 0x02, 0x0f, 0xbe, 0x58, 0xaf, 0xdb, 0xbd,
  0x16, 0xf8, 0xdb, 0x3d, 0x4d, 0xc4, 0x9b, 0xbd, 0x61, 0xcb, 0x21, 0x3e,
  0xab, 0xb5, 0x3f, 0xbc, 0x5d, 0x74, 0xc1, 0x3e, 0x10, 0x25, 0x1d, 0xbe,
  0xf6, 0xd1, 0x11, 0x3e, 0xcc, 0xc9, 0xb0, 0x3c, 0x17, 0x88, 0xca, 0xbd,
  0x0f, 0x88, 0x14, 0xbe, 0xdd, 0x51, 0xf3, 0xbc, 0x70, 0x5f, 0x9d, 0x3e,
  0x19, 0x12, 0x3c, 0xbe, 0x38, 0xe9, 0x4b, 0xbd, 0xad, 0x48, 0x11, 0xbf,
  0xb2, 0x43, 0x99, 0x3d, 0x8b, 0xd7, 0x09, 0x3e, 0xf1, 0xdd, 0x43, 0x3c,
  0x75, 0x35, 0x1f, 0xbd, 0x0d, 0x76, 0x45, 0x3e, 0x35, 0x45, 0xd7, 0x3e,
  0xcd, 0xbb, 0xbc, 0x3d, 0x5a, 0x7b, 0xe1, 0x3d, 0x50, 0x4e, 0x3b, 0x3e,
  0xc7, 0x3a, 0xe5, 0x3d, 0x12, 0x1d, 0x23, 0x3d, 0xb3, 0x7a, 0x4a, 0x3e,
  0xc3, 0x83, 0x82, 0x3e, 0x6c, 0x96, 0x6f, 0xbe, 0xf0, 0x56, 0x29, 0x3d,
  0xc8, 0xd0, 0xc8, 0xbe, 0xed, 0x6a, 0x87, 0x3e, 0xec, 0xc1, 0x1e, 0x3e,
  0x92, 0xfc, 0x05, 0x3e, 0xa6, 0xd2, 0x86, 0x3d, 0x66, 0x71, 0xff, 0xbd,
  0x1c, 0x42, 0xaa, 0x3e, 0x5f, 0xa5, 0xb5, 0xbc, 0x21, 0x95, 0x63, 0x3d,
  0x61, 0x03, 0x0a, 0xbb, 0xd7, 0x6a, 0x0c, 0xbe, 0xe9, 0x5b, 0x86, 0x3d,
  0x9f, 0x64, 0xcc, 0x3d, 0xf9, 0x63, 0x19, 0x3e, 0xa2, 0x1e, 0xd5, 0xbe,
  0xe1, 0x4f, 0x82, 0x3e, 0xeb, 0xd5, 0x79, 0xbe, 0xcc, 0xa0, 0x48, 0x3c,
  0xf6, 0x3c, 0xc7, 0xbc, 0xb2, 0xd5, 0x98, 0x3c, 0xa1, 0xa4, 0xbb, 0xbd,
  0x0a, 0xe7, 0xb8, 0xbe, 0xd0, 0x9c, 0x3d, 0x3e, 0x79, 0x87, 0x0d, 0x3d,
  0x8f, 0x49, 0xbf, 0x3d, 0xf6, 0xc0, 0x0f, 0x3b, 0x31, 0x37, 0xe9, 0xbd,
  0x2c, 0xe1, 0x95, 0xbe, 0xeb, 0x4f, 0x65, 0x3e, 0x2c, 0xeb, 0x4f, 0x3e,
  0xbe, 0x68, 0xc9, 0xbe, 0x88, 0xfc, 0x4b, 0x3e, 0x33, 0xaf, 0x09, 0xbf,
  0xf6, 0x32, 0x76, 0x3e, 0x37, 0x83, 0x00, 0xbe, 0xda, 0xc0, 0xa8, 0xbd,
  0xe8, 0xd6, 0x35, 0xbd, 0x2a, 0xa2, 0x25, 0xbe, 0x57, 0x13, 0x65, 0x3e,
  0x4c, 0x74, 0x3a, 0xbd, 0x06, 0x1f, 0xf6, 0x3d, 0x24, 0x16, 0xc0, 0xbd,
  0xd0, 0x9d, 0x2f, 0xbe, 0x2e, 0x15, 0x63, 0xbe, 0xfe, 0x46, 0xd6, 0x3d,
  0xa1, 0x84, 0x1b, 0x3e, 0xc3, 0xcb, 0x10, 0xbe, 0xc9, 0x94, 0xaa, 0xbd,
  0x2b, 0xcc, 0xa7, 0xbe, 0xff, 0xce, 0xff, 0x3d, 0x1c, 0xd1, 0x08, 0xbe,
  0x2a, 0x85, 0x07, 0xbd, 0xcc, 0x0f, 0x86, 0xbe, 0x77, 0x3c, 0x27, 0x3e,
  0x29, 0x01, 0xba, 0x3e, 0x03, 0xf6, 0x3c, 0xbe, 0xb6, 0x7e, 0xbd, 0xbd,
  0xc9, 0xc1, 0x3d, 0x3d, 0xdb, 0xf9, 0x1d, 0x3e, 0x2e, 0xff, 0x17, 0xbe,
  0xa4, 0x8c, 0xa5, 0x3e, 0x31, 0x84, 0xf9, 0xbd, 0x8d, 0xe6, 0x57, 0xbd,
  0x51, 0x2b, 0xc1, 0x3d, 0xca, 0x54, 0xd4, 0xbe, 0xd9, 0x86, 0xd9, 0xbd,
  0x2c, 0xee, 0x47, 0x3d, 0x1e, 0xe0, 0x35, 0xbd, 0x39, 0x4e, 0xa3, 0xbb,
  0x07, 0xe1, 0x13, 0xbe, 0xc6, 0xa1, 0xcb, 0x3d, 0x27, 0x54, 0x48, 0xbe,
  0x7d, 0x3d, 0x56, 0x3e, 0x95, 0xff, 0x99, 0xbd, 0x31, 0xeb, 0x4f, 0x3e,
  0x61, 0xc8, 0xdb, 0x3d, 0x72, 0xf4, 0x6a, 0xbe, 0x6c, 0x41, 0x40, 0xbe,
  0x6b, 0x49, 0xb6, 0xbe, 0x19, 0x92, 0x32, 0x3e, 0xcb, 0xab, 0xd9, 0x3d,
  0x9e, 0x08, 0x30, 0x3e, 0xc2, 0x3a, 0x8c, 0x3e, 0xb4, 0xa7, 0x5f, 0x3e,
  0x1d, 0xb1, 0x42, 0x3e, 0x17, 0x17, 0xa6, 0xbd, 0x4e, 0x34, 0x1d, 0xbe,
  0xa5, 0x01, 0xa1, 0x3e, 0xc4, 0xb4, 0x48, 0x3e, 0x15, 0xdc, 0xd2, 0x3d,
  0xcb, 0x67, 0x42, 0xbe, 0x51, 0x8b, 0x19, 0xbd, 0x3b, 0x23, 0xc6, 0xbe,
  0xb5, 0x81, 0x06, 0xbe, 0x66, 0x55, 0x31, 0x3d, 0x45, 0xaf, 0xc4, 0xbd,
  0xe0, 0x29, 0x8a, 0xbd, 0xff, 0x23, 0x17, 0x3e, 0xf9, 0x7f, 0x01, 0x3f,
  0x08, 0x7e, 0xb7, 0x3e, 0xf4, 0x66, 0x14, 0x3f, 0xd6, 0x14, 0x0e, 0xbe,
  0x0c, 0x45, 0x01, 0x3d, 0x33, 0x19, 0x19, 0x3f, 0x4a, 0xca, 0x3d, 0xbd,
  0x51, 0x92, 0x84, 0x3e, 0x17, 0x2d, 0x58, 0xbe, 0x50, 0xb2, 0x90, 0xbd,
  0x52, 0xff, 0xcd, 0xbe, 0xd2, 0x58, 0xaa, 0xbd, 0x33, 0x9c, 0x39, 0x3d,
  0xfb, 0x7d, 0x98, 0xbe, 0x13, 0x87, 0x3c, 0xbd, 0x9c, 0x3c, 0xb9, 0xbd,
  0x9c, 0x72, 0xbe, 0x3d, 0x68, 0xb7, 0xe5, 0x3e, 0xf6, 0xea, 0xac, 0x3e,
  0x43, 0xd8, 0x45, 0xbe, 0x0f, 0xd2, 0x95, 0x3d, 0x6a, 0xf7, 0xe7, 0x3e,
  0x00, 0xdb, 0x92, 0x3e, 0x91, 0x29, 0xb2, 0xbe, 0x9d, 0x1f, 0x6a, 0xbe,
  0x5a, 0x3a, 0xb2, 0x3e, 0x53, 0x4f, 0x06, 0xbe, 0x29, 0xd1, 0x80, 0xbd,
  0x56, 0x64, 0x95, 0xbd, 0x27, 0x71, 0x2d, 0xbe, 0xae, 0x44, 0x66, 0xbd,
  0xe9, 0x6b, 0xb7, 0x3d, 0xb3, 0xdc, 0x9b, 0x3c, 0x45, 0x39, 0xa8, 0x3e,
  0xbb, 0xf5, 0x83, 0x3e, 0x5a, 0xd3, 0x1d, 0x3d, 0xe9, 0x2f, 0x47, 0x3e,
  0x03, 0x66, 0xbf, 0x3e, 0x00, 0x0b, 0xb2, 0x3e, 0x12, 0x54, 0x5b, 0x3c,
  0xe5, 0x3d, 0xc3, 0xbd, 0x70, 0xd0, 0x35, 0x3e, 0x1b, 0x3e, 0xe8, 0xbd,
  0xaa, 0x75, 0xc8, 0xbe, 0x73, 0xb8, 0xe0, 0x3c, 0xec, 0x6b, 0x6b, 0x3c,
  0x3d, 0x0c, 0x0f, 0xbd, 0x41, 0x0e, 0xb4, 0x3d, 0xbe, 0x40, 0x9a, 0x3d,
  0x0a, 0xf9, 0x49, 0x3d, 0xb6, 0xc8, 0xd7, 0x3d, 0xff, 0x62, 0x5c, 0xbe,
  0x39, 0x41, 0x1e, 0x3c, 0x64, 0xb5, 0x57, 0x3d, 0x4b, 0xdf, 0x25, 0x3f,
  0x03, 0x22, 0xee, 0xbc, 0xd2, 0x59, 0xea, 0x3c, 0x03, 0x7b, 0x1b, 0x3e,
  0x0c, 0xb7, 0xa9, 0xbe, 0xbe, 0xe1, 0xd2, 0xbe, 0x97, 0xc9, 0xe0, 0xbc,
  0xbf, 0xcd, 0xc0, 0x3c, 0xbc, 0x42, 0x21, 0xbc, 0x34, 0x0b, 0x22, 0x3d,
  0x7f, 0xe9, 0x32, 0x3c, 0x58, 0x9a, 0x79, 0x3c, 0x2a, 0x71, 0x14, 0xbd,
  0x69, 0xe4, 0x9a, 0x3d, 0x17, 0xad, 0x6a, 0x3d, 0x8c, 0x3b, 0x44, 0x3e,
  0xf3, 0x6e, 0x8b, 0x3c, 0x11, 0x95, 0x35, 0xbe, 0xf5, 0xaa, 0x7b, 0xbd,
  0x62, 0x0c, 0x1d, 0xbe, 0xa8, 0x00, 0x76, 0xbe, 0x7b, 0xfa, 0x2d, 0x3c,
  0x3f, 0xc9, 0x8b, 0x3c, 0x81, 0xa1, 0xba, 0x3d, 0x5c, 0x33, 0x6c, 0xbd,
  0xd9, 0xa3, 0x47, 0xbc, 0x8b, 0x70, 0x90, 0xbd, 0xe5, 0x19, 0xbb, 0xbd,
  0x38, 0x82, 0xfb, 0xbc, 0xce, 0x0f, 0x10, 0x3e, 0x5c, 0x37, 0xdc, 0x3d,
  0x8b, 0x2f, 0x23, 0xbe, 0xad, 0x4e, 0x9a, 0xbe, 0x35, 0x1c, 0x5f, 0xbe,
  0x17, 0x7a, 0x6f, 0xbd, 0x18, 0xd0, 0x30, 0xbe, 0xc2, 0x6c, 0x18, 0x3e,
  0x41, 0x3d, 0xe4, 0xbd, 0x85, 0xdd, 0xd2, 0x3c, 0x14, 0x1f, 0xba, 0xbe,
  0x0e, 0x61, 0xd2, 0xbd, 0xba, 0xa2, 0x7c, 0xbe, 0xb0, 0x1d, 0x14, 0x3b,
  0x1d, 0x8f, 0x0e, 0x3e, 0xbf, 0xbb, 0xdb, 0xbd, 0x75, 0x45, 0x40, 0x3c,
  0xd6, 0x2f, 0xd4, 0x3d, 0x5e, 0x69, 0x84, 0xbd, 0x74, 0x55, 0x3f, 0xbd,
  0x77, 0x39, 0x63, 0x3e, 0x9d, 0x1d, 0x0f, 0x3e, 0x16, 0x9e, 0x36, 0xbe,
  0x05, 0xc7, 0xa6, 0x3d, 0x7e, 0x98, 0x06, 0x3e, 0x66, 0xfe, 0x53, 0x3e,
  0x2e, 0x05, 0xa2, 0xbe, 0x24, 0x00, 0x33, 0xbd, 0x66, 0x21, 0xb0, 0x3d,
  0x5a, 0xde, 0x37, 0x3d, 0x59, 0x47, 0x83, 0x3d, 0x99, 0xc6, 0x62, 0x3b,
  0x90, 0xef, 0x07, 0xbe, 0xd9, 0xd5, 0x70, 0x3e, 0x9b, 0x45, 0x9b, 0x3e,
  0x96, 0x67, 0x64, 0x3e, 0x78, 0x49, 0x0a, 0xbd, 0x4f, 0x79, 0x9e, 0x3d,
  0x50, 0xf8, 0xff, 0xbd, 0xf1, 0x22, 0x77, 0x3e, 0xdd, 0x76, 0x33, 0x3e,
  0xc1, 0xdf, 0x93, 0x3c, 0x0c, 0x67, 0x6d, 0x3e, 0x4e, 0xa1, 0xc3, 0xbd,
  0x21, 0xdb, 0xd8, 0xbd, 0x09, 0x6b, 0xe3, 0xbc, 0x19, 0x77, 0x4b, 0x3d,
  0x06, 0x26, 0xa1, 0xbd, 0x86, 0x42, 0x9a, 0xbd, 0x3e, 0xf5, 0x66, 0x3e,
  0x30, 0x8b, 0xfd, 0xbc, 0x9e, 0x47, 0xb6, 0xbd, 0xcb, 0x22, 0x22, 0xbd,
  0x29, 0xdb, 0xaa, 0x3b, 0xcb, 0x4c, 0x18, 0xbe, 0x74, 0x87, 0xc3, 0x3d,
  0x45, 0x2e, 0x6b, 0x3e, 0x19, 0x37, 0x2f, 0x3d, 0x20, 0x67, 0x61, 0xbd,
  0x3e, 0xd1, 0x59, 0xbe, 0x0f, 0xc7, 0xa2, 0xbd, 0x72, 0x36, 0x2f, 0x3e,
  0x74, 0x97, 0x90, 0xbd, 0x38, 0x66, 0xc3, 0xbd, 0x4f, 0x67, 0xe1, 0xbd,
  0xa4, 0x4d, 0xbb, 0xbd, 0x86, 0x50, 0x94, 0x3b, 0x8b, 0xd0, 0xe9, 0xbb,
  0xd6, 0x09, 0x0c, 0x3e, 0x04, 0x61, 0x00, 0xbe, 0x6a, 0xd6, 0x34, 0xbe,
  0x1c, 0x2d, 0x24, 0xbd, 0x50, 0xdb, 0x2f, 0x3e, 0xb4, 0xd2, 0x9c, 0x3c,
  0xa7, 0x2c, 0x26, 0x3e, 0xcc, 0x53, 0x21, 0xbe, 0x18, 0x6c, 0x3c, 0x3d,
  0x62, 0xeb, 0x75, 0xbe, 0x21, 0x78, 0x6f, 0xbd, 0x89, 0xfc, 0x38, 0xbe,
  0xcc, 0xa7, 0x22, 0xbd, 0xa2, 0x40, 0xd8, 0x3d, 0xbf, 0x5b, 0x46, 0xbc,
  0xcd, 0xbf, 0x47, 0xbd, 0xc0, 0xba, 0x9e, 0xbd, 0x0b, 0x54, 0x86, 0xbd,
  0x0d, 0x82, 0x00, 0xbe, 0x91, 0xff, 0xf4, 0x3c, 0x53, 0xa2, 0x42, 0x3e,
  0xcd, 0xfa, 0x37, 0x3e, 0x4c, 0xce, 0x64, 0x3e, 0x48, 0x89, 0xda, 0xbc,
  0x6a, 0xd8, 0x84, 0xbd, 0x49, 0xe6, 0x3a, 0xbd, 0x89, 0xa0, 0x06, 0x3e,
  0x20, 0x00, 0x13, 0x3e, 0xe7, 0x07, 0x6e, 0x3e, 0x4e, 0xe8, 0x25, 0x3f,
  0x8e, 0x1f, 0xab, 0x3d, 0x68, 0x44, 0x8e, 0x3b, 0x60, 0xd6, 0x18, 0x3e,
  0x1b, 0xd8, 0xb6, 0xbd, 0x6d, 0xb3, 0xbd, 0xbe, 0x16, 0xc5, 0x86, 0xbc,
  0x5d, 0x56, 0x58, 0xbe, 0xc5, 0x03, 0x16, 0xbe, 0x78, 0x28, 0x91, 0xbd,
  0xb6, 0xb8, 0xe4, 0xbb, 0x4c, 0x18, 0xad, 0xbe, 0x7e, 0xd0, 0xc4, 0x3d,
  0x18, 0xdc, 0xb4, 0x3d, 0xd9, 0x24, 0x74, 0xbd, 0x47, 0x0c, 0x49, 0xbe,
  0x78, 0xf9, 0x16, 0x3d, 0xbd, 0x2e, 0x7b, 0xbd, 0x86, 0xfd, 0x98, 0x3e,
  0x8f, 0x6d, 0x17, 0xbe, 0xfd, 0x4c, 0xe9, 0x3d, 0x12, 0x3d, 0xea, 0x3b,
  0x49, 0xbf, 0x9b, 0xbe, 0x87, 0x2b, 0xcd, 0xbe, 0xd1, 0x9f, 0x3b, 0xbe,
  0x14, 0x4d, 0x83, 0x3e, 0xa7, 0x70, 0x06, 0x3d, 0x43, 0x5e, 0x51, 0x3d,
  0xdf, 0x90, 0x16, 0x3e, 0x7f, 0xd0, 0x6d, 0x3e, 0x7e, 0x85, 0x7c, 0x3e,
  0xac, 0xc5, 0xad, 0xbe, 0xc2, 0xd1, 0x9a, 0xbd, 0x8e, 0x32, 0x01, 0x3e,
  0x6a, 0x61, 0x70, 0xbe, 0x7a, 0x7c, 0x19, 0xbe, 0x3e, 0xbe, 0x2b, 0xbd,
  0x28, 0x76, 0x18, 0x3d, 0xff, 0x28, 0x15, 0xbf, 0xe8, 0xdd, 0x8b, 0xbe,
  0x3e, 0xb8, 0x49, 0xbe, 0x1d, 0x61, 0x59, 0x3c, 0x75, 0xd6, 0x50, 0xbd,
  0xf4, 0x75, 0xc9, 0x3d, 0x57, 0xe5, 0xfb, 0x3e, 0x2c, 0x53, 0x24, 0x3f,
  0x09, 0xc7, 0x0e, 0x3f, 0xd9, 0x01, 0x76, 0x3a, 0x17, 0xed, 0x42, 0xbe,
  0x8b, 0x4d, 0x2b, 0x3f, 0x76, 0xa3, 0x9a, 0xbe, 0x99, 0xfd, 0xd8, 0xbd,
  0xfe, 0x0a, 0x26, 0x3e, 0xf9, 0x00, 0x4a, 0xbe, 0x83, 0x32, 0x01, 0xbe,
  0x3b, 0xf0, 0x61, 0xbe, 0x34, 0x72, 0x34, 0xbe, 0x99, 0xd1, 0x10, 0xbe,
  0xc8, 0x70, 0x2b, 0xbd, 0xa1, 0x34, 0x11, 0x3e, 0x34, 0x2f, 0xba, 0x3d,
  0xb8, 0xda, 0x98, 0x3e, 0x57, 0x55, 0x90, 0x3e, 0xaa, 0x1f, 0xe0, 0xbe,
  0x12, 0xb8, 0x94, 0xbe, 0x18, 0x47, 0xf1, 0x3e, 0x0d, 0x9a, 0x13, 0x3e,
  0x9f, 0x78, 0xf8, 0xbd, 0xc7, 0x91, 0x44, 0xbd, 0xa3, 0x67, 0x2b, 0x3e,
  0x37, 0xa6, 0xdd, 0xbe, 0xd5, 0xaa, 0x77, 0x3d, 0xf6, 0xcb, 0x2a, 0xbd,
  0xe7, 0xf4, 0x52, 0x3d, 0xa3, 0x2d, 0x19, 0xbd, 0xba, 0x38, 0xc8, 0x3d,
  0x98, 0x54, 0xbd, 0x3d, 0x6c, 0x63, 0x89, 0x3e, 0x46, 0x6e, 0x1c, 0x3e,
  0x97, 0xf2, 0x9c, 0xbe, 0x1a, 0x99, 0x65, 0xbe, 0x7d, 0xf9, 0x03, 0x3f,
  0x55, 0x8b, 0x9c, 0x3e, 0x52, 0x04, 0x3e, 0xbd, 0x12, 0xad, 0x78, 0xbe,
  0xcd, 0x10, 0x47, 0x3e, 0x0c, 0x66, 0x10, 0xbf, 0x2a, 0xbc, 0xc1, 0xbe,
  0xaa, 0x7e, 0x06, 0x3d, 0x66, 0x3a, 0x69, 0x3e, 0x12, 0xe0, 0x0e, 0xbd,
  0xc8, 0xdb, 0x5c, 0xbd, 0x1d, 0xb6, 0x77, 0xba, 0x8e, 0xb1, 0x85, 0x3d,
  0x49, 0x22, 0x9b, 0x3d, 0x82, 0x70, 0x72, 0xbe, 0x5c, 0x8f, 0xce, 0xbd,
  0x52, 0x66, 0x0c, 0x3f, 0x0e, 0x0d, 0xc3, 0x3e, 0xd3, 0xaf, 0xd9, 0xbe,
  0x6a, 0xba, 0xac, 0xbd, 0x91, 0x2d, 0x49, 0x3e, 0x22, 0xf1, 0x17, 0xbf,
  0x54, 0xa0, 0x0f, 0xbf, 0x6a, 0xa2, 0x5d, 0xbe, 0x64, 0xe0, 0x8a, 0x3e,
  0x60, 0x52, 0x55, 0xbc, 0xa8, 0x4f, 0xbb, 0xbc, 0x82, 0x40, 0x0b, 0x3d,
  0xfa, 0x76, 0x7d, 0x3d, 0x2f, 0x04, 0x2a, 0x3e, 0x12, 0x9a, 0x78, 0x3d,
  0x33, 0xde, 0x8a, 0xbe, 0x67, 0xd8, 0xaa, 0x3d, 0xb4, 0x85, 0xca, 0x3d,
  0x32, 0x62, 0x88, 0xbe, 0x01, 0x78, 0x13, 0xbc, 0xf2, 0x81, 0x49, 0x3d,
  0xc6, 0x1b, 0xcb, 0xbe, 0xcf, 0x4a, 0x1b, 0xbd, 0x82, 0x76, 0xf0, 0xbc,
  0x3d, 0x00, 0xd3, 0x3e, 0x95, 0xb6, 0xf4, 0xbc, 0x37, 0x39, 0x9e, 0x3d,
  0x5d, 0x9e, 0x78, 0xbe, 0x6b, 0x30, 0x8a, 0xbe, 0xfa, 0x8a, 0x50, 0x3d,
  0x96, 0x86, 0x87, 0x3e, 0x25, 0xa2, 0x05, 0x3e, 0x77, 0xf1, 0x98, 0x3e,
  0x77, 0x07, 0x0f, 0xbe, 0x5d, 0xc3, 0x2b, 0xbe, 0x60, 0xad, 0x0e, 0xbe,
  0x5e, 0xfb, 0x28, 0x3a, 0xfe, 0xcd, 0x1c, 0xbe, 0xcf, 0xd9, 0xb7, 0xbe,
  0x08, 0x20, 0xfd, 0xbd, 0x53, 0xe5, 0x52, 0xbe, 0x66, 0x5f, 0xda, 0x3d,
  0x86, 0xb6, 0x9b, 0xbe, 0x75, 0xa2, 0x9f, 0xbd, 0xd7, 0xae, 0xb8, 0xbd,
  0x23, 0xb2, 0xfc, 0xbc, 0x8d, 0x4f, 0x86, 0x3d, 0xd8, 0x00, 0x15, 0xbc,
  0x44, 0x00, 0x15, 0x3e, 0x1f, 0x93, 0x8c, 0x3e, 0xc8, 0xa0, 0x2d, 0xbd,
  0x20, 0x32, 0x27, 0x3e, 0xf0, 0x11, 0xae, 0xbe, 0xb4, 0xf9, 0xc1, 0x3c,
  0x20, 0x98, 0xfa, 0x3d, 0xbd, 0x01, 0x3e, 0xbe, 0x08, 0xd4, 0xe5, 0x3c,
  0x9e, 0x24, 0x9d, 0xba, 0x44, 0xaa, 0xab, 0xbd, 0x3a, 0x62, 0x76, 0xbe,
  0xb7, 0x3f, 0x40, 0xbd, 0xca, 0xe8, 0x3a, 0xbe, 0xd3, 0x3a, 0xab, 0x3e,
  0xc0, 0xcf, 0x9e, 0x3e, 0x9e, 0x07, 0x44, 0xbd, 0xf4, 0x3f, 0x43, 0x3e,
  0xbd, 0x32, 0xac, 0xbd, 0x8a, 0xab, 0x8f, 0x3c, 0x4b, 0xee, 0x69, 0xbe,
  0xd6, 0xde, 0x7d, 0x3e, 0xbf, 0xdd, 0xaa, 0xbd, 0x31, 0x37, 0x06, 0x3d,
  0xfe, 0x68, 0x87, 0x3d, 0x6a, 0x93, 0x8d, 0x3d, 0xd8, 0x6b, 0xd1, 0xbd,
  0xfe, 0x25, 0x90, 0xbe, 0xfe, 0x59, 0x90, 0xbb, 0x86, 0xc3, 0x3d, 0xbc,
  0xfe, 0x73, 0x9e, 0x3d, 0x43, 0x7f, 0x43, 0x3e, 0x84, 0x7e, 0x14, 0xbe,
  0x83, 0x23, 0x44, 0x3e, 0x80, 0x95, 0x8a, 0x3e, 0x32, 0xd7, 0xc1, 0x3d,
  0x6a, 0x78, 0x8a, 0xbd, 0x10, 0xab, 0x78, 0x3d, 0xd8, 0xad, 0x5e, 0x3c,
  0x16, 0x5f, 0x4f, 0xbd, 0x26, 0x7f, 0x7e, 0x3e, 0xdc, 0x5c, 0x28, 0x3d,
  0x30, 0x50, 0x23, 0xbe, 0x37, 0x7f, 0x78, 0xbd, 0x37, 0x54, 0x0b, 0xbd,
  0xc9, 0x4f, 0x51, 0xbd, 0x67, 0x98, 0x11, 0xbc, 0xe7, 0x70, 0xea, 0x3d,
  0x0e, 0xf4, 0x38, 0xbe, 0xeb, 0x53, 0x2f, 0xbc, 0xbb, 0x4b, 0x9e, 0x3e,
  0xc3, 0x2f, 0xee, 0xba, 0xef, 0x57, 0x49, 0xbe, 0x27, 0xc5, 0x08, 0x3c,
  0x90, 0x85, 0xab, 0x3d, 0x65, 0x6b, 0x36, 0xbe, 0xa1, 0x58, 0x81, 0xbd,
  0x3d, 0x19, 0x0e, 0xbc, 0x17, 0xdf, 0xf8, 0x3c, 0x4e, 0xb0, 0x5d, 0xbe,
  0x59, 0xe5, 0x1a, 0xbe, 0xeb, 0x4e, 0x89, 0xbe, 0xdf, 0x2a, 0x08, 0xbe,
  0x43, 0xc9, 0x69, 0x3e, 0xec, 0x7c, 0x8b, 0xbc, 0x10, 0x1d, 0xda, 0x3d,
  0xbe, 0x39, 0x16, 0xbd, 0x7a, 0x4f, 0x8a, 0xbe, 0xef, 0xf0, 0x3f, 0xbe,
  0x21, 0x4a, 0x25, 0xbb, 0x1d, 0x6f, 0x83, 0xbd, 0x4b, 0x7c, 0xab, 0x3b,
  0xf2, 0x04, 0x17, 0xbe, 0x0b, 0x15, 0xe7, 0x3c, 0xcd, 0xa9, 0x43, 0xbe,
  0x5b, 0x23, 0x2e, 0xbe, 0x1b, 0xb3, 0x66, 0xbe, 0x71, 0x79, 0x0d, 0xbd,
  0xb5, 0x20, 0xe0, 0x3d, 0x22, 0x90, 0xba, 0x3e, 0xe0, 0x52, 0xd7, 0x3d,
  0xf7, 0x55, 0x14, 0xbd, 0xd7, 0xa7, 0x04, 0xbd, 0x30, 0x51, 0x65, 0xbc,
  0x2e, 0x18, 0x6c, 0xbe, 0xca, 0x13, 0x4c, 0xbe, 0xb6, 0xb8, 0x90, 0xbc,
  0x84, 0x47, 0x24, 0xbe, 0xe1, 0x31, 0x44, 0xbc, 0xcc, 0xe0, 0x50, 0x3c,
  0x1b, 0x30, 0x7a, 0xbe, 0xc9, 0xf7, 0xb1, 0x3d, 0x3a, 0xa9, 0x78, 0xbe,
  0x45, 0x72, 0x6c, 0x3c, 0x7a, 0x1c, 0x0d, 0xbe, 0x15, 0x1d, 0xca, 0x3e,
  0xd8, 0xea, 0xe9, 0xbc, 0x52, 0x4c, 0x67, 0x3d, 0x8a, 0x3a, 0xd3, 0xbd,
  0x09, 0x06, 0x8e, 0x39, 0xe9, 0x8f, 0x60, 0xbe, 0x7b, 0x21, 0x0e, 0x3e,
  0x0d, 0x93, 0x41, 0xbd, 0x1f, 0x54, 0x3f, 0xbe, 0x90, 0x49, 0x85, 0x3d,
  0xc9, 0x30, 0xc7, 0xbe, 0x24, 0x29, 0x28, 0x3d, 0x7c, 0x0a, 0x55, 0x3d,
  0x70, 0x67, 0xc8, 0xbd, 0x6a, 0x1c, 0x6a, 0x3d, 0x0e, 0xbe, 0x8c, 0xbe,
  0x23, 0xa4, 0x0a, 0x3e, 0x5f, 0x91, 0x73, 0xbe, 0x6c, 0x9a, 0xeb, 0x3d,
  0xb2, 0x2c, 0x58, 0xbd, 0x4b, 0x72, 0xc1, 0xbd, 0x18, 0xf9, 0x72, 0xbe,
  0xb6, 0x39, 0x79, 0x3e, 0xb0, 0x36, 0x3d, 0x3e, 0xf4, 0xb8, 0xd2, 0xbd,
  0x74, 0xa4, 0x89, 0xbe, 0xc2, 0x66, 0xf6, 0xbe, 0xc1, 0x73, 0x26, 0x3e,
  0xfb, 0xb0, 0x92, 0x3d, 0x68, 0x2c, 0xb5, 0x3d, 0x21, 0x4d, 0x04, 0x3e,
  0x04, 0x06, 0xf9, 0x3b, 0x09, 0x9f, 0xf9, 0x3e, 0x8d, 0xf9, 0x24, 0x3d,
  0x97, 0x72, 0x29, 0xbe, 0x05, 0xda, 0x4b, 0x3e, 0xf9, 0x34, 0x42, 0xbe,
  0xbe, 0x39, 0xe9, 0x3b, 0x18, 0xec, 0x97, 0x3e, 0x3d, 0x28, 0x05, 0x3e,
  0x95, 0xa6, 0xf5, 0x3c, 0xf6, 0x33, 0x92, 0x3c, 0x6b, 0x93, 0xc0, 0xbe,
  0x2d, 0xb0, 0x6e, 0x3e, 0x08, 0x9c, 0xe2, 0xbd, 0xa6, 0xe9, 0x62, 0x3d,
  0x97, 0x97, 0xb9, 0x3d, 0x9b, 0x77, 0x80, 0xbe, 0xd8, 0x58, 0x35, 0x3e,
  0x85, 0x03, 0xf8, 0x3d, 0x3e, 0xbc, 0x32, 0xbd, 0xfa, 0x37, 0xfa, 0x3d,
  0x18, 0xdd, 0x65, 0x3c, 0x45, 0x31, 0x72, 0x3e, 0x07, 0x90, 0x3c, 0x3e,
  0x65, 0xc9, 0x82, 0x3e, 0x2b, 0x68, 0xd9, 0xbd, 0x44, 0xa9, 0x26, 0x3e,
  0x8d, 0x7b, 0x5c, 0xbe, 0x42, 0xb9, 0x20, 0x3e, 0x88, 0xd3, 0x15, 0xbe,
  0x9a, 0xb1, 0xfa, 0xbd, 0x5d, 0xf6, 0xc5, 0xbd, 0xdb, 0x91, 0xa6, 0xbe,
  0x10, 0x7d, 0xf6, 0x3e, 0x79, 0x93, 0x22, 0xbe, 0xc3, 0xcd, 0x75, 0xbd,
  0xe7, 0x86, 0x34, 0xbe, 0x7e, 0x96, 0xc7, 0xbd, 0x83, 0x62, 0x2f, 0xbe,
  0x9c, 0x13, 0x95, 0x3e, 0xfa, 0x0b, 0x66, 0x3e, 0xfc, 0x9d, 0x11, 0xbe,
  0x43, 0x77, 0xb5, 0xbc, 0x12, 0xed, 0xa4, 0xbe, 0x74, 0x1b, 0x41, 0x3e,
  0xc5, 0xbc, 0x1d, 0xbe, 0xfb, 0xc4, 0xa5, 0xbd, 0x31, 0x37, 0x0b, 0xbe,
  0x3b, 0x57, 0xb4, 0xbe, 0xd3, 0xa7, 0x95, 0x3e, 0x45, 0x45, 0x9e, 0xbd,
  0xc8, 0x86, 0xeb, 0xbc, 0xda, 0x3c, 0x65, 0xbe, 0xb1, 0xa0, 0x03, 0xbe,
  0xb1, 0x08, 0x0d, 0xbe, 0xce, 0xd0, 0x2f, 0x3e, 0x11, 0xc3, 0x03, 0x3e,
  0x6d, 0x13, 0x87, 0xbe, 0xfe, 0x81, 0x6a, 0x3e, 0xe9, 0x69, 0x1e, 0xbe,
  0x69, 0xe2, 0x8e, 0x3d, 0x3d, 0xce, 0x88, 0xbd, 0x5b, 0xf0, 0x99, 0xb9,
  0x54, 0x62, 0xc6, 0xbd, 0x3f, 0xc2, 0x56, 0xbe, 0xbd, 0x6d, 0x19, 0x3e,
  0xbc, 0x15, 0x23, 0xbe, 0x2e, 0x03, 0xa7, 0xbd, 0xf3, 0x7d, 0xe8, 0xbc,
  0xda, 0xc5, 0x10, 0xbe, 0x1c, 0x37, 0xc2, 0xbc, 0xd4, 0x95, 0x4e, 0x3e,
  0x9f, 0x50, 0x54, 0xbe, 0xfc, 0x10, 0x04, 0xbe, 0x46, 0x52, 0x7c, 0xbd,
  0xb7, 0x6f, 0x8d, 0xbe, 0x24, 0xa1, 0xdf, 0x3c, 0x1d, 0x0f, 0x7b, 0xbe,
  0x09, 0xaf, 0xdb, 0xbe, 0xeb, 0x2a, 0xe3, 0xbd, 0x28, 0x5b, 0x2a, 0xbe,
  0xbb, 0xb0, 0x85, 0x3d, 0x38, 0x1a, 0x78, 0xbd, 0xff, 0xcf, 0xa0, 0xbe,
  0x91, 0xe4, 0x2b, 0xbe, 0x24, 0x7b, 0xc9, 0xbe, 0xcd, 0x63, 0xec, 0xbe,
  0xdd, 0x06, 0xa2, 0xbe, 0x65, 0x47, 0xfe, 0xbd, 0x7c, 0xa5, 0xc7, 0xbd,
  0xda, 0x00, 0xc2, 0xbe, 0x4a, 0xe4, 0xb4, 0xbe, 0x4e, 0x9e, 0xf2, 0xbe,
  0x9d, 0xbb, 0x3e, 0xbe, 0x7b, 0x1f, 0xff, 0x3d, 0x9e, 0x11, 0x1e, 0xbe,
  0xb5, 0x0a, 0xa8, 0x3a, 0x8e, 0xfa, 0x9b, 0xbe, 0x3c, 0xa4, 0x89, 0xbc,
  0xf0, 0x5d, 0xcb, 0xbc, 0xaf, 0x57, 0x06, 0xbd, 0xbc, 0x32, 0x9d, 0xbe,
  0xdd, 0x6d, 0x93, 0xbe, 0x49, 0x6f, 0x75, 0xbe, 0x24, 0x55, 0x3e, 0x3b,
  0x24, 0x9f, 0x04, 0xbe, 0x68, 0xe3, 0xf3, 0x3d, 0x5e, 0x34, 0x24, 0xbf,
  0x53, 0x12, 0x87, 0xbe, 0x5f, 0x4a, 0xb7, 0xbe, 0x83, 0x22, 0x27, 0xbe,
  0xbd, 0x7c, 0x48, 0xbe, 0x4a, 0x4b, 0xa3, 0xbd, 0x52, 0xa8, 0xa4, 0xbc,
  0x9b, 0x77, 0x10, 0x3e, 0x06, 0xd2, 0x24, 0xbe, 0x2f, 0xbe, 0x4e, 0x3d,
  0xe3, 0xdf, 0xb5, 0xbe, 0x6a, 0xfb, 0x0c, 0xbe, 0xe2, 0x0a, 0x4c, 0xbd,
  0x5d, 0x5c, 0xff, 0x3c, 0x21, 0x44, 0x17, 0xbd, 0xca, 0x1d, 0x93, 0x3d,
  0x89, 0xb5, 0x00, 0xbf, 0xbf, 0x4b, 0x82, 0xbe, 0xe2, 0xd7, 0xa3, 0x3b,
  0xd2, 0x82, 0x16, 0xbf, 0xf7, 0xae, 0xdb, 0xbe, 0x4b, 0x78, 0x1c, 0x3a,
  0x92, 0xd6, 0x61, 0xbe, 0xdc, 0xdb, 0x95, 0xbc, 0x86, 0xef, 0x6b, 0xbe,
  0xfe, 0x4c, 0x66, 0xbe, 0x07, 0xc4, 0x24, 0xbd, 0xbd, 0x87, 0x9a, 0xbd,
  0x9c, 0xff, 0x45, 0xbc, 0x85, 0xbf, 0x9b, 0xbe, 0x8f, 0x0d, 0x8e, 0xbd,
  0x0f, 0x05, 0x00, 0xbe, 0x1f, 0x37, 0xcc, 0xbe, 0xa2, 0x86, 0x15, 0xbf,
  0xc0, 0xbc, 0x44, 0x3e, 0x74, 0xc8, 0xae, 0x3d, 0x4b, 0xd0, 0xb5, 0x3c,
  0xf6, 0x66, 0x5f, 0x3e, 0x60, 0x60, 0x07, 0x3d, 0xe9, 0xac, 0x12, 0xbe,
  0xf7, 0xd0, 0x27, 0x3e, 0xa1, 0xd2, 0x8d, 0x3c, 0xd9, 0x27, 0xae, 0x3e,
  0x3a, 0x0e, 0x65, 0xbd, 0x29, 0x96, 0xd7, 0x3c, 0xec, 0xc5, 0x0c, 0xbe,
  0x44, 0x76, 0x8f, 0xbd, 0x3e, 0x42, 0x88, 0x3d, 0x67, 0xe8, 0x33, 0xbe,
  0x58, 0x33, 0xd4, 0xbd, 0xf4, 0x9c, 0xb1, 0x3d, 0xda, 0x7b, 0x7a, 0x3d,
  0xd4, 0x0c, 0x82, 0x3d, 0x77, 0xb2, 0xc5, 0x3e, 0x81, 0xdd, 0xdf, 0x3c,
  0x44, 0xa8, 0x00, 0x3e, 0x4e, 0xd6, 0x96, 0xbd, 0xd7, 0x64, 0x8c, 0x3e,
  0x39, 0x61, 0xf0, 0x3d, 0x1e, 0xee, 0xc4, 0xbd, 0x07, 0xbc, 0xb5, 0x3d,
  0xa1, 0xce, 0xa3, 0x3d, 0x79, 0xe8, 0x86, 0xbd, 0x68, 0xcf, 0x98, 0xbc,
  0x0c, 0x7e, 0x70, 0xbe, 0x4e, 0xd3, 0x85, 0x3d, 0xf0, 0x62, 0x85, 0x3e,
  0x6c, 0x6b, 0x4e, 0x3e, 0xe1, 0x3e, 0x3e, 0x3e, 0xc6, 0xa3, 0x36, 0xbe,
  0x46, 0x02, 0x97, 0xbe, 0x34, 0x72, 0xca, 0x3c, 0xae, 0x5e, 0x7b, 0xbe,
  0xae, 0x6e, 0xa9, 0x3c, 0x76, 0xe1, 0x52, 0x3e, 0x21, 0x0a, 0x85, 0x3d,
  0x79, 0xe8, 0x66, 0x3e, 0xfd, 0x8a, 0xb0, 0xbc, 0xcb, 0x59, 0x9f, 0xbc,
  0xdc, 0xd9, 0xed, 0xbd, 0xef, 0xa0, 0xa0, 0x3c, 0xa2, 0xda, 0x2b, 0x3d,
  0x99, 0x0a, 0xef, 0xbd, 0x24, 0xb2, 0x0e, 0xbf, 0x7d, 0x9c, 0x5a, 0x3e,
  0x4a, 0x9d, 0xe3, 0x3d, 0xf7, 0xdb, 0x73, 0x3e, 0xa5, 0x9c, 0xab, 0x3e,
  0x37, 0x3c, 0x02, 0xbf, 0x19, 0xb2, 0x66, 0xbe, 0x5b, 0x34, 0x54, 0x3c,
  0x78, 0x00, 0x85, 0xbd, 0x67, 0x6e, 0xfc, 0x3d, 0x54, 0x64, 0x20, 0xbe,
  0xf2, 0xbc, 0x02, 0xbe, 0xf6, 0x2f, 0xbf, 0xbe, 0x2b, 0xd8, 0x95, 0x3c,
  0x37, 0x1c, 0xcc, 0xbe, 0xc1, 0x78, 0x73, 0x3d, 0x3f, 0x6e, 0xaa, 0xbe,
  0x80, 0x97, 0x10, 0xbe, 0x33, 0x5e, 0x30, 0x3e, 0xbf, 0x23, 0xfd, 0x3e,
  0xbe, 0xd0, 0x83, 0x3e, 0x35, 0x9a, 0x5e, 0x3e, 0x05, 0x5d, 0xa8, 0x3d,
  0x6d, 0xdf, 0x9d, 0x3e, 0x5a, 0x62, 0xe5, 0xbe, 0xe8, 0xc0, 0x6d, 0x3e,
  0xd1, 0x0d, 0xf5, 0x3d, 0xab, 0x39, 0x00, 0x3d, 0xda, 0xea, 0x40, 0xbe,
  0x84, 0x43, 0x06, 0x3d, 0x08, 0x7f, 0x3c, 0xbf, 0xa0, 0x67, 0xe0, 0xbd,
  0x4d, 0xe4, 0x03, 0xbe, 0x11, 0x23, 0x14, 0xbd, 0x55, 0x2e, 0x09, 0xbc,
  0x1d, 0xbe, 0xf1, 0x3e, 0xfb, 0x71, 0x39, 0x3b, 0x57, 0xdb, 0xa7, 0x3e,
  0xcf, 0x3d, 0xd0, 0x3e, 0x34, 0x1d, 0x74, 0xbd, 0x9d, 0x75, 0xaf, 0xbd,
  0xa7, 0xae, 0xa0, 0x3e, 0x1a, 0xfb, 0x83, 0x3e, 0x75, 0xf6, 0xac, 0x3c,
  0x24, 0x24, 0x9e, 0x3e, 0x6e, 0x68, 0xf2, 0x3c, 0xec, 0xd5, 0x16, 0xbf,
  0xa7, 0xf6, 0x63, 0xbe, 0x47, 0x22, 0x80, 0x3d, 0x43, 0xcb, 0x3e, 0x3d,
  0x93, 0xb1, 0xc4, 0x3c, 0x52, 0x19, 0x84, 0x3e, 0x1c, 0xbb, 0x2a, 0x3d,
  0xf5, 0x43, 0x10, 0xbd, 0xbb, 0xd5, 0x1a, 0x3d, 0x07, 0xd2, 0x83, 0xbd,
  0x69, 0xc0, 0x47, 0xbe, 0x9d, 0x56, 0x1e, 0x3e, 0x4b, 0x66, 0xcf, 0x3d,
  0x16, 0xf5, 0x08, 0xbd, 0x20, 0x3d, 0xa8, 0xbd, 0x52, 0x45, 0xab, 0xbb,
  0xc1, 0x26, 0x0c, 0xbf, 0x3e, 0x2c, 0x69, 0xbe, 0xc1, 0xd7, 0x91, 0xbd,
  0x30, 0x24, 0x8d, 0xbd, 0x1a, 0xef, 0x8b, 0x3d, 0x8e, 0x33, 0x6d, 0x3e,
  0x5b, 0x76, 0xa9, 0x3d, 0xad, 0xe8, 0xbb, 0xbd, 0x06, 0x51, 0x33, 0x3e,
  0x63, 0x0a, 0xd5, 0xbc, 0xae, 0x4e, 0x1d, 0xbe, 0x26, 0x27, 0x39, 0x3e,
  0x75, 0x85, 0x80, 0x3e, 0xa6, 0x29, 0x5d, 0x3d, 0x15, 0xb7, 0x79, 0x3e,
  0x53, 0xed, 0x68, 0x3d, 0xd6, 0xf8, 0xce, 0xbe, 0x34, 0xd3, 0xc0, 0xbe,
  0x78, 0x7b, 0x5a, 0xbd, 0x2c, 0x09, 0xcd, 0xbe, 0x26, 0x42, 0x34, 0xbe,
  0x27, 0xdc, 0xc1, 0x3e, 0x1d, 0xfc, 0x38, 0xbd, 0x9e, 0x03, 0xcb, 0xbe,
  0x87, 0x5e, 0x0a, 0x3e, 0x49, 0x77, 0x86, 0xbd, 0x26, 0x3e, 0x1c, 0xbe,
  0x5b, 0x99, 0x42, 0x3e, 0x27, 0xe9, 0x1e, 0x3b, 0x81, 0xbc, 0x3a, 0x3c,
  0xbd, 0xaf, 0x8a, 0x3d, 0x6b, 0x21, 0x4e, 0x3c, 0x6a, 0xef, 0x22, 0xbf,
  0x0c, 0x4a, 0xeb, 0xbe, 0x32, 0x52, 0x26, 0x3d, 0xab, 0x0f, 0x5f, 0x3c,
  0xa9, 0xd6, 0xd6, 0xba, 0x62, 0x8a, 0xc8, 0x3e, 0x1a, 0xc7, 0x8c, 0xbe,
  0xe1, 0x5b, 0x5d, 0xbd, 0xb5, 0x29, 0x93, 0x3d, 0xf3, 0x5b, 0x0c, 0xbe,
  0x62, 0x73, 0x76, 0xbe, 0xf8, 0xda, 0x68, 0x3d, 0xa2, 0x01, 0x49, 0x3d,
  0xb6, 0xcd, 0x7d, 0x3d, 0x75, 0x13, 0x00, 0xbe, 0x95, 0x0d, 0x55, 0x3d,
  0x50, 0xa0, 0x8c, 0xbe, 0x2a, 0x5a, 0x0b, 0xbe, 0x64, 0x38, 0xfc, 0xbe,
  0x39, 0x6e, 0x82, 0xbe, 0x9e, 0x9b, 0xad, 0xbd, 0x01, 0x24, 0xc8, 0xbe,
  0xca, 0x70, 0x76, 0xbe, 0x7b, 0xb0, 0x0f, 0xbf, 0x85, 0x09, 0x97, 0xbe,
  0xfe, 0xde, 0xfe, 0xbe, 0x7f, 0x39, 0xca, 0xbe, 0xcc, 0xca, 0xf7, 0xbe,
  0xf7, 0xf1, 0x14, 0xbe, 0x0c, 0x92, 0xc3, 0xbd, 0xda, 0x7e, 0xfb, 0xbe,
  0x8f, 0x42, 0x5a, 0xbe, 0x5c, 0x3e, 0x0b, 0xbf, 0x39, 0x1d, 0xcb, 0xbe,
  0x28, 0xc1, 0xef, 0xbd, 0x2a, 0x32, 0xb4, 0xbe, 0x95, 0x7d, 0x17, 0xbe,
  0xaa, 0xb2, 0xe1, 0xbe, 0x91, 0x93, 0xc3, 0xbe, 0xbe, 0xa6, 0x33, 0xbe,
  0x4a, 0x62, 0x85, 0xbe, 0xba, 0x93, 0xc2, 0xbe, 0xc6, 0x44, 0x1d, 0xbe,
  0xf0, 0x4d, 0x59, 0xbe, 0x5b, 0x62, 0x4b, 0xbd, 0x20, 0x55, 0x09, 0xbe,
  0x9e, 0xb1, 0xae, 0xbe, 0x8d, 0xb3, 0x6c, 0xbe, 0x68, 0xbc, 0x17, 0xbf,
  0x90, 0xc5, 0xbf, 0xbe, 0x88, 0x79, 0xd7, 0xbe, 0x45, 0xcd, 0xd4, 0xbe,
  0xb5, 0xb7, 0x2a, 0xbe, 0xa3, 0xe0, 0x26, 0xbe, 0x05, 0x22, 0x55, 0xbd,
  0x8e, 0x45, 0xd7, 0xbe, 0x04, 0x39, 0xac, 0xbe, 0x54, 0x47, 0x8b, 0xbe,
  0x3c, 0x16, 0x9c, 0xbe, 0x2a, 0x4a, 0xbc, 0xbe, 0x6f, 0xa8, 0x1b, 0xbe,
  0xec, 0xd8, 0x89, 0x3c, 0xe4, 0x14, 0x52, 0xbe, 0xba, 0xe7, 0x82, 0xbe,
  0xbc, 0x65, 0x08, 0xbf, 0x6c, 0x5c, 0x77, 0x3e, 0x41, 0x6a, 0x32, 0xbf,
  0x8c, 0x79, 0x37, 0xbf, 0x27, 0x36, 0x06, 0x3e, 0x55, 0x83, 0x95, 0xbb,
  0xd7, 0xac, 0x82, 0xbe, 0x7d, 0x0a, 0xa3, 0xbe, 0x9b, 0xdd, 0xa2, 0xbe,
  0xb7, 0x4a, 0x08, 0xbd, 0x6f, 0x42, 0xca, 0xbd, 0x8a, 0x08, 0x16, 0x3e,
  0x64, 0x2f, 0xb2, 0xbe, 0x91, 0x04, 0x2e, 0xbd, 0xe1, 0x1e, 0xb7, 0xbe,
  0xe2, 0x1a, 0x84, 0xbe, 0xbf, 0xfb, 0x54, 0xbe, 0xfe, 0x3b, 0x57, 0x3e,
  0x97, 0x46, 0xb9, 0x3e, 0x64, 0xae, 0x45, 0x3d, 0x0a, 0x95, 0x5e, 0x39,
  0xbe, 0xff, 0xff, 0xbc, 0xd9, 0x98, 0x04, 0xbe, 0xad, 0xec, 0x69, 0xbe,
  0x26, 0x84, 0x78, 0x3e, 0xe4, 0x9a, 0x4a, 0x3e, 0x45, 0xe5, 0x23, 0xbe,
  0xe6, 0x46, 0xb0, 0x3b, 0xe1, 0x9e, 0x3c, 0xbb, 0xa4, 0x6b, 0xbb, 0x3c,
  0x07, 0xe0, 0x46, 0xbe, 0x4d, 0x43, 0x5f, 0xbe, 0x4a, 0x8e, 0x2d, 0xbd,
  0x0c, 0x55, 0xda, 0x3d, 0x20, 0xab, 0xa1, 0x3d, 0x15, 0xaf, 0xa1, 0x3c,
  0xe5, 0x27, 0x81, 0x3e, 0x68, 0x69, 0xa7, 0xbe, 0x4b, 0x61, 0x8c, 0x3c,
  0x24, 0xbb, 0x8d, 0xbe, 0xa9, 0x2b, 0x8a, 0x3e, 0xc5, 0x78, 0x06, 0x3e,
  0x69, 0x9b, 0x7d, 0xbd, 0x9b, 0x4a, 0xb3, 0x3d, 0xc6, 0x4e, 0x8d, 0x3d,
  0xbf, 0x94, 0x1c, 0xbe, 0x54, 0x2e, 0x55, 0xbe, 0xa6, 0x69, 0x11, 0xbe,
  0x28, 0xad, 0x3e, 0xbe, 0xda, 0x77, 0xbe, 0x3e, 0x6c, 0x64, 0xf3, 0x3d,
  0xbe, 0x02, 0x42, 0x3e, 0xa9, 0xb9, 0x05, 0x3e, 0x10, 0x75, 0xca, 0xbd,
  0xcd, 0x3f, 0x8a, 0x3e, 0x8b, 0x73, 0x93, 0xbe, 0x0f, 0xc9, 0xa4, 0x3c,
  0xd0, 0x83, 0xb4, 0x3e, 0xcb, 0x8c, 0x0b, 0xbd, 0xc5, 0x7a, 0x7b, 0x3e,
  0xd1, 0xbf, 0x0b, 0x3d, 0xa5, 0x1f, 0x91, 0xbd, 0xe3, 0xa7, 0xd3, 0xbd,
  0x8a, 0xa5, 0x7e, 0x3d, 0xf5, 0xc9, 0xef, 0x3d, 0x71, 0x1f, 0x66, 0x3e,
  0x35, 0x3b, 0x9d, 0x3d, 0xc2, 0x22, 0x22, 0x3e, 0x8c, 0xd5, 0x20, 0x3d,
  0x5a, 0x8a, 0x4f, 0xbd, 0x14, 0x33, 0xf5, 0xbd, 0x79, 0xe6, 0x99, 0xbe,
  0xbf, 0xe8, 0x9a, 0x3e, 0xf8, 0x3f, 0x66, 0xbd, 0xbe, 0xc4, 0x03, 0xbe,
  0x83, 0x9b, 0x56, 0x3e, 0x32, 0x6f, 0xcc, 0xbd, 0x4f, 0xd0, 0x97, 0x3d,
  0x54, 0x3a, 0x0a, 0x3e, 0xc0, 0xc2, 0xa0, 0xbe, 0x21, 0xf2, 0xaf, 0x3c,
  0x8c, 0x34, 0x01, 0xbe, 0xa1, 0xb8, 0x27, 0x3e, 0x1c, 0x7a, 0xf3, 0x3d,
  0xc0, 0x72, 0xaf, 0x3c, 0x7b, 0x04, 0xf7, 0xbc, 0x1b, 0x1b, 0x2e, 0x3d,
  0x70, 0x3b, 0xc9, 0x3d, 0x10, 0xdb, 0x12, 0x3e, 0xd9, 0xce, 0x22, 0xbd,
  0x24, 0x1e, 0xa9, 0xb9, 0xd6, 0x0b, 0x43, 0xbe, 0x85, 0x0e, 0xd9, 0xbd,
  0xcd, 0x26, 0xbc, 0x3c, 0x22, 0xbc, 0x48, 0x3e, 0x32, 0xf9, 0x0d, 0xbe,
  0x0a, 0x3f, 0xf1, 0x3c, 0x78, 0x8c, 0xaf, 0xbd, 0xe7, 0x7a, 0xdb, 0xbd,
  0x06, 0x68, 0xd3, 0xbe, 0x5f, 0xcc, 0x49, 0xbd, 0xbd, 0x29, 0x12, 0x3e,
  0x6f, 0x78, 0xfc, 0xbd, 0x6a, 0x33, 0x48, 0xbe, 0xe4, 0x18, 0xbb, 0x3d,
  0xc0, 0xc6, 0x48, 0xbe, 0xf1, 0xe2, 0xce, 0xbd, 0x52, 0xf1, 0x7b, 0xbe,
  0xbf, 0xdf, 0x52, 0xbe, 0xbd, 0xca, 0xdc, 0xbd, 0x1e, 0x72, 0xb4, 0x3e,
  0xca, 0xe7, 0x27, 0x3d, 0xe4, 0x61, 0xe0, 0xbd, 0xd0, 0x82, 0x46, 0x3d,
  0xd5, 0x40, 0xa3, 0xbe, 0xc2, 0x66, 0xbe, 0xbe, 0x79, 0x59, 0x12, 0x3e,
  0xf7, 0xec, 0xee, 0x3c, 0xe5, 0xb9, 0x46, 0xbe, 0x20, 0xe0, 0xe9, 0xbd,
  0x55, 0x11, 0xe9, 0xbd, 0x38, 0x92, 0x1d, 0x3e, 0x41, 0x5a, 0x31, 0xbe,
  0x1e, 0x8f, 0x6f, 0xbc, 0x19, 0xdd, 0xc6, 0xbe, 0x50, 0x03, 0xc1, 0xbd,
  0xa1, 0xd5, 0x11, 0xbd, 0xa7, 0x11, 0x14, 0x3c, 0x48, 0x54, 0x33, 0xbe,
  0x95, 0x0a, 0xc0, 0x3d, 0x0d, 0xc3, 0x66, 0xbd, 0x10, 0xdc, 0x16, 0x3d,
  0x76, 0x0f, 0x3f, 0xbc, 0x21, 0xa1, 0x5e, 0x3e, 0xa0, 0xbf, 0xb6, 0xbe,
  0x10, 0x32, 0xc8, 0xbd, 0x27, 0xc2, 0x77, 0xbd, 0xeb, 0x93, 0x76, 0x3e,
  0x76, 0x1f, 0xba, 0xbe, 0x29, 0x03, 0x43, 0xbd, 0x44, 0xb1, 0xcc, 0x3d,
  0x0a, 0x0b, 0xc8, 0xbd, 0x79, 0x59, 0x05, 0x3e, 0xfa, 0xdb, 0xbc, 0xbd,
  0x8a, 0xa0, 0xd6, 0x3d, 0xca, 0xf1, 0x64, 0x3d, 0xfe, 0x03, 0xfd, 0x3c,
  0x69, 0xa9, 0x46, 0x3d, 0xc7, 0xe0, 0x78, 0x3e, 0x48, 0x18, 0x9a, 0xbe,
  0xbf, 0xb0, 0x28, 0xbe, 0x53, 0x3a, 0x86, 0xbe, 0x94, 0xd4, 0x61, 0x3e,
  0x52, 0xdd, 0xbd, 0x3c, 0xdb, 0xa0, 0x9d, 0xbd, 0xc3, 0x98, 0x78, 0x3e,
  0xae, 0x49, 0xd7, 0xbd, 0xc3, 0x72, 0x42, 0xbd, 0xdf, 0x4d, 0x52, 0xbe,
  0x79, 0x4c, 0x76, 0xbd, 0x8f, 0xd6, 0x8d, 0xbd, 0xa4, 0x72, 0x28, 0x3e,
  0x94, 0x61, 0x01, 0xbe, 0x73, 0x15, 0x05, 0xbc, 0x38, 0x7e, 0xaf, 0xbd,
  0xad, 0x94, 0xeb, 0x3c, 0x7d, 0x02, 0x54, 0x3c, 0xc3, 0xa1, 0x40, 0xbe,
  0xe9, 0x52, 0x6b, 0xbc, 0x64, 0x99, 0x93, 0x3e, 0x5a, 0xaa, 0x95, 0xbd,
  0x11, 0x4c, 0xf0, 0xbd, 0x4f, 0xdb, 0xa2, 0xbc, 0xb2, 0x0e, 0x20, 0xbd,
  0x1c, 0xa9, 0xbd, 0x3c, 0xbf, 0xc8, 0x3b, 0xbc, 0x5d, 0xd1, 0xe1, 0x3d,
  0x78, 0x1a, 0x17, 0xbe, 0x87, 0x11, 0xa9, 0xbb, 0x2c, 0xa7, 0x00, 0xbe,
  0xf1, 0x84, 0x72, 0xbd, 0xe6, 0x9c, 0x99, 0x3e, 0x7d, 0x92, 0x02, 0x3e,
  0x79, 0xd3, 0xca, 0xbb, 0x5c, 0xca, 0x30, 0xbe, 0x6f, 0xe8, 0x63, 0xbe,
  0x29, 0x08, 0x52, 0xbd, 0xd0, 0x3c, 0x94, 0xbe, 0x98, 0x75, 0xef, 0xbe,
  0x83, 0x9c, 0xcd, 0xbe, 0x16, 0x1f, 0x58, 0xbe, 0xdb, 0x4e, 0xde, 0xbc,
  0xfd, 0x1a, 0x97, 0xbe, 0x89, 0x98, 0x56, 0x3e, 0xc3, 0x10, 0xd9, 0x3d,
  0xd3, 0xbe, 0x20, 0x3e, 0xb2, 0xa9, 0x26, 0xbe, 0x06, 0xd6, 0x35, 0xbc,
  0x01, 0x8b, 0x33, 0x3f, 0xb8, 0xda, 0x89, 0x3e, 0x3d, 0x1a, 0xd4, 0x3b,
  0x4a, 0x60, 0xa3, 0x3d, 0xaa, 0x0f, 0x0c, 0xbe, 0xdf, 0x76, 0x8a, 0xbe,
  0xc8, 0x80, 0xe0, 0x3b, 0x0b, 0x72, 0xb3, 0xbe, 0x7e, 0xc2, 0x46, 0x3d,
  0x9c, 0x42, 0x8f, 0xbc, 0x16, 0x3b, 0xae, 0x3d, 0x44, 0xd3, 0x5d, 0x3e,
  0x98, 0xbf, 0xc4, 0x3e, 0x5f, 0x92, 0x6a, 0x3e, 0x16, 0x31, 0xd8, 0x3d,
  0xfe, 0x98, 0x3f, 0x3e, 0x80, 0xa0, 0x89, 0x3f, 0xc0, 0x5c, 0x4b, 0x3e,
  0x9c, 0xd1, 0x18, 0xbd, 0xce, 0xb8, 0xcd, 0x3d, 0x51, 0x93, 0x4d, 0x3e,
  0x8a, 0x34, 0x2d, 0xbe, 0xf9, 0xe7, 0x43, 0x3d, 0xf8, 0x3d, 0xe7, 0xbe,
  0xd1, 0xff, 0xfb, 0xbd, 0xc9, 0xc5, 0x85, 0xbd, 0xc2, 0x2f, 0x5f, 0x3d,
  0xd1, 0x6c, 0xad, 0x3d, 0xe9, 0xba, 0x2c, 0x3e, 0x48, 0xcb, 0xa4, 0x3e,
  0x14, 0xe4, 0xdd, 0xbc, 0x58, 0xea, 0x9a, 0xbc, 0x6a, 0x89, 0x71, 0x3f,
  0x00, 0xc0, 0x93, 0x3e, 0x11, 0xbd, 0x05, 0x3d, 0xc5, 0xa7, 0xa4, 0x3d,
  0x06, 0x80, 0x95, 0x3e, 0x4b, 0xbd, 0x89, 0xbb, 0x00, 0x9c, 0x5b, 0xbd,
  0x25, 0xe7, 0x17, 0xbe, 0x45, 0xba, 0xa9, 0x3e, 0xb9, 0x60, 0x19, 0x3d,
  0x09, 0x42, 0x9d, 0x3e, 0x8e, 0x47, 0x2c, 0x3e, 0xe4, 0xe5, 0x11, 0x3e,
  0x09, 0x29, 0x8c, 0x3d, 0x04, 0xed, 0x03, 0x3e, 0x33, 0x64, 0x20, 0x3e,
  0x0c, 0x6c, 0x63, 0x3f, 0x83, 0x26, 0xb0, 0x3e, 0x55, 0xbb, 0x54, 0x3e,
  0xd5, 0xcd, 0x9c, 0xbc, 0xb7, 0x53, 0xf3, 0x3e, 0x07, 0x77, 0xaf, 0xbe,
  0x29, 0x94, 0xfc, 0xbe, 0x7a, 0x28, 0x80, 0xbd, 0x8b, 0xd7, 0x66, 0x3e,
  0xed, 0x47, 0x05, 0x3d, 0xc2, 0x31, 0x86, 0x3e, 0x41, 0x81, 0x8a, 0xbd,
  0xbc, 0x40, 0x9b, 0xbe, 0x28, 0x6d, 0x74, 0x3b, 0xb2, 0x20, 0x5c, 0xbe,
  0xa7, 0x96, 0xc6, 0x3d, 0x5b, 0x88, 0x02, 0x3f, 0x2d, 0xb4, 0x20, 0xbd,
  0x4c, 0x88, 0x2c, 0xbe, 0x24, 0xd5, 0x14, 0xbe, 0xce, 0xa3, 0x1e, 0xbe,
  0x92, 0x66, 0xc5, 0xbe, 0x2e, 0x6b, 0xe6, 0xbd, 0xfa, 0x37, 0xdd, 0xbd,
  0xa0, 0x4e, 0x1a, 0x3e, 0xfd, 0xc0, 0xc0, 0xbd, 0x9b, 0x45, 0x04, 0x3c,
  0x82, 0x76, 0xb0, 0xbc, 0x7a, 0x26, 0x31, 0x3e, 0x99, 0xae, 0x58, 0x3e,
  0x0f, 0x56, 0x03, 0xbe, 0x29, 0x5b, 0x1c, 0xbe, 0x11, 0xdd, 0xe8, 0x3d,
  0x02, 0x9e, 0x1e, 0xbd, 0x7b, 0x3a, 0x2b, 0xbe, 0x15, 0xdd, 0x86, 0xbe,
  0xf0, 0x73, 0x4b, 0x3c, 0xd9, 0x23, 0xa5, 0xbd, 0x0f, 0x0f, 0x90, 0xbd,
  0xe1, 0xb2, 0x37, 0xbc, 0x1b, 0xc2, 0x7b, 0xbe, 0x3c, 0xc9, 0x07, 0xbe,
  0xf6, 0xe4, 0xb1, 0xbd, 0x1a, 0xb0, 0x0f, 0x3e, 0xa1, 0x5f, 0x3a, 0x3e,
  0x05, 0xf7, 0xb2, 0x3d, 0xbd, 0x58, 0x27, 0xbe, 0x49, 0x5f, 0x70, 0xbc,
  0x86, 0x68, 0x75, 0xbc, 0x61, 0xe7, 0x64, 0xbe, 0x53, 0xd2, 0x70, 0x3e,
  0x09, 0x71, 0x7b, 0xbd, 0xe8, 0x2b, 0xa6, 0x3b, 0xb9, 0xdb, 0xe9, 0x3d,
  0x87, 0x02, 0x41, 0x3e, 0xd5, 0x6e, 0x8e, 0x3e, 0x02, 0xce, 0x10, 0x3e,
  0xf7, 0xf5, 0xb3, 0xbe, 0x5a, 0x88, 0x15, 0xbd, 0x9f, 0xdc, 0x97, 0x3e,
  0x6b, 0x7d, 0xaf, 0xbe, 0x73, 0x9d, 0x5a, 0xbe, 0xc3, 0xed, 0xab, 0xbd,
  0x2d, 0x03, 0x7b, 0x3d, 0xa8, 0x5a, 0x3d, 0x3e, 0x9d, 0x09, 0x04, 0x3e,
  0x87, 0x55, 0x13, 0x3e, 0x55, 0xda, 0xc4, 0xbd, 0xf4, 0x82, 0x42, 0x3c,
  0x12, 0x91, 0x7f, 0xbc, 0x04, 0x58, 0xb7, 0x3a, 0xff, 0xf4, 0x4c, 0xbd,
  0x21, 0x6d, 0x28, 0x3e, 0x37, 0xa7, 0x69, 0xbd, 0x13, 0xd2, 0xf1, 0x3d,
  0x0a, 0x5e, 0x01, 0xbe, 0x7b, 0x77, 0xda, 0xbe, 0xef, 0xed, 0xe1, 0xbe,
  0x27, 0x08, 0xc0, 0x3c, 0x2b, 0x77, 0x09, 0xbe, 0x80, 0x9f, 0x23, 0xbe,
  0x45, 0x50, 0x10, 0x3e, 0x53, 0xc0, 0x38, 0x3e, 0x78, 0xdd, 0xd7, 0xbd,
  0x83, 0x76, 0xf4, 0xbc, 0x94, 0x4a, 0x68, 0xbe, 0x2e, 0xa9, 0x6b, 0xbe,
  0x4a, 0x39, 0x88, 0xbd, 0xc0, 0xbe, 0xd7, 0x3e, 0x18, 0xd2, 0xc1, 0x3c,
  0x0d, 0x79, 0xa4, 0xbe, 0x5e, 0xa0, 0x9c, 0xbe, 0x7a, 0x00, 0x0f, 0xbf,
  0xe2, 0xa0, 0x10, 0xbf, 0xa5, 0x3c, 0xc3, 0x3d, 0x96, 0x74, 0xaa, 0x3d,
  0xd6, 0x30, 0x17, 0xbd, 0x3e, 0x86, 0xa2, 0xbe, 0x27, 0xd1, 0xb2, 0xbe,
  0x6f, 0x0f, 0xd1, 0xbd, 0xa8, 0xc2, 0xe2, 0xbe, 0xef, 0x10, 0x17, 0xbf,
  0x36, 0x52, 0xaa, 0xbe, 0x63, 0xe7, 0xee, 0xbd, 0x20, 0x4c, 0xe0, 0xbe,
  0x92, 0x91, 0x8c, 0xbb, 0x40, 0x05, 0xff, 0xbe, 0x59, 0x74, 0x08, 0x3e,
  0xea, 0x9b, 0xd5, 0xbe, 0xa1, 0xf7, 0x52, 0xbe, 0xb7, 0x18, 0x52, 0x3e,
  0x0b, 0x3a, 0xbf, 0xbd, 0xb8, 0x75, 0x7f, 0xbe, 0x80, 0xf8, 0x26, 0x3e,
  0x6d, 0x93, 0x4b, 0xbe, 0xb9, 0x7d, 0x34, 0x3e, 0x6c, 0x75, 0x21, 0xbd,
  0xd4, 0x76, 0x17, 0x3e, 0xe8, 0xa7, 0x6e, 0xbe, 0x57, 0x03, 0x57, 0xbe,
  0xb6, 0x04, 0xdb, 0xbe, 0xad, 0x39, 0x26, 0x3c, 0x50, 0x6f, 0x1f, 0xbd,
  0xb5, 0xf7, 0xb3, 0x3d, 0xf6, 0xdb, 0xe2, 0x3d, 0x01, 0xb9, 0x01, 0x3e,
  0xdc, 0xba, 0xeb, 0xbd, 0x68, 0xd8, 0x09, 0xbc, 0x5d, 0x61, 0x91, 0xbe,
  0x36, 0x5b, 0x2d, 0xbe, 0xa6, 0x63, 0x35, 0x3e, 0x8b, 0xd5, 0xfb, 0x3c,
  0x0e, 0x62, 0xb7, 0xbd, 0xc0, 0xb0, 0x25, 0x3e, 0x80, 0xae, 0xca, 0x3e,
  0x6d, 0xe6, 0xb1, 0xbc, 0x89, 0x92, 0x03, 0xbe, 0xee, 0x63, 0xf4, 0xbd,
  0x96, 0x68, 0xb7, 0x3c, 0x2e, 0x34, 0xf6, 0xbd, 0x32, 0x67, 0x7d, 0x3d,
  0x0b, 0xa7, 0x89, 0xbe, 0x0a, 0xfe, 0xbd, 0xbe, 0x7f, 0x98, 0x54, 0xbb,
  0x00, 0xab, 0x3d, 0x3e, 0xdb, 0x8a, 0x5c, 0xbd, 0x1d, 0x73, 0xb9, 0xbc,
  0x80, 0xd6, 0xb4, 0xbd, 0xc9, 0xaf, 0x09, 0x3d, 0xc2, 0x03, 0x50, 0x3e,
  0x05, 0x8b, 0xa3, 0xbd, 0x0f, 0xfd, 0x87, 0xbd, 0x8d, 0xd2, 0x6e, 0xbd,
  0xc9, 0xd0, 0xba, 0x3d, 0xf6, 0xfa, 0xa0, 0xbd, 0xf7, 0x31, 0x6c, 0x3d,
  0x35, 0x05, 0x8d, 0xbe, 0x53, 0x9d, 0xa8, 0x3d, 0x87, 0x8a, 0xb0, 0x3d,
  0xd7, 0x6a, 0x1a, 0x3e, 0xc9, 0x90, 0xfe, 0x3e, 0x79, 0xfc, 0xab, 0xbe,
  0xdc, 0xe6, 0xa3, 0xbb, 0x7b, 0x87, 0x0d, 0xbe, 0x1a, 0xb3, 0xd9, 0xbd,
  0x52, 0xfe, 0x27, 0x3e, 0x36, 0x87, 0x4c, 0xbd, 0xd8, 0xb3, 0xe0, 0xbc,
  0xab, 0xa2, 0xe3, 0xbd, 0xc4, 0x63, 0x50, 0xbd, 0xe6, 0x2f, 0x4e, 0xbe,
  0x5c, 0x1f, 0x6d, 0x3a, 0xa7, 0x75, 0xa5, 0xbd, 0x61, 0x37, 0x84, 0xbd,
  0x68, 0xc9, 0x8c, 0x3e, 0xa6, 0x77, 0xd9, 0x3e, 0x92, 0x8a, 0xed, 0xbd,
  0x9e, 0x37, 0xf6, 0x3b, 0x06, 0x6c, 0xf9, 0xbd, 0xac, 0xa3, 0xe9, 0x3c,
  0xe0, 0x63, 0x9b, 0xbe, 0x79, 0xf3, 0x40, 0x3e, 0x58, 0xec, 0xaa, 0xbc,
  0x99, 0xe8, 0x37, 0x3d, 0x74, 0xc0, 0x0e, 0xbe, 0xef, 0x45, 0x5a, 0xbe,
  0xa2, 0x13, 0xf2, 0xbd, 0x35, 0x0a, 0x0d, 0x3e, 0x12, 0x80, 0x8e, 0xbd,
  0xf7, 0xaf, 0x25, 0x3d, 0x67, 0xdc, 0x56, 0xbe, 0xba, 0x10, 0x3d, 0x3e,
  0xc0, 0x69, 0x12, 0xbe, 0x7a, 0x8c, 0x00, 0x3e, 0xc6, 0xc2, 0x03, 0xbd,
  0x4a, 0xfa, 0x23, 0x3e, 0x2b, 0x73, 0x53, 0xbe, 0x81, 0x18, 0x3c, 0x3e,
  0xf6, 0xf9, 0x85, 0x3e, 0x2d, 0xc8, 0x1f, 0x3e, 0x16, 0x2c, 0x78, 0x3d,
  0xb4, 0x3f, 0xc1, 0xbd, 0x89, 0x2e, 0x36, 0x3e, 0xa8, 0xbf, 0x9c, 0x3d,
  0x3b, 0xc3, 0x7b, 0xbc, 0x0d, 0x6e, 0x39, 0xbd, 0x5a, 0x52, 0x90, 0xbe,
  0x54, 0x5b, 0x64, 0x3e, 0xf9, 0x13, 0x28, 0xbe, 0xf4, 0xc3, 0x91, 0xbd,
  0x61, 0x55, 0x16, 0x3d, 0x83, 0x6f, 0x22, 0x3d, 0xc5, 0x71, 0x98, 0xbd,
  0x9b, 0x69, 0x8c, 0x3e, 0x56, 0xc3, 0x09, 0x3e, 0x74, 0x6e, 0xa9, 0x3d,
  0xba, 0xc8, 0x38, 0xbd, 0xdd, 0x68, 0x16, 0xbe, 0xfe, 0x3b, 0x9b, 0x3d,
  0xac, 0x4f, 0x15, 0xbe, 0xe9, 0xb7, 0x3d, 0xbd, 0x27, 0x46, 0xa1, 0xbd,
  0x52, 0x96, 0x19, 0xbe, 0xcc, 0x01, 0x0a, 0x3e, 0x7f, 0x68, 0x34, 0x3c,
  0xad, 0xa1, 0x1c, 0xbe, 0xbe, 0xff, 0x9a, 0x3d, 0x60, 0x05, 0x22, 0xbe,
  0x44, 0x46, 0x76, 0xbe, 0xc0, 0x5a, 0x05, 0x3d, 0xa4, 0x1b, 0x1b, 0x3e,
  0xce, 0x6d, 0x98, 0xbd, 0x90, 0x6b, 0x8c, 0x3d, 0x89, 0x13, 0x57, 0xbe,
  0x4f, 0x93, 0x87, 0x3d, 0x5f, 0xed, 0x76, 0xbe, 0x9d, 0xbe, 0x61, 0xbd,
  0x7c, 0x81, 0x9e, 0xbe, 0x05, 0x15, 0x0e, 0xbf, 0x06, 0xf3, 0x40, 0x3e,
  0x2d, 0x02, 0x4b, 0xbd, 0x5b, 0x23, 0x3f, 0xbe, 0x4d, 0x64, 0xb6, 0x3d,
  0xb0, 0xe8, 0xc1, 0xbe, 0x31, 0xc7, 0x88, 0xbe, 0x79, 0xcd, 0xee, 0x3d,
  0xd5, 0xdb, 0x53, 0x3e, 0x9c, 0x19, 0x5b, 0xbd, 0x18, 0x23, 0x73, 0x3e,
  0xb9, 0xa0, 0x06, 0xbd, 0x5c, 0xab, 0x6e, 0x3e, 0x28, 0x9f, 0x4f, 0xbe,
  0xcb, 0xdb, 0x18, 0xbe, 0x05, 0x67, 0x2d, 0xbd, 0x18, 0xf2, 0x76, 0x3d,
  0x7a, 0x5c, 0xce, 0x3e, 0x29, 0xbe, 0x9b, 0xbd, 0x08, 0x76, 0x59, 0x3e,
  0x5e, 0xd2, 0xdc, 0x3d, 0xed, 0x8e, 0xf1, 0xbd, 0x13, 0x5e, 0xd0, 0xbd,
  0x85, 0x4e, 0xb0, 0xbd, 0xe5, 0x88, 0xa6, 0x3d, 0x5c, 0xec, 0xa9, 0x3d,
  0xb7, 0xda, 0x0f, 0x3e, 0x75, 0x2e, 0x5b, 0x3d, 0x9d, 0x0f, 0xf1, 0xbd,
  0xbf, 0x71, 0xcb, 0xbd, 0x0e, 0x16, 0x65, 0x3d, 0x9d, 0x6d, 0x05, 0xbe,
  0x96, 0x11, 0x8d, 0xbe, 0x2a, 0x6e, 0x0b, 0x3e, 0x79, 0x92, 0xcd, 0xbd,
  0x49, 0x7d, 0x1b, 0x3e, 0x98, 0xd9, 0x81, 0xbe, 0xa8, 0x33, 0x16, 0x3e,
  0x16, 0x80, 0x16, 0x3d, 0x67, 0x40, 0x83, 0xbe, 0x78, 0x7e, 0xea, 0xbe,
  0x78, 0x12, 0xd4, 0xbe, 0xfd, 0x25, 0x59, 0xbe, 0x52, 0x30, 0xaf, 0x3d,
  0xce, 0x54, 0xa6, 0xbc, 0xb0, 0xa1, 0x97, 0x3e, 0x4a, 0xf5, 0xb1, 0xbd,
  0x4c, 0x1c, 0xbb, 0x3e, 0xa0, 0x5c, 0x4e, 0xbd, 0xaa, 0x54, 0x88, 0x3e,
  0xb4, 0x03, 0xe8, 0x3e, 0x5b, 0x27, 0xa4, 0xbd, 0x2d, 0xfd, 0x8b, 0xbe,
  0xa2, 0x8e, 0x8f, 0x3d, 0x53, 0x11, 0x79, 0x3d, 0x24, 0x27, 0xc5, 0xbe,
  0xb1, 0xb3, 0x18, 0xbe, 0x3c, 0x28, 0x99, 0xbe, 0x10, 0x7b, 0xb5, 0x3d,
  0x22, 0x00, 0x48, 0xbd, 0x38, 0x89, 0x9c, 0x3d, 0x34, 0x28, 0x8d, 0xbd,
  0x0b, 0xee, 0x89, 0x3e, 0x6d, 0xa9, 0xb7, 0x3e, 0x67, 0x11, 0x37, 0xbe,
  0xa1, 0xdc, 0xb4, 0x3e, 0x32, 0x20, 0x33, 0x3f, 0x12, 0x29, 0xae, 0x3c,
  0xf6, 0x1f, 0x84, 0x3d, 0x2b, 0x16, 0x82, 0xbe, 0x5f, 0x3e, 0xf0, 0xbd,
  0xb0, 0xa9, 0xe2, 0x3c, 0xda, 0x69, 0x1f, 0xbe, 0x03, 0xb3, 0x14, 0x3c,
  0x00, 0x17, 0xe9, 0x3d, 0x61, 0x63, 0x06, 0xbe, 0x9d, 0xb5, 0xae, 0x3d,
  0xba, 0x21, 0x08, 0x3e, 0x17, 0x56, 0x59, 0x3e, 0x25, 0xb4, 0xac, 0x3e,
  0x5a, 0x6e, 0x2c, 0x3e, 0xe7, 0x64, 0x41, 0x3e, 0xc1, 0xa1, 0xe1, 0x3e,
  0xac, 0x19, 0x7c, 0x3e, 0xbd, 0x63, 0x90, 0xbd, 0xdb, 0x57, 0xe4, 0x3c,
  0x5e, 0x82, 0x4b, 0x3e, 0x24, 0x2f, 0x84, 0xbe, 0xec, 0x1c, 0x0f, 0xbd,
  0xa7, 0xe1, 0x84, 0xbc, 0x50, 0x1b, 0x01, 0x3e, 0xf8, 0x39, 0x0e, 0xbe,
  0xff, 0x34, 0x2e, 0x3e, 0xb5, 0x16, 0x2f, 0xbe, 0x72, 0x29, 0x46, 0x3e,
  0x06, 0x83, 0x69, 0x3e, 0xa4, 0x12, 0x28, 0x3d, 0xa4, 0x7b, 0xcb, 0x3e,
  0xd6, 0x0b, 0x63, 0x3f, 0xd3, 0xaf, 0x13, 0x3d, 0xb3, 0x84, 0x50, 0xbe,
  0x25, 0xfc, 0xac, 0x3d, 0x4f, 0xef, 0x69, 0x3e, 0x02, 0x1b, 0x85, 0xbd,
  0x98, 0xcd, 0x1b, 0xbd, 0xa7, 0xec, 0x99, 0xbe, 0x49, 0xbb, 0x6d, 0x3e,
  0x9c, 0xd9, 0x47, 0x3b, 0xa2, 0x16, 0x20, 0x3e, 0x4c, 0x74, 0x2e, 0x3d,
  0x94, 0xa8, 0x6e, 0xbe, 0xc5, 0xbf, 0xb4, 0xbc, 0xce, 0xa5, 0xf5, 0xbc,
  0x1e, 0x32, 0xd1, 0x3e, 0xaa, 0xf6, 0x61, 0x3f, 0x88, 0xd7, 0x4f, 0xbe,
  0x0d, 0xb8, 0xed, 0x3d, 0xdf, 0x93, 0x71, 0x3d, 0x63, 0x63, 0x5d, 0xbe,
  0xc1, 0xed, 0xea, 0xbc, 0x5e, 0x4b, 0x8b, 0xbe, 0x33, 0xa9, 0x1a, 0xbe,
  0x64, 0xf5, 0x0e, 0x3e, 0xad, 0xe6, 0xc0, 0xbb, 0x22, 0xe0, 0x2d, 0x3d,
  0x1d, 0x5d, 0xb5, 0xbe, 0x95, 0x3c, 0x77, 0x3d, 0x1c, 0x1f, 0x85, 0x3e,
  0x17, 0xc8, 0x22, 0x3e, 0xc8, 0x21, 0x69, 0x3d, 0xec, 0xb2, 0x02, 0x3f,
  0xc5, 0x5a, 0xc4, 0x3d, 0x0e, 0xe4, 0x06, 0xbe, 0xc1, 0xa8, 0x22, 0xbe,
  0x54, 0x1c, 0x69, 0xbd, 0xe0, 0x30, 0x51, 0xbc, 0x60, 0xc2, 0xfa, 0xbd,
  0xae, 0xe0, 0x08, 0xbe, 0x24, 0x45, 0x42, 0xbe, 0x7b, 0xe3, 0x23, 0xbe,
  0x9d, 0xd9, 0x43, 0xbe, 0xcd, 0x30, 0x7b, 0x3e, 0xd9, 0x4c, 0x99, 0x3d,
  0xe7, 0x18, 0x8a, 0x3c, 0x3a, 0x08, 0xa5, 0xbe, 0x5f, 0x0f, 0xac, 0xbd,
  0x98, 0x92, 0x10, 0xbe, 0x5f, 0xe3, 0x84, 0xbe, 0x33, 0xbb, 0x94, 0x3e,
  0x57, 0x28, 0x50, 0xbe, 0x00, 0xb8, 0xeb, 0xbd, 0xac, 0x3a, 0x8e, 0x3c,
  0x6b, 0xfb, 0x27, 0x3e, 0xc4, 0x57, 0x12, 0x3e, 0x72, 0xe1, 0x3a, 0x3e,
  0x53, 0x9f, 0x54, 0xbe, 0x09, 0xe3, 0xc3, 0x3d, 0x0d, 0x65, 0x92, 0x3e,
  0x62, 0x26, 0xa9, 0x3c, 0xe9, 0x08, 0xd9, 0xbe, 0x1f, 0x05, 0x49, 0xbe,
  0x94, 0xb7, 0x96, 0xbc, 0x45, 0xe6, 0xfe, 0x3d, 0x45, 0xcb, 0x86, 0x3e,
  0x1e, 0xd9, 0x5a, 0xbe, 0x3b, 0x51, 0x18, 0xbd, 0x2e, 0x2e, 0x08, 0x3d,
  0x84, 0xe4, 0x04, 0x3e, 0x46, 0x59, 0x21, 0xbe, 0xbb, 0x1d, 0xa6, 0xbc,
  0x1f, 0x28, 0xf9, 0x3d, 0xde, 0xa2, 0x21, 0x3d, 0xca, 0x98, 0xa5, 0x3d,
  0xc5, 0x52, 0x7e, 0xbe, 0x8a, 0xd5, 0x0c, 0xbf, 0xe8, 0xa3, 0x09, 0xbf,
  0x0a, 0x01, 0xd8, 0xbd, 0x49, 0xb8, 0x35, 0x3e, 0x39, 0xe8, 0x39, 0xbe,
  0xbc, 0x49, 0x17, 0xbd, 0x93, 0xf1, 0x22, 0x3e, 0x3a, 0x2a, 0xaa, 0x3d,
  0xe0, 0xc0, 0x6a, 0x3c, 0xdc, 0x59, 0xb0, 0xbe, 0x46, 0x62, 0x2c, 0xbe,
  0x71, 0xc8, 0xa9, 0xbb, 0xfc, 0x4d, 0xcd, 0x3e, 0x93, 0xa1, 0x58, 0x3d,
  0xd9, 0x86, 0xb3, 0xbd, 0xc9, 0x46, 0x85, 0xbe, 0x05, 0x51, 0x11, 0xbf,
  0x07, 0xef, 0xd5, 0xbe, 0x08, 0x30, 0x0d, 0xbd, 0xc7, 0x26, 0x76, 0x3e,
  0xd2, 0xe1, 0x93, 0xbe, 0x58, 0x85, 0xae, 0xbd, 0xe1, 0xeb, 0x89, 0xbe,
  0x02, 0x69, 0xb6, 0x3d, 0x1a, 0x9e, 0xf1, 0xbe, 0xf2, 0xb6, 0x8f, 0xbe,
  0xeb, 0x9a, 0x04, 0xbf, 0xe6, 0x9c, 0x7e, 0xbd, 0x57, 0x57, 0xdd, 0xbe,
  0x48, 0x59, 0xd4, 0xbc, 0x61, 0x7a, 0x03, 0xbf, 0xed, 0x09, 0x39, 0xbd,
  0x7c, 0xc0, 0xf9, 0xbe, 0x2e, 0xef, 0x6c, 0xbe, 0xa5, 0xf7, 0x2c, 0x3e,
  0x80, 0xc7, 0x9c, 0xbd, 0x24, 0xc9, 0xda, 0xbd, 0xd9, 0x5d, 0x9f, 0x3d,
  0x84, 0x3f, 0x82, 0xbe, 0x17, 0x81, 0x36, 0x3e, 0x36, 0xb0, 0xb0, 0xbd,
  0x7c, 0x18, 0x1d, 0xbe, 0xab, 0xf1, 0x71, 0xbe, 0x01, 0x64, 0xaf, 0x3b,
  0x97, 0xc5, 0x80, 0xbc, 0x9e, 0xf3, 0xd3, 0xbc, 0xed, 0x7f, 0xbc, 0xbe,
  0x28, 0x77, 0x0f, 0xbe, 0x2f, 0xdc, 0x67, 0xbb, 0x17, 0x57, 0x0a, 0xbe,
  0x3b, 0xba, 0x75, 0x3d, 0x24, 0xdc, 0x38, 0xbd, 0xac, 0x89, 0xdd, 0xbd,
  0x80, 0x55, 0x99, 0xbd, 0xfa, 0xe3, 0x4d, 0xbe, 0xe6, 0xfd, 0x26, 0xbd,
  0xa1, 0x89, 0x91, 0xbe, 0x60, 0xe3, 0x8e, 0xbe, 0xfc, 0x26, 0xb4, 0xbe,
  0xe4, 0xd5, 0xa6, 0xbd, 0x37, 0xe4, 0x45, 0xbd, 0xd5, 0xee, 0x93, 0x3c,
  0xbc, 0x48, 0x26, 0xbe, 0x8b, 0x86, 0x17, 0xbe, 0x9d, 0x77, 0xdc, 0x3b,
  0x73, 0xbb, 0x01, 0xbe, 0xf9, 0xab, 0xf5, 0xbd, 0x6f, 0x07, 0x8a, 0x3c,
  0x99, 0xc5, 0x26, 0xbe, 0xbe, 0xaa, 0x25, 0x3e, 0xbf, 0xd3, 0xf5, 0x3b,
  0xd4, 0xf3, 0x15, 0x39, 0x17, 0x31, 0x72, 0x3d, 0x7d, 0xe7, 0xfe, 0x3c,
  0xf6, 0xe4, 0xcd, 0xbd, 0xaf, 0xe9, 0x35, 0x3d, 0xea, 0x46, 0x6e, 0xbe,
  0xf9, 0x71, 0x3e, 0xbd, 0x92, 0xa9, 0x68, 0xbe, 0x99, 0xa8, 0x79, 0xbd,
  0x80, 0x0e, 0x43, 0xbf, 0xa4, 0xff, 0xb5, 0xbc, 0x6c, 0x1b, 0x49, 0x3e,
  0x96, 0x86, 0x05, 0x3f, 0x93, 0x36, 0x65, 0x3e, 0x92, 0x12, 0xca, 0xbe,
  0xc7, 0x50, 0xc8, 0xbd, 0xd4, 0x37, 0x55, 0xbd, 0xe6, 0x14, 0x0f, 0xbd,
  0xea, 0xc2, 0x4e, 0x3e, 0x7c, 0x39, 0xe2, 0xbc, 0x2f, 0x23, 0xa1, 0xbd,
  0x85, 0xb2, 0x18, 0xbf, 0x82, 0x3a, 0x33, 0xbd, 0x03, 0x71, 0xbd, 0xbe,
  0x72, 0x89, 0x65, 0xbe, 0x5b, 0xec, 0x5b, 0xbd, 0x05, 0xa0, 0x7e, 0xbe,
  0xa2, 0xc9, 0x35, 0x3e, 0x02, 0xd8, 0x9c, 0x3e, 0x52, 0xe1, 0x70, 0x3e,
  0x6f, 0x59, 0xb3, 0x3e, 0xc1, 0x1f, 0xad, 0xbd, 0x28, 0xb0, 0x00, 0x3e,
  0x8d, 0x81, 0x81, 0xbe, 0xe1, 0xcf, 0x81, 0x3e, 0x11, 0xf0, 0x83, 0x3e,
  0x21, 0x85, 0x58, 0x3c, 0xeb, 0x22, 0xe6, 0xbe, 0x12, 0xd7, 0x43, 0x3d,
  0x8a, 0x93, 0x16, 0xbf, 0x0c, 0x8d, 0x27, 0xbd, 0xb5, 0xc2, 0x0d, 0xbe,
  0x2c, 0x09, 0x6d, 0xbe, 0x6c, 0xfa, 0x43, 0x3d, 0xd7, 0x48, 0xc2, 0x3e,
  0x89, 0x32, 0x1f, 0x3e, 0xf2, 0x53, 0xb0, 0x3e, 0xec, 0x92, 0x6a, 0xbd,
  0xd3, 0x8a, 0x14, 0xbd, 0x23, 0xff, 0x0f, 0x3d, 0xf9, 0x81, 0x0c, 0x3f,
  0x19, 0x8f, 0x79, 0x3e, 0x88, 0x2e, 0x18, 0x3e, 0x35, 0xad, 0x32, 0x3d,
  0x9b, 0xfe, 0x0a, 0x3b, 0x3a, 0x58, 0x87, 0xbe, 0x45, 0x27, 0x69, 0xbe,
  0x4d, 0x83, 0x3e, 0x3c, 0xad, 0x6b, 0xf8, 0xbd, 0x72, 0xbf, 0x7f, 0xbb,
  0x9b, 0x83, 0x1d, 0x3e, 0x02, 0x79, 0x17, 0x3e, 0x93, 0x8b, 0x96, 0x3d,
  0x93, 0x9c, 0x98, 0x3d, 0x96, 0x16, 0xbf, 0xbd, 0x11, 0xfd, 0x60, 0xbd,
  0x53, 0xb7, 0xea, 0x3e, 0x2c, 0xd5, 0x8b, 0x3d, 0x46, 0x21, 0x71, 0x3b,
  0x15, 0xb0, 0xf7, 0x3d, 0x64, 0xbf, 0xba, 0x3b, 0x3a, 0xe8, 0x3f, 0xbe,
  0x14, 0xb6, 0x9e, 0xbe, 0x0e, 0x4c, 0xa2, 0xbe, 0x63, 0x13, 0x8b, 0xbd,
  0xd3, 0x56, 0x80, 0xbd, 0x4b, 0x06, 0x9d, 0x3e, 0xb5, 0xf9, 0x2f, 0x3c,
  0x55, 0xd1, 0x46, 0x3d, 0x16, 0xb8, 0x4d, 0x3e, 0x8c, 0x34, 0x4c, 0xbc,
  0xb3, 0x16, 0xbb, 0x3b, 0xfd, 0xfb, 0xf0, 0x3e, 0x5d, 0x6a, 0x53, 0x3e,
  0x3a, 0xcd, 0x11, 0x3c, 0xeb, 0xc8, 0x27, 0x3e, 0x85, 0x7a, 0x4c, 0x3c,
  0xf2, 0x7e, 0x91, 0xbe, 0xd3, 0x17, 0xeb, 0xbe, 0x68, 0xdb, 0xe9, 0xbd,
  0x2b, 0xa0, 0x25, 0xbf, 0x2a, 0x12, 0xd5, 0xbd, 0xee, 0x56, 0x55, 0x3e,
  0x20, 0x3f, 0x00, 0x3d, 0x70, 0x5a, 0x85, 0xbd, 0x06, 0xab, 0x6d, 0x3e,
  0x4e, 0xd4, 0xd4, 0xbd, 0x5b, 0x28, 0xf0, 0xbd, 0x80, 0x28, 0x5d, 0x3e,
  0xb0, 0x5c, 0x43, 0x3d, 0x19, 0x75, 0x5d, 0x3d, 0x0e, 0xa1, 0x79, 0x3e,
  0xe6, 0x55, 0x13, 0x3c, 0xfa, 0x5b, 0xed, 0xbe, 0x23, 0xa7, 0xd9, 0xbe,
  0xd2, 0x5a, 0xdc, 0xbd, 0xb5, 0x5b, 0x25, 0xbe, 0xc8, 0xde, 0xb9, 0xbd,
  0x0a, 0xe7, 0xc4, 0x3e, 0x6e, 0x76, 0x5a, 0xbc, 0x40, 0x18, 0x34, 0x3d,
  0xfe, 0xb1, 0x06, 0xbd, 0x40, 0x49, 0xca, 0xbc, 0xf0, 0x30, 0x3d, 0xbe,
  0x9c, 0xcb, 0x93, 0x3d, 0x8d, 0xd1, 0x87, 0x3d, 0xda, 0x36, 0xdd, 0x3d,
  0xf8, 0xf5, 0x86, 0xbe, 0xf8, 0x9a, 0x9d, 0xbb, 0xa3, 0x2a, 0x8e, 0xbe,
  0x66, 0xfd, 0xff, 0xff, 0x10, 0x00, 0x00, 0x00, 0x07, 0x00, 0x00, 0x00,
  0x14, 0x00, 0x00, 0x00, 0x2c, 0x00, 0x00, 0x00, 0x02, 0x00, 0x00, 0x00,
  0x10, 0x00, 0x00, 0x00, 0x70, 0x00, 0x00, 0x00, 0x17, 0x00, 0x00, 0x00,
  0x73, 0x65, 0x71, 0x75, 0x65, 0x6e, 0x74, 0x69, 0x61, 0x6c, 0x2f, 0x64,
  0x65, 0x6e, 0x73, 0x65, 0x2f, 0x4d, 0x61, 0x74, 0x4d, 0x75, 0x6c, 0x00,
  0xd0, 0xfc, 0xff, 0xff, 0xda, 0xfd, 0xff, 0xff, 0x04, 0x00, 0x00, 0x00,
  0x08, 0x00, 0x00, 0x00, 0xff, 0xff, 0xff, 0xff, 0x70, 0x00, 0x00, 0x00,
  0x00, 0x00, 0x0e, 0x00, 0x18, 0x00, 0x08, 0x00, 0x07, 0x00, 0x0c, 0x00,
  0x10, 0x00, 0x14, 0x00, 0x0e, 0x00, 0x00, 0x00, 0x00, 0x00, 0x00, 0x02,
  0x10, 0x00, 0x00, 0x00, 0x06, 0x00, 0x00, 0x00, 0x10, 0x00, 0x00, 0x00,
  0x2c, 0x00, 0x00, 0x00, 0x01, 0x00, 0x00, 0x00, 0x02, 0x00, 0x00, 0x00,
  0x18, 0x00, 0x00, 0x00, 0x73, 0x65, 0x71, 0x75, 0x65, 0x6e, 0x74, 0x69,
  0x61, 0x6c, 0x2f, 0x66, 0x6c, 0x61, 0x74, 0x74, 0x65, 0x6e, 0x2f, 0x43,
  0x6f, 0x6e, 0x73, 0x74, 0x00, 0x00, 0x00, 0x00, 0x38, 0xfd, 0xff, 0xff,
  0x42, 0xfe, 0xff, 0xff, 0x04, 0x00, 0x00, 0x00, 0x0c, 0x00, 0x00, 0x00,
  0x08, 0xe4, 0x25, 0xbe, 0x9c, 0xd9, 0xeb, 0xbf, 0xeb, 0x97, 0x6a, 0x3f,
  0x26, 0xfe, 0xff, 0xff, 0x10, 0x00, 0x00, 0x00, 0x05, 0x00, 0x00, 0x00,
  0x10, 0x00, 0x00, 0x00, 0x44, 0x00, 0x00, 0x00, 0x01, 0x00, 0x00, 0x00,
  0x03, 0x00, 0x00, 0x00, 0x32, 0x00, 0x00, 0x00, 0x73, 0x65, 0x71, 0x75,
  0x65, 0x6e, 0x74, 0x69, 0x61, 0x6c, 0x2f, 0x64, 0x65, 0x6e, 0x73, 0x65,
  0x5f, 0x31, 0x2f, 0x42, 0x69, 0x61, 0x73, 0x41, 0x64, 0x64, 0x2f, 0x52,
  0x65, 0x61, 0x64, 0x56, 0x61, 0x72, 0x69, 0x61, 0x62, 0x6c, 0x65, 0x4f,
  0x70, 0x2f, 0x72, 0x65, 0x73, 0x6f, 0x75, 0x72, 0x63, 0x65, 0x00, 0x00,
  0xa8, 0xfd, 0xff, 0xff, 0xb2, 0xfe, 0xff, 0xff, 0x04, 0x00, 0x00, 0x00,
  0x40, 0x00, 0x00, 0x00, 0x3b, 0x73, 0x56, 0xbd, 0x65, 0x39, 0xe0, 0x3e,
  0x29, 0xc2, 0x16, 0x3e, 0x5a, 0x98, 0x42, 0x40, 0xa0, 0x95, 0x09, 0x3f,
  0x08, 0x0e, 0xb5, 0xbe, 0x7e, 0xdf, 0x52, 0xbf, 0x64, 0xfd, 0x42, 0x40,
  0x24, 0x88, 0x94, 0xbf, 0x1b, 0xb5, 0x21, 0xbf, 0x9f, 0x0d, 0x10, 0x40,
  0x82, 0x33, 0xa8, 0xbf, 0x5c, 0x0f, 0xdf, 0x3e, 0x80, 0x62, 0x93, 0x3f,
  0x67, 0x9b, 0xc1, 0xbf, 0xe5, 0x4d, 0x41, 0x40, 0xca, 0xfe, 0xff, 0xff,
  0x10, 0x00, 0x00, 0x00, 0x04, 0x00, 0x00, 0x00, 0x10, 0x00, 0x00, 0x00,
  0x44, 0x00, 0x00, 0x00, 0x01, 0x00, 0x00, 0x00, 0x10, 0x00, 0x00, 0x00,
  0x30, 0x00, 0x00, 0x00, 0x73, 0x65, 0x71, 0x75, 0x65, 0x6e, 0x74, 0x69,
  0x61, 0x6c, 0x2f, 0x64, 0x65, 0x6e, 0x73, 0x65, 0x2f, 0x42, 0x69, 0x61,
  0x73, 0x41, 0x64, 0x64, 0x2f, 0x52, 0x65, 0x61, 0x64, 0x56, 0x61, 0x72,
  0x69, 0x61, 0x62, 0x6c, 0x65, 0x4f, 0x70, 0x2f, 0x72, 0x65, 0x73, 0x6f,
  0x75, 0x72, 0x63, 0x65, 0x00, 0x00, 0x00, 0x00, 0x4c, 0xfe, 0xff, 0xff,
  0x56, 0xff, 0xff, 0xff, 0x04, 0x00, 0x00, 0x00, 0x40, 0x00, 0x00, 0x00,
  0x89, 0x0c, 0x07, 0xc0, 0xc0, 0xc3, 0x24, 0xc0, 0x25, 0xa8, 0x3f, 0x40,
  0xef, 0x6b, 0x3f, 0xbc, 0x3d, 0x51, 0x13, 0x3d, 0xb8, 0x3a, 0x9e, 0x40,
  0xb7, 0x10, 0xbf, 0xbf, 0xb7, 0xd3, 0xd2, 0xbf, 0xe8, 0xc2, 0x1b, 0xbf,
  0xf0, 0xe0, 0x03, 0xc0, 0x37, 0xfd, 0xeb, 0xbc, 0x63, 0x8c, 0x8c, 0xbd,
  0xca, 0x1b, 0x85, 0x3c, 0xd7, 0x0b, 0x6e, 0xbf, 0xaf, 0x86, 0x3c, 0x3f,
  0x89, 0xa1, 0xbf, 0x3f, 0x6e, 0xff, 0xff, 0xff, 0x10, 0x00, 0x00, 0x00,
  0x03, 0x00, 0x00, 0x00, 0x10, 0x00, 0x00, 0x00, 0x48, 0x00, 0x00, 0x00,
  0x01, 0x00, 0x00, 0x00, 0x10, 0x00, 0x00, 0x00, 0x33, 0x00, 0x00, 0x00,
  0x73, 0x65, 0x71, 0x75, 0x65, 0x6e, 0x74, 0x69, 0x61, 0x6c, 0x2f, 0x63,
  0x6f, 0x6e, 0x76, 0x32, 0x64, 0x5f, 0x31, 0x2f, 0x42, 0x69, 0x61, 0x73,
  0x41, 0x64, 0x64, 0x2f, 0x52, 0x65, 0x61, 0x64, 0x56, 0x61, 0x72, 0x69,
  0x61, 0x62, 0x6c, 0x65, 0x4f, 0x70, 0x2f, 0x72, 0x65, 0x73, 0x6f, 0x75,
  0x72, 0x63, 0x65, 0x00, 0x04, 0x00, 0x06, 0x00, 0x04, 0x00, 0x00, 0x00,
  0x00, 0x00, 0x06, 0x00, 0x08, 0x00, 0x04, 0x00, 0x06, 0x00, 0x00, 0x00,
  0x04, 0x00, 0x00, 0x00, 0x20, 0x00, 0x00, 0x00, 0x8f, 0x0f, 0x3e, 0xbf,
  0x35, 0x4a, 0x4b, 0xbf, 0xc2, 0x8a, 0x80, 0xbf, 0xf9, 0x28, 0x11, 0xc0,
  0xbc, 0x56, 0xfc, 0xbf, 0x4d, 0x63, 0xdb, 0xbf, 0x28, 0x01, 0x12, 0xbf,
  0x50, 0xe2, 0x28, 0xbe, 0x00, 0x00, 0x0e, 0x00, 0x14, 0x00, 0x04, 0x00,
  0x00, 0x00, 0x08, 0x00, 0x0c, 0x00, 0x10, 0x00, 0x0e, 0x00, 0x00, 0x00,
  0x10, 0x00, 0x00, 0x00, 0x02, 0x00, 0x00, 0x00, 0x10, 0x00, 0x00, 0x00,
  0x44, 0x00, 0x00, 0x00, 0x01, 0x00, 0x00, 0x00, 0x08, 0x00, 0x00, 0x00,
  0x31, 0x00, 0x00, 0x00, 0x73, 0x65, 0x71, 0x75, 0x65, 0x6e, 0x74, 0x69,
  0x61, 0x6c, 0x2f, 0x63, 0x6f, 0x6e, 0x76, 0x32, 0x64, 0x2f, 0x42, 0x69,
  0x61, 0x73, 0x41, 0x64, 0x64, 0x2f, 0x52, 0x65, 0x61, 0x64, 0x56, 0x61,
  0x72, 0x69, 0x61, 0x62, 0x6c, 0x65, 0x4f, 0x70, 0x2f, 0x72, 0x65, 0x73,
  0x6f, 0x75, 0x72, 0x63, 0x65, 0x00, 0x00, 0x00, 0x90, 0xff, 0xff, 0xff,
  0x14, 0x00, 0x18, 0x00, 0x04, 0x00, 0x00, 0x00, 0x08, 0x00, 0x0c, 0x00,
  0x10, 0x00, 0x00, 0x00, 0x00, 0x00, 0x14, 0x00, 0x14, 0x00, 0x00, 0x00,
  0x14, 0x00, 0x00, 0x00, 0x01, 0x00, 0x00, 0x00, 0x20, 0x00, 0x00, 0x00,
  0x44, 0x00, 0x00, 0x00, 0x2c, 0x00, 0x00, 0x00, 0x04, 0x00, 0x00, 0x00,
  0x01, 0x00, 0x00, 0x00, 0x40, 0x00, 0x00, 0x00, 0x03, 0x00, 0x00, 0x00,
  0x01, 0x00, 0x00, 0x00, 0x0c, 0x00, 0x00, 0x00, 0x63, 0x6f, 0x6e, 0x76,
  0x32, 0x64, 0x5f, 0x69, 0x6e, 0x70, 0x75, 0x74, 0x00, 0x00, 0x00, 0x00,
  0x04, 0x00, 0x00, 0x00, 0xff, 0xff, 0xff, 0xff, 0x40, 0x00, 0x00, 0x00,
  0x03, 0x00, 0x00, 0x00, 0x01, 0x00, 0x00, 0x00, 0xfc, 0xff, 0xff, 0xff,
  0x04, 0x00, 0x04, 0x00, 0x04, 0x00, 0x00, 0x00
};

unsigned int model_tflite_len = 13120;// Fill the int in `src/model.cc` here