#include "magic_wand_model_data.h"

// We need to keep the data array aligned on some architectures.
#ifdef __has_attribute
#define HAVE_ATTRIBUTE(x) __has_attribute(x)
#else
#define HAVE_ATTRIBUTE(x) 0
#endif
#if HAVE_ATTRIBUTE(aligned) || (defined(__GNUC__) && !defined(__clang__))
#define DATA_ALIGN_ATTRIBUTE __attribute__((aligned(4)))
#else
#define DATA_ALIGN_ATTRIBUTE
#endif

const unsigned char g_magic_wand_model_data[] DATA_ALIGN_ATTRIBUTE = {
  // Paste the data of the char array in `src/model.cc` here
  0x1c, 0x00, 0x00, 0x00, 0x54, 0x46, 0x4c, 0x33, 0x14, 0x00, 0x20, 0x00,
  0x04, 0x00, 0x08, 0x00, 0x0c, 0x00, 0x10, 0x00, 0x14, 0x00, 0x00, 0x00,
  0x18, 0x00, 0x1c, 0x00, 0x14, 0x00, 0x00, 0x00, 0x03, 0x00, 0x00, 0x00,
  0x18, 0x00, 0x00, 0x00, 0x2c, 0x00, 0x00, 0x00, 0xd8, 0x00, 0x00, 0x00,
  0x2c, 0x00, 0x00, 0x00, 0x80, 0x00, 0x00, 0x00, 0x78, 0x00, 0x00, 0x00,
  0x05, 0x00, 0x00, 0x00, 0x28, 0x07, 0x00, 0x00, 0x44, 0x06, 0x00, 0x00,
  0xbc, 0x03, 0x00, 0x00, 0xf8, 0x02, 0x00, 0x00, 0xac, 0x01, 0x00, 0x00,
  0x01, 0x00, 0x00, 0x00, 0xd0, 0x00, 0x00, 0x00, 0x14, 0x00, 0x00, 0x00,
  0xdc, 0x32, 0x00, 0x00, 0xd8, 0x32, 0x00, 0x00, 0xd0, 0x31, 0x00, 0x00,
  0x1c, 0x31, 0x00, 0x00, 0x74, 0x30, 0x00, 0x00, 0xfc, 0x2f, 0x00, 0x00,
  0x90, 0x2f, 0x00, 0x00, 0x40, 0x13, 0x00, 0x00, 0xec, 0x11, 0x00, 0x00,
  0x10, 0x10, 0x00, 0x00, 0xb4, 0x07, 0x00, 0x00, 0xb0, 0x32, 0x00, 0x00,
  0xac, 0x32, 0x00, 0x00, 0xa8, 0x32, 0x00, 0x00, 0xa4, 0x32, 0x00, 0x00,
  0xa0, 0x32, 0x00, 0x00, 0x9c, 0x32, 0x00, 0x00, 0x98, 0x32, 0x00, 0x00,
  0x94, 0x32, 0x00, 0x00, 0x3c, 0x00, 0x00, 0x00, 0x00, 0x00, 0x00, 0x00,
  0x01, 0x00, 0x00, 0x00, 0x0c, 0x00, 0x00, 0x00, 0x08, 0x00, 0x0c, 0x00,
  0x04, 0x00, 0x08, 0x00, 0x08, 0x00, 0x00, 0x00, 0x08, 0x00, 0x00, 0x00,
  0x13, 0x00, 0x00, 0x00, 0x13, 0x00, 0x00, 0x00, 0x6d, 0x69, 0x6e, 0x5f,
  0x72, 0x75, 0x6e, 0x74, 0x69, 0x6d, 0x65, 0x5f, 0x76, 0x65, 0x72, 0x73,
  0x69, 0x6f, 0x6e, 0x00, 0xb6, 0xce, 0xff, 0xff, 0x04, 0x00, 0x00, 0x00,
  0x10, 0x00, 0x00, 0x00, 0x31, 0x2e, 0x35, 0x2e, 0x30, 0x00, 0x00, 0x00,
  0x00, 0x00, 0x00, 0x00, 0x00, 0x00, 0x00, 0x00, 0x0f, 0x00, 0x00, 0x00,
  0x4d, 0x4c, 0x49, 0x52, 0x20, 0x43, 0x6f, 0x6e, 0x76, 0x65, 0x72, 0x74,
  0x65, 0x64, 0x2e, 0x00, 0x00, 0x00, 0x0e, 0x00, 0x18, 0x00, 0x04, 0x00,
  0x08, 0x00, 0x0c, 0x00, 0x10, 0x00, 0x14, 0x00, 0x0e, 0x00, 0x00, 0x00,
  0x14, 0x00, 0x00, 0x00, 0x5c, 0x00, 0x00, 0x00, 0x60, 0x00, 0x00, 0x00,
  0x64, 0x00, 0x00, 0x00, 0x84, 0x00, 0x00, 0x00, 0x12, 0x00, 0x00, 0x00,
  0x9c, 0x31, 0x00, 0x00, 0x2c, 0x31, 0x00, 0x00, 0x88, 0x30, 0x00, 0x00,
  0xe0, 0x2f, 0x00, 0x00, 0x38, 0x2f, 0x00, 0x00, 0xd4, 0x2e, 0x00, 0x00,
  0x6c, 0x2e, 0x00, 0x00, 0x18, 0x12, 0x00, 0x00, 0xbc, 0x10, 0x00, 0x00,
  0xe0, 0x0e, 0x00, 0x00, 0x0c, 0x06, 0x00, 0x00, 0x28, 0x05, 0x00, 0x00,
  0xe8, 0x03, 0x00, 0x00, 0x3c, 0x03, 0x00, 0x00, 0x98, 0x02, 0x00, 0x00,
  0xd4, 0x01, 0x00, 0x00, 0x10, 0x01, 0x00, 0x00, 0x84, 0x00, 0x00, 0x00,
  0x01, 0x00, 0x00, 0x00, 0x00, 0x00, 0x00, 0x00, 0x01, 0x00, 0x00, 0x00,
  0x11, 0x00, 0x00, 0x00, 0x08, 0x00, 0x00, 0x00, 0x74, 0x05, 0x00, 0x00,
  0x94, 0x04, 0x00, 0x00, 0x78, 0x03, 0x00, 0x00, 0xbc, 0x02, 0x00, 0x00,
  0x30, 0x02, 0x00, 0x00, 0x50, 0x01, 0x00, 0x00, 0xa8, 0x00, 0x00, 0x00,
  0x10, 0x00, 0x00, 0x00, 0x04, 0x00, 0x00, 0x00, 0x6d, 0x61, 0x69, 0x6e,
  0x00, 0x00, 0x00, 0x00, 0x7a, 0xff, 0xff, 0xff, 0x00, 0x00, 0x00, 0x09,
  0x04, 0x00, 0x00, 0x00, 0x1c, 0x00, 0x00, 0x00, 0x10, 0x00, 0x00, 0x00,
  0x04, 0x00, 0x00, 0x00, 0xb2, 0xcf, 0xff, 0xff, 0x00, 0x00, 0x80, 0x3f,
  0x01, 0x00, 0x00, 0x00, 0x11, 0x00, 0x00, 0x00, 0x01, 0x00, 0x00, 0x00,
  0x10, 0x00, 0x00, 0x00, 0xa0, 0xfa, 0xff, 0xff, 0x19, 0x00, 0x00, 0x00,
  0x00, 0x00, 0x00, 0x19, 0x01, 0x00, 0x00, 0x00, 0x40, 0xcf, 0xff, 0xff,
  0x14, 0x00, 0x00, 0x00, 0x12, 0x00, 0x00, 0x00, 0x18, 0x00, 0x00, 0x00,
  0x30, 0x00, 0x00, 0x00, 0x20, 0x00, 0x00, 0x00, 0x02, 0x00, 0x00, 0x00,
  0x01, 0x00, 0x00, 0x00, 0x04, 0x00, 0x00, 0x00, 0x08, 0x00, 0x00, 0x00,
  0x49, 0x64, 0x65, 0x6e, 0x74, 0x69, 0x74, 0x79, 0x00, 0x00, 0x00, 0x00,
  0x02, 0x00, 0x00, 0x00, 0xff, 0xff, 0xff, 0xff, 0x04, 0x00, 0x00, 0x00,
  0x24, 0xd0, 0xff, 0xff, 0x00, 0x00, 0x0e, 0x00, 0x18, 0x00, 0x08, 0x00,
  0x0c, 0x00, 0x10, 0x00, 0x07, 0x00, 0x14, 0x00, 0x0e, 0x00, 0x00, 0x00,
  0x00, 0x00, 0x00, 0x08, 0x03, 0x00, 0x00, 0x00, 0x18, 0x00, 0x00, 0x00,
  0x0c, 0x00, 0x00, 0x00, 0x04, 0x00, 0x00, 0x00, 0x40, 0xcf, 0xff, 0xff,
  0x01, 0x00, 0x00, 0x00, 0x10, 0x00, 0x00, 0x00, 0x03, 0x00, 0x00, 0x00,
  0x0f, 0x00, 0x00, 0x00, 0x07, 0x00, 0x00, 0x00, 0x04, 0x00, 0x00, 0x00,
  0xc8, 0xcf, 0xff, 0xff, 0x14, 0x00, 0x00, 0x00, 0x11, 0x00, 0x00, 0x00,
  0x18, 0x00, 0x00, 0x00, 0x5c, 0x00, 0x00, 0x00, 0x4c, 0x00, 0x00, 0x00,
  0x02, 0x00, 0x00, 0x00, 0x01, 0x00, 0x00, 0x00, 0x04, 0x00, 0x00, 0x00,
  0x34, 0x00, 0x00, 0x00, 0x73, 0x65, 0x71, 0x75, 0x65, 0x6e, 0x74, 0x69,
  0x61, 0x6c, 0x2f, 0x64, 0x65, 0x6e, 0x73, 0x65, 0x5f, 0x31, 0x2f, 0x4d,
  0x61, 0x74, 0x4d, 0x75, 0x6c, 0x3b, 0x73, 0x65, 0x71, 0x75, 0x65, 0x6e,
  0x74, 0x69, 0x61, 0x6c, 0x2f, 0x64, 0x65, 0x6e, 0x73, 0x65, 0x5f, 0x31,
  0x2f, 0x42, 0x69, 0x61, 0x73, 0x41, 0x64, 0x64, 0x00, 0x00, 0x00, 0x00,
  0x02, 0x00, 0x00, 0x00, 0xff, 0xff, 0xff, 0xff, 0x04, 0x00, 0x00, 0x00,
  0xc8, 0xcf, 0xff, 0xff, 0xda, 0xfc, 0xff, 0xff, 0x00, 0x00, 0x00, 0x08,
  0x03, 0x00, 0x00, 0x00, 0x24, 0x00, 0x00, 0x00, 0x18, 0x00, 0x00, 0x00,
  0x0c, 0x00, 0x00, 0x00, 0x00, 0x00, 0x06, 0x00, 0x08, 0x00, 0x07, 0x00,
  0x06, 0x00, 0x00, 0x00, 0x00, 0x00, 0x00, 0x01, 0x01, 0x00, 0x00, 0x00,
  0x0f, 0x00, 0x00, 0x00, 0x03, 0x00, 0x00, 0x00, 0x0e, 0x00, 0x00, 0x00,
  0x06, 0x00, 0x00, 0x00, 0x03, 0x00, 0x00, 0x00, 0xe8, 0xfb, 0xff, 0xff,
  0x09, 0x00, 0x00, 0x00, 0x00, 0x00, 0x00, 0x09, 0x01, 0x00, 0x00, 0x00,
  0x88, 0xd0, 0xff, 0xff, 0x14, 0x00, 0x00, 0x00, 0x10, 0x00, 0x00, 0x00,
  0x18, 0x00, 0x00, 0x00, 0x6c, 0x00, 0x00, 0x00, 0x5c, 0x00, 0x00, 0x00,
  0x02, 0x00, 0x00, 0x00, 0x01, 0x00, 0x00, 0x00, 0x10, 0x00, 0x00, 0x00,
  0x46, 0x00, 0x00, 0x00, 0x73, 0x65, 0x71, 0x75, 0x65, 0x6e, 0x74, 0x69,
  0x61, 0x6c, 0x2f, 0x64, 0x65, 0x6e, 0x73, 0x65, 0x2f, 0x4d, 0x61, 0x74,
  0x4d, 0x75, 0x6c, 0x3b, 0x73, 0x65, 0x71, 0x75, 0x65, 0x6e, 0x74, 0x69,
  0x61, 0x6c, 0x2f, 0x64, 0x65, 0x6e, 0x73, 0x65, 0x2f, 0x52, 0x65, 0x6c,
  0x75, 0x3b, 0x73, 0x65, 0x71, 0x75, 0x65, 0x6e, 0x74, 0x69, 0x61, 0x6c,
  0x2f, 0x64, 0x65, 0x6e, 0x73, 0x65, 0x2f, 0x42, 0x69, 0x61, 0x73, 0x41,
  0x64, 0x64, 0x00, 0x00, 0x02, 0x00, 0x00, 0x00, 0xff, 0xff, 0xff, 0xff,
  0x10, 0x00, 0x00, 0x00, 0xa8, 0xd1, 0xff, 0xff, 0x00, 0x00, 0x0a, 0x00,
  0x10, 0x00, 0x04, 0x00, 0x08, 0x00, 0x0c, 0x00, 0x0a, 0x00, 0x00, 0x00,
  0x02, 0x00, 0x00, 0x00, 0x10, 0x00, 0x00, 0x00, 0x04, 0x00, 0x00, 0x00,
  0x01, 0x00, 0x00, 0x00, 0x0e, 0x00, 0x00, 0x00, 0x02, 0x00, 0x00, 0x00,
  0x0d, 0x00, 0x00, 0x00, 0x05, 0x00, 0x00, 0x00, 0xa8, 0xfc, 0xff, 0xff,
  0x16, 0x00, 0x00, 0x00, 0x00, 0x00, 0x00, 0x16, 0x01, 0x00, 0x00, 0x00,
  0x48, 0xd1, 0xff, 0xff, 0x14, 0x00, 0x00, 0x00, 0x0f, 0x00, 0x00, 0x00,
  0x18, 0x00, 0x00, 0x00, 0x40, 0x00, 0x00, 0x00, 0x30, 0x00, 0x00, 0x00,
  0x02, 0x00, 0x00, 0x00, 0x01, 0x00, 0x00, 0x00, 0x70, 0x00, 0x00, 0x00,
  0x1a, 0x00, 0x00, 0x00, 0x73, 0x65, 0x71, 0x75, 0x65, 0x6e, 0x74, 0x69,
  0x61, 0x6c, 0x2f, 0x66, 0x6c, 0x61, 0x74, 0x74, 0x65, 0x6e, 0x2f, 0x52,
  0x65, 0x73, 0x68, 0x61, 0x70, 0x65, 0x00, 0x00, 0x02, 0x00, 0x00, 0x00,
  0xff, 0xff, 0xff, 0xff, 0x70, 0x00, 0x00, 0x00, 0x2c, 0xd1, 0xff, 0xff,
  0x3e, 0xfe, 0xff, 0xff, 0x00, 0x00, 0x00, 0x05, 0x01, 0x00, 0x00, 0x00,
  0x38, 0x00, 0x00, 0x00, 0x2c, 0x00, 0x00, 0x00, 0x14, 0x00, 0x00, 0x00,
  0x00, 0x00, 0x0e, 0x00, 0x14, 0x00, 0x00, 0x00, 0x10, 0x00, 0x0c, 0x00,
  0x08, 0x00, 0x04, 0x00, 0x0e, 0x00, 0x00, 0x00, 0x03, 0x00, 0x00, 0x00,
  0x01, 0x00, 0x00, 0x00, 0x03, 0x00, 0x00, 0x00, 0x01, 0x00, 0x00, 0x00,
  0x01, 0x00, 0x00, 0x00, 0x0d, 0x00, 0x00, 0x00, 0x01, 0x00, 0x00, 0x00,
  0x0c, 0x00, 0x00, 0x00, 0xe8, 0xd1, 0xff, 0xff, 0x14, 0x00, 0x00, 0x00,
  0x0e, 0x00, 0x00, 0x00, 0x20, 0x00, 0x00, 0x00, 0x58, 0x00, 0x00, 0x00,
  0x40, 0x00, 0x00, 0x00, 0x04, 0x00, 0x00, 0x00, 0x01, 0x00, 0x00, 0x00,
  0x07, 0x00, 0x00, 0x00, 0x01, 0x00, 0x00, 0x00, 0x10, 0x00, 0x00, 0x00,
  0x22, 0x00, 0x00, 0x00, 0x73, 0x65, 0x71, 0x75, 0x65, 0x6e, 0x74, 0x69,
  0x61, 0x6c, 0x2f, 0x6d, 0x61, 0x78, 0x5f, 0x70, 0x6f, 0x6f, 0x6c, 0x69,
  0x6e, 0x67, 0x32, 0x64, 0x5f, 0x31, 0x2f, 0x4d, 0x61, 0x78, 0x50, 0x6f,
  0x6f, 0x6c, 0x00, 0x00, 0x04, 0x00, 0x00, 0x00, 0xff, 0xff, 0xff, 0xff,
  0x07, 0x00, 0x00, 0x00, 0x01, 0x00, 0x00, 0x00, 0x10, 0x00, 0x00, 0x00,
  0xe4, 0xd1, 0xff, 0xff, 0x1a, 0xfe, 0xff, 0xff, 0x00, 0x00, 0x00, 0x01,
  0x24, 0x00, 0x00, 0x00, 0x18, 0x00, 0x00, 0x00, 0x04, 0x00, 0x00, 0x00,
  0x0c, 0xfe, 0xff, 0xff, 0x01, 0x00, 0x00, 0x00, 0x01, 0x00, 0x00, 0x00,
  0x00, 0x00, 0x00, 0x01, 0x01, 0x00, 0x00, 0x00, 0x0c, 0x00, 0x00, 0x00,
  0x03, 0x00, 0x00, 0x00, 0x0b, 0x00, 0x00, 0x00, 0x09, 0x00, 0x00, 0x00,
  0x02, 0x00, 0x00, 0x00, 0x90, 0xd2, 0xff, 0xff, 0x14, 0x00, 0x00, 0x00,
  0x0d, 0x00, 0x00, 0x00, 0x20, 0x00, 0x00, 0x00, 0xb8, 0x00, 0x00, 0x00,
  0xa0, 0x00, 0x00, 0x00, 0x04, 0x00, 0x00, 0x00, 0x01, 0x00, 0x00, 0x00,
  0x15, 0x00, 0x00, 0x00, 0x01, 0x00, 0x00, 0x00, 0x10, 0x00, 0x00, 0x00,
  0x83, 0x00, 0x00, 0x00, 0x73, 0x65, 0x71, 0x75, 0x65, 0x6e, 0x74, 0x69,
  0x61, 0x6c, 0x2f, 0x63, 0x6f, 0x6e, 0x76, 0x32, 0x64, 0x5f, 0x31, 0x2f,
  0x52, 0x65, 0x6c, 0x75, 0x3b, 0x73, 0x65, 0x71, 0x75, 0x65, 0x6e, 0x74,
  0x69, 0x61, 0x6c, 0x2f, 0x63, 0x6f, 0x6e, 0x76, 0x32, 0x64, 0x5f, 0x31,
  0x2f, 0x42, 0x69, 0x61, 0x73, 0x41, 0x64, 0x64, 0x3b, 0x73, 0x65, 0x71,
  0x75, 0x65, 0x6e, 0x74, 0x69, 0x61, 0x6c, 0x2f, 0x63, 0x6f, 0x6e, 0x76,
  0x32, 0x64, 0x5f, 0x31, 0x2f, 0x43, 0x6f, 0x6e, 0x76, 0x32, 0x44, 0x3b,
  0x73, 0x65, 0x71, 0x75, 0x65, 0x6e, 0x74, 0x69, 0x61, 0x6c, 0x2f, 0x63,
  0x6f, 0x6e, 0x76, 0x32, 0x64, 0x5f, 0x31, 0x2f, 0x42, 0x69, 0x61, 0x73,
  0x41, 0x64, 0x64, 0x2f, 0x52, 0x65, 0x61, 0x64, 0x56, 0x61, 0x72, 0x69,
  0x61, 0x62, 0x6c, 0x65, 0x4f, 0x70, 0x2f, 0x72, 0x65, 0x73, 0x6f, 0x75,
  0x72, 0x63, 0x65, 0x00, 0x04, 0x00, 0x00, 0x00, 0xff, 0xff, 0xff, 0xff,
  0x15, 0x00, 0x00, 0x00, 0x01, 0x00, 0x00, 0x00, 0x10, 0x00, 0x00, 0x00,
  0xfc, 0xd3, 0xff, 0xff, 0x00, 0x00, 0x0e, 0x00, 0x1a, 0x00, 0x08, 0x00,
  0x0c, 0x00, 0x10, 0x00, 0x07, 0x00, 0x14, 0x00, 0x0e, 0x00, 0x00, 0x00,
  0x00, 0x00, 0x00, 0x05, 0x01, 0x00, 0x00, 0x00, 0x3c, 0x00, 0x00, 0x00,
  0x30, 0x00, 0x00, 0x00, 0x14, 0x00, 0x00, 0x00, 0x00, 0x00, 0x0e, 0x00,
  0x18, 0x00, 0x17, 0x00, 0x10, 0x00, 0x0c, 0x00, 0x08, 0x00, 0x04, 0x00,
  0x0e, 0x00, 0x00, 0x00, 0x03, 0x00, 0x00, 0x00, 0x03, 0x00, 0x00, 0x00,
  0x03, 0x00, 0x00, 0x00, 0x03, 0x00, 0x00, 0x00, 0x00, 0x00, 0x00, 0x01,
  0x01, 0x00, 0x00, 0x00, 0x0b, 0x00, 0x00, 0x00, 0x01, 0x00, 0x00, 0x00,
  0x0a, 0x00, 0x00, 0x00, 0x2c, 0xff, 0xff, 0xff, 0x11, 0x00, 0x00, 0x00,
  0x00, 0x00, 0x00, 0x11, 0x01, 0x00, 0x00, 0x00, 0xcc, 0xd3, 0xff, 0xff,
  0x14, 0x00, 0x00, 0x00, 0x0c, 0x00, 0x00, 0x00, 0x20, 0x00, 0x00, 0x00,
  0x58, 0x00, 0x00, 0x00, 0x40, 0x00, 0x00, 0x00, 0x04, 0x00, 0x00, 0x00,
  0x01, 0x00, 0x00, 0x00, 0x15, 0x00, 0x00, 0x00, 0x01, 0x00, 0x00, 0x00,
  0x08, 0x00, 0x00, 0x00, 0x20, 0x00, 0x00, 0x00, 0x73, 0x65, 0x71, 0x75,
  0x65, 0x6e, 0x74, 0x69, 0x61, 0x6c, 0x2f, 0x6d, 0x61, 0x78, 0x5f, 0x70,
  0x6f, 0x6f, 0x6c, 0x69, 0x6e, 0x67, 0x32, 0x64, 0x2f, 0x4d, 0x61, 0x78,
  0x50, 0x6f, 0x6f, 0x6c, 0x00, 0x00, 0x00, 0x00, 0x04, 0x00, 0x00, 0x00,
  0xff, 0xff, 0xff, 0xff, 0x15, 0x00, 0x00, 0x00, 0x01, 0x00, 0x00, 0x00,
  0x08, 0x00, 0x00, 0x00, 0xd8, 0xd4, 0xff, 0xff, 0x00, 0x00, 0x0e, 0x00,
  0x14, 0x00, 0x00, 0x00, 0x08, 0x00, 0x0c, 0x00, 0x07, 0x00, 0x10, 0x00,
  0x0e, 0x00, 0x00, 0x00, 0x00, 0x00, 0x00, 0x01, 0x30, 0x00, 0x00, 0x00,
  0x24, 0x00, 0x00, 0x00, 0x10, 0x00, 0x00, 0x00, 0x0c, 0x00, 0x10, 0x00,
  0x00, 0x00, 0x04, 0x00, 0x08, 0x00, 0x0f, 0x00, 0x0c, 0x00, 0x00, 0x00,
  0x01, 0x00, 0x00, 0x00, 0x01, 0x00, 0x00, 0x00, 0x00, 0x00, 0x00, 0x01,
  0x01, 0x00, 0x00, 0x00, 0x0a, 0x00, 0x00, 0x00, 0x03, 0x00, 0x00, 0x00,
  0x00, 0x00, 0x00, 0x00, 0x08, 0x00, 0x00, 0x00, 0x01, 0x00, 0x00, 0x00,
  0x0c, 0x00, 0x10, 0x00, 0x0b, 0x00, 0x00, 0x00, 0x0c, 0x00, 0x04, 0x00,
  0x0c, 0x00, 0x00, 0x00, 0x03, 0x00, 0x00, 0x00, 0x00, 0x00, 0x00, 0x03,
  0x01, 0x00, 0x00, 0x00, 0xac, 0xd4, 0xff, 0xff, 0x14, 0x00, 0x00, 0x00,
  0x0b, 0x00, 0x00, 0x00, 0x20, 0x00, 0x00, 0x00, 0xb0, 0x00, 0x00, 0x00,
  0x98, 0x00, 0x00, 0x00, 0x04, 0x00, 0x00, 0x00, 0x01, 0x00, 0x00, 0x00,
  0x40, 0x00, 0x00, 0x00, 0x03, 0x00, 0x00, 0x00, 0x08, 0x00, 0x00, 0x00,
  0x7b, 0x00, 0x00, 0x00, 0x73, 0x65, 0x71, 0x75, 0x65, 0x6e, 0x74, 0x69,
  0x61, 0x6c, 0x2f, 0x63, 0x6f, 0x6e, 0x76, 0x32, 0x64, 0x2f, 0x52, 0x65,
  0x6c, 0x75, 0x3b, 0x73, 0x65, 0x71, 0x75, 0x65, 0x6e, 0x74, 0x69, 0x61,
  0x6c, 0x2f, 0x63, 0x6f, 0x6e, 0x76, 0x32, 0x64, 0x2f, 0x42, 0x69, 0x61,
  0x73, 0x41, 0x64, 0x64, 0x3b, 0x73, 0x65, 0x71, 0x75, 0x65, 0x6e, 0x74,
  0x69, 0x61, 0x6c, 0x2f, 0x63, 0x6f, 0x6e, 0x76, 0x32, 0x64, 0x2f, 0x43,
  0x6f, 0x6e, 0x76, 0x32, 0x44, 0x3b, 0x73, 0x65, 0x71, 0x75, 0x65, 0x6e,
  0x74, 0x69, 0x61, 0x6c, 0x2f, 0x63, 0x6f, 0x6e, 0x76, 0x32, 0x64, 0x2f,
  0x42, 0x69, 0x61, 0x73, 0x41, 0x64, 0x64, 0x2f, 0x52, 0x65, 0x61, 0x64,
  0x56, 0x61, 0x72, 0x69, 0x61, 0x62, 0x6c, 0x65, 0x4f, 0x70, 0x2f, 0x72,
  0x65, 0x73, 0x6f, 0x75, 0x72, 0x63, 0x65, 0x00, 0x04, 0x00, 0x00, 0x00,
  0xff, 0xff, 0xff, 0xff, 0x40, 0x00, 0x00, 0x00, 0x03, 0x00, 0x00, 0x00,
  0x08, 0x00, 0x00, 0x00, 0x00, 0xd5, 0xff, 0xff, 0x0a, 0xd6, 0xff, 0xff,
  0x04, 0x00, 0x00, 0x00, 0x00, 0x08, 0x00, 0x00, 0x06, 0xe9, 0xa6, 0x3d,
  0x34, 0x6a, 0x98, 0xbe, 0xcd, 0x95, 0xac, 0x3e, 0x04, 0x63, 0x95, 0x3e,
  0xad, 0x12, 0x99, 0x3e, 0x60, 0x71, 0x0e, 0xbd, 0x90, 0xc6, 0x08, 0x3e,
  0x80, 0x82, 0xcd, 0xbc, 0xdb, 0xec, 0xad, 0x3e, 0xd6, 0x35, 0x90, 0x3c,
  0x4b, 0xf7, 0x14, 0x3d, 0xac, 0x71, 0x28, 0x3d, 0xbc, 0x8b, 0x04, 0x3c,
  0x0e, 0x85, 0x1f, 0x3c, 0xc9, 0xad, 0xdd, 0x3c, 0x14, 0x54, 0x60, 0x3e,
  0x62, 0x8c, 0xb0, 0x3d, 0x43, 0x94, 0x1e, 0xbe, 0x43, 0xd7, 0xe7, 0x3d,
  0xbd, 0x5c, 0x32, 0x3c, 0xe9, 0xaa, 0x38, 0xbe, 0x58, 0x1a, 0x18, 0x3e,
  0x53, 0xa5, 0x3a, 0xbc, 0x82, 0x6d, 0x4a, 0xbe, 0x6e, 0x47, 0x25, 0x3e,
  0x53, 0xb7, 0x1c, 0x3d, 0xc1, 0xcc, 0x38, 0x3d, 0xc2, 0x90, 0xde, 0x3d,
  0x69, 0xa7, 0x01, 0xba, 0xfe, 0x48, 0x1d, 0x3e, 0x58, 0xd0, 0x33, 0x3e,
  0x15, 0x03, 0x94, 0x3e, 0x4f, 0x8c, 0x07, 0xbe, 0x2c, 0xc0, 0x7d, 0xbd,
  0x24, 0x75, 0xd7, 0xbd, 0xb5, 0xfc, 0x7b, 0x3b, 0x5b, 0x92, 0xe8, 0x3c,
  0x82, 0x49, 0x43, 0x3d, 0x43, 0x46, 0xf1, 0xbb, 0xe6, 0x7a, 0x70, 0x3e,
  0x23, 0xe9, 0xa7, 0x3d, 0x66, 0xab, 0x97, 0x3d, 0xa2, 0x65, 0x2c, 0xbe,
  0xa5, 0xa1, 0x3e, 0xbe, 0x4d, 0xaf, 0xf2, 0xbc, 0x34, 0x44, 0x10, 0xbe,
  0xc2, 0x64, 0xa9, 0x3e, 0x5d, 0x58, 0x98, 0xbe, 0xde, 0x29, 0xea, 0xbd,
  0x5a, 0x6d, 0xcc, 0x3c, 0x69, 0x83, 0xf6, 0xbd, 0xc0, 0x3d, 0xda, 0xbd,
  0xb1, 0xe6, 0x1d, 0xbe, 0x55, 0xa7, 0x81, 0x3e, 0x75, 0x36, 0xe6, 0x3d,
  0xbe, 0x40, 0x9a, 0x3e, 0x58, 0x1f, 0x6c, 0xbd, 0x22, 0xfe, 0x1c, 0x3e,
  0xc6, 0x03, 0x49, 0x3d, 0xb5, 0x1a, 0x51, 0xbe, 0x24, 0x56, 0x8b, 0x3e,
  0xe9, 0x25, 0x7f, 0xbe, 0x48, 0x75, 0x35, 0x3e, 0xbd, 0x1f, 0x87, 0x3e,
  0xbd, 0x70, 0x8e, 0x3d, 0xc8, 0x6b, 0xa3, 0xbd, 0x06, 0x19, 0x86, 0x3d,
  0x08, 0x06, 0x10, 0xbd, 0xe6, 0x8c, 0xa2, 0x3c, 0x31, 0xad, 0xdc, 0xbc,
  0x2a, 0x3a, 0x9a, 0xbc, 0x64, 0xaf, 0x92, 0xbe, 0x9f, 0x32, 0x23, 0x3e,
  0x21, 0xc2, 0xb6, 0xbd, 0xa6, 0xe1, 0x35, 0x3e, 0x39, 0xc0, 0x3d, 0xbe,
  0xec, 0x71, 0x51, 0x3b, 0x87, 0xfe, 0x33, 0x3e, 0x9e, 0xa4, 0x00, 0x3e,
  0x10, 0x06, 0xcc, 0x3c, 0x29, 0xec, 0x74, 0x3b, 0xe1, 0xb6, 0x11, 0x3e,
  0x11, 0xc1, 0x9d, 0xbd, 0x70, 0xbb, 0xd1, 0x3d, 0x6e, 0xc7, 0x6a, 0x3e,
  0x51, 0xec, 0x99, 0x3e, 0x0c, 0x66, 0xed, 0xbc, 0x6f, 0xe9, 0x22, 0x3e,
  0x53, 0x8e, 0x1d, 0x3d, 0x22, 0xb7, 0x2c, 0x3e, 0x62, 0xf0, 0xd9, 0x3d,
  0x56, 0x0e, 0x41, 0x3e, 0x22, 0x84, 0x17, 0x3e, 0x23, 0x52, 0x15, 0xbe,
  0xbf, 0x2d, 0xe5, 0x3d, 0x4b, 0x4e, 0x00, 0xbe, 0x96, 0xab, 0xf4, 0xbc,
  0x48, 0x04, 0xe2, 0xbd, 0x07, 0x58, 0x73, 0xbe, 0xca, 0x77, 0x2c, 0xbe,
  0xee, 0x1f, 0xac, 0xbd, 0x79, 0x97, 0x30, 0xbc, 0x3d, 0x82, 0x41, 0x3d,
  0x54, 0x38, 0x06, 0xbf, 0xfa, 0xa4, 0x29, 0xbe, 0x93, 0xb6, 0x73, 0x3d,
  0x7a, 0xf9, 0xec, 0xbd, 0x1b, 0x2d, 0xd3, 0xbd, 0xd8, 0xb1, 0x87, 0xbe,
  0x63, 0x42, 0x3d, 0xbe, 0x57, 0xf4, 0x55, 0x3d, 0x0c, 0x30, 0x82, 0xbe,
  0x69, 0x51, 0x1d, 0xbe, 0xd2, 0xd1, 0x1e, 0x3b, 0x25, 0x71, 0xcd, 0xbc,
  0x36, 0xfd, 0xbf, 0xbd, 0xfc, 0x43, 0x5c, 0xbe, 0xef, 0xb4, 0x91, 0x3d,
  0x08, 0x52, 0xb5, 0xbd, 0x3f, 0x78, 0x8c, 0x3c, 0x29, 0x09, 0x64, 0xbe,
  0xbc, 0x18, 0x9b, 0x3b, 0x03, 0xd2, 0x23, 0xbe, 0x8f, 0xa7, 0xd7, 0xbd,
  0x3a, 0xfe, 0x00, 0x3f, 0xf3, 0xa9, 0xcb, 0x3e, 0x07, 0x14, 0xaa, 0x3e,
  0xb4, 0xd0, 0x74, 0x3e, 0x4a, 0x06, 0xf7, 0xbe, 0xbd, 0xf6, 0x25, 0xbe,
  0xd5, 0xcf, 0xde, 0x3d, 0xd3, 0x79, 0x49, 0x3c, 0xa4, 0xe7, 0xc9, 0xbe,
  0x02, 0xfa, 0x0a, 0x3e, 0x47, 0x2a, 0x23, 0xbf, 0xe2, 0xef, 0x92, 0xbd,
  0x5d, 0x4f, 0x29, 0xbf, 0x6e, 0x8e, 0xa3, 0xbe, 0xb0, 0x0b, 0xa4, 0x3d,
  0x86, 0x2e, 0x9b, 0xbe, 0xa3, 0x0d, 0x0e, 0xbc, 0x6e, 0x9b, 0x79, 0x3e,
  0x6e, 0xb6, 0x08, 0x3e, 0x1f, 0x03, 0xe7, 0x3e, 0x84, 0xfd, 0x08, 0xbd,
  0xe9, 0x2f, 0xd5, 0xbe, 0x4b, 0x22, 0x00, 0xbd, 0xab, 0xd2, 0x61, 0xbc,
  0x6b, 0x04, 0xdc, 0x3e, 0xb8, 0xcc, 0x84, 0xbe, 0x96, 0x59, 0x77, 0x3e,
  0x89, 0x96, 0x74, 0x3e, 0x8a, 0x52, 0xe4, 0x3e, 0x56, 0xb1, 0x21, 0xbe,
  0x14, 0x67, 0xd0, 0xbe, 0xbd, 0x82, 0xf8, 0x3c, 0xbe, 0xd5, 0x96, 0x3d,
  0x8d, 0x74, 0xf8, 0xbd, 0xa2, 0x93, 0x76, 0xbd, 0xdb, 0x2b, 0x5f, 0x3d,
  0x1d, 0x25, 0x7e, 0x3d, 0x60, 0xd3, 0x31, 0xbe, 0x6c, 0xbc, 0x98, 0xbd,
  0xa6, 0xce, 0x09, 0x3e, 0x70, 0x14, 0x21, 0xbe, 0x51, 0x1f, 0xa9, 0xbe,
  0x45, 0x97, 0x65, 0xbd, 0x5e, 0xbb, 0xc7, 0x3d, 0xed, 0x96, 0x24, 0x3e,
  0xf4, 0xfd, 0x01, 0xbd, 0x8b, 0x12, 0x46, 0x3e, 0x7d, 0xf6, 0x42, 0xbe,
  0x61, 0x8f, 0x82, 0xbe, 0x00, 0xe1, 0xe2, 0xbd, 0xac, 0x6a, 0x4f, 0x3d,
  0x8d, 0x43, 0x52, 0x3d, 0x19, 0xf5, 0xec, 0x3c, 0x67, 0x42, 0x2f, 0xbd,
  0x8e, 0xeb, 0x51, 0xbc, 0x4b, 0x7c, 0x93, 0x3e, 0x32, 0xa6, 0x95, 0x3d,
  0xfa, 0x61, 0xf2, 0xbd, 0x10, 0x5f, 0x75, 0x3d, 0x77, 0x1e, 0x35, 0x3e,
  0xc0, 0x3c, 0x30, 0xbd, 0xaf, 0x9c, 0xc1, 0x3d, 0xae, 0x74, 0x1c, 0x3d,
  0xbd, 0x77, 0x70, 0x3e, 0x1f, 0x82, 0x85, 0xbd, 0x7b, 0x93, 0x65, 0x3e,
  0xbe, 0xe8, 0x88, 0x3e, 0xf2, 0x9c, 0x90, 0xbd, 0xe8, 0x9e, 0x0b, 0x3e,
  0x95, 0xcd, 0x99, 0xbd, 0xc8, 0xd7, 0xb3, 0x3b, 0x9c, 0x5d, 0xa3, 0xbd,
  0x86, 0x4c, 0xae, 0xbc, 0x98, 0xc6, 0x6b, 0xbe, 0x81, 0x53, 0xb5, 0x3d,
  0xc4, 0x0b, 0x9e, 0xbe, 0xe5, 0x9d, 0xb3, 0xbc, 0xa0, 0xb0, 0x25, 0x3e,
  0x54, 0x28, 0x49, 0xbc, 0xe4, 0x0c, 0x95, 0xbc, 0x1e, 0x6d, 0x01, 0x3c,
  0x6d, 0x71, 0xf3, 0x3e, 0xa7, 0xef, 0x59, 0xbe, 0xba, 0x85, 0x8b, 0x3d,
  0xdc, 0xbe, 0x69, 0xbe, 0xeb, 0x8b, 0xeb, 0xbd, 0xf3, 0x7e, 0x9e, 0xbe,
  0xcb, 0x92, 0xbf, 0xbd, 0xd2, 0xbf, 0x30, 0xbe, 0x40, 0x5b, 0xce, 0xbe,
  0xca, 0xc2, 0x47, 0xbe, 0xeb, 0x6d, 0x85, 0xbd, 0xd3, 0xd0, 0x6f, 0xbc,
  0xb8, 0x60, 0x20, 0x3e, 0xfd, 0x6c, 0x1e, 0xbe, 0x16, 0x9c, 0xef, 0xbd,
  0xcf, 0x4f, 0x64, 0x3d, 0xe5, 0xba, 0xaf, 0xbd, 0xd3, 0xdb, 0xcb, 0xbd,
  0xc9, 0xab, 0x73, 0xbe, 0x5c, 0xd5, 0xd1, 0x3d, 0xcf, 0x74, 0xaf, 0xbc,
  0x02, 0x1c, 0xdf, 0xbd, 0x50, 0x76, 0x91, 0xbb, 0xc3, 0x82, 0x3d, 0xbd,
  0x89, 0x3c, 0xa7, 0xbc, 0xdd, 0x23, 0x82, 0xbe, 0x67, 0x0e, 0xf5, 0xbd,
  0x2a, 0x23, 0xc9, 0xbe, 0xe3, 0x97, 0x7d, 0xbe, 0x55, 0x1f, 0x0f, 0xbe,
  0x5f, 0xdc, 0xf2, 0x3d, 0x9d, 0xdf, 0x20, 0xbc, 0x24, 0xb2, 0x40, 0x3e,
  0x7f, 0x98, 0x97, 0xbe, 0xbe, 0x10, 0x93, 0xbc, 0xec, 0x7d, 0xe6, 0x3c,
  0x7f, 0x4a, 0x96, 0xbe, 0x88, 0xdb, 0x0d, 0xbe, 0x97, 0xbc, 0xa1, 0xbd,
  0x77, 0x99, 0xa2, 0x3e, 0x3c, 0x84, 0x85, 0xbe, 0xbd, 0x15, 0x36, 0x3e,
  0x8f, 0xb0, 0xad, 0x3e, 0x0a, 0xeb, 0x51, 0xbd, 0x5d, 0x27, 0x4e, 0xbe,
  0x35, 0x65, 0x04, 0x3e, 0xc5, 0xd0, 0x56, 0x3e, 0xcc, 0xce, 0x88, 0x3e,
  0x43, 0x19, 0x9d, 0xbe, 0x5c, 0x26, 0x9f, 0x3c, 0xb3, 0xc9, 0x3c, 0xbe,
  0x88, 0x6c, 0x4f, 0xbe, 0xfd, 0x0d, 0x84, 0x3d, 0x3c, 0x0a, 0xcd, 0x3d,
  0x4b, 0x3b, 0x28, 0xbe, 0x04, 0x61, 0x66, 0xbe, 0x9e, 0x9f, 0x1d, 0x3e,
  0x66, 0x86, 0xc4, 0xbe, 0x39, 0xbd, 0x76, 0xbc, 0xa4, 0x4f, 0x19, 0xbf,
  0xb6, 0xf6, 0x20, 0xbd, 0x0d, 0xdb, 0xbc, 0xbd, 0xa9, 0xae, 0x18, 0xbe,
  0x46, 0x25, 0xb6, 0x3d, 0xe3, 0xf6, 0xd6, 0x3e, 0xff, 0x5a, 0x02, 0xbf,
  0x60, 0x4d, 0x16, 0x3e, 0xfc, 0xfd, 0x6b, 0xbe, 0x1f, 0x58, 0xc7, 0xbe,
  0xf7, 0xfa, 0xad, 0xbd, 0x21, 0x33, 0x0f, 0xbe, 0xcb, 0x70, 0x2a, 0xbe,
  0x05, 0x07, 0x90, 0xbd, 0xab, 0x55, 0xff, 0x3d, 0x6b, 0xf0, 0x09, 0x3f,
  0x45, 0xdb, 0x14, 0x3e, 0xd6, 0x6d, 0xaf, 0xbe, 0xe2, 0x78, 0x80, 0xbe,
  0xc5, 0x92, 0xa2, 0x3d, 0xd5, 0xa8, 0xac, 0x3e, 0x2f, 0x0e, 0x0f, 0xbf,
  0xe4, 0xe3, 0xc7, 0x3e, 0x52, 0x09, 0x54, 0xbd, 0x29, 0x9c, 0x14, 0xbe,
  0x35, 0x3c, 0x13, 0xbc, 0xe0, 0x7e, 0x55, 0xbe, 0x5e, 0x9e, 0x47, 0xbe,
  0xd7, 0xc2, 0xc4, 0xbc, 0x30, 0xa5, 0x1b, 0x3e, 0x80, 0xf6, 0x5f, 0x3e,
  0xaa, 0x3b, 0x5b, 0xbf, 0x44, 0xcb, 0xf2, 0x3c, 0x55, 0x78, 0xa3, 0x3c,
  0x16, 0xce, 0x88, 0xbe, 0xdd, 0xb7, 0xc4, 0x3d, 0x9f, 0x1f, 0x27, 0x3e,
  0x1d, 0x0d, 0xe2, 0xbd, 0x78, 0x45, 0xa3, 0xbd, 0x2b, 0x69, 0xb0, 0x3c,
  0xf6, 0xb6, 0x21, 0xbe, 0x30, 0x7f, 0x1d, 0xbe, 0xe9, 0xf9, 0xab, 0xbe,
  0xdf, 0xaa, 0x4f, 0xbd, 0x64, 0xc5, 0x3f, 0xbe, 0x81, 0x35, 0x9d, 0xbd,
  0x9c, 0x2e, 0xa1, 0xbd, 0xee, 0xd9, 0xc4, 0xbe, 0xd7, 0x57, 0xc6, 0xbd,
  0xf8, 0x10, 0x22, 0x3c, 0x2a, 0x38, 0xb8, 0xbd, 0x3d, 0xa9, 0xce, 0xbc,
  0x98, 0x6d, 0x5a, 0x3e, 0x63, 0x36, 0x11, 0x3f, 0xeb, 0x2e, 0xad, 0xbd,
  0xc5, 0x6d, 0x5d, 0xbe, 0xc4, 0x6b, 0x16, 0x3e, 0x8e, 0x65, 0x8d, 0xbe,
  0x65, 0x87, 0x2c, 0x3e, 0xef, 0x3d, 0x6a, 0x3d, 0xf0, 0x72, 0xfe, 0xbd,
  0x8e, 0x97, 0x94, 0x3e, 0xf2, 0x67, 0xe3, 0xbd, 0xa3, 0x08, 0x7b, 0x3e,
  0xc6, 0xd1, 0xbe, 0xbd, 0x83, 0xf4, 0x72, 0xbe, 0xf0, 0x39, 0x37, 0x3e,
  0xc9, 0xa1, 0x8a, 0x3c, 0xf5, 0xfc, 0x64, 0x3e, 0x67, 0x74, 0x5a, 0xbe,
  0xef, 0x01, 0x2d, 0xbd, 0xd1, 0xfd, 0x59, 0xbe, 0x11, 0x05, 0x44, 0x3e,
  0xb1, 0x12, 0x61, 0xbd, 0x65, 0xcd, 0x8b, 0xbc, 0x1f, 0x31, 0xd8, 0x3d,
  0x44, 0x24, 0xb4, 0x3d, 0xa1, 0xe3, 0x87, 0xbe, 0x1c, 0x0e, 0x62, 0x3e,
  0xc9, 0xeb, 0xc9, 0x3e, 0x12, 0x22, 0x36, 0x3e, 0xc6, 0xec, 0xf5, 0xbd,
  0xd4, 0x0a, 0x83, 0x3e, 0x5d, 0x1d, 0x73, 0xbd, 0x15, 0xec, 0xb9, 0xbd,
  0x78, 0x15, 0x26, 0x3e, 0x04, 0x27, 0x2e, 0xbe, 0x15, 0x6d, 0x45, 0xbe,
  0xc1, 0xdf, 0xf1, 0x3d, 0x8c, 0xe6, 0xf0, 0xbb, 0xff, 0x8f, 0xb2, 0xbe,
  0x1c, 0xad, 0x3d, 0xbe, 0x9f, 0x1c, 0x7c, 0xbe, 0x2f, 0x49, 0xf9, 0xbe,
  0x5e, 0xe0, 0x04, 0xbe, 0x1a, 0xa7, 0x96, 0xbe, 0x16, 0xba, 0x11, 0xbb,
  0xca, 0x65, 0xf9, 0x3d, 0xcf, 0xeb, 0xd7, 0xbe, 0x92, 0x46, 0xfc, 0xbd,
  0xc5, 0xf1, 0x12, 0xbe, 0x0f, 0x1f, 0x26, 0xbe, 0x63, 0xad, 0x80, 0x3d,
  0xdb, 0x15, 0x06, 0xbf, 0x7b, 0xc6, 0x9c, 0xbd, 0x0a, 0xfd, 0x06, 0x3e,
  0x57, 0xc6, 0x3e, 0xbe, 0x46, 0x7e, 0xbf, 0x3b, 0x69, 0x3d, 0x10, 0xbe,
  0xa3, 0xa6, 0x87, 0x3e, 0xcb, 0xb0, 0x59, 0xbc, 0x8c, 0x3c, 0x4e, 0xbe,
  0x7e, 0xb6, 0x3e, 0xbe, 0x64, 0x20, 0x97, 0x3d, 0xa9, 0x84, 0x31, 0x3e,
  0xbe, 0x50, 0x61, 0x3d, 0x77, 0x67, 0x89, 0x3e, 0x3e, 0xb0, 0xe3, 0x3e,
  0x98, 0xd4, 0x79, 0xbe, 0x52, 0x1e, 0xda, 0x3d, 0x75, 0x69, 0x08, 0xbe,
  0x8e, 0x7b, 0x9c, 0xbd, 0xc8, 0xf5, 0xaf, 0xbe, 0x53, 0x93, 0x89, 0xbe,
  0x53, 0x2c, 0x72, 0xbe, 0xfb, 0xd3, 0x07, 0xbe, 0xdb, 0xd2, 0x0f, 0x3d,
  0x43, 0x59, 0x0c, 0xbf, 0xfa, 0x1a, 0xdc, 0xbd, 0xcc, 0x33, 0x84, 0x3d,
  0xa3, 0x6d, 0x3c, 0xbd, 0xd8, 0xbe, 0x25, 0xbe, 0x62, 0xa0, 0x5c, 0xbd,
  0x76, 0x69, 0xd7, 0x3e, 0xf8, 0xc8, 0x60, 0xba, 0x8d, 0xe1, 0x8e, 0xbe,
  0xbe, 0x69, 0xf8, 0xbe, 0xa6, 0x2a, 0x9b, 0xbe, 0xec, 0xba, 0x0a, 0x3e,
  0xf3, 0xb3, 0x46, 0xbe, 0x5e, 0x99, 0x0d, 0x3d, 0x59, 0x56, 0xa6, 0x3e,
  0xa0, 0xfb, 0x1a, 0xbe, 0x48, 0xe7, 0x89, 0x3e, 0xb6, 0xc3, 0x2b, 0x3e,
  0x03, 0xef, 0x8e, 0xbe, 0x83, 0x30, 0x92, 0xbe, 0xfc, 0x15, 0x85, 0xbd,
  0x34, 0x9b, 0x81, 0x3e, 0x6d, 0xbf, 0x2c, 0xbe, 0x90, 0x75, 0xf6, 0x3d,
  0xbe, 0x08, 0x91, 0x3e, 0xe5, 0x87, 0x8c, 0xbe, 0x8b, 0x12, 0xcd, 0xbe,
  0x5c, 0x51, 0x1b, 0xbe, 0xf1, 0xd8, 0x5e, 0xbe, 0x53, 0x2a, 0xc7, 0xbd,
  0x4c, 0x83, 0xaf, 0xbd, 0x3f, 0xa7, 0xb0, 0x3d, 0x37, 0x0e, 0x92, 0x3e,
  0x43, 0xd8, 0xa5, 0x3c, 0x76, 0x12, 0x89, 0xbe, 0xb5, 0xf8, 0xb4, 0xbc,
  0x64, 0x7b, 0xbb, 0x3d, 0x29, 0x16, 0xe7, 0x3e, 0x35, 0x70, 0x0c, 0xbd,
  0xd6, 0x14, 0xa4, 0x3e, 0x5d, 0xc4, 0x4e, 0x3e, 0xea, 0x8e, 0xeb, 0xbc,
  0x39, 0x13, 0xf6, 0xbd, 0xe7, 0xb4, 0x9e, 0x3d, 0x25, 0x3f, 0xef, 0x3c,
  0x12, 0x0b, 0x15, 0xbd, 0xf6, 0x11, 0x52, 0xbd, 0x5c, 0x04, 0x07, 0x3e,
  0xfd, 0x4c, 0xd2, 0xbe, 0x29, 0x74, 0x4f, 0x3e, 0xdc, 0x89, 0xe2, 0x3c,
  0x5d, 0xe0, 0x70, 0xbd, 0xe9, 0xdd, 0x91, 0x3e, 0x6e, 0x28, 0x4d, 0xbe,
  0xd2, 0x88, 0x9f, 0x3d, 0x7e, 0xf1, 0x7b, 0x3d, 0xbb, 0xff, 0x35, 0x3e,
  0x04, 0x1e, 0x9b, 0xbd, 0xac, 0x7f, 0x89, 0xbe, 0x04, 0x28, 0x72, 0xbd,
  0x08, 0xe8, 0x7b, 0xbd, 0x10, 0x5b, 0x8d, 0xbd, 0xac, 0x03, 0x68, 0xbe,
  0x60, 0x63, 0x00, 0x3d, 0x01, 0xe6, 0xbb, 0x3d, 0x60, 0x1f, 0xbe, 0xbc,
  0x54, 0x5b, 0x67, 0xbe, 0xc8, 0x28, 0x32, 0xbd, 0xe9, 0xf5, 0x49, 0xbd,
  0xe9, 0x66, 0x16, 0x3e, 0x1f, 0xfc, 0x7c, 0xbe, 0x6b, 0x8e, 0x0f, 0xbd,
  0x22, 0x7f, 0xb6, 0xbd, 0xeb, 0x1e, 0xa3, 0x3e, 0x3a, 0x1e, 0x17, 0xbe,
  0x04, 0x38, 0x19, 0xbe, 0x62, 0x5a, 0x07, 0xbe, 0xc3, 0xd3, 0x60, 0xbd,
  0xec, 0xb5, 0xc9, 0x3e, 0xa0, 0x7b, 0x00, 0xbe, 0x41, 0x53, 0x02, 0xbe,
  0x34, 0x14, 0x21, 0xbd, 0x5a, 0xe8, 0xd5, 0xbd, 0xc1, 0x99, 0xe0, 0x3c,
  0x44, 0xde, 0x3b, 0x3e, 0xaa, 0x30, 0xca, 0x3e, 0x3f, 0xca, 0x2c, 0x3e,
  0x72, 0x00, 0xb0, 0x3d, 0x8e, 0x3d, 0x52, 0x3e, 0x74, 0x2f, 0xd7, 0xbc,
  0x2b, 0xd4, 0x27, 0xbe, 0x07, 0x19, 0x50, 0x3e, 0x31, 0x20, 0x60, 0xbe,
  0x73, 0x2c, 0x82, 0x3d, 0x61, 0xd1, 0x7d, 0xbd, 0x62, 0xa2, 0x70, 0xbe,
  0x54, 0x60, 0xb1, 0x3e, 0xae, 0x9a, 0x6b, 0x3d, 0xcd, 0x2a, 0x95, 0xbe,
  0xd0, 0xdc, 0x0d, 0xbe, 0x58, 0x5c, 0x5d, 0xbd, 0x5b, 0x8d, 0x08, 0xbe,
  0xf4, 0x72, 0xb8, 0xbe, 0xff, 0x22, 0x4e, 0x3e, 0xee, 0x39, 0x92, 0x3c,
  0x3c, 0xd9, 0x56, 0x3e, 0x0c, 0x6c, 0xe2, 0xbe, 0x7b, 0x57, 0x90, 0xbe,
  0xa8, 0x75, 0x30, 0x3d, 0xc1, 0x95, 0x1e, 0xbe, 0xd0, 0xa1, 0x4c, 0x3d,
  0xc0, 0x7e, 0x49, 0xbd, 0x63, 0x6a, 0x3d, 0xbd, 0x0a, 0x1f, 0xbc, 0xbd,
  0x26, 0xf3, 0x82, 0xbd, 0x45, 0xe6, 0x69, 0xbe, 0xe3, 0x80, 0xa6, 0xbd,
  0xe9, 0x4f, 0xe6, 0xba, 0x3f, 0xea, 0x6b, 0x3e, 0x22, 0x4c, 0x65, 0xb9,
  0x99, 0xa2, 0x98, 0x3e, 0xe2, 0xdd, 0xff, 0xff, 0x10, 0x00, 0x00, 0x00,
  0x0a, 0x00, 0x00, 0x00, 0x1c, 0x00, 0x00, 0x00, 0x38, 0x00, 0x00, 0x00,
  0x04, 0x00, 0x00, 0x00, 0x10, 0x00, 0x00, 0x00, 0x04, 0x00, 0x00, 0x00,
  0x01, 0x00, 0x00, 0x00, 0x08, 0x00, 0x00, 0x00, 0x1a, 0x00, 0x00, 0x00,
  0x73, 0x65, 0x71, 0x75, 0x65, 0x6e, 0x74, 0x69, 0x61, 0x6c, 0x2f, 0x63,
  0x6f, 0x6e, 0x76, 0x32, 0x64, 0x5f, 0x31, 0x2f, 0x43, 0x6f, 0x6e, 0x76,
  0x32, 0x44, 0x00, 0x00, 0x58, 0xdd, 0xff, 0xff, 0x62, 0xde, 0xff, 0xff,
  0x04, 0x00, 0x00, 0x00, 0x80, 0x01, 0x00, 0x00, 0x80, 0xab, 0xbd, 0x3d,
  0xe0, 0xbc, 0xe0, 0xbe, 0xfb, 0xf2, 0x2b, 0xbe, 0xc9, 0xa6, 0xcb, 0x3c,
  0x76, 0x64, 0xbe, 0x3d, 0xf6, 0x96, 0x8e, 0xbe, 0xb6, 0x34, 0x90, 0x3e,
  0x1c, 0x07, 0xf5, 0xbd, 0x8a, 0x24, 0x34, 0xbe, 0x6d, 0x8d, 0x26, 0xbe,
  0x77, 0x48, 0x24, 0x3d, 0x7d, 0x4c, 0xaf, 0xbe, 0x0b, 0xb9, 0x12, 0xbe,
  0x63, 0xf5, 0x03, 0xbb, 0xde, 0x81, 0xda, 0xbd, 0x0d, 0x9a, 0x44, 0x3d,
  0xf7, 0xe1, 0x2b, 0x3e, 0x9f, 0x38, 0x02, 0xbe, 0x44, 0x42, 0x2d, 0xbd,
  0x5a, 0x8e, 0xaf, 0x3d, 0x33, 0x23, 0x9d, 0x3b, 0x60, 0x9c, 0x6e, 0x3e,
  0xe6, 0x53, 0x03, 0x3e, 0xa1, 0x39, 0xe8, 0xbd, 0xc7, 0x24, 0x31, 0xbe,
  0x82, 0x7e, 0x50, 0x3e, 0x33, 0x36, 0xef, 0xbd, 0x1b, 0x22, 0xe4, 0x3d,
  0x73, 0x76, 0x69, 0x3e, 0x90, 0xf8, 0x21, 0x3f, 0x8b, 0xa0, 0x6b, 0xbd,
  0xab, 0x9d, 0xdc, 0xbd, 0x52, 0x4b, 0x2f, 0xbc, 0x69, 0x19, 0x52, 0x3e,
  0xe2, 0x2a, 0x84, 0x3e, 0x76, 0xf2, 0x55, 0x3e, 0xff, 0x06, 0x0f, 0xbb,
  0xd8, 0x7a, 0x15, 0x3e, 0x76, 0x22, 0x3a, 0x3e, 0x5e, 0x60, 0xf8, 0xbd,
  0x01, 0x72, 0xbe, 0x3d, 0xf9, 0x97, 0x4e, 0x3e, 0xa3, 0x77, 0x81, 0x3d,
  0x65, 0xed, 0x74, 0x3d, 0x40, 0xf2, 0x75, 0x3d, 0x76, 0xd4, 0x6a, 0xbe,
  0x15, 0x09, 0x2c, 0x3e, 0xf9, 0x25, 0x88, 0xbe, 0x76, 0xfe, 0xcc, 0xbe,
  0x3f, 0x14, 0xb6, 0xbd, 0x47, 0xe3, 0x39, 0x3e, 0xd0, 0x06, 0x6a, 0x3c,
  0x6d, 0x62, 0x9d, 0xbd, 0xc4, 0xd7, 0x43, 0xbd, 0xf5, 0xfc, 0x5c, 0x3e,
  0xf3, 0x32, 0xe8, 0xbd, 0x6d, 0x42, 0x97, 0xbe, 0xe4, 0x67, 0x09, 0x3e,
  0xec, 0x91, 0x29, 0x3e, 0xf0, 0x3f, 0x13, 0x3d, 0x1f, 0x14, 0x44, 0xbe,
  0xb7, 0xb6, 0xb2, 0xbe, 0xd6, 0xc4, 0xc0, 0xbd, 0x6e, 0xd6, 0x20, 0x3e,
  0xe4, 0x73, 0x30, 0xbe, 0x94, 0xdb, 0x5d, 0xbd, 0x07, 0xc9, 0x37, 0xbd,
  0xb5, 0xf1, 0x92, 0x3e, 0x05, 0xcb, 0x86, 0xbd, 0xaf, 0x4b, 0xaf, 0x3e,
  0xa4, 0x1e, 0xcb, 0x3e, 0x64, 0xcc, 0xee, 0x3e, 0x64, 0x7a, 0xcc, 0x3d,
  0x77, 0x03, 0x98, 0xbd, 0x1a, 0x28, 0xe9, 0x3d, 0xf6, 0x3b, 0x69, 0xbd,
  0x36, 0x32, 0x71, 0x3d, 0x56, 0x00, 0x19, 0x3e, 0x71, 0x65, 0xa8, 0xbd,
  0xda, 0x75, 0x2b, 0xbe, 0xbf, 0x9f, 0x62, 0xbd, 0x27, 0xd2, 0x19, 0xbe,
  0x06, 0x98, 0xad, 0xbd, 0x4d, 0xb5, 0xcd, 0xbe, 0xec, 0xf1, 0xf5, 0x3e,
  0x9b, 0x14, 0xf1, 0x3d, 0xae, 0x07, 0xae, 0x3d, 0xe0, 0xb9, 0x14, 0x3d,
  0x84, 0x9d, 0xbd, 0x3e, 0x20, 0x3d, 0x32, 0x3e, 0x32, 0xde, 0xaf, 0xbd,
  0xee, 0x43, 0x05, 0x3d, 0x12, 0x99, 0x1c, 0x3e, 0xb5, 0x4b, 0xb7, 0xbe,
  0xec, 0xc5, 0x87, 0xbe, 0xd6, 0xca, 0xf4, 0xbd, 0xba, 0xdf, 0xff, 0xff,
  0x10, 0x00, 0x00, 0x00, 0x09, 0x00, 0x00, 0x00, 0x1c, 0x00, 0x00, 0x00,
  0x38, 0x00, 0x00, 0x00, 0x04, 0x00, 0x00, 0x00, 0x08, 0x00, 0x00, 0x00,
  0x04, 0x00, 0x00, 0x00, 0x03, 0x00, 0x00, 0x00, 0x01, 0x00, 0x00, 0x00,
  0x18, 0x00, 0x00, 0x00, 0x73, 0x65, 0x71, 0x75, 0x65, 0x6e, 0x74, 0x69,
  0x61, 0x6c, 0x2f, 0x63, 0x6f, 0x6e, 0x76, 0x32, 0x64, 0x2f, 0x43, 0x6f,
  0x6e, 0x76, 0x32, 0x44, 0x00, 0x00, 0x00, 0x00, 0x30, 0xdf, 0xff, 0xff,
  0x3a, 0xe0, 0xff, 0xff, 0x04, 0x00, 0x00, 0x00, 0x00, 0x01, 0x00, 0x00,
  0x22, 0x74, 0xd8, 0xbd, 0x46, 0xf3, 0xec, 0xbe, 0xe4, 0x97, 0xd4, 0xbe,
  0x07, 0x93, 0xb7, 0xbd, 0x18, 0x5a, 0x8a, 0xbe, 0x70, 0xdc, 0x92, 0xbd,
  0xdd, 0x23, 0xc2, 0xbe, 0x5a, 0x0f, 0x9b, 0x3e, 0x21, 0x9e, 0x75, 0xbe,
  0xf6, 0x3c, 0xa9, 0x3e, 0x09, 0x28, 0x0c, 0x3d, 0xc6, 0x11, 0xcc, 0xbe,
  0x31, 0x6f, 0xc7, 0x3e, 0xac, 0x77, 0x9e, 0xbd, 0x47, 0x2c, 0xd0, 0xbe,
  0xbd, 0xd0, 0x87, 0x3e, 0x88, 0xbb, 0xa2, 0x3e, 0x72, 0xa4, 0xc9, 0xbe,
  0x53, 0x3c, 0x9a, 0xbe, 0xf6, 0xf5, 0xfc, 0xbe, 0x6e, 0x39, 0x87, 0xbd,
  0x26, 0xa6, 0x82, 0x3e, 0x30, 0x5d, 0x9a, 0x3e, 0xa5, 0xb6, 0xdd, 0x39,
  0xce, 0xb6, 0x09, 0xbe, 0xb8, 0x5e, 0x2d, 0xbd, 0x22, 0xf4, 0xe5, 0x3d,
  0xc3, 0x70, 0xd9, 0x3e, 0xc3, 0xbf, 0xa7, 0xbc, 0xc3, 0xbf, 0x01, 0xbf,
  0xf2, 0x04, 0xb3, 0x3e, 0xd6, 0x41, 0xa1, 0x3e, 0xdd, 0x21, 0x8f, 0x3e,
  0x2c, 0xd2, 0x60, 0xbe, 0xec, 0x13, 0xd8, 0xbe, 0x8c, 0x27, 0x6b, 0xbe,
  0xc7, 0x35, 0x74, 0xbd, 0xa6, 0x7f, 0x99, 0x3e, 0x41, 0x2b, 0x3f, 0x3d,
  0xdc, 0x68, 0x49, 0xbe, 0x16, 0x36, 0x49, 0xbe, 0x9e, 0xbc, 0xc1, 0xbe,
  0xbe, 0x41, 0x60, 0xbe, 0x53, 0x21, 0xe0, 0xbd, 0x54, 0xcb, 0xc9, 0xbe,
  0xcf, 0x01, 0xe2, 0xbe, 0x73, 0x51, 0xd5, 0xbe, 0xfc, 0x7c, 0x85, 0x3e,
  0x79, 0x0d, 0xf3, 0x3e, 0x40, 0x20, 0xf7, 0xbe, 0xc5, 0xe0, 0x93, 0xbe,
  0x67, 0x1e, 0xa4, 0x3e, 0xaa, 0x11, 0x91, 0x3d, 0xca, 0x64, 0xa9, 0x3e,
  0xd4, 0x1d, 0xa2, 0x3e, 0x8d, 0x61, 0xf4, 0x3d, 0x80, 0x0c, 0xe4, 0x3e,
  0x82, 0x12, 0x50, 0x3e, 0xc4, 0x3c, 0xf6, 0xbc, 0xed, 0x66, 0x09, 0x3c,
  0xc6, 0x0a, 0x0d, 0xbf, 0x27, 0xff, 0xbe, 0xbd, 0x5f, 0x9b, 0xcf, 0xbe,
  0xbd, 0xf5, 0x91, 0x3e, 0x12, 0xe1, 0xff, 0xff, 0x10, 0x00, 0x00, 0x00,
  0x08, 0x00, 0x00, 0x00, 0x14, 0x00, 0x00, 0x00, 0x30, 0x00, 0x00, 0x00,
  0x02, 0x00, 0x00, 0x00, 0x04, 0x00, 0x00, 0x00, 0x10, 0x00, 0x00, 0x00,
  0x19, 0x00, 0x00, 0x00, 0x73, 0x65, 0x71, 0x75, 0x65, 0x6e, 0x74, 0x69,
  0x61, 0x6c, 0x2f, 0x64, 0x65, 0x6e, 0x73, 0x65, 0x5f, 0x31, 0x2f, 0x4d,
  0x61, 0x74, 0x4d, 0x75, 0x6c, 0x00, 0x00, 0x00, 0x80, 0xe0, 0xff, 0xff,
  0x8a, 0xe1, 0xff, 0xff, 0x04, 0x00, 0x00, 0x00, 0x00, 0x1c, 0x00, 0x00,
  0x9f, 0x4f, 0x71, 0xbe, 0x39, 0x8e, 0x13, 0x3e, 0x67, 0x18, 0x7f, 0xbd,
  0x74, 0xf8, 0x01, 0x3e, 0x03, 0x58, 0xa1, 0xbc, 0x66, 0xe6, 0x0b, 0xbe,
  0x4f, 0x31, 0xd9, 0x3d, 0x7b, 0x7a, 0xed, 0xbb, 0x03, 0xe1, 0xbf, 0xbd,
  0x6f, 0x65, 0x21, 0xbe, 0xbf, 0x0f, 0x18, 0x3c, 0xf4, 0x9e, 0x35, 0xbc,
  0x97, 0x05, 0x17, 0xbd, 0x6b, 0x86, 0x96, 0xbb, 0xdf, 0xf9, 0x51, 0x3d,
  0xf3, 0x83, 0xce, 0x3d, 0x27, 0x63, 0x59, 0xbe, 0xfe, 0xb4, 0x91, 0xbd,
  0xcb, 0x22, 0x8c, 0xbe, 0x71, 0xf4, 0x4d, 0xbd, 0x28, 0x94, 0x28, 0xbe,
  0x15, 0x04, 0x7e, 0xbe, 0x7b, 0x33, 0xd1, 0x3d, 0xb4, 0xfc, 0xbb, 0x3d,
  0xcd, 0x60, 0x34, 0x3c, 0x0e, 0x26, 0xfa, 0xbc, 0x36, 0x67, 0xc4, 0x3d,
  0x71, 0x36, 0x1e, 0x3e, 0x8a, 0x13, 0x89, 0x3b, 0x37, 0x8c, 0xfd, 0x3d,
  0xb5, 0x6a, 0x20, 0xbd, 0x73, 0xbe, 0x65, 0xbd, 0xe8, 0x3d, 0xb9, 0xbd,
  0x33, 0xd3, 0x41, 0x3d, 0xd1, 0xde, 0x74, 0x3d, 0x0e, 0xf5, 0xe7, 0xbc,
  0xed, 0xff, 0x20, 0x3d, 0xe1, 0xf0, 0xb2, 0xbd, 0x7c, 0x8d, 0xd1, 0x3c,
  0xe5, 0x0a, 0x9e, 0x3d, 0x24, 0xac, 0x96, 0x3d, 0x12, 0x8a, 0xd8, 0xbd,
  0x42, 0x92, 0x01, 0xbe, 0x0f, 0xb6, 0x63, 0xbe, 0x85, 0xc0, 0x13, 0xbe,
  0xa4, 0x82, 0xb3, 0xbd, 0x77, 0x38, 0x68, 0xbd, 0x77, 0x6f, 0x17, 0xbd,
  0x5a, 0x1b, 0x26, 0x3d, 0x80, 0xf1, 0xeb, 0x3d, 0x21, 0xd2, 0xd2, 0xbc,
  0x2d, 0x27, 0x65, 0xbd, 0x89, 0xe7, 0xac, 0xbd, 0x06, 0x47, 0x7e, 0xbe,
  0xe7, 0xe2, 0x5e, 0x3d, 0x24, 0x31, 0xc5, 0x3d, 0xcb, 0x02, 0x0c, 0xbd,
  0xf6, 0xd6, 0x0c, 0x3e, 0xf9, 0x9c, 0xb2, 0xbd, 0x37, 0xe9, 0x30, 0x3e,
  0x28, 0x55, 0xe2, 0xbd, 0x96, 0x3b, 0x6e, 0xbe, 0x31, 0xfc, 0x07, 0x3e,
  0x22, 0x46, 0xe2, 0xbd, 0x04, 0xb1, 0x45, 0xbe, 0x63, 0xc7, 0x4b, 0xbe,
  0x0e, 0x5e, 0x94, 0xbe, 0xb7, 0xa2, 0x85, 0xbd, 0xd6, 0xab, 0x30, 0xbd,
  0x2c, 0x68, 0x92, 0x3d, 0xe7, 0xe9, 0x4d, 0xbe, 0xf6, 0x54, 0x09, 0xbe,
  0x25, 0x21, 0x62, 0x3d, 0xfa, 0x81, 0x63, 0xbd, 0xa8, 0xa6, 0xc8, 0xbc,
  0x5d, 0x12, 0xa8, 0xbd, 0xab, 0x97, 0x29, 0x3d, 0xe1, 0x71, 0x70, 0xbe,
  0xc9, 0xdf, 0x08, 0x3d, 0xf5, 0xa9, 0x87, 0x3d, 0xcc, 0x14, 0xb5, 0x3d,
  0x1f, 0x53, 0x16, 0x3e, 0xd3, 0x29, 0xf3, 0xbb, 0xdd, 0x5e, 0xda, 0xbd,
  0x97, 0x83, 0x56, 0x3d, 0xa2, 0x57, 0xa1, 0xbd, 0x5d, 0xe1, 0x02, 0xbe,
  0x51, 0x83, 0xd7, 0xbd, 0x1d, 0xc3, 0xd6, 0x3c, 0x84, 0xea, 0x3a, 0xbe,
  0xf4, 0x7e, 0x20, 0xbe, 0xc3, 0x29, 0xe4, 0x3d, 0xaa, 0xe1, 0x2c, 0xbe,
  0x09, 0x2c, 0x27, 0xbd, 0x38, 0x48, 0x3f, 0xbe, 0x13, 0xea, 0x22, 0xbe,
  0xc1, 0x76, 0x4b, 0x3c, 0x7f, 0x12, 0xbe, 0x3d, 0x20, 0xa3, 0xf7, 0xbd,
  0x62, 0x79, 0x69, 0xbc, 0x8b, 0xb4, 0x49, 0xbe, 0x4e, 0x51, 0x56, 0xbe,
  0x8b, 0x47, 0x0b, 0x3e, 0x20, 0xc2, 0x92, 0xbc, 0x90, 0x9c, 0x06, 0xbd,
  0x33, 0xcf, 0x06, 0x3e, 0xa0, 0x79, 0xb1, 0x3d, 0xcb, 0x28, 0xfb, 0x3d,
  0x7a, 0x19, 0x20, 0xbb, 0xb4, 0x09, 0x16, 0x3e, 0x0e, 0xff, 0x7a, 0xbe,
  0x5d, 0xf9, 0x0b, 0xbe, 0x7b, 0xf0, 0x83, 0xbd, 0x87, 0x23, 0x3f, 0x3d,
  0x52, 0x4d, 0xee, 0xbd, 0xba, 0xe8, 0x3a, 0x3d, 0x90, 0x5c, 0xf6, 0xbb,
  0xe5, 0x5e, 0x88, 0x3c, 0xe5, 0x4c, 0x49, 0x3e, 0x4b, 0xa5, 0x1c, 0xbe,
  0xbe, 0xd9, 0x36, 0xbe, 0xb5, 0xa8, 0x10, 0xbd, 0x73, 0xda, 0x91, 0x3d,
  0x34, 0xee, 0x81, 0xbe, 0x33, 0xcb, 0x0d, 0xbe, 0x24, 0x93, 0xf0, 0x3c,
  0x9e, 0x70, 0xf3, 0xbd, 0x0f, 0xf1, 0x00, 0xbe, 0xb6, 0xff, 0xb6, 0x3d,
  0x2d, 0xc1, 0xcf, 0xbd, 0x50, 0x2c, 0x0d, 0xbe, 0xce, 0x5d, 0x94, 0x3d,
  0x5d, 0x18, 0x7e, 0x3d, 0xea, 0x59, 0xdc, 0xbd, 0x20, 0x43, 0x83, 0xbb,
  0x7c, 0xa4, 0xc0, 0x3d, 0x7a, 0x45, 0x8b, 0xbd, 0xf4, 0x09, 0xd6, 0x3d,
  0xf9, 0xd4, 0x74, 0xbd, 0x35, 0x7b, 0x01, 0xbe, 0xc7, 0xae, 0xc8, 0xbd,
  0xdd, 0x72, 0x19, 0xbc, 0xa5, 0x1e, 0x56, 0xbe, 0xe7, 0xa4, 0x04, 0xbe,
  0xaa, 0x43, 0x90, 0x3d, 0xc0, 0x2a, 0x6f, 0xbd, 0xbe, 0x4e, 0xb9, 0x3d,
  0x1a, 0xa6, 0xbf, 0x3d, 0xec, 0x3f, 0x5a, 0x3e, 0xfd, 0x64, 0xe8, 0x3c,
  0x5a, 0xab, 0xc2, 0x3d, 0x53, 0x03, 0x5e, 0xbd, 0x51, 0x5b, 0x38, 0xbe,
  0xf6, 0x08, 0xae, 0x3d, 0x23, 0x56, 0x83, 0xbe, 0xe0, 0xbe, 0xde, 0x3c,
  0xbd, 0x36, 0xb0, 0x3d, 0xb1, 0xbf, 0xb7, 0xbd, 0x03, 0x13, 0x3a, 0x3d,
  0x7a, 0xb6, 0xb6, 0xbd, 0xc9, 0x71, 0xea, 0xbd, 0x7b, 0xac, 0xa4, 0xbd,
  0x79, 0x03, 0x1d, 0xbe, 0xdc, 0x6d, 0xd7, 0x3d, 0xe7, 0xdc, 0x4c, 0x3d,
  0x89, 0x20, 0x78, 0xbe, 0x7b, 0xbc, 0xc2, 0xbd, 0xd8, 0x29, 0x2e, 0xbd,
  0x26, 0x12, 0x0f, 0x3e, 0xb6, 0x1a, 0xac, 0x3d, 0xb5, 0xe3, 0x38, 0xbd,
  0xc6, 0x8a, 0x17, 0xbe, 0x62, 0x84, 0x1f, 0xbe, 0xbe, 0x30, 0x8b, 0xbe,
  0x33, 0x46, 0x4a, 0xbe, 0xf4, 0x59, 0xa6, 0xbd, 0xd1, 0xb8, 0x42, 0x3d,
  0x4c, 0x32, 0xeb, 0x3d, 0x70, 0xc3, 0x16, 0xbe, 0x7e, 0x38, 0xbb, 0xbd,
  0xa5, 0x80, 0x1b, 0xbd, 0x29, 0x7e, 0xeb, 0xbd, 0xbe, 0x4b, 0xc2, 0x3d,
  0xec, 0xb0, 0x96, 0xbd, 0xab, 0xf3, 0x49, 0xbe, 0x80, 0x88, 0x51, 0x3e,
  0x07, 0xcb, 0x26, 0xbe, 0x1d, 0x87, 0x8f, 0xbe, 0x5c, 0x02, 0x66, 0xbd,
  0xcd, 0x9c, 0x2b, 0x3d, 0xc3, 0x9b, 0x26, 0x3e, 0x5f, 0x7b, 0x4f, 0xbe,
  0xd4, 0x3a, 0x0e, 0xbe, 0xf1, 0x77, 0x86, 0x3d, 0x40, 0x67, 0x46, 0x3d,
  0x6e, 0x9f, 0x67, 0x3c, 0x48, 0xb4, 0x5c, 0xbe, 0x6d, 0x0a, 0x47, 0xbe,
  0xda, 0x70, 0xc7, 0x3d, 0xe3, 0x93, 0xd0, 0x3d, 0xbe, 0x14, 0x89, 0xbd,
  0x92, 0x02, 0x03, 0xbe, 0x8f, 0xd9, 0x52, 0xbe, 0x72, 0x3e, 0xf6, 0x3d,
  0xd3, 0x97, 0xa7, 0xbd, 0x6a, 0xbd, 0xd1, 0x3c, 0x83, 0x4e, 0x44, 0xbc,
  0xef, 0xc1, 0x35, 0xbe, 0x8a, 0x8e, 0x41, 0xbe, 0x79, 0xd5, 0x8a, 0xbd,
  0x14, 0x9e, 0x31, 0x3e, 0x49, 0x7c, 0xb8, 0x3c, 0xa9, 0x33, 0x62, 0xbe,
  0x0f, 0xfd, 0x7c, 0x3d, 0xcf, 0x6c, 0x8c, 0xbc, 0x66, 0x81, 0xcf, 0x3d,
  0xd9, 0x70, 0x2f, 0x3d, 0x54, 0x60, 0x02, 0xbd, 0x9a, 0xda, 0x34, 0xbe,
  0x62, 0xcd, 0xb1, 0xbd, 0xbe, 0xf9, 0x2b, 0x3e, 0x97, 0xe9, 0x50, 0xbe,
  0x2d, 0x82, 0xee, 0x3d, 0x6e, 0x71, 0x81, 0xbe, 0x75, 0x75, 0x59, 0xbe,
  0x16, 0xd0, 0x33, 0xbe, 0x31, 0x27, 0x95, 0xbe, 0x6d, 0x12, 0x10, 0xbe,
  0x52, 0x59, 0x86, 0x3c, 0x60, 0xbd, 0xca, 0xbc, 0x07, 0x62, 0x44, 0x3e,
  0xb7, 0x84, 0xc9, 0xbc, 0xa2, 0xb6, 0x11, 0xbd, 0x93, 0xcc, 0xa2, 0xbd,
  0x6b, 0x60, 0x81, 0xbe, 0xa1, 0x3d, 0x7b, 0x3d, 0x9d, 0x4a, 0x4f, 0xbb,
  0x37, 0x37, 0xb4, 0x3c, 0x20, 0xf2, 0x7d, 0x3d, 0x6a, 0x1e, 0x0b, 0xbe,
  0x87, 0xc4, 0x5e, 0x3d, 0x15, 0xb3, 0x1c, 0x3e, 0xde, 0xfb, 0xb4, 0xbd,
  0xad, 0x34, 0xac, 0x3c, 0x7c, 0x33, 0xa2, 0xbd, 0x61, 0x3c, 0x99, 0x3d,
  0x80, 0xf5, 0x05, 0x3e, 0x4f, 0xcb, 0xce, 0xbd, 0x4d, 0x50, 0x7e, 0xbd,
  0xb4, 0x97, 0xeb, 0xbc, 0x59, 0x5f, 0x03, 0x3e, 0x4c, 0xd7, 0xd8, 0x3d,
  0x86, 0xc2, 0xf8, 0xbc, 0x27, 0xb8, 0xfa, 0x3d, 0x4a, 0x6d, 0x1c, 0x3d,
  0x7a, 0xf6, 0x2f, 0xbe, 0x90, 0x68, 0x62, 0xbe, 0x00, 0x2e, 0xf4, 0x3d,
  0x93, 0xeb, 0x42, 0xbe, 0x3e, 0x05, 0x8f, 0x3d, 0x98, 0x0c, 0xd4, 0xbc,
  0x2b, 0x29, 0xec, 0x3c, 0x4c, 0x26, 0xe6, 0xbd, 0x54, 0xa0, 0x7a, 0xbe,
  0x8b, 0x35, 0x57, 0xbb, 0x69, 0x7a, 0xc8, 0xbd, 0xfa, 0xe6, 0x0a, 0xbd,
  0x69, 0x2e, 0x48, 0xbe, 0xba, 0xd2, 0x1a, 0x3e, 0xe3, 0x88, 0xc2, 0x3d,
  0x3d, 0xd0, 0x83, 0xbe, 0x11, 0x26, 0x01, 0x3e, 0x99, 0x57, 0x6f, 0xbe,
  0x0f, 0x5b, 0x3c, 0xbe, 0x46, 0xcb, 0x6e, 0xbe, 0x93, 0x6f, 0x48, 0xbe,
  0xd0, 0x72, 0xb4, 0xbd, 0x2f, 0x74, 0xc6, 0x3d, 0xc7, 0x6c, 0xe8, 0x3d,
  0x5f, 0xca, 0x41, 0xbe, 0x90, 0x55, 0xec, 0xba, 0x64, 0x93, 0x46, 0xbe,
  0x56, 0x2f, 0x83, 0xbe, 0xd2, 0x20, 0xd6, 0xbc, 0x8f, 0x02, 0xaa, 0x3d,
  0xd8, 0x96, 0xa2, 0xba, 0xfa, 0xc1, 0x90, 0x3d, 0x7c, 0x3b, 0x97, 0x3d,
  0xbc, 0x4b, 0x5a, 0x3d, 0x7e, 0x0c, 0x00, 0xbd, 0xdf, 0xa5, 0x71, 0xbd,
  0xd6, 0xd2, 0x3c, 0x3d, 0x36, 0xef, 0x5b, 0xbd, 0x42, 0xca, 0x1c, 0xbd,
  0x97, 0x38, 0x68, 0xbd, 0x1a, 0xcf, 0x47, 0xbe, 0x19, 0xf7, 0x37, 0x3e,
  0xa2, 0x4a, 0x11, 0xbd, 0x76, 0xc2, 0x69, 0x3d, 0x4f, 0x88, 0x60, 0xbe,
  0xa1, 0xfc, 0x3f, 0x3d, 0xcb, 0xea, 0x8e, 0xbd, 0xc0, 0xf6, 0x93, 0x3d,
  0xca, 0xbc, 0x6e, 0xbe, 0x26, 0x09, 0x8a, 0xbd, 0x96, 0xb7, 0x14, 0x3e,
  0xeb, 0x1e, 0x28, 0xbe, 0x65, 0x39, 0x00, 0x3e, 0x8a, 0xa4, 0x2a, 0x3e,
  0x08, 0xee, 0x6a, 0xbe, 0x3d, 0xc0, 0x97, 0x3d, 0x9e, 0x64, 0x0d, 0xbe,
  0xce, 0xe8, 0xa4, 0xbd, 0x6a, 0xdb, 0x1f, 0x3e, 0x8d, 0x45, 0xab, 0xbc,
  0x92, 0x40, 0x30, 0x3e, 0x92, 0xc2, 0x1e, 0xbe, 0x57, 0xa6, 0x40, 0xbe,
  0x07, 0xd4, 0xee, 0x3d, 0xbf, 0x68, 0x73, 0xbd, 0xdc, 0x55, 0xb9, 0x3d,
  0x11, 0x6e, 0x6d, 0xbe, 0x2b, 0xaa, 0x31, 0xbe, 0x7a, 0xec, 0x84, 0x3d,
  0x96, 0x8d, 0x11, 0xbd, 0x46, 0xce, 0x8a, 0xbe, 0xc1, 0xac, 0x8c, 0xbb,
  0x05, 0xca, 0x28, 0xbc, 0x14, 0x7d, 0xb6, 0x3d, 0x76, 0x35, 0x09, 0xbe,
  0xbc, 0xad, 0xc0, 0xbc, 0x25, 0x42, 0x28, 0xbe, 0x52, 0x5e, 0x61, 0xbe,
  0x51, 0xdf, 0x15, 0xbe, 0x40, 0x7d, 0x55, 0xbe, 0x90, 0xd9, 0x62, 0x3d,
  0x73, 0x2f, 0x79, 0xbe, 0xfa, 0x08, 0x2c, 0xbe, 0xf7, 0x89, 0x35, 0x3d,
  0xdb, 0x46, 0x91, 0xbc, 0xa1, 0x8e, 0x86, 0xbb, 0x92, 0x3c, 0x32, 0xbd,
  0xa4, 0x4b, 0xb6, 0xbd, 0xbb, 0x77, 0x0a, 0x3e, 0x79, 0x6a, 0xbf, 0x3c,
  0xb0, 0xa2, 0x93, 0xbd, 0x56, 0x49, 0x86, 0x3c, 0x34, 0x67, 0x3f, 0x3c,
  0x75, 0xc3, 0x1c, 0x3e, 0x7b, 0xf2, 0x9d, 0xbd, 0x7e, 0x60, 0x05, 0xbd,
  0x8f, 0x71, 0x60, 0x3d, 0x37, 0xa5, 0x20, 0x3c, 0x3a, 0x9f, 0x7b, 0xbd,
  0xcb, 0xcc, 0x2e, 0xbc, 0x7e, 0x45, 0x34, 0x3e, 0x54, 0xee, 0x3c, 0xbe,
  0x81, 0x9c, 0xe1, 0xbd, 0x7e, 0xd2, 0x1a, 0xbd, 0x9f, 0xe3, 0x47, 0x3c,
  0x2e, 0xd7, 0x0f, 0xbe, 0x7c, 0x7c, 0x93, 0x3d, 0x0a, 0x8b, 0x83, 0xbd,
  0xb8, 0x98, 0x14, 0xbe, 0x7c, 0x39, 0xd2, 0xbd, 0x70, 0x0c, 0x05, 0xbe,
  0xd8, 0x00, 0x51, 0xbe, 0xa4, 0x8a, 0x7b, 0xbd, 0x0e, 0xbb, 0x99, 0xbd,
  0x93, 0xd5, 0xac, 0x3c, 0x2b, 0x05, 0xda, 0xbd, 0x91, 0x50, 0x40, 0xbe,
  0x50, 0x2f, 0x99, 0xbd, 0xd3, 0x7d, 0xa7, 0xbc, 0xaa, 0xa9, 0xde, 0x3d,
  0xd0, 0xdf, 0x83, 0x3d, 0x83, 0x9b, 0x87, 0xbd, 0x49, 0xb6, 0x45, 0xbe,
  0x5c, 0x2c, 0xa7, 0x3c, 0xea, 0xd6, 0x3c, 0xbd, 0x6e, 0xb1, 0x19, 0x3e,
  0x2c, 0x73, 0x97, 0xbd, 0x18, 0x38, 0x17, 0x3e, 0x14, 0x3a, 0x04, 0xbd,
  0xe2, 0x85, 0x89, 0xbe, 0x89, 0xa5, 0x36, 0xbc, 0xb0, 0xf2, 0x3a, 0xbe,
  0xdb, 0x4b, 0x5c, 0xbd, 0x71, 0xf2, 0xa1, 0xbd, 0x22, 0x35, 0x53, 0xbd,
  0x0e, 0xb9, 0x2d, 0x3e, 0x2b, 0x05, 0x00, 0x3d, 0xd2, 0xab, 0x20, 0x3e,
  0x6f, 0x94, 0x4f, 0x3e, 0x6b, 0x03, 0x23, 0xbd, 0x30, 0x94, 0x0f, 0x3d,
  0x86, 0x05, 0x13, 0x3e, 0xac, 0xb3, 0x58, 0xbe, 0x29, 0xb2, 0xe4, 0x3d,
  0x0b, 0x77, 0x08, 0xbe, 0x08, 0x40, 0x91, 0xbe, 0x10, 0x06, 0x3c, 0x3e,
  0xd3, 0x6b, 0x7c, 0xbd, 0xe6, 0xcb, 0x16, 0xbe, 0x7d, 0x4b, 0x93, 0x3d,
  0x80, 0x77, 0x70, 0xbe, 0xde, 0x01, 0x55, 0x3c, 0x6b, 0x0c, 0x76, 0x3c,
  0x08, 0x9c, 0x67, 0x3d, 0x8f, 0x53, 0xf3, 0xbd, 0x56, 0x78, 0x0e, 0xbe,
  0x3d, 0xc2, 0x06, 0xbe, 0xcc, 0x6e, 0x98, 0xbd, 0x05, 0xc0, 0xa1, 0xbd,
  0xe3, 0x6d, 0xb6, 0x3d, 0x12, 0x7d, 0x5e, 0xbe, 0x99, 0x28, 0x4b, 0xbb,
  0x4e, 0xc2, 0x4a, 0xbe, 0x76, 0x34, 0x70, 0xbe, 0x66, 0x4c, 0x1c, 0xbe,
  0x7f, 0x2c, 0x0f, 0x3e, 0xe0, 0xc0, 0xb3, 0x3d, 0x25, 0xa6, 0x49, 0xbd,
  0xee, 0x39, 0xb0, 0x3c, 0xd0, 0x32, 0xc7, 0xbd, 0xdb, 0x04, 0x3b, 0x3e,
  0x19, 0xde, 0x6d, 0x3d, 0x57, 0x8c, 0xe9, 0x3c, 0x4b, 0x13, 0x80, 0xbe,
  0xcc, 0xed, 0x2f, 0xbe, 0xf3, 0xa7, 0xfa, 0xbc, 0x29, 0x46, 0x07, 0x3e,
  0x7d, 0x44, 0x55, 0xbe, 0x09, 0x52, 0x38, 0x3e, 0xf8, 0x0f, 0xee, 0xbd,
  0xa2, 0x7e, 0x05, 0xbe, 0xee, 0xea, 0xf6, 0xbd, 0xba, 0x45, 0xd0, 0x3c,
  0x68, 0x0f, 0x01, 0x3c, 0x40, 0x3c, 0x86, 0xbe, 0x92, 0x57, 0x8f, 0x3d,
  0xab, 0x82, 0xab, 0xbd, 0x3b, 0x06, 0xf5, 0xbd, 0x94, 0xdd, 0x85, 0x3d,
  0xaf, 0xce, 0xf6, 0x3a, 0x27, 0x38, 0xb4, 0xbd, 0xa1, 0x8e, 0xae, 0x3d,
  0x6a, 0x35, 0xa3, 0xbd, 0xe9, 0x3a, 0x8a, 0x3d, 0xb2, 0xdf, 0x36, 0x3e,
  0xdf, 0x66, 0x9a, 0xbc, 0xfd, 0xdf, 0xeb, 0xbd, 0xd0, 0xd2, 0x7d, 0xbe,
  0x48, 0x03, 0x48, 0x3d, 0x34, 0x97, 0xee, 0xbd, 0x84, 0x98, 0x7b, 0x3d,
  0xef, 0xa8, 0x87, 0x3d, 0x1f, 0xcf, 0xae, 0x3d, 0xa2, 0x58, 0x03, 0x3e,
  0xd5, 0x41, 0x1e, 0xbb, 0x4a, 0xf3, 0x71, 0xbe, 0x72, 0x67, 0x31, 0xbe,
  0xfb, 0xee, 0xef, 0x3d, 0x3e, 0x24, 0x1a, 0xbe, 0x10, 0x3f, 0x5b, 0xbe,
  0x52, 0xba, 0xc1, 0xbd, 0xc2, 0xd5, 0x81, 0xbe, 0x1a, 0xed, 0xd0, 0x3d,
  0x46, 0x84, 0x57, 0x3d, 0xf6, 0x50, 0xd7, 0xbd, 0x59, 0xe7, 0xaf, 0x3d,
  0x6a, 0xa1, 0x48, 0xbe, 0x1f, 0xf9, 0x33, 0xbe, 0xd4, 0xff, 0x71, 0xbe,
  0xc4, 0x2b, 0x87, 0x3d, 0xc0, 0x2a, 0x0c, 0x3e, 0x02, 0x70, 0xf0, 0xbd,
  0xae, 0x22, 0x10, 0xbe, 0xc5, 0x05, 0xf6, 0x3c, 0x36, 0xc9, 0x74, 0xbd,
  0xe0, 0x37, 0x78, 0xbe, 0x1a, 0x36, 0x62, 0x3c, 0xed, 0x2d, 0xda, 0xbc,
  0x86, 0x82, 0x51, 0xbd, 0xa0, 0x6b, 0x12, 0xbe, 0xf7, 0xad, 0x22, 0xbe,
  0x34, 0x06, 0xd3, 0x3d, 0x16, 0x9b, 0x17, 0xbe, 0x27, 0xa1, 0x74, 0x3d,
  0x37, 0xa4, 0xfc, 0xbd, 0xa3, 0xf0, 0x64, 0xbe, 0x31, 0x6a, 0x31, 0x3e,
  0xe1, 0x93, 0x3b, 0x3c, 0x02, 0xfe, 0x33, 0x3e, 0xf8, 0x23, 0x0c, 0xbe,
  0x60, 0xb6, 0xd7, 0x3d, 0x2d, 0x1e, 0xc5, 0xbd, 0xc2, 0x8d, 0x02, 0x3d,
  0x99, 0xd6, 0x6c, 0xbe, 0xac, 0x8a, 0xfe, 0x3d, 0x3a, 0xfc, 0x21, 0x3e,
  0x0e, 0x96, 0xb5, 0xbd, 0x69, 0x34, 0x01, 0xbe, 0x74, 0x33, 0x05, 0xbe,
  0x58, 0x09, 0x6a, 0xbe, 0xaa, 0x97, 0x68, 0x3d, 0x6b, 0xb0, 0xa3, 0xbd,
  0x13, 0xaa, 0x9e, 0xbd, 0x79, 0xa1, 0xf2, 0x3d, 0x02, 0xbf, 0x24, 0x3e,
  0xfb, 0xf7, 0x0e, 0xbe, 0x35, 0xf3, 0xe1, 0xbd, 0xfc, 0xa8, 0x93, 0xbe,
  0x2e, 0x5c, 0x70, 0x3d, 0x9e, 0xe6, 0xa4, 0xbe, 0x0f, 0xe5, 0x1b, 0x3e,
  0x50, 0xf8, 0x15, 0x3d, 0xf6, 0xe4, 0x03, 0x3e, 0xd3, 0xd9, 0x40, 0xbe,
  0xb5, 0xfd, 0x18, 0x3e, 0x7a, 0x60, 0x87, 0x3c, 0x5c, 0xe7, 0x15, 0xbe,
  0x0f, 0x7f, 0x2a, 0xbe, 0xa1, 0x0e, 0x32, 0xbd, 0x66, 0xdb, 0xbe, 0x3d,
  0x84, 0x5e, 0x62, 0xbe, 0xd3, 0x14, 0xd1, 0xbd, 0x46, 0x1e, 0xe8, 0x3d,
  0x0a, 0x23, 0x08, 0xbe, 0x33, 0x75, 0x43, 0xbe, 0xfb, 0xfc, 0x10, 0xbe,
  0x74, 0xd8, 0x62, 0xbe, 0x13, 0x45, 0x19, 0x3e, 0x21, 0xd4, 0x08, 0xbe,
  0x57, 0x25, 0xca, 0x3d, 0xc0, 0x46, 0xfc, 0x3d, 0xb9, 0x53, 0x3b, 0x3e,
  0xfc, 0xc3, 0x45, 0x3d, 0x2e, 0xd3, 0xc8, 0xbd, 0xa1, 0x98, 0xe7, 0x3d,
  0x6d, 0xdf, 0x68, 0xbe, 0xaf, 0xa9, 0x48, 0xbe, 0x0b, 0x62, 0x24, 0xbd,
  0x5d, 0xc3, 0xe1, 0xbd, 0x43, 0x15, 0x38, 0xbe, 0xad, 0xbe, 0x02, 0x3e,
  0x3b, 0xe0, 0x4b, 0xbe, 0xad, 0x2b, 0x11, 0x3e, 0xfa, 0xd7, 0x84, 0x3d,
  0xc2, 0x11, 0x83, 0x3c, 0x37, 0x6d, 0x63, 0xbd, 0xe3, 0xb4, 0x8a, 0x3c,
  0x79, 0x46, 0x23, 0x3e, 0x3c, 0x39, 0xdc, 0x3c, 0xb5, 0x2d, 0x47, 0xbe,
  0xd8, 0xd8, 0x00, 0x3e, 0xc7, 0xd7, 0x0c, 0xbd, 0xe2, 0x4f, 0xc8, 0x3b,
  0x0d, 0x79, 0x70, 0xbe, 0x40, 0xf1, 0x11, 0x3e, 0x9a, 0x47, 0x48, 0x3d,
  0xe5, 0x09, 0x47, 0xbe, 0xe6, 0x63, 0x2a, 0xbe, 0x9b, 0x80, 0x8d, 0x3d,
  0x5f, 0xa7, 0xfa, 0x3d, 0x57, 0x17, 0x83, 0xbe, 0x85, 0xd7, 0x24, 0x3d,
  0x15, 0x63, 0x85, 0x3d, 0x58, 0x6a, 0xe9, 0xbd, 0xeb, 0xff, 0xe2, 0x3d,
  0xb9, 0xc5, 0x53, 0xbe, 0x09, 0xb6, 0x49, 0xbe, 0x5c, 0x0f, 0x7b, 0x3d,
  0x01, 0x32, 0x02, 0xbe, 0xe3, 0x65, 0x66, 0xbe, 0x6d, 0xd1, 0xfc, 0xbd,
  0xa1, 0x13, 0x94, 0x3b, 0x06, 0x0f, 0x8a, 0xbe, 0x23, 0xd7, 0x98, 0xbe,
  0x9a, 0xd1, 0xa4, 0xbc, 0xba, 0x3e, 0x30, 0x3e, 0xd2, 0x07, 0x76, 0x3d,
  0x12, 0xa2, 0x24, 0x3e, 0xee, 0xb2, 0xb0, 0x3b, 0x2b, 0x0a, 0xaa, 0xbd,
  0x88, 0x7b, 0x3d, 0xbe, 0x21, 0x43, 0x94, 0x3d, 0xea, 0x51, 0xec, 0x3c,
  0x6d, 0xd3, 0x13, 0x3e, 0xac, 0xe0, 0x55, 0x3d, 0xae, 0x7c, 0xb9, 0x3b,
  0x03, 0x31, 0x53, 0xbe, 0x6c, 0xf3, 0xa2, 0xbd, 0xfa, 0xf0, 0x36, 0xbe,
  0xda, 0xdd, 0x0c, 0x3c, 0xd2, 0xef, 0xcf, 0x3d, 0xa0, 0x34, 0xc7, 0xbc,
  0x8b, 0x5d, 0x06, 0xbe, 0x24, 0xe2, 0xdc, 0x3d, 0x3b, 0xea, 0x98, 0x3d,
  0xc9, 0x64, 0xb4, 0xbc, 0x95, 0x64, 0x3d, 0xbe, 0x88, 0x38, 0x6e, 0xbe,
  0x57, 0x44, 0x5a, 0xbe, 0x93, 0xa4, 0xc1, 0x3c, 0x33, 0x19, 0x17, 0x3e,
  0x63, 0xab, 0xb3, 0x3d, 0xe1, 0x02, 0x2b, 0xbe, 0xbe, 0x0d, 0x8d, 0xbe,
  0xb2, 0xcb, 0x3f, 0xbe, 0xb4, 0x49, 0x52, 0x3d, 0x0c, 0x59, 0x50, 0xbe,
  0x02, 0xd6, 0x87, 0xbd, 0xc8, 0x1c, 0x27, 0xbd, 0x13, 0xa6, 0x16, 0xbe,
  0x47, 0x96, 0x20, 0xbe, 0x39, 0x5e, 0x36, 0x3d, 0x58, 0x03, 0x4b, 0xbe,
  0x2f, 0x7f, 0xcf, 0x3c, 0x44, 0xc5, 0x2e, 0xbe, 0x96, 0x07, 0x11, 0x3e,
  0x36, 0x44, 0xbb, 0x3d, 0x67, 0xf6, 0x2d, 0xbe, 0xa4, 0x41, 0xdc, 0xbc,
  0xd0, 0x0d, 0x23, 0xbe, 0xac, 0x16, 0x17, 0x3e, 0x9b, 0x0d, 0x7e, 0xbe,
  0x1d, 0xf8, 0x06, 0x3e, 0x19, 0x89, 0xca, 0xbd, 0xdc, 0x6a, 0x83, 0x3d,
  0xca, 0x25, 0xdb, 0xbd, 0x7a, 0x14, 0xd5, 0x3d, 0x9f, 0xdd, 0x8a, 0x3d,
  0x63, 0xd2, 0x14, 0x3e, 0x26, 0x12, 0x0a, 0xbe, 0x38, 0x77, 0x82, 0x3d,
  0xb6, 0x26, 0xf8, 0x3c, 0xcd, 0x64, 0x18, 0x3d, 0x65, 0x09, 0xd2, 0x3c,
  0xbb, 0x8a, 0x66, 0xbe, 0xfb, 0x91, 0x5d, 0x3d, 0x55, 0xec, 0x1b, 0xbe,
  0x57, 0xac, 0x99, 0xbe, 0x3d, 0xba, 0x11, 0x3d, 0x46, 0xc8, 0xb6, 0xbd,
  0xce, 0x3a, 0x16, 0x3c, 0x3c, 0xd6, 0x00, 0x3d, 0xdc, 0x5e, 0x8b, 0xbd,
  0x7a, 0x0c, 0x04, 0xbe, 0xcd, 0x68, 0x10, 0x3e, 0x64, 0xb3, 0x6e, 0xbe,
  0xec, 0xec, 0x0d, 0x3d, 0x5e, 0xcc, 0x8b, 0x3d, 0xef, 0x65, 0xef, 0xbd,
  0x76, 0x86, 0x8b, 0xbe, 0x47, 0x33, 0xb5, 0x3d, 0x13, 0x45, 0x8f, 0x3d,
  0x7f, 0x2e, 0x86, 0xbd, 0x76, 0x80, 0xde, 0xbd, 0xf0, 0x0c, 0x97, 0x3d,
  0x62, 0x60, 0x2a, 0x3e, 0x05, 0x7d, 0x81, 0xbe, 0xd2, 0xb1, 0xc3, 0x3d,
  0xcc, 0xec, 0x18, 0x3e, 0x67, 0xcd, 0xc9, 0x3c, 0xef, 0xa9, 0x32, 0xbe,
  0x7c, 0x6a, 0x76, 0xbe, 0xc9, 0x63, 0xa9, 0xbc, 0xed, 0x95, 0x37, 0xbe,
  0x56, 0xf2, 0x49, 0x3a, 0x69, 0xc0, 0x80, 0xbd, 0x11, 0x91, 0xf8, 0xbd,
  0xf1, 0x2c, 0x59, 0xbd, 0x51, 0x4a, 0x3c, 0xbe, 0x9c, 0x9e, 0x52, 0xbd,
  0xe9, 0x64, 0xf4, 0x3d, 0xf9, 0x15, 0xad, 0xbd, 0xbb, 0x04, 0x34, 0x3b,
  0x60, 0x00, 0x81, 0xbd, 0x4a, 0x84, 0x4d, 0x3d, 0x91, 0x3a, 0x7d, 0x3d,
  0x95, 0xed, 0xd6, 0xbd, 0x49, 0x46, 0x08, 0xbe, 0x91, 0x2e, 0x5a, 0xbd,
  0x26, 0xd2, 0x4f, 0xbe, 0x55, 0xb7, 0x47, 0xbd, 0x39, 0x46, 0x9e, 0x3d,
  0x35, 0xea, 0xc2, 0x3d, 0xcb, 0x57, 0xe8, 0xbd, 0xb2, 0x95, 0x1c, 0x3e,
  0x5a, 0xbe, 0x41, 0xbe, 0x2e, 0x5a, 0x1a, 0x3e, 0x5e, 0xeb, 0xb5, 0xbc,
  0x89, 0xd0, 0x20, 0x3d, 0xfd, 0x4f, 0xb7, 0xbc, 0xd7, 0x01, 0xd8, 0xbd,
  0xbd, 0x23, 0x7c, 0xbd, 0x65, 0x88, 0x17, 0x3e, 0x3f, 0xfe, 0x30, 0xbe,
  0xd2, 0xc5, 0x61, 0xbe, 0x61, 0x5f, 0x30, 0xbe, 0x28, 0xa4, 0x12, 0xbd,
  0xce, 0x10, 0xc0, 0x3d, 0xbd, 0x25, 0xd9, 0xbd, 0xf9, 0x4e, 0x09, 0x3e,
  0x37, 0x13, 0x2e, 0x3e, 0x2f, 0x9b, 0x76, 0xbe, 0x7c, 0xdb, 0xab, 0x3d,
  0xe3, 0xe8, 0xea, 0x3d, 0xe3, 0x78, 0x21, 0xbe, 0xc5, 0xbd, 0x34, 0x3c,
  0x18, 0x72, 0x47, 0xbe, 0x90, 0x46, 0xd5, 0x3c, 0x72, 0x34, 0x50, 0xbe,
  0x5e, 0xe6, 0x4b, 0xbe, 0x83, 0xb5, 0x18, 0xbd, 0x3c, 0x43, 0xd2, 0xbd,
  0x0d, 0x8c, 0x06, 0xbe, 0xe1, 0x58, 0x29, 0x3d, 0xbb, 0x6d, 0x7c, 0xbe,
  0x20, 0x3f, 0x6e, 0x3d, 0xd1, 0xcb, 0xfa, 0xbc, 0x09, 0xb0, 0xa9, 0xbd,
  0xdb, 0x4a, 0x60, 0xbd, 0x33, 0x77, 0x22, 0x3e, 0xe5, 0x3b, 0xc7, 0xbc,
  0xe8, 0xe3, 0x26, 0xbe, 0x6e, 0x34, 0x0e, 0x3e, 0xf6, 0xcf, 0xec, 0x3d,
  0x60, 0x37, 0x22, 0xbe, 0x65, 0xc3, 0xca, 0xbd, 0x94, 0x88, 0x94, 0x3d,
  0x7a, 0xd0, 0x13, 0x3e, 0xaf, 0x2a, 0x35, 0xbd, 0x29, 0x37, 0x5d, 0xbe,
  0x4a, 0x4b, 0x9a, 0x3d, 0xb2, 0x40, 0xf7, 0xbd, 0x1a, 0x5a, 0x4d, 0x3e,
  0xb6, 0x3f, 0x16, 0xbd, 0x40, 0x0f, 0xb4, 0x3d, 0xcf, 0xe0, 0x18, 0xbd,
  0x64, 0x4b, 0xcf, 0xbd, 0x62, 0x15, 0x1c, 0xbe, 0xb6, 0x0f, 0x40, 0xbe,
  0x65, 0x04, 0x04, 0x3b, 0x44, 0x78, 0x56, 0x3e, 0xa3, 0x69, 0x81, 0xbd,
  0xeb, 0x9c, 0x1a, 0x3e, 0x37, 0x62, 0x8e, 0x3d, 0x07, 0xc2, 0xac, 0xbd,
  0x2f, 0xae, 0x19, 0xbe, 0xcd, 0xe5, 0x32, 0xbe, 0x5c, 0x16, 0x3e, 0x3c,
  0x2f, 0x8f, 0x37, 0xbb, 0xda, 0x6a, 0xdb, 0xbd, 0x54, 0x54, 0x8d, 0xbe,
  0x4b, 0x55, 0x7d, 0xbe, 0x80, 0x88, 0xf1, 0xbd, 0xa8, 0xa3, 0x21, 0x3c,
  0x37, 0xc4, 0x8c, 0xbe, 0xdb, 0x67, 0x1b, 0xba, 0xa3, 0x39, 0x41, 0xbc,
  0x24, 0x87, 0x22, 0x3d, 0xf7, 0x21, 0x2c, 0x3e, 0x95, 0x21, 0x08, 0x3e,
  0x88, 0x1d, 0xe6, 0x3d, 0x40, 0xe4, 0x58, 0xbe, 0x27, 0x9e, 0xd0, 0xbd,
  0x62, 0x8a, 0xb8, 0x3d, 0x35, 0xc8, 0x70, 0xbd, 0xc2, 0x81, 0x39, 0xbe,
  0x0a, 0x29, 0x99, 0x3d, 0x0b, 0x2a, 0xb3, 0xbd, 0x11, 0x81, 0x72, 0xbe,
  0x62, 0xe7, 0xeb, 0x3d, 0xc6, 0xbb, 0x40, 0xbc, 0x3e, 0x2c, 0xa4, 0xbd,
  0x8d, 0x23, 0x5d, 0xbe, 0xb2, 0x69, 0x91, 0xbe, 0x41, 0x45, 0x36, 0xbd,
  0xbd, 0xbe, 0xc5, 0x3d, 0x91, 0x5d, 0x34, 0xbe, 0x0e, 0x47, 0xc4, 0x3d,
  0x3c, 0xf4, 0x93, 0xbd, 0x6e, 0xd6, 0x30, 0xbe, 0x5a, 0x61, 0xed, 0x3d,
  0x36, 0x8f, 0x52, 0xbe, 0x36, 0x75, 0x7a, 0xbe, 0xa4, 0x65, 0x96, 0x3d,
  0xd7, 0xed, 0x82, 0xbd, 0xba, 0xfb, 0xb1, 0x3d, 0xa8, 0x14, 0xea, 0x3d,
  0xb7, 0xae, 0x2a, 0xbe, 0xc2, 0xd5, 0x82, 0xbe, 0x64, 0x12, 0x6f, 0xbe,
  0x49, 0xc8, 0x2b, 0x3d, 0x09, 0x59, 0x25, 0xbd, 0xb7, 0x20, 0x24, 0xbe,
  0xc2, 0x5a, 0xce, 0x3c, 0x67, 0xa8, 0xb2, 0xbd, 0x43, 0xd9, 0x82, 0xbe,
  0xe8, 0xec, 0x41, 0xbe, 0xa9, 0xea, 0x97, 0xbe, 0x5d, 0xbb, 0x61, 0x3c,
  0xc2, 0x8f, 0x40, 0xbd, 0x36, 0x82, 0xc4, 0xbd, 0x0b, 0x6e, 0x40, 0xbd,
  0xae, 0x7c, 0xa4, 0x3d, 0x3a, 0x8c, 0x64, 0xbe, 0x21, 0xf3, 0x72, 0xbd,
  0xf0, 0xb6, 0x22, 0xbe, 0x74, 0xad, 0xee, 0x3d, 0x2f, 0x1e, 0x2a, 0x3c,
  0xf5, 0x7c, 0x23, 0xbe, 0x8d, 0x9b, 0xbf, 0x3c, 0x26, 0x7b, 0x44, 0xbd,
  0x8e, 0xf6, 0x85, 0xbd, 0x3a, 0x0f, 0x3a, 0x3e, 0xf4, 0x8b, 0x8d, 0xbd,
  0xcd, 0xd0, 0xf6, 0xbc, 0xef, 0x10, 0xaf, 0x3d, 0xdb, 0xff, 0xfd, 0x3d,
  0x90, 0x85, 0x40, 0x3d, 0x36, 0xf0, 0x2e, 0xbe, 0x83, 0xf1, 0x89, 0xbd,
  0x16, 0x8b, 0xb5, 0x3c, 0x78, 0x3d, 0x46, 0xbd, 0x29, 0x1b, 0x50, 0xbc,
  0x0e, 0xdb, 0x18, 0xbe, 0x53, 0x66, 0xe3, 0x3d, 0xbc, 0xac, 0x7d, 0x3c,
  0x6c, 0xb8, 0x09, 0xbc, 0x65, 0xc5, 0x8d, 0xbd, 0xd0, 0xc0, 0xd1, 0x3d,
  0x0e, 0x0f, 0x90, 0xbe, 0x24, 0x62, 0xfc, 0x3d, 0xdf, 0xdd, 0x31, 0xbe,
  0xa5, 0xd8, 0x17, 0xbe, 0x3b, 0xca, 0x23, 0xbe, 0xcd, 0x40, 0x21, 0x3e,
  0xa1, 0x57, 0x50, 0xbe, 0x72, 0x3b, 0x3f, 0xbb, 0x83, 0x96, 0x90, 0x3d,
  0xa9, 0xbf, 0xc2, 0x3d, 0x00, 0x56, 0xf0, 0x3d, 0x06, 0xd4, 0x12, 0xbe,
  0x0b, 0xe1, 0x39, 0xbe, 0x9c, 0xa5, 0x0c, 0x3e, 0xec, 0xdd, 0xd8, 0xbd,
  0xc6, 0xa1, 0x17, 0x3e, 0xf2, 0xca, 0xc4, 0x3c, 0xb6, 0x7e, 0x19, 0xbe,
  0x32, 0x0e, 0x21, 0xbd, 0x96, 0x08, 0xdb, 0x3d, 0x46, 0xb9, 0x48, 0x3e,
  0x0b, 0x3b, 0xa7, 0xbb, 0x1a, 0xc2, 0x59, 0xbc, 0xc9, 0x20, 0x48, 0xbe,
  0x03, 0xf3, 0x39, 0x3d, 0x6a, 0x0c, 0x58, 0xbe, 0xd2, 0x26, 0xe7, 0x3d,
  0xbb, 0xbc, 0xac, 0xbb, 0x4b, 0xe5, 0x92, 0xbe, 0x3b, 0x2e, 0xaa, 0x3d,
  0x0c, 0xeb, 0x2c, 0xbe, 0x4f, 0xf7, 0x92, 0xbc, 0x88, 0xf4, 0x8e, 0xbe,
  0xfc, 0x2d, 0xff, 0x3d, 0xbd, 0x3e, 0x90, 0x3c, 0xa6, 0x68, 0xde, 0xbc,
  0x45, 0xde, 0x95, 0x3b, 0x51, 0x5d, 0x17, 0x3e, 0xc2, 0x3e, 0xbc, 0x3d,
  0x1c, 0xd9, 0x28, 0x3e, 0xf4, 0x77, 0x67, 0xbe, 0xb2, 0x94, 0x27, 0xbe,
  0x4f, 0x2e, 0xb2, 0x3d, 0xc8, 0x1b, 0x51, 0xbe, 0x0f, 0xce, 0x94, 0xbe,
  0xbc, 0xe8, 0x08, 0xbe, 0xd8, 0xea, 0x22, 0xbe, 0x97, 0xdf, 0x90, 0x3d,
  0xb1, 0xc9, 0xea, 0xbd, 0x70, 0xdc, 0x4c, 0x3d, 0xae, 0x8c, 0x86, 0xbc,
  0xc5, 0xfb, 0xb2, 0xbd, 0x2a, 0x1c, 0xe8, 0x3d, 0xf9, 0x12, 0x0a, 0xbe,
  0x40, 0x36, 0x1f, 0x3e, 0x97, 0x31, 0xa1, 0xbc, 0xba, 0xda, 0xc7, 0x3d,
  0x68, 0x80, 0x38, 0x3e, 0x2d, 0x4f, 0xc0, 0xbd, 0x18, 0x12, 0xac, 0x3d,
  0x2b, 0x01, 0xac, 0x3d, 0x66, 0x0b, 0x1e, 0xbc, 0x3c, 0x8e, 0xe9, 0xbd,
  0xb0, 0x71, 0x50, 0xbd, 0x3c, 0xf8, 0xe8, 0xbd, 0x70, 0xcc, 0x38, 0xbe,
  0x72, 0x54, 0xa8, 0xbd, 0x57, 0x9b, 0xa3, 0x3d, 0xe3, 0xc9, 0x82, 0xbd,
  0x20, 0x77, 0x02, 0x3e, 0x14, 0x4f, 0xd2, 0x3d, 0x7d, 0x36, 0x06, 0x3e,
  0x12, 0xf2, 0xd3, 0xbd, 0xaf, 0x61, 0x5b, 0xbe, 0xca, 0xce, 0x14, 0xbe,
  0x53, 0x8e, 0x0c, 0x3e, 0xc7, 0x36, 0xe6, 0xbd, 0x77, 0xf4, 0x00, 0xbe,
  0xd8, 0x94, 0x14, 0xbb, 0x77, 0xe4, 0x76, 0x3d, 0xae, 0x75, 0x7d, 0xbe,
  0xa8, 0x53, 0x2b, 0xbd, 0xd6, 0x37, 0xa6, 0xbd, 0x96, 0x8c, 0x31, 0xbe,
  0xed, 0x86, 0x12, 0x3e, 0x73, 0x37, 0x40, 0xbe, 0xb9, 0x28, 0x21, 0x3e,
  0x26, 0x92, 0xdd, 0x3d, 0xed, 0x4a, 0x54, 0xbe, 0xd7, 0xf0, 0x72, 0xbe,
  0x45, 0x82, 0xb6, 0x3d, 0x72, 0x09, 0xc8, 0x3d, 0xab, 0xf1, 0xa2, 0xbd,
  0x8e, 0x9c, 0xaa, 0x3d, 0xdc, 0x00, 0x13, 0xbd, 0xd3, 0x7e, 0xd3, 0x3d,
  0x8c, 0x1c, 0xfb, 0x3d, 0x57, 0xe6, 0x56, 0xbe, 0x0d, 0xd5, 0x3a, 0x3e,
  0xd5, 0x75, 0x57, 0xbe, 0x48, 0x93, 0xc0, 0xbd, 0x71, 0x9b, 0x47, 0x3d,
  0xb7, 0x7f, 0x0f, 0xbe, 0xd4, 0x7c, 0xb8, 0xbd, 0x07, 0xa9, 0xc0, 0xbd,
  0xf1, 0x96, 0x26, 0xbe, 0x60, 0x35, 0xf3, 0x3d, 0xa2, 0x20, 0x28, 0xbe,
  0x1a, 0xab, 0x7f, 0xbe, 0xb1, 0xba, 0xb6, 0x3d, 0x97, 0x86, 0x00, 0x3c,
  0xc3, 0x4f, 0x05, 0xbe, 0x6c, 0x24, 0x85, 0xbe, 0x9d, 0x0f, 0x5b, 0xbe,
  0xb3, 0x0c, 0x53, 0xbe, 0x46, 0x3b, 0x7c, 0xbe, 0x84, 0xba, 0x0e, 0xbe,
  0x40, 0x1e, 0x13, 0x3d, 0xc2, 0xb4, 0xf8, 0xbd, 0xb7, 0x89, 0x43, 0x3e,
  0xeb, 0x8d, 0x0c, 0xbe, 0x17, 0x77, 0x87, 0xbe, 0x3c, 0x9f, 0x27, 0xbe,
  0x48, 0x27, 0x76, 0xbe, 0xdc, 0x17, 0xed, 0x3d, 0xc5, 0x17, 0x1d, 0xbe,
  0x0c, 0x4c, 0x18, 0x3c, 0xa5, 0x32, 0x21, 0x3e, 0x34, 0x53, 0x9c, 0xbd,
  0xf5, 0x50, 0x44, 0xbd, 0xfc, 0x49, 0x0d, 0x3d, 0xb0, 0x6c, 0x78, 0x3d,
  0xc2, 0xf7, 0xce, 0xbd, 0xf4, 0x6a, 0x64, 0xbe, 0x22, 0x4d, 0x16, 0xbe,
  0x7c, 0x64, 0xa3, 0xbd, 0x42, 0x91, 0x2f, 0xbe, 0x28, 0xe9, 0xb3, 0x3d,
  0x81, 0xd0, 0x08, 0x3d, 0x07, 0x60, 0x14, 0xbe, 0x9f, 0x94, 0x1c, 0xbe,
  0x43, 0xa5, 0x06, 0xbe, 0xb5, 0x62, 0x81, 0xbd, 0x96, 0xf8, 0x90, 0x3d,
  0xe5, 0x31, 0x32, 0xbd, 0x0b, 0xa5, 0x10, 0x3e, 0xc0, 0x58, 0x18, 0xbe,
  0xd4, 0x96, 0x44, 0xbe, 0x94, 0x32, 0x2b, 0x3d, 0x28, 0xee, 0x04, 0xbe,
  0xba, 0x94, 0x31, 0xbe, 0x19, 0xbe, 0x00, 0xbe, 0xfc, 0x7d, 0xa8, 0xbd,
  0x15, 0xe3, 0x28, 0xbe, 0xa4, 0x74, 0xeb, 0x3b, 0x7e, 0x3a, 0xc1, 0xbd,
  0x60, 0x9d, 0x8d, 0x3c, 0x83, 0x8c, 0x73, 0x3d, 0x35, 0x5e, 0x36, 0xbe,
  0xb8, 0x6b, 0x05, 0x3e, 0x08, 0x0e, 0xb3, 0xbc, 0x68, 0xd3, 0x46, 0xbe,
  0xe9, 0x67, 0x0f, 0x3e, 0xa8, 0x82, 0x0d, 0xbe, 0x46, 0x8e, 0xc3, 0x3d,
  0x3a, 0x36, 0x2a, 0xbe, 0xa0, 0xfd, 0x2a, 0xbe, 0x04, 0xec, 0x29, 0xbe,
  0x39, 0x0b, 0xb5, 0xbd, 0x95, 0x42, 0x5d, 0xbe, 0xf7, 0xd3, 0xf3, 0xbd,
  0xb2, 0x64, 0x54, 0xbc, 0x5f, 0x14, 0x15, 0x3e, 0xc5, 0x87, 0x2d, 0xbe,
  0xa8, 0x22, 0x1d, 0xbe, 0x3b, 0xd6, 0xb9, 0x3d, 0x9e, 0x50, 0x65, 0x3d,
  0x8e, 0x2f, 0x5a, 0xbb, 0x20, 0x7d, 0x52, 0x3c, 0x22, 0x7f, 0x68, 0x3d,
  0x21, 0x27, 0xf9, 0xbb, 0xba, 0x8c, 0x1d, 0xbc, 0xf2, 0x51, 0x85, 0xbe,
  0xb8, 0x13, 0x0c, 0x3e, 0x31, 0x96, 0xbe, 0x3d, 0xc8, 0xa3, 0x09, 0xbe,
  0xcd, 0x32, 0x3e, 0xbd, 0x62, 0x51, 0x71, 0xbd, 0xc4, 0xc5, 0x11, 0x3e,
  0x3e, 0x24, 0x30, 0xbe, 0x45, 0x52, 0x82, 0x3c, 0x04, 0x0a, 0xa1, 0xbc,
  0x14, 0xfd, 0x97, 0x3d, 0x19, 0x64, 0x09, 0x3e, 0xfe, 0x23, 0x38, 0x3d,
  0xe8, 0xb1, 0x3f, 0x3d, 0x02, 0x33, 0xd4, 0xbd, 0x00, 0x63, 0xe2, 0xbd,
  0xf2, 0xcb, 0x3e, 0xbd, 0xe0, 0x1f, 0xf8, 0xbc, 0x35, 0x4c, 0xd4, 0xbd,
  0x65, 0x78, 0x3f, 0xbe, 0x84, 0xd3, 0xe2, 0x3d, 0x41, 0xb2, 0x7b, 0xbd,
  0x9b, 0xbc, 0x48, 0xbe, 0x70, 0xf2, 0x95, 0xbd, 0xad, 0x18, 0x27, 0xbe,
  0x0a, 0xcb, 0x25, 0xbe, 0xeb, 0x29, 0x8d, 0xbe, 0x69, 0x2b, 0x39, 0x3d,
  0xca, 0x69, 0x2c, 0x3d, 0x53, 0x86, 0x83, 0xbd, 0xa3, 0x18, 0x59, 0xbd,
  0xda, 0x36, 0x89, 0xbd, 0x21, 0x68, 0x32, 0x3e, 0x81, 0x5e, 0x9a, 0x3d,
  0x8d, 0xcc, 0xf4, 0xbd, 0x35, 0x4e, 0x51, 0xbb, 0x23, 0x61, 0x37, 0xbe,
  0x33, 0xf9, 0x1d, 0x3e, 0xc3, 0x2b, 0x35, 0x3e, 0xf3, 0x34, 0x85, 0x3d,
  0x21, 0x22, 0x0e, 0xbe, 0x77, 0xb5, 0xf4, 0xbd, 0x1d, 0xcb, 0x0f, 0x3d,
  0x6d, 0x16, 0x4e, 0xbe, 0x0c, 0xb0, 0x5f, 0xbd, 0x52, 0x4b, 0xd3, 0xbd,
  0x4c, 0x63, 0xda, 0x3d, 0xb6, 0xdd, 0x1a, 0xbe, 0x13, 0xb6, 0x65, 0xbe,
  0xe8, 0xeb, 0x0f, 0x3d, 0x3a, 0xb2, 0xd2, 0xbd, 0xd8, 0x49, 0x00, 0xbe,
  0x89, 0x3a, 0xf8, 0xbd, 0x3a, 0xb5, 0x81, 0xbd, 0x1b, 0x47, 0x54, 0xbe,
  0x64, 0x50, 0xc2, 0xbd, 0x64, 0x0f, 0x2f, 0xbe, 0xef, 0x38, 0xe4, 0x3d,
  0x75, 0xbc, 0x5b, 0xbd, 0x1f, 0xcc, 0x49, 0x3e, 0xdd, 0x01, 0xaf, 0x3c,
  0x85, 0x97, 0xf8, 0x3d, 0x55, 0x95, 0xc8, 0xbd, 0x02, 0x71, 0x2b, 0x3e,
  0x84, 0x5b, 0x0c, 0x3c, 0xb1, 0xb5, 0x87, 0xbd, 0x1a, 0x1a, 0xe9, 0x3d,
  0x5a, 0x3f, 0x09, 0xbe, 0xf4, 0x37, 0x13, 0x3b, 0xa3, 0xf5, 0x76, 0xbe,
  0xf9, 0xbd, 0x43, 0xbc, 0x70, 0x31, 0x7e, 0xbe, 0xfc, 0x5c, 0xa2, 0xbd,
  0xac, 0x34, 0xb4, 0x3d, 0x3a, 0xa8, 0x83, 0xbd, 0x81, 0x2c, 0x1b, 0xbe,
  0xce, 0x90, 0x62, 0x3d, 0x0f, 0xb6, 0x58, 0xbe, 0x17, 0x0e, 0x67, 0xbe,
  0xea, 0xf3, 0x7e, 0xbd, 0xe2, 0xf3, 0xd1, 0x3d, 0x16, 0xbf, 0xab, 0x3d,
  0xe2, 0xe8, 0x65, 0xbd, 0x5d, 0x2a, 0xb3, 0xbd, 0x2c, 0xc7, 0x76, 0x3d,
  0x6a, 0x83, 0x2a, 0xbe, 0xb7, 0x3d, 0x59, 0xbe, 0x1f, 0x6f, 0x98, 0xbd,
  0x61, 0x74, 0xf9, 0x3a, 0x29, 0xbd, 0xf9, 0x3d, 0x67, 0x07, 0x0b, 0xbe,
  0x9e, 0x12, 0x02, 0x3e, 0xc1, 0x71, 0x1e, 0xbe, 0x24, 0x5b, 0x21, 0xbe,
  0x9e, 0x1b, 0x50, 0x3d, 0xc2, 0x73, 0x14, 0xbe, 0xa7, 0xfa, 0xea, 0x3d,
  0xd4, 0x1a, 0x0e, 0x3e, 0x57, 0x2e, 0xe3, 0xbb, 0x41, 0x61, 0x66, 0xbd,
  0xa7, 0x6c, 0x5d, 0xbd, 0xef, 0xda, 0xbe, 0x3d, 0x65, 0x1d, 0x0f, 0x3e,
  0xe4, 0x99, 0xa9, 0xbd, 0xed, 0x1c, 0x6f, 0xbe, 0x9c, 0x6e, 0x22, 0xbe,
  0x1d, 0x55, 0xf0, 0xbd, 0x0a, 0x47, 0x19, 0xbc, 0x4b, 0x12, 0x00, 0x3e,
  0xc9, 0x42, 0x10, 0xbd, 0x37, 0x17, 0xc8, 0x3c, 0x0b, 0xd8, 0x64, 0x3e,
  0x84, 0x6b, 0xcc, 0xbd, 0x4d, 0x7a, 0x92, 0x3c, 0x56, 0x5c, 0x4d, 0x3b,
  0x1f, 0x7c, 0xad, 0xbd, 0x55, 0x2c, 0x98, 0xbd, 0xf3, 0x3b, 0x78, 0xbe,
  0xdd, 0x34, 0x7a, 0xbe, 0xe3, 0x2e, 0x84, 0xbe, 0x18, 0xf3, 0xf5, 0xbd,
  0xdb, 0xd5, 0x9e, 0xbe, 0x9e, 0xe2, 0x84, 0xbd, 0xe3, 0x1e, 0xcc, 0x3d,
  0x98, 0x18, 0xb9, 0x3d, 0xe9, 0x3f, 0x10, 0xbe, 0xea, 0x4e, 0x31, 0x3e,
  0x1c, 0x43, 0x09, 0x3e, 0x59, 0xe2, 0xd2, 0xbd, 0x74, 0xce, 0x7c, 0xbd,
  0x2c, 0x22, 0xf9, 0xbd, 0x13, 0x07, 0xec, 0xbd, 0x48, 0x40, 0xdd, 0xbc,
  0xcb, 0x81, 0x74, 0xbe, 0x0b, 0x24, 0x33, 0xbd, 0x82, 0xef, 0x46, 0xbe,
  0x06, 0x7b, 0x22, 0x3b, 0x2b, 0xc7, 0x84, 0xbd, 0x80, 0xbd, 0x40, 0xbe,
  0x38, 0x72, 0xa0, 0xbc, 0xef, 0x1e, 0x07, 0xbe, 0x24, 0x12, 0x05, 0xbe,
  0x3e, 0xca, 0xd1, 0x3d, 0xd9, 0x65, 0x98, 0x3d, 0x57, 0xaf, 0x2c, 0xbe,
  0x45, 0x25, 0xf2, 0x3d, 0xf3, 0xef, 0x37, 0xbe, 0xab, 0x87, 0x57, 0x3d,
  0xc0, 0x27, 0xf4, 0xbc, 0x26, 0xe6, 0x08, 0xbe, 0xb1, 0x84, 0x50, 0xbe,
  0x0c, 0x4f, 0x8f, 0xbe, 0xbc, 0x90, 0x57, 0xbe, 0x96, 0xf9, 0xbb, 0xbe,
  0xeb, 0xf1, 0x3c, 0xbe, 0x40, 0xcb, 0x70, 0xbe, 0x90, 0xd2, 0x76, 0xbe,
  0xf3, 0x89, 0x0d, 0xbe, 0xa8, 0x75, 0x2a, 0x3e, 0x7a, 0x0a, 0x93, 0xbe,
  0xa5, 0xf9, 0x00, 0x3c, 0x8c, 0x55, 0x1c, 0xbe, 0xf7, 0xc2, 0xeb, 0xbd,
  0xfb, 0xcd, 0x0c, 0x3e, 0xa8, 0x32, 0xa3, 0xbe, 0x6d, 0x20, 0x88, 0xbd,
  0x27, 0x63, 0x7d, 0xbe, 0xf3, 0xe7, 0xce, 0xbd, 0x56, 0x96, 0x22, 0xbe,
  0x89, 0x35, 0x96, 0xbd, 0x6f, 0x03, 0x7e, 0x3d, 0x0a, 0xdf, 0x70, 0x3e,
  0x6d, 0xb7, 0x96, 0x3e, 0x92, 0x14, 0x20, 0xbd, 0xeb, 0xb4, 0x65, 0x3d,
  0xe0, 0x1e, 0x73, 0xbe, 0x9a, 0x19, 0x27, 0xbe, 0x54, 0x8c, 0xd9, 0x3d,
  0xf2, 0x07, 0x3e, 0xbe, 0xf2, 0xa1, 0x83, 0x3e, 0x02, 0x80, 0x9b, 0x3d,
  0xf2, 0xbb, 0x68, 0xbe, 0x1b, 0xa8, 0xb7, 0x3d, 0xc9, 0x99, 0x15, 0xbe,
  0x63, 0x03, 0x3a, 0xbd, 0x9f, 0x5e, 0xb9, 0xbb, 0x43, 0x25, 0x03, 0xbe,
  0x53, 0xc8, 0x30, 0x3e, 0x24, 0xc7, 0xd8, 0x3e, 0x9d, 0xc3, 0x69, 0x3b,
  0xa1, 0x52, 0x1d, 0x3d, 0x39, 0x53, 0xf2, 0xbb, 0x4e, 0x60, 0xdf, 0x3e,
  0x43, 0x81, 0x79, 0x3d, 0x94, 0x21, 0x0a, 0x3e, 0x80, 0xbf, 0x2f, 0x3e,
  0x88, 0xd8, 0xe3, 0x3e, 0xb6, 0x82, 0x5a, 0xbd, 0x3f, 0xbb, 0x6f, 0x38,
  0x4d, 0x6b, 0xc7, 0x3d, 0xe8, 0x26, 0x41, 0x3d, 0x1f, 0x4e, 0xa1, 0x3e,
  0xcd, 0x5e, 0x5c, 0x3c, 0x3d, 0x65, 0xb0, 0x3e, 0x99, 0xc4, 0x70, 0x3e,
  0x1f, 0x3c, 0xd2, 0xbd, 0xd5, 0x3e, 0x6d, 0xbc, 0xba, 0x36, 0x9a, 0x3e,
  0x8c, 0xf9, 0x8c, 0x3e, 0xa1, 0x30, 0x2c, 0x3e, 0x3d, 0x5c, 0xbd, 0x3c,
  0x1d, 0x13, 0x3a, 0x3e, 0x96, 0xcb, 0xb5, 0x3e, 0xed, 0x39, 0x26, 0x3e,
  0x1e, 0x3a, 0x22, 0x3e, 0x4f, 0xfc, 0xd6, 0x3d, 0xc3, 0x30, 0x5b, 0xbe,
  0xad, 0x8a, 0x99, 0xbd, 0x51, 0x47, 0x27, 0xbe, 0x8c, 0x26, 0x24, 0xbe,
  0x63, 0x4f, 0x87, 0xbd, 0xd8, 0x23, 0x18, 0x3c, 0xc6, 0x08, 0x63, 0xbd,
  0xf4, 0x45, 0x3c, 0x3d, 0x96, 0x90, 0x37, 0x3e, 0x20, 0x97, 0x1d, 0x3e,
  0xe6, 0x28, 0x1c, 0xbe, 0x15, 0xc1, 0xa9, 0x3d, 0x6c, 0x6d, 0x4a, 0xbe,
  0xb8, 0x04, 0x33, 0xbe, 0xf6, 0xf3, 0x64, 0xbe, 0x49, 0xc4, 0xbd, 0xbd,
  0x93, 0xbf, 0xea, 0xbd, 0x92, 0x01, 0xc7, 0xbd, 0xde, 0x81, 0x6a, 0xbe,
  0xdc, 0xf1, 0x87, 0xbd, 0x66, 0xc8, 0x92, 0x3d, 0xe4, 0x04, 0xa2, 0x3d,
  0x49, 0x0b, 0x5c, 0xbd, 0x91, 0xd7, 0x96, 0xbd, 0x20, 0xa7, 0x1d, 0xbe,
  0x11, 0x9e, 0x3a, 0xbe, 0x51, 0x17, 0x4a, 0xbd, 0x83, 0xa7, 0xa7, 0x3c,
  0xfb, 0x02, 0x6f, 0xbe, 0x1f, 0x6f, 0x1c, 0xbe, 0x6d, 0x77, 0xe7, 0x3d,
  0x89, 0xf3, 0x39, 0xbe, 0xe9, 0xcb, 0xf2, 0xbc, 0x47, 0x32, 0xfb, 0xbd,
  0x2c, 0x7c, 0x52, 0x3c, 0x6d, 0x29, 0x15, 0x3d, 0x28, 0xa5, 0x5a, 0xbe,
  0x1d, 0x5f, 0xa1, 0x3d, 0x83, 0xab, 0xfe, 0x3d, 0x80, 0x6b, 0xd2, 0xbd,
  0xa8, 0xb8, 0x03, 0xbd, 0xc9, 0x04, 0x53, 0xbe, 0x5f, 0x9d, 0xc2, 0x3c,
  0xd5, 0x79, 0x65, 0xbe, 0x94, 0x14, 0x70, 0x3c, 0xcc, 0x37, 0xc6, 0x3d,
  0xb2, 0x36, 0x7a, 0xbe, 0xae, 0x99, 0xa2, 0x3b, 0x98, 0x41, 0x7e, 0x3c,
  0xdc, 0xef, 0x3f, 0xbe, 0x78, 0x20, 0x10, 0x3d, 0xe6, 0x56, 0xa2, 0x3d,
  0xac, 0x0b, 0x2b, 0x3e, 0x45, 0x53, 0xa3, 0xbd, 0x1b, 0xf0, 0x45, 0xbe,
  0x86, 0xf1, 0x2a, 0xbe, 0x0e, 0x97, 0x03, 0x3e, 0x9f, 0xca, 0x8f, 0xbd,
  0x7f, 0x62, 0x47, 0xbd, 0x34, 0xf1, 0x94, 0x3d, 0x6b, 0xef, 0x82, 0x3d,
  0x98, 0x65, 0x10, 0x3e, 0xfa, 0x67, 0xb5, 0x3c, 0x6d, 0x59, 0x3e, 0xbe,
  0xe9, 0x8b, 0xc7, 0x3d, 0xeb, 0x44, 0x6e, 0x3d, 0x0a, 0x77, 0x5f, 0x3d,
  0xa8, 0xa3, 0x2e, 0xbd, 0xc1, 0x3b, 0x5b, 0xbd, 0x99, 0xd2, 0x0d, 0xbe,
  0xf2, 0x3e, 0x05, 0x3e, 0x5a, 0x02, 0xc1, 0xbd, 0x26, 0x2d, 0xea, 0x3d,
  0x65, 0xf3, 0x97, 0x3d, 0xde, 0x15, 0x81, 0x3d, 0xb2, 0x1e, 0xcc, 0x3d,
  0x98, 0x9d, 0x50, 0xbe, 0xb3, 0x7c, 0x38, 0x3c, 0xfb, 0x1c, 0xb0, 0xbc,
  0x20, 0xde, 0x53, 0xbd, 0x4a, 0x0a, 0x07, 0xbe, 0x05, 0x95, 0x04, 0xbe,
  0x41, 0xfb, 0x68, 0xbe, 0x63, 0xee, 0x38, 0x3e, 0x34, 0x39, 0x5b, 0xbe,
  0x73, 0xa9, 0x31, 0xbe, 0xf6, 0x31, 0x00, 0xbd, 0xee, 0x80, 0x1d, 0xbe,
  0x44, 0xff, 0x2f, 0x3e, 0x90, 0xe3, 0x55, 0x3d, 0x9b, 0x38, 0x48, 0xbe,
  0x8b, 0x4a, 0x34, 0x3e, 0x19, 0x91, 0x38, 0x3e, 0xbf, 0xb9, 0x73, 0xbe,
  0x2a, 0xe0, 0x89, 0xbd, 0x8b, 0xd7, 0x9f, 0xbd, 0x46, 0x83, 0x48, 0x3d,
  0x9f, 0x80, 0x45, 0x3e, 0xe1, 0xe5, 0x2a, 0xbe, 0xe2, 0x10, 0x00, 0x3e,
  0x69, 0x95, 0x56, 0x39, 0x21, 0xc5, 0x65, 0xbd, 0x26, 0x59, 0x48, 0x3e,
  0xdd, 0x3c, 0x48, 0xbe, 0x12, 0x4e, 0x22, 0x3e, 0x42, 0x5f, 0x31, 0x3d,
  0x37, 0xe4, 0xd5, 0xbd, 0x85, 0x31, 0xc2, 0xbd, 0x56, 0x7b, 0x0a, 0xbe,
  0xed, 0xd7, 0x26, 0x3d, 0x3a, 0xd9, 0x73, 0xbe, 0x60, 0x9a, 0x28, 0xbe,
  0xa8, 0x47, 0xe3, 0x3c, 0x19, 0xd6, 0x47, 0x3e, 0x14, 0x81, 0xb3, 0x3d,
  0xe3, 0x64, 0x0d, 0x3e, 0x0e, 0x9b, 0x0c, 0xbe, 0x76, 0x41, 0x35, 0xbc,
  0x26, 0xe7, 0x0b, 0xbe, 0xc9, 0x4a, 0xb5, 0x3d, 0xb9, 0xd8, 0x47, 0xbe,
  0x62, 0x8f, 0x2f, 0x3e, 0x70, 0xa9, 0x8b, 0xbd, 0x45, 0x09, 0xca, 0xbd,
  0x0a, 0xc3, 0x46, 0x3d, 0x3b, 0x31, 0x54, 0xbe, 0xaa, 0x65, 0x4d, 0xbe,
  0x60, 0x5e, 0x17, 0xbe, 0xed, 0x05, 0x41, 0xbe, 0xb4, 0x7e, 0x34, 0x3e,
  0xde, 0xe2, 0xbb, 0xbd, 0xa6, 0x48, 0x46, 0x3e, 0x65, 0xc4, 0x2e, 0x3e,
  0xfd, 0x7c, 0x0d, 0xbe, 0x29, 0xca, 0x22, 0xbe, 0x70, 0x3b, 0x93, 0x3d,
  0x06, 0x5f, 0x4c, 0xbe, 0x47, 0xcf, 0x14, 0xbe, 0xad, 0xb6, 0x52, 0xbe,
  0x27, 0x59, 0x23, 0xbe, 0xff, 0x04, 0x81, 0x3d, 0x7b, 0xfe, 0x50, 0x3c,
  0x89, 0x8b, 0xf7, 0xbd, 0x7b, 0x8f, 0x2b, 0x3d, 0x1a, 0xa1, 0xc5, 0xbd,
  0xb9, 0x22, 0x46, 0xbe, 0xf0, 0x39, 0x4c, 0xbe, 0x77, 0x56, 0x00, 0xbe,
  0xf1, 0xa0, 0x3b, 0xbe, 0x76, 0x86, 0x57, 0xbe, 0x3e, 0xb4, 0xcb, 0x3d,
  0xf3, 0x1e, 0x02, 0x3e, 0x45, 0xa2, 0x39, 0xbe, 0xb7, 0x19, 0xee, 0x3d,
  0x9f, 0xe9, 0x77, 0xbe, 0x8d, 0x10, 0x42, 0xbe, 0x8d, 0x47, 0x65, 0xbd,
  0x18, 0x40, 0xc0, 0x3d, 0xdb, 0xff, 0x0e, 0xbd, 0x57, 0x1c, 0x2e, 0xbe,
  0x2e, 0x85, 0x3a, 0xbc, 0xd1, 0x97, 0x24, 0x3e, 0x37, 0x88, 0x52, 0xbe,
  0x87, 0x26, 0x01, 0x3e, 0x2b, 0xc8, 0x00, 0xbe, 0xc1, 0x1a, 0xcf, 0xbd,
  0x92, 0x48, 0x23, 0x3e, 0xe1, 0x7b, 0x51, 0x3e, 0x41, 0x60, 0xda, 0xbd,
  0x44, 0x81, 0x04, 0x3e, 0x80, 0x06, 0x2e, 0xbe, 0xc3, 0x92, 0x0d, 0x3e,
  0x5a, 0xfe, 0x0c, 0x3b, 0xc1, 0x71, 0x57, 0x3e, 0x48, 0x60, 0x1d, 0x3e,
  0x8c, 0xd3, 0x03, 0x3d, 0x2d, 0xa6, 0xb0, 0xbd, 0xf9, 0xeb, 0xf6, 0x3c,
  0xbd, 0x0a, 0x58, 0xbe, 0x0e, 0xfc, 0x1a, 0xbe, 0xf5, 0x05, 0x00, 0x3d,
  0xb0, 0x24, 0x03, 0xbe, 0xea, 0x0b, 0x24, 0x3e, 0x44, 0x3d, 0x99, 0xbd,
  0x09, 0x7b, 0x74, 0xba, 0xca, 0xec, 0x58, 0xbe, 0x50, 0xa9, 0x0c, 0x3e,
  0x05, 0x5a, 0x0a, 0xbe, 0x90, 0x79, 0x06, 0xbd, 0xe5, 0x39, 0xc0, 0xbd,
  0x99, 0xee, 0x57, 0x3d, 0xaa, 0x6e, 0x0b, 0x3e, 0x0d, 0x48, 0xac, 0xbd,
  0x02, 0xc6, 0xd2, 0x3c, 0x42, 0xfb, 0xf0, 0x3c, 0x71, 0x48, 0x6b, 0xbd,
  0x1d, 0x81, 0x0a, 0xbe, 0x45, 0x02, 0xc1, 0xbd, 0x98, 0x23, 0x13, 0x3e,
  0x71, 0x06, 0x85, 0x3d, 0xb5, 0xe1, 0x20, 0x3e, 0x7a, 0xf2, 0x4b, 0xbd,
  0x59, 0x68, 0x70, 0xbd, 0x5e, 0x95, 0x1f, 0xbe, 0xc3, 0xd8, 0x2a, 0xbe,
  0x51, 0x1a, 0x74, 0xbd, 0x1f, 0xd8, 0x80, 0xbe, 0x50, 0x2c, 0xda, 0x3d,
  0x6b, 0xab, 0x62, 0xbe, 0x10, 0xa0, 0x3c, 0x3e, 0x81, 0x14, 0x84, 0xbe,
  0xf9, 0xda, 0x2c, 0xbe, 0x84, 0x14, 0xf7, 0x3d, 0xbc, 0x0c, 0x8b, 0xbc,
  0x7e, 0x23, 0x35, 0x3e, 0x84, 0xf0, 0x92, 0xbd, 0x3c, 0xa6, 0xfd, 0xbd,
  0x26, 0x8e, 0x04, 0x3e, 0xca, 0xfa, 0x98, 0xbd, 0x10, 0xe3, 0x94, 0x3c,
  0x2f, 0x12, 0x1b, 0xbe, 0xa5, 0x69, 0x81, 0x3c, 0xd2, 0xc0, 0x1e, 0xbd,
  0xd7, 0x1b, 0x2c, 0x3e, 0xa9, 0xd1, 0xf0, 0x3c, 0x2e, 0x1f, 0x46, 0xbe,
  0xce, 0xec, 0x04, 0xbe, 0x63, 0x79, 0xd1, 0xbd, 0xe9, 0x28, 0x2d, 0x3e,
  0x7e, 0x89, 0xdb, 0x3d, 0x2d, 0x8a, 0x5b, 0xbe, 0x55, 0x90, 0x0b, 0xbc,
  0x04, 0xdb, 0xd0, 0x3d, 0x24, 0xd7, 0x77, 0xbd, 0x4e, 0x4c, 0xe8, 0x3d,
  0x78, 0x9c, 0xef, 0x3d, 0x00, 0x61, 0x3a, 0xbd, 0x55, 0x8b, 0x5a, 0xbe,
  0xba, 0x99, 0x48, 0xbe, 0xc9, 0x8b, 0x53, 0xbd, 0x30, 0x46, 0x0d, 0xbe,
  0xb6, 0x2a, 0xfc, 0x3d, 0x03, 0x5b, 0x3f, 0xbe, 0x65, 0x44, 0x1a, 0x3e,
  0xaf, 0x0d, 0x57, 0xbd, 0x32, 0x49, 0x68, 0xbe, 0xbc, 0xe4, 0x2a, 0x3e,
  0xbe, 0x29, 0xc0, 0x3d, 0xd5, 0x01, 0x39, 0x3d, 0x73, 0xb8, 0x24, 0x3e,
  0x12, 0x49, 0xcf, 0x3d, 0x2c, 0x25, 0x3e, 0x3e, 0x82, 0x00, 0xcc, 0xbb,
  0xe8, 0x6d, 0x00, 0xbe, 0xf9, 0xaa, 0x8d, 0x3d, 0xfd, 0xc2, 0x42, 0xbd,
  0x9b, 0xc7, 0x8b, 0xbd, 0x3a, 0x55, 0x8d, 0x3c, 0xb3, 0x98, 0x33, 0xbe,
  0x9d, 0x49, 0x63, 0xbe, 0x80, 0x9a, 0xd3, 0x3c, 0x22, 0xb4, 0x39, 0x3d,
  0x49, 0x5b, 0xa7, 0x3c, 0x13, 0x28, 0xb5, 0x3a, 0x10, 0xf0, 0x3d, 0x3e,
  0x8b, 0x04, 0x03, 0xbe, 0x8f, 0x94, 0x6a, 0xbe, 0x7c, 0xe1, 0xb5, 0xbd,
  0x55, 0x99, 0xb3, 0xbb, 0x88, 0xbf, 0x99, 0xbd, 0x72, 0xaf, 0xd8, 0xbc,
  0x9b, 0x72, 0xfa, 0xbd, 0x17, 0xcf, 0xa9, 0x3c, 0xa3, 0x32, 0x91, 0xbd,
  0xaf, 0x6a, 0xd3, 0xbd, 0xbd, 0x6a, 0xbf, 0xbd, 0xc7, 0x6f, 0xf9, 0xbd,
  0x1e, 0xdb, 0xce, 0x3d, 0x78, 0x49, 0x4a, 0x3e, 0x04, 0x9d, 0x64, 0xbe,
  0x82, 0x27, 0xea, 0xbd, 0xb5, 0x44, 0x2a, 0xbe, 0x8d, 0x04, 0x68, 0xbe,
  0xf1, 0x1d, 0x35, 0xbd, 0x6c, 0xaf, 0x05, 0xbd, 0x49, 0xc9, 0xc2, 0xbb,
  0x72, 0x79, 0x22, 0x3b, 0xc5, 0xf5, 0xe8, 0x3b, 0x5a, 0xc2, 0x6c, 0x3d,
  0xd8, 0xb9, 0xc4, 0xbb, 0x41, 0xc4, 0x9d, 0xbe, 0x1a, 0xee, 0x1e, 0xbe,
  0x42, 0xde, 0x22, 0x3e, 0xb9, 0x26, 0xec, 0xbb, 0x79, 0xd7, 0x35, 0x3e,
  0x14, 0x4b, 0x18, 0x3e, 0x2c, 0xb6, 0x9c, 0xbb, 0x40, 0xbe, 0x67, 0xbd,
  0x95, 0xf3, 0x35, 0xbe, 0x65, 0x64, 0x15, 0x3e, 0xfd, 0xb5, 0x1e, 0xbd,
  0xbb, 0x8d, 0x78, 0xbe, 0x31, 0x5f, 0x3d, 0x3d, 0xdb, 0x79, 0x66, 0xbe,
  0x1c, 0x9d, 0x7d, 0xbe, 0x7d, 0x93, 0x90, 0xbc, 0x21, 0x41, 0x51, 0xbe,
  0x91, 0x4e, 0xce, 0xbd, 0xe4, 0x2d, 0x46, 0x3d, 0xc1, 0xcb, 0x45, 0xbe,
  0x32, 0x0a, 0x47, 0x3e, 0xea, 0xc6, 0x98, 0x3d, 0x65, 0xad, 0x0b, 0x3e,
  0x5b, 0x48, 0x3e, 0x3b, 0x9f, 0x83, 0x32, 0xbe, 0x82, 0x1f, 0x1f, 0xbe,
  0xb1, 0x3a, 0xdb, 0xbd, 0x3f, 0x35, 0x4a, 0xbe, 0x56, 0xfe, 0x28, 0xbe,
  0x57, 0x2a, 0xf0, 0x3d, 0xd5, 0xa7, 0x09, 0xbd, 0xc6, 0xd5, 0x7e, 0xbb,
  0x0a, 0x46, 0x2b, 0x3d, 0xb8, 0xba, 0xeb, 0x3d, 0x3c, 0xf7, 0x8e, 0xbd,
  0x8b, 0xa2, 0x2d, 0xbd, 0xcf, 0x3b, 0xb1, 0x3d, 0xa0, 0xa6, 0x06, 0xbe,
  0xf1, 0x72, 0x41, 0xbe, 0xda, 0xff, 0xdd, 0x3c, 0x83, 0xdc, 0xce, 0xbd,
  0x5a, 0xd1, 0x32, 0x3e, 0xcd, 0x47, 0xad, 0xbd, 0x21, 0x85, 0x94, 0x3c,
  0xa7, 0xd0, 0xbb, 0xbd, 0x3b, 0x61, 0x71, 0x3d, 0xec, 0x65, 0x90, 0xbd,
  0xfd, 0xf0, 0x07, 0xbe, 0x24, 0xb3, 0xbd, 0x3d, 0xd0, 0x9a, 0x86, 0xbe,
  0xec, 0x77, 0x8b, 0xbd, 0xdf, 0x3c, 0xc5, 0x3d, 0xcd, 0x15, 0xdb, 0xbd,
  0x54, 0x60, 0x5d, 0xbd, 0x46, 0x05, 0xac, 0xbd, 0x01, 0xc8, 0x28, 0xbe,
  0x0f, 0x79, 0x0b, 0xbe, 0x28, 0xe7, 0x1a, 0xbe, 0xc9, 0xd7, 0x31, 0xbe,
  0xa2, 0xc6, 0xe2, 0x3d, 0xbd, 0x38, 0x54, 0xbe, 0x27, 0xf2, 0xe3, 0xbd,
  0x6e, 0xe7, 0x7a, 0xbe, 0x8f, 0xfd, 0xf9, 0x3d, 0x2a, 0x84, 0xb2, 0x3b,
  0xa7, 0x6f, 0x3e, 0xbd, 0x0a, 0xcf, 0xfa, 0x3d, 0x95, 0xdf, 0x0c, 0xbd,
  0x0b, 0x9f, 0x1f, 0xbe, 0xb5, 0x03, 0x7f, 0xbe, 0x86, 0x4f, 0x1a, 0x3d,
  0xac, 0x02, 0x9f, 0xbd, 0x3f, 0xa0, 0x02, 0x3d, 0x26, 0x0a, 0x5c, 0xbe,
  0xe3, 0xcd, 0xc3, 0x3d, 0xf9, 0xdb, 0xd1, 0xbd, 0x74, 0x73, 0x6f, 0xbe,
  0x65, 0xc6, 0x4d, 0xbe, 0x21, 0x67, 0x85, 0xbe, 0xc0, 0xf4, 0x20, 0x3e,
  0x8d, 0xea, 0x8d, 0xbe, 0x90, 0x03, 0x6d, 0xbe, 0x55, 0xf7, 0xfb, 0xbd,
  0xa2, 0xa9, 0x02, 0x3b, 0x98, 0xea, 0xe7, 0x3d, 0xf1, 0x97, 0xd5, 0x3d,
  0x50, 0xb0, 0x1e, 0xbe, 0x48, 0xe8, 0x02, 0x3e, 0x2b, 0x81, 0x95, 0xbe,
  0x01, 0x81, 0x5b, 0xbe, 0x42, 0xda, 0x2d, 0x3d, 0xd3, 0xc8, 0x71, 0xbe,
  0x7f, 0xe5, 0x22, 0x3d, 0x11, 0x9f, 0x06, 0x3e, 0xe9, 0x93, 0xf9, 0x3b,
  0x28, 0x04, 0xa6, 0x3c, 0xd2, 0x5b, 0x88, 0xbd, 0xee, 0x85, 0x25, 0x3d,
  0xf9, 0x8c, 0x09, 0x3e, 0x78, 0x3d, 0x25, 0x3c, 0xb6, 0x23, 0x27, 0x3e,
  0x06, 0x11, 0x2e, 0x3d, 0x65, 0x24, 0x31, 0xbe, 0x8c, 0x3c, 0xec, 0xba,
  0xb2, 0x6d, 0x82, 0x3d, 0x42, 0x4f, 0xfc, 0xbc, 0x9c, 0x63, 0x1f, 0x3e,
  0x32, 0x22, 0x17, 0xbe, 0xaa, 0x6e, 0xdd, 0xbd, 0xb0, 0x9d, 0xd9, 0xbd,
  0x0b, 0xe9, 0x74, 0x3c, 0x58, 0x66, 0x3e, 0xbb, 0x36, 0x5e, 0xaa, 0x3c,
  0xab, 0xe1, 0x0b, 0x3e, 0x30, 0x8d, 0x96, 0xbc, 0xa3, 0x39, 0x1a, 0xbe,
  0x3c, 0xfa, 0x98, 0xbd, 0xce, 0x61, 0xc5, 0x3d, 0xd0, 0xc7, 0x1b, 0xbe,
  0x19, 0xe5, 0x4d, 0x3e, 0xde, 0x77, 0x91, 0xbe, 0x43, 0xe5, 0x05, 0x3e,
  0x69, 0x40, 0x8a, 0xbd, 0x49, 0x62, 0x68, 0x3d, 0x64, 0x46, 0xbd, 0x3d,
  0x7d, 0xad, 0x32, 0xbe, 0xa7, 0x63, 0xdf, 0x3d, 0xaa, 0x34, 0xde, 0xbb,
  0x2d, 0xeb, 0x93, 0xbe, 0xa3, 0x77, 0x64, 0xbc, 0x0f, 0x7b, 0x52, 0xbe,
  0x9e, 0xb3, 0xf3, 0xbc, 0xb1, 0x07, 0x50, 0xbe, 0xf0, 0xf0, 0xcc, 0x3d,
  0x35, 0x5a, 0x1b, 0xbe, 0xae, 0xed, 0x28, 0xbe, 0x96, 0xbc, 0xab, 0xbd,
  0x61, 0x3a, 0x59, 0xbe, 0x1e, 0x7b, 0xec, 0xbc, 0xc7, 0x91, 0x1e, 0xbc,
  0x88, 0x65, 0xb6, 0x3d, 0x91, 0x8d, 0x79, 0xbe, 0xce, 0x8a, 0xb0, 0xbd,
  0x56, 0xa2, 0x56, 0xbe, 0x17, 0xb5, 0x2f, 0xbe, 0x09, 0xb6, 0x86, 0x3d,
  0xba, 0x16, 0xe4, 0x3d, 0xf8, 0xf5, 0x72, 0xbe, 0x24, 0x4a, 0xef, 0x3d,
  0xdf, 0x8c, 0x0a, 0x3e, 0xfb, 0xe0, 0x06, 0x3e, 0xab, 0x85, 0xa9, 0xbd,
  0xef, 0x1b, 0xe9, 0xbd, 0xb3, 0xee, 0xe9, 0x3d, 0xc5, 0xee, 0xa2, 0xbd,
  0xb5, 0x80, 0x7a, 0xbe, 0x02, 0xc2, 0xea, 0xbd, 0x7a, 0xfd, 0x0b, 0x3e,
  0x33, 0x45, 0xab, 0xbd, 0xae, 0xe0, 0x16, 0x3d, 0x32, 0x9a, 0x32, 0xbd,
  0x90, 0xb0, 0xb5, 0x3d, 0x84, 0xf5, 0x19, 0x3d, 0x0b, 0x67, 0x2e, 0xbc,
  0x29, 0x3a, 0x9f, 0xbd, 0x3b, 0xef, 0xc6, 0xbd, 0x27, 0xe1, 0x75, 0x3c,
  0x8e, 0x8b, 0x50, 0xbd, 0x6a, 0xbc, 0x0f, 0xbe, 0x7c, 0xca, 0x86, 0xbe,
  0xd2, 0x49, 0x1a, 0xbd, 0xe1, 0x05, 0x9b, 0xbd, 0xb1, 0x0c, 0x14, 0xbb,
  0x4a, 0xc2, 0xae, 0xbd, 0x5f, 0xbc, 0x36, 0xbe, 0x28, 0x1c, 0x88, 0x3d,
  0x6b, 0xfe, 0x6a, 0xbd, 0xc6, 0xb5, 0x0a, 0x3d, 0x03, 0xda, 0x3e, 0x3e,
  0x52, 0x02, 0x96, 0xbd, 0x13, 0x63, 0xe2, 0xbc, 0xf0, 0xf8, 0x65, 0xbd,
  0x6d, 0xda, 0x74, 0xbd, 0x62, 0xd0, 0xee, 0xbd, 0xf9, 0xcd, 0x9b, 0xbd,
  0x4f, 0x88, 0x2b, 0x3d, 0x84, 0xc3, 0x00, 0xbe, 0x34, 0xfd, 0x28, 0x3d,
  0xa8, 0x22, 0x9d, 0xbe, 0xa6, 0x66, 0x22, 0xbe, 0x9f, 0x8e, 0x32, 0xbd,
  0xc0, 0x4f, 0x26, 0x3e, 0x59, 0xad, 0xf4, 0xbd, 0x42, 0xee, 0x5b, 0xbe,
  0x25, 0xe3, 0xe0, 0xbd, 0x18, 0xcf, 0xf0, 0xbd, 0x60, 0xb8, 0x88, 0x3e,
  0x82, 0xf6, 0xe1, 0xbd, 0x60, 0x9f, 0xab, 0xbd, 0x58, 0x5f, 0x14, 0xbe,
  0xbd, 0xea, 0x17, 0xbe, 0xd9, 0xff, 0xb0, 0xbe, 0xad, 0xef, 0x2b, 0xbe,
  0x09, 0x37, 0xc1, 0xbd, 0xe4, 0xba, 0x62, 0xbe, 0x43, 0xac, 0xc3, 0xbd,
  0x6a, 0x2b, 0x31, 0xbe, 0xf9, 0x0c, 0xbd, 0xbe, 0xd1, 0xee, 0xb3, 0xbd,
  0x1e, 0x4c, 0x09, 0xbe, 0x24, 0x41, 0xb9, 0xbe, 0xaa, 0x06, 0xd9, 0xbd,
  0x11, 0x90, 0x38, 0x3e, 0xd4, 0xc3, 0xc5, 0xbe, 0xdb, 0x24, 0x9b, 0xbe,
  0x80, 0xc5, 0xa8, 0x3c, 0xb0, 0x06, 0x2d, 0xbe, 0xc3, 0x0a, 0xae, 0xbd,
  0xcb, 0x6f, 0xf6, 0xbc, 0x1f, 0x1c, 0x27, 0xbe, 0xcf, 0x26, 0x90, 0xbe,
  0xaa, 0x34, 0xd1, 0xbd, 0x4d, 0xa6, 0xf7, 0xbd, 0x34, 0x2b, 0x0a, 0xbe,
  0xf4, 0xa5, 0x30, 0xbd, 0x5f, 0x49, 0x04, 0x3e, 0x3d, 0x3d, 0x96, 0x3e,
  0x14, 0xc7, 0xa0, 0xbd, 0xc6, 0xda, 0xf2, 0x3d, 0x41, 0x90, 0x44, 0x3d,
  0xbf, 0xf2, 0xf9, 0x3e, 0xd6, 0xe2, 0xb1, 0xbd, 0x71, 0x44, 0x8b, 0xbd,
  0xd4, 0xa1, 0x9d, 0x3e, 0xfe, 0xb6, 0xde, 0x3d, 0x03, 0xa7, 0x83, 0xbe,
  0xe6, 0x96, 0x86, 0x3d, 0x42, 0xc9, 0x64, 0xbe, 0x78, 0x60, 0x62, 0xbd,
  0x62, 0x78, 0x45, 0xbe, 0x08, 0xd9, 0x14, 0xbd, 0xfa, 0xbc, 0x47, 0x3e,
  0x8b, 0xb4, 0x1d, 0x3f, 0x43, 0x07, 0x10, 0x3c, 0x17, 0x8e, 0x5e, 0x3c,
  0xd2, 0x3c, 0x23, 0x3e, 0x57, 0xcd, 0x28, 0x3f, 0x17, 0xe4, 0x07, 0x3f,
  0x46, 0x55, 0xce, 0xbb, 0x6e, 0x2a, 0x3b, 0x3e, 0xad, 0x85, 0xf6, 0x3e,
  0x65, 0x6a, 0xf5, 0x3d, 0xb1, 0x43, 0xad, 0x3c, 0x1d, 0x80, 0x08, 0x3e,
  0x55, 0xca, 0xae, 0x3d, 0x50, 0x8d, 0x87, 0x3e, 0x51, 0xa8, 0x6c, 0x3d,
  0x65, 0x30, 0x00, 0x3f, 0x93, 0x1c, 0xca, 0x3e, 0x5c, 0xc5, 0x59, 0x3d,
  0x2b, 0x58, 0xe5, 0x3e, 0xcb, 0x83, 0x51, 0x3e, 0x31, 0x88, 0xa5, 0x3e,
  0x67, 0xd5, 0x9d, 0x3e, 0x89, 0x3d, 0x63, 0x3e, 0x3a, 0xdc, 0xc2, 0x3e,
  0x86, 0xff, 0xdf, 0x3e, 0x98, 0x0a, 0xff, 0x3d, 0x87, 0xb3, 0x64, 0x3e,
  0x11, 0x51, 0x24, 0x3e, 0x62, 0xfd, 0xff, 0xff, 0x10, 0x00, 0x00, 0x00,
  0x07, 0x00, 0x00, 0x00, 0x14, 0x00, 0x00, 0x00, 0x2c, 0x00, 0x00, 0x00,
  0x02, 0x00, 0x00, 0x00, 0x10, 0x00, 0x00, 0x00, 0x70, 0x00, 0x00, 0x00,
  0x17, 0x00, 0x00, 0x00, 0x73, 0x65, 0x71, 0x75, 0x65, 0x6e, 0x74, 0x69,
  0x61, 0x6c, 0x2f, 0x64, 0x65, 0x6e, 0x73, 0x65, 0x2f, 0x4d, 0x61, 0x74,
  0x4d, 0x75, 0x6c, 0x00, 0xcc, 0xfc, 0xff, 0xff, 0xd6, 0xfd, 0xff, 0xff,
  0x04, 0x00, 0x00, 0x00, 0x08, 0x00, 0x00, 0x00, 0xff, 0xff, 0xff, 0xff,
  0x70, 0x00, 0x00, 0x00, 0x00, 0x00, 0x0e, 0x00, 0x18, 0x00, 0x08, 0x00,
  0x07, 0x00, 0x0c, 0x00, 0x10, 0x00, 0x14, 0x00, 0x0e, 0x00, 0x00, 0x00,
  0x00, 0x00, 0x00, 0x02, 0x10, 0x00, 0x00, 0x00, 0x06, 0x00, 0x00, 0x00,
  0x10, 0x00, 0x00, 0x00, 0x2c, 0x00, 0x00, 0x00, 0x01, 0x00, 0x00, 0x00,
  0x02, 0x00, 0x00, 0x00, 0x18, 0x00, 0x00, 0x00, 0x73, 0x65, 0x71, 0x75,
  0x65, 0x6e, 0x74, 0x69, 0x61, 0x6c, 0x2f, 0x66, 0x6c, 0x61, 0x74, 0x74,
  0x65, 0x6e, 0x2f, 0x43, 0x6f, 0x6e, 0x73, 0x74, 0x00, 0x00, 0x00, 0x00,
  0x34, 0xfd, 0xff, 0xff, 0x3e, 0xfe, 0xff, 0xff, 0x04, 0x00, 0x00, 0x00,
  0x10, 0x00, 0x00, 0x00, 0x6e, 0xc0, 0xde, 0xbe, 0x0f, 0x69, 0x8f, 0xbf,
  0xa3, 0x4a, 0xbb, 0x3e, 0x80, 0x98, 0x13, 0x3f, 0x26, 0xfe, 0xff, 0xff,
  0x10, 0x00, 0x00, 0x00, 0x05, 0x00, 0x00, 0x00, 0x10, 0x00, 0x00, 0x00,
  0x44, 0x00, 0x00, 0x00, 0x01, 0x00, 0x00, 0x00, 0x04, 0x00, 0x00, 0x00,
  0x32, 0x00, 0x00, 0x00, 0x73, 0x65, 0x71, 0x75, 0x65, 0x6e, 0x74, 0x69,
  0x61, 0x6c, 0x2f, 0x64, 0x65, 0x6e, 0x73, 0x65, 0x5f, 0x31, 0x2f, 0x42,
  0x69, 0x61, 0x73, 0x41, 0x64, 0x64, 0x2f, 0x52, 0x65, 0x61, 0x64, 0x56,
  0x61, 0x72, 0x69, 0x61, 0x62, 0x6c, 0x65, 0x4f, 0x70, 0x2f, 0x72, 0x65,
  0x73, 0x6f, 0x75, 0x72, 0x63, 0x65, 0x00, 0x00, 0xa8, 0xfd, 0xff, 0xff,
  0xb2, 0xfe, 0xff, 0xff, 0x04, 0x00, 0x00, 0x00, 0x40, 0x00, 0x00, 0x00,
  0x1d, 0x61, 0x84, 0xbd, 0x15, 0x5e, 0x90, 0xbd, 0x3c, 0x33, 0x80, 0xbd,
  0xa9, 0x71, 0x82, 0xbd, 0xbe, 0xb6, 0x8b, 0xbd, 0xa6, 0x21, 0xb2, 0xbd,
  0x72, 0xb7, 0x1a, 0xbd, 0x9e, 0xe1, 0xa5, 0xbd, 0xc9, 0xac, 0x90, 0xbd,
  0x90, 0x7a, 0x86, 0xbd, 0x4c, 0xda, 0xa7, 0xbe, 0x21, 0x34, 0x91, 0xbd,
  0x1c, 0xc1, 0xff, 0xbc, 0x5b, 0xc4, 0x8b, 0xbd, 0xc1, 0x66, 0x93, 0xbd,
  0x66, 0xb3, 0xb3, 0xbe, 0xca, 0xfe, 0xff, 0xff, 0x10, 0x00, 0x00, 0x00,
  0x04, 0x00, 0x00, 0x00, 0x10, 0x00, 0x00, 0x00, 0x44, 0x00, 0x00, 0x00,
  0x01, 0x00, 0x00, 0x00, 0x10, 0x00, 0x00, 0x00, 0x30, 0x00, 0x00, 0x00,
  0x73, 0x65, 0x71, 0x75, 0x65, 0x6e, 0x74, 0x69, 0x61, 0x6c, 0x2f, 0x64,
  0x65, 0x6e, 0x73, 0x65, 0x2f, 0x42, 0x69, 0x61, 0x73, 0x41, 0x64, 0x64,
  0x2f, 0x52, 0x65, 0x61, 0x64, 0x56, 0x61, 0x72, 0x69, 0x61, 0x62, 0x6c,
  0x65, 0x4f, 0x70, 0x2f, 0x72, 0x65, 0x73, 0x6f, 0x75, 0x72, 0x63, 0x65,
  0x00, 0x00, 0x00, 0x00, 0x4c, 0xfe, 0xff, 0xff, 0x56, 0xff, 0xff, 0xff,
  0x04, 0x00, 0x00, 0x00, 0x40, 0x00, 0x00, 0x00, 0xd8, 0x20, 0x1e, 0x3e,
  0x1d, 0x42, 0x09, 0xbe, 0x25, 0x8c, 0x0a, 0x3e, 0x1a, 0x4d, 0x7f, 0xbe,
  0x13, 0xb2, 0xf7, 0xbe, 0x3a, 0x16, 0xc1, 0x3c, 0xfe, 0x9b, 0x0d, 0xbc,
  0xd2, 0x21, 0x64, 0xbe, 0xcf, 0x6a, 0x0c, 0xbf, 0x8b, 0x96, 0xc0, 0xbe,
  0xd8, 0xe7, 0xc0, 0x3d, 0xa9, 0x4d, 0x29, 0xbe, 0xba, 0xdf, 0xad, 0xbe,
  0x97, 0x36, 0x1a, 0xbe, 0x88, 0x9f, 0xac, 0xbd, 0xb6, 0xf8, 0x26, 0xbe,
  0x6e, 0xff, 0xff, 0xff, 0x10, 0x00, 0x00, 0x00, 0x03, 0x00, 0x00, 0x00,
  0x10, 0x00, 0x00, 0x00, 0x48, 0x00, 0x00, 0x00, 0x01, 0x00, 0x00, 0x00,
  0x10, 0x00, 0x00, 0x00, 0x33, 0x00, 0x00, 0x00, 0x73, 0x65, 0x71, 0x75,
  0x65, 0x6e, 0x74, 0x69, 0x61, 0x6c, 0x2f, 0x63, 0x6f, 0x6e, 0x76, 0x32,
  0x64, 0x5f, 0x31, 0x2f, 0x42, 0x69, 0x61, 0x73, 0x41, 0x64, 0x64, 0x2f,
  0x52, 0x65, 0x61, 0x64, 0x56, 0x61, 0x72, 0x69, 0x61, 0x62, 0x6c, 0x65,
  0x4f, 0x70, 0x2f, 0x72, 0x65, 0x73, 0x6f, 0x75, 0x72, 0x63, 0x65, 0x00,
  0x04, 0x00, 0x06, 0x00, 0x04, 0x00, 0x00, 0x00, 0x00, 0x00, 0x06, 0x00,
  0x08, 0x00, 0x04, 0x00, 0x06, 0x00, 0x00, 0x00, 0x04, 0x00, 0x00, 0x00,
  0x20, 0x00, 0x00, 0x00, 0x90, 0xf2, 0xcc, 0x3e, 0x24, 0x5d, 0x46, 0xbf,
  0x3c, 0x94, 0x76, 0xbc, 0x49, 0x06, 0xec, 0xbd, 0xc6, 0xfb, 0x3b, 0xbe,
  0xb4, 0xc5, 0x37, 0xbf, 0xd7, 0x3a, 0x17, 0xbf, 0x7d, 0xdd, 0xb4, 0xbe,
  0x00, 0x00, 0x0e, 0x00, 0x14, 0x00, 0x04, 0x00, 0x00, 0x00, 0x08, 0x00,
  0x0c, 0x00, 0x10, 0x00, 0x0e, 0x00, 0x00, 0x00, 0x10, 0x00, 0x00, 0x00,
  0x02, 0x00, 0x00, 0x00, 0x10, 0x00, 0x00, 0x00, 0x44, 0x00, 0x00, 0x00,
  0x01, 0x00, 0x00, 0x00, 0x08, 0x00, 0x00, 0x00, 0x31, 0x00, 0x00, 0x00,
  0x73, 0x65, 0x71, 0x75, 0x65, 0x6e, 0x74, 0x69, 0x61, 0x6c, 0x2f, 0x63,
  0x6f, 0x6e, 0x76, 0x32, 0x64, 0x2f, 0x42, 0x69, 0x61, 0x73, 0x41, 0x64,
  0x64, 0x2f, 0x52, 0x65, 0x61, 0x64, 0x56, 0x61, 0x72, 0x69, 0x61, 0x62,
  0x6c, 0x65, 0x4f, 0x70, 0x2f, 0x72, 0x65, 0x73, 0x6f, 0x75, 0x72, 0x63,
  0x65, 0x00, 0x00, 0x00, 0x90, 0xff, 0xff, 0xff, 0x14, 0x00, 0x18, 0x00,
  0x04, 0x00, 0x00, 0x00, 0x08, 0x00, 0x0c, 0x00, 0x10, 0x00, 0x00, 0x00,
  0x00, 0x00, 0x14, 0x00, 0x14, 0x00, 0x00, 0x00, 0x14, 0x00, 0x00, 0x00,
  0x01, 0x00, 0x00, 0x00, 0x20, 0x00, 0x00, 0x00, 0x44, 0x00, 0x00, 0x00,
  0x2c, 0x00, 0x00, 0x00, 0x04, 0x00, 0x00, 0x00, 0x01, 0x00, 0x00, 0x00,
  0x40, 0x00, 0x00, 0x00, 0x03, 0x00, 0x00, 0x00, 0x01, 0x00, 0x00, 0x00,
  0x0c, 0x00, 0x00, 0x00, 0x63, 0x6f, 0x6e, 0x76, 0x32, 0x64, 0x5f, 0x69,
  0x6e, 0x70, 0x75, 0x74, 0x00, 0x00, 0x00, 0x00, 0x04, 0x00, 0x00, 0x00,
  0xff, 0xff, 0xff, 0xff, 0x40, 0x00, 0x00, 0x00, 0x03, 0x00, 0x00, 0x00,
  0x01, 0x00, 0x00, 0x00, 0xfc, 0xff, 0xff, 0xff, 0x04, 0x00, 0x04, 0x00,
  0x04, 0x00, 0x00, 0x00
};

unsigned int model_tflite_len = 13120;// Fill the int in `src/model.cc` here